f3
00
07
e0
00
08
03
e5
d8
20
ee
07
fc
0a
0c
04
fb
fb
e3
ea
10
2d
fe
26
2c
1c
e7
db
fc
04
32
0f
dc
0c
17
06
de
f1
d1
11
f1
1d
08
00
00
16
fc
05
03
0b
07
ee
f2
f1
21
f6
fb
2d
ff
0f
c4
1d
15
1d
07
fa
fe
e9
01
04
06
0a
02
f2
30
e7
02
cb
fe
0f
13
ff
16
0c
1f
09
f1
e6
15
33
04
05
12
11
d5
34
f7
fc
ea
d0
06
12
d7
fc
de
08
0b
17
d7
09
c3
13
dd
d7
f3
07
fd
f2
0c
fd
ff
e9
e4
06
01
f6
14
e6
f5
0d
ce
f2
02
fd
ec
20
11
35
f2
15
d2
2b
e3
ba
2a
29
14
e5
bc
05
05
2d
09
df
0f
00
d7
06
f3
d1
5c
ec
09
32
20
f5
50
c4
37
2d
0b
e3
14
d1
00
0e
32
29
0f
f4
d2
f7
02
2b
1a
16
1f
f5
05
34
06
ed
ed
f2
fd
ea
33
09
fd
35
f5
31
08
e3
f8
fe
fd
ce
d1
33
ef
f4
f7
d0
0a
0b
01
23
ed
16
eb
05
1f
f6
ef
07
03
e2
19
fb
15
ea
14
fb
07
16
09
2f
d6
e0
f1
14
07
d2
ee
1a
0c
f6
f4
0b
07
d8
e8
30
d3
cb
26
0f
3e
1a
f2
08
35
01
11
e2
04
c7
11
da
e7
39
f0
0f
12
0e
ee
07
e8
b4
fc
31
06
02
58
fe
15
39
d0
fb
1e
f9
f6
fa
c0
4b
de
bc
e7
01
e6
f5
ff
f7
d1
b5
f3
f2
26
ff
df
d9
dd
e2
dd
14
f5
e3
1e
f1
0b
18
0c
19
0b
eb
f4
32
f5
15
f8
ff
f3
fe
ff
f7
e0
1f
ec
e1
14
ff
db
06
ff
fb
fb
09
08
ee
2d
da
fc
f3
ec
df
14
0a
e7
08
e8
cd
1c
eb
24
ee
fa
f5
ed
df
f5
0f
f3
1d
31
1b
ff
24
f3
28
f1
03
f6
1a
e4
01
1b
18
ea
1b
28
f1
10
dd
e1
e7
23
f9
da
20
0d
e4
f8
18
ed
fa
fb
d6
09
11
05
00
1c
f5
e2
0b
f6
02
08
10
04
19
df
24
0a
e1
f9
ff
f7
1a
de
ef
f3
ff
10
de
0e
1c
ea
dd
dd
f1
d5
25
e9
fa
f4
09
22
0f
29
06
d9
10
0c
13
f0
e9
0a
fd
07
fc
14
2c
05
cc
0a
4e
ee
eb
06
ff
fe
f9
fa
1c
16
18
20
33
ba
1c
eb
f2
c8
e7
f5
38
c2
f5
0d
e3
fb
04
f3
ff
e0
e8
01
0e
01
32
09
eb
ee
f7
d7
df
f7
e6
e2
1d
04
13
f9
06
04
26
04
fa
ff
19
e7
f7
fd
1d
0f
19
10
d5
de
02
31
f5
01
e4
f4
11
07
24
f1
0c
e6
20
26
f5
0b
ff
26
e9
03
ef
1c
01
f3
22
09
dd
f9
12
01
f4
fb
12
02
12
ff
01
32
09
e8
04
1d
e4
00
f1
d1
fc
cd
d4
4e
f9
f0
16
ee
22
3f
04
f8
0b
fe
ce
0a
07
0a
f4
f6
f5
fc
26
1e
d0
05
1a
da
04
e2
e9
16
1a
0b
20
24
f4
1b
c1
0a
47
e1
fe
29
f5
11
ef
2d
fe
fd
16
e3
e1
34
29
0f
38
39
08
fb
17
da
d5
f9
10
df
11
1e
ec
e8
be
d0
eb
f1
13
15
fd
bd
fb
dc
00
1d
0f
d2
23
0d
d2
fb
05
f0
00
00
26
e9
e3
df
21
1e
ff
11
15
23
03
09
01
e1
fa
2d
f0
ff
12
0e
ea
10
f3
e1
10
ca
0e
13
0e
0c
eb
cc
d8
10
14
13
f8
05
f0
f2
07
28
df
e8
fc
0a
0f
f2
0f
f7
01
08
29
fe
02
f5
14
e7
e6
13
2b
00
03
0b
01
36
13
c8
fa
ee
0a
f6
11
06
11
e8
ba
11
f9
e4
f5
de
dc
15
34
fb
13
27
1d
e8
f8
f7
db
fb
f3
f7
fb
09
51
0b
19
0a
12
05
ef
09
ee
0c
e2
35
da
e8
00
06
f4
f8
e6
de
db
55
f9
14
d6
02
f1
06
24
02
f5
fa
e5
ce
07
0b
dd
0c
03
20
f0
2a
22
ef
05
da
f4
fa
f0
13
16
40
e9
e7
f8
0e
c8
06
04
fd
10
e8
1c
fe
c1
e1
fc
0e
f6
f4
f7
06
f7
23
22
f9
10
0c
05
05
f7
14
d0
0e
07
01
fd
ef
19
e6
13
ea
f1
db
15
1c
da
06
f7
1c
01
0a
0a
1c
e2
16
03
11
e6
22
17
f7
e9
1f
36
dc
04
14
de
fd
f3
0e
2b
ed
1a
08
06
fa
1f
eb
e0
0a
01
00
1f
f0
27
10
ff
cf
e2
01
e1
fd
ef
f3
16
17
08
e2
14
ea
09
ff
10
06
e8
12
c6
18
03
f3
0f
20
fb
08
eb
09
e1
09
fc
ee
0c
d8
20
1a
0d
ff
ef
2e
06
42
fd
13
0d
27
14
06
fe
0e
16
f9
0d
2a
09
41
29
f0
10
28
03
d1
ba
ef
ce
39
e8
04
2c
e5
dd
e5
38
16
09
f3
91
d9
1c
f4
f7
38
04
ff
3d
b2
1f
02
f9
dd
fc
b7
5b
c8
bc
07
27
d2
f7
0a
e9
c7
c9
dc
03
2f
0b
c3
b6
ee
dc
b0
08
d8
de
05
0c
4d
f8
e4
05
f1
0a
04
cf
db
fe
10
04
d1
1e
0a
f8
37
0a
31
d8
be
03
e3
f7
00
f7
0e
1b
fd
f1
f6
ef
19
e9
0b
e8
2e
24
07
e4
13
1e
c1
e5
0e
fc
ed
17
dc
11
19
22
02
2b
cc
19
11
ff
0a
14
46
d9
29
c3
f3
f2
41
1b
dd
fd
1f
f9
1a
cf
18
00
37
f0
04
05
0d
16
f7
1d
db
05
0e
cd
1a
0a
db
05
03
ec
f2
f2
dc
c5
f7
fd
0e
30
ee
17
0a
e3
d4
01
d5
30
09
1b
f7
f6
de
07
05
16
ff
f1
1d
13
e7
fd
12
23
f0
0a
13
ff
d9
18
43
25
c9
ea
ef
de
10
c5
18
c2
fc
00
fe
39
f3
05
e4
0a
19
13
0a
f5
e4
33
0c
d9
1f
ed
ff
ff
1c
f6
4e
0d
ad
0c
e4
09
eb
fe
e7
10
23
04
0e
ff
d9
d3
db
cd
0a
f2
01
f0
1c
08
fb
59
f2
fe
06
00
0b
ee
f7
12
1a
a9
19
cf
ed
e6
39
15
f1
18
e9
13
f9
0d
ce
01
df
fc
18
ea
ba
0e
fd
f8
d8
14
e7
df
fc
08
f1
0c
dd
2a
e2
eb
e2
25
e3
2e
28
f7
02
1c
29
f4
f0
66
ef
e3
03
06
d9
de
e9
fd
ee
04
07
ef
fe
13
08
13
36
f8
09
16
ec
35
03
fb
f7
d5
07
48
f7
c9
0c
e9
13
ff
e4
02
0d
fd
ce
ee
f4
33
18
0e
f7
06
f6
f3
09
08
09
20
d6
1f
13
f0
ce
ea
01
14
33
18
1d
1c
b8
26
17
f5
d6
0b
11
3a
2f
13
13
0a
24
e6
e7
52
25
34
26
e8
0d
c4
ff
eb
05
dd
4e
f6
dc
fe
5d
01
0b
25
0f
fd
c2
38
fe
df
e5
ed
12
ca
f5
22
fe
0c
d9
e7
0d
fc
03
11
20
07
da
fa
f1
09
f9
2e
5a
62
d9
08
28
23
de
1d
06
e9
d5
d2
e7
2a
27
e6
e9
1e
dd
e0
24
ea
f4
da
3a
fd
fc
14
2a
14
f8
c4
0f
17
12
44
e5
34
cf
3b
00
04
10
46
4c
f2
09
f9
12
d3
35
aa
25
e8
15
cf
0d
45
eb
28
fe
33
29
55
34
3f
d2
16
7a
c6
07
22
22
1d
0a
f6
f9
18
49
23
ed
ce
20
0d
0e
e6
fd
dc
dc
14
db
da
04
fb
1d
d8
b5
f9
24
e0
0a
1d
06
f2
f4
fe
03
eb
ef
ff
f7
29
1a
0b
e4
09
0c
00
03
bd
05
f4
f3
d5
0a
21
3d
ff
e3
e0
e4
dd
e3
f7
ff
ff
02
27
ae
3f
e9
e4
e0
4e
00
e5
09
1c
fd
11
01
05
1c
15
f9
1b
e3
01
3d
06
d2
f3
0e
01
eb
e8
02
c9
09
f3
1d
e4
2a
1d
3f
ef
0a
09
fb
de
ff
23
17
14
06
e0
7f
0b
fc
cc
07
0c
18
f5
0f
ea
e3
d2
e3
32
fe
04
f1
10
fa
0a
d1
09
fd
0c
1f
0d
05
21
3a
f8
d2
09
00
e1
e8
c0
e6
22
0f
db
eb
29
14
e7
ef
e6
fd
05
ff
f1
f8
0a
24
ee
ee
04
1d
e1
01
27
0a
f5
06
ee
f3
e2
0d
02
f8
0c
e0
e1
45
3a
18
30
3a
e4
e1
1c
0b
ff
02
15
22
fd
e9
ec
fa
f0
e5
f6
37
f7
fe
26
e8
f8
e3
4f
ff
fd
d7
ef
07
ff
fd
0b
d3
12
18
c8
29
f0
1d
0f
f1
e4
ed
fd
07
40
07
20
e6
07
f6
1b
ed
e7
07
d9
19
e0
04
5b
c9
f2
f6
07
f9
ce
0e
ad
e0
e8
fd
df
da
11
1d
d4
ea
0b
e8
22
cf
39
ee
f8
32
da
0e
ee
dc
fe
e4
18
ff
18
d6
f9
05
c5
fa
f0
f7
fa
25
0d
f5
05
f4
ef
50
fa
fc
0c
d4
08
e5
17
fc
08
32
28
04
00
fe
d5
f5
04
10
cd
f4
f0
23
eb
2b
c0
06
20
db
0e
e0
b3
41
da
01
06
05
f5
11
e6
1b
d8
29
d9
19
30
f7
f3
4d
16
04
d0
2f
0a
fa
b7
d4
0e
f9
0c
f0
13
da
f4
00
2b
00
10
f7
d0
f5
dd
e0
ff
32
08
fd
05
04
1d
0c
02
0c
0a
fa
e5
ed
c8
f3
2c
fc
17
e0
da
ef
1f
d9
e1
1c
f2
d9
4f
34
0a
f8
e3
07
11
eb
0f
db
f4
23
e9
d2
e8
c0
25
15
b4
e8
39
f7
29
e5
20
ee
f5
39
fe
1b
23
01
0c
d9
f0
01
27
f3
e0
1f
e2
45
14
b9
0f
16
e2
e8
15
11
e2
f1
0b
fe
22
f6
e3
07
25
17
e5
0b
e9
cd
33
21
b4
1b
3c
17
f2
ed
f0
f8
1c
bd
18
d6
13
0b
08
14
17
e2
24
0b
09
26
e6
41
d0
de
b3
08
ec
03
ec
f5
24
dc
d9
f3
e3
03
07
dc
d0
37
4b
3a
dc
01
00
03
14
fe
dd
00
0c
47
2e
e7
43
ff
17
21
e2
05
ea
05
fa
0c
1a
08
f1
04
10
f5
dd
13
1e
05
e6
d0
18
11
e8
ca
f8
0b
e2
10
1a
e2
ba
fc
e8
ec
f6
fb
14
1c
06
da
dc
e1
06
0f
fb
09
2a
f8
ee
1a
fc
d0
0d
00
d9
05
01
f3
0a
ef
1b
01
dd
f6
ff
04
fe
fd
0b
0b
f2
27
e6
dd
d8
01
d9
07
00
08
10
e9
1a
26
ef
06
fe
0c
d1
02
07
12
0b
e6
08
e7
fa
fe
02
14
ef
2f
c6
f6
fd
05
26
d4
21
f3
e4
0a
3e
01
07
08
ed
12
0b
20
04
13
1f
34
1e
dd
11
15
05
e3
f2
0e
de
f8
f9
0a
4b
da
d9
2d
13
ee
eb
fb
bc
cc
3b
08
f9
3d
1e
32
15
db
27
05
d0
dc
01
ce
37
c3
cd
03
f3
b8
0d
03
e4
e5
fc
e7
05
20
20
dc
09
b7
f1
e9
f1
ee
e2
2b
1d
f5
18
0f
f4
22
fe
0e
f6
e6
04
07
f4
f9
f9
df
09
d6
15
08
0f
18
03
2b
e1
08
e8
06
ef
f1
f5
02
05
fc
fb
0f
e4
07
fd
fd
f7
15
f3
13
fc
fc
08
e9
ff
f3
e5
0e
fd
15
13
eb
12
e7
02
12
fa
12
25
05
f3
e9
f1
ef
ef
ea
f1
ea
06
14
47
ef
f2
fc
e2
e6
ef
f3
1f
de
e4
e6
fb
10
1f
04
df
01
fc
e0
ff
0d
e0
21
e9
fd
12
0f
0c
17
c3
0a
1b
0e
fc
f1
05
23
17
16
1b
f5
fd
e2
fb
28
11
27
19
3a
18
0c
20
22
d0
05
ec
e1
04
fe
d5
f1
0d
ef
2f
2a
fd
cc
fb
14
03
ed
f2
f4
22
06
e9
06
44
ff
ea
e8
dc
f1
ff
2c
ec
17
fb
fd
04
d3
f1
4a
da
09
01
18
e9
2c
e3
0b
1b
25
1a
ea
fb
09
09
1c
f0
28
1b
2a
cd
e5
fd
e9
04
13
09
00
32
ff
21
f6
fa
e9
03
e2
27
fb
02
f7
14
ca
15
c1
fc
d2
05
1c
32
06
fb
e5
1f
f6
17
2f
eb
0c
0a
f4
11
0c
fb
e9
0b
07
25
19
0f
e8
f7
2b
03
e6
c8
10
fe
da
19
1e
05
f1
33
0d
fb
f0
ea
e8
ed
ef
10
23
fa
17
25
fd
40
17
16
ec
00
fa
1e
00
db
c2
cd
10
f3
49
d5
1e
dc
e2
07
0a
0f
0c
12
31
df
e6
e8
e4
f6
14
0e
0d
11
00
2a
fb
15
fd
1b
de
db
cf
0c
ee
f4
fb
11
0e
f7
fe
38
fc
f0
f1
2c
df
e9
0d
1c
20
08
d4
fc
1d
04
03
e6
fd
d3
20
e5
fb
21
f8
12
05
f8
fa
1d
ed
e8
db
33
ea
e0
23
11
01
39
ee
13
06
eb
e5
f0
d9
20
dd
f3
12
00
dc
0e
fc
fe
d8
be
01
01
1a
f1
c9
ec
dd
e4
e5
f1
e7
e9
30
e6
fc
ec
e6
02
02
fa
f3
e6
e4
0c
06
27
de
31
16
d5
f8
f8
17
09
01
07
e6
20
17
09
f4
d3
ec
07
48
e7
14
ef
fb
fa
1c
11
11
e4
1e
16
e4
e7
cb
11
26
3d
26
29
14
e1
d5
08
f2
14
1d
e2
11
e1
12
eb
27
e8
d0
01
e9
00
30
07
e3
12
ff
12
37
fd
fc
11
02
b2
0c
12
18
d4
00
ed
fc
3f
26
e2
ee
f5
c9
fc
e3
e8
20
0f
09
16
02
0a
3d
c7
23
2d
f7
06
2e
ff
ef
e6
1d
55
28
08
d9
d3
28
40
13
23
28
14
1d
08
f8
fa
17
e3
0e
17
e8
0b
19
cf
08
03
13
d7
f7
11
21
f9
31
f7
e8
ef
f8
f1
e8
19
fe
18
fb
f3
1b
00
0f
0e
c4
0a
e8
2a
f4
ec
ea
fd
f8
d7
0b
d5
0b
dd
01
f1
dd
14
12
fd
ea
1b
26
ef
0a
0d
f2
16
33
ea
dc
ff
ff
e1
d7
e8
20
df
cd
01
15
38
07
0b
cc
0d
03
e2
3c
10
1f
f6
00
08
f4
45
08
d7
01
f5
d2
0e
e6
ed
f5
e1
03
06
1f
e8
30
d4
17
0e
d7
f8
fe
f4
ea
2b
2d
20
1b
fd
e0
ee
0c
1d
01
03
39
f2
07
20
18
ff
16
e4
da
25
f8
04
04
f7
38
04
ff
d9
0d
12
fb
05
d8
32
e9
e0
07
1a
eb
02
fc
f7
17
20
e0
09
ee
fb
c9
dc
08
3c
f5
07
16
28
05
1b
f0
fc
f3
e8
0b
eb
18
34
01
fa
d2
f6
fa
ea
f7
db
03
f7
cd
b5
f0
16
24
09
32
1e
e0
08
01
dc
fa
e8
f6
2f
f9
f3
0a
22
02
1f
ff
08
17
08
23
df
d7
16
f4
f6
1a
0e
17
02
f3
ec
e8
fe
db
0d
fd
1d
fc
e8
e9
fa
fd
04
02
00
e9
02
f8
10
0b
07
03
e7
e4
d7
f3
11
07
05
0b
07
0d
fb
2d
fe
09
06
02
0d
f6
2c
14
e5
0c
0c
20
11
dc
ea
0b
15
39
0c
d9
f7
f6
d5
e8
c7
1a
df
fb
dd
06
d6
fe
0f
f9
09
e5
17
e0
de
1e
07
22
1c
2b
e8
d5
0e
f9
da
ea
f5
2e
1a
08
1e
f8
06
11
e3
f3
0b
1b
0d
17
18
f4
e1
10
18
04
e7
03
bd
27
df
f5
02
ec
ff
f5
06
03
1b
0d
e4
03
e9
ed
17
1c
09
06
18
d5
f2
05
d3
f4
d9
c0
13
de
fb
0d
08
c9
27
fa
eb
da
e7
f9
0e
09
05
c3
d1
eb
09
dc
fa
0e
f2
0d
f9
fa
05
0a
f7
0c
0c
0c
08
fc
03
1c
02
0c
14
ef
14
e3
0b
20
03
ec
f8
03
c0
10
0f
16
ed
02
07
10
1a
0d
08
13
10
01
20
01
16
08
df
fa
e2
f0
e8
f3
e4
01
e4
1d
f2
f2
07
13
d7
e4
e3
f9
0c
18
dc
f4
06
f8
e1
32
07
03
13
0f
01
ee
0a
0c
f2
0d
f7
1c
22
0e
02
0a
24
00
d1
ef
fc
0e
00
f3
1e
07
fe
21
21
22
13
f3
ef
1a
06
0e
1c
0f
13
04
02
48
e2
d4
ee
f6
df
0a
23
07
24
e6
e7
16
01
e3
f7
f7
ff
0d
02
fa
fa
17
f1
04
04
de
18
f9
1b
04
1c
cb
13
10
00
ce
20
fa
e5
1a
f4
e8
18
ec
fc
ed
fc
09
f3
00
e8
13
0a
15
d7
1e
0f
16
ea
2c
21
ff
0c
01
05
27
23
1f
d3
07
ec
19
f5
20
28
ef
04
f9
0b
fa
14
fd
f7
08
f4
f5
f8
1b
f1
0f
09
3d
e5
e8
02
fd
ef
01
0e
02
fa
f7
f1
c6
14
f1
dd
e9
f9
e6
3d
f9
16
f4
e5
dd
02
c3
ff
f0
26
36
0a
13
f8
df
e6
f7
c2
0f
14
02
0a
05
0c
0f
36
d2
f0
f5
e4
f5
ee
0d
af
18
01
f8
e9
00
dc
f5
f6
db
33
1a
3c
29
ef
ec
e5
02
d5
1c
f0
2c
eb
2a
03
f5
38
24
e1
fa
ec
e8
04
13
f2
0f
e9
2e
17
17
08
1e
bd
1c
43
19
f5
30
1d
ff
04
22
37
f8
29
d1
d7
2e
24
27
3b
2b
e6
0c
10
03
fe
1c
02
3a
fb
eb
17
18
16
f5
f8
14
e6
20
f0
02
06
f8
10
04
1b
18
ed
00
e4
fd
ea
ec
1f
2a
cb
e8
f1
d4
fd
f4
f2
dc
01
eb
31
f8
ca
18
09
10
10
0b
f6
dd
e1
07
f3
0d
f5
ea
da
e4
f8
c0
0a
2c
dd
dd
0b
df
2a
2b
fc
ee
1f
04
2a
04
f8
e3
e9
01
cd
25
28
0f
d6
de
dd
1e
06
fd
09
18
06
fc
fb
18
15
2e
fa
0b
e3
06
e4
e9
03
d5
01
f4
ff
2b
ef
29
f7
fa
d6
ce
ff
fe
39
25
e4
37
30
1b
f2
f3
0a
f1
34
fe
fd
26
3d
f8
e8
04
f3
ec
f7
f3
d8
e0
22
12
19
fa
ef
fc
ff
fb
c5
ec
fd
27
b7
e5
23
f5
15
f7
05
dd
f8
49
f3
f9
e3
f0
24
f6
00
2b
f1
ff
09
d3
e6
02
08
09
ee
ee
04
2a
f7
d6
1a
1d
c4
e5
18
0a
19
0c
f7
ff
f6
13
3d
fa
f4
0d
fc
30
37
ff
f7
e7
01
f9
f1
f9
1a
15
f6
09
07
00
11
5b
cd
08
e1
0b
22
ec
15
fc
0a
04
13
fc
e9
f5
06
16
22
f9
11
0f
e9
cf
df
ed
f9
01
f2
fb
04
ff
d6
02
39
f5
0a
b5
32
e0
01
e4
ff
df
06
07
22
11
18
08
00
fc
13
09
f3
ea
07
6d
dd
11
ff
18
ea
fe
33
0b
fe
04
e2
fe
07
e7
10
18
df
06
03
1e
13
29
d4
fe
0b
cd
0f
14
25
eb
0d
18
0b
0c
26
09
fc
f2
f6
1f
e9
04
24
3a
43
1d
fd
fd
2b
22
f0
10
0e
12
d8
fe
ec
d8
fd
16
04
eb
0e
01
0c
04
06
fc
ce
20
b8
e2
09
00
2f
02
fa
e4
34
e6
11
d0
f4
ec
1d
0d
0a
0f
13
fa
19
e3
fc
dc
f6
e3
fa
1d
ca
15
20
eb
f5
f7
f0
fb
10
36
d3
ff
31
0b
07
00
f1
f1
04
1a
08
f1
20
06
1d
01
f2
1a
ef
e8
f8
20
09
e5
ec
e6
05
c6
08
e6
0f
04
ed
f5
c3
10
0a
00
20
0f
18
bc
03
25
cb
01
05
03
fc
07
07
f4
0a
0f
e0
12
00
19
12
f7
33
11
e4
11
34
e6
f4
df
19
1f
0e
11
0f
20
e9
14
0d
d7
00
01
15
dd
df
dc
1a
08
fc
db
05
15
ca
03
05
10
2b
04
21
ef
ff
f1
03
08
0b
3a
25
ec
ee
f7
f6
12
e5
05
11
1e
15
d3
c9
05
f0
ee
dd
ee
0d
1b
0e
0f
0e
ef
26
c4
e0
e5
e9
e7
e4
00
ef
e9
1c
00
32
f2
0e
d2
05
08
f3
32
02
f5
e1
17
fc
05
2d
3d
c4
f2
f3
e0
18
e4
ea
0a
06
d7
12
21
cd
0b
eb
18
22
0a
fc
15
e3
df
f4
2a
3c
1b
16
04
fb
21
00
11
fc
25
f3
1e
13
dc
e7
2a
00
38
1c
c9
fb
e5
01
f0
e2
e9
e1
22
e7
ff
1b
f9
ed
1e
21
04
13
fc
03
03
1a
e9
f9
26
39
05
35
c0
fc
fb
df
d5
ff
d9
16
e2
be
00
07
da
03
00
f0
ed
e2
f4
1c
0f
f3
df
e8
03
c3
e1
ed
1c
de
fa
18
00
ed
14
f7
f9
0e
05
02
08
ea
20
f4
3a
e6
e8
26
2a
d1
09
08
0a
1f
e4
f6
f5
dc
03
06
1c
d0
c5
17
a9
19
00
1a
e4
c7
ef
34
09
12
04
d9
fb
12
f9
ed
10
0d
08
0e
27
17
13
fa
fa
08
fa
15
ee
2d
f7
db
0a
e0
fb
ec
0a
ed
03
e3
0a
ee
0c
e7
14
ff
e8
04
0f
fd
01
f8
f4
09
19
18
07
fc
f8
18
ef
ec
f2
f6
05
fd
f5
ff
13
02
02
09
02
0b
fb
02
eb
13
1a
07
09
f5
06
e9
01
12
e2
e0
00
fb
f2
ea
14
05
01
07
f3
0e
01
f4
1e
12
08
fe
1a
f3
f5
0b
17
17
ed
20
06
19
fe
e4
ff
04
16
f0
16
12
11
27
05
e2
f0
f1
0a
09
f6
21
f7
0c
f5
11
1f
e7
fe
00
00
10
1b
f9
13
f0
18
e4
04
1e
f5
ee
d9
02
fd
04
00
ee
e8
0d
0b
f0
03
eb
0a
15
1c
ef
06
f5
03
fa
f3
06
f8
fa
f3
19
00
03
f3
fa
fc
fb
16
f9
07
1f
ff
ed
fe
04
ff
0f
f8
09
f9
1a
ed
12
f9
ff
e6
f5
01
fd
f5
02
02
fa
08
e7
fd
1e
02
f1
f4
01
07
fc
f7
fb
fa
f7
df
f2
ea
0a
0e
02
ff
e8
00
08
fb
e8
13
0c
df
22
11
17
15
08
f9
ff
fb
ed
06
02
0d
0d
0b
00
eb
00
07
fd
05
14
ff
1f
ea
0d
0d
08
ff
f4
df
10
1b
f6
04
e1
1b
eb
f8
0d
ef
da
fa
07
01
11
02
f4
f4
1d
f2
11
09
dc
0f
05
f6
02
12
13
0d
04
f1
f6
17
05
e5
f8
03
f4
04
04
0d
0e
ef
ea
04
ec
fc
ed
fc
05
01
f1
04
01
00
01
05
08
08
fd
dc
e9
02
f6
fc
f3
f8
f1
0d
ec
15
01
0f
f4
01
10
22
0a
0a
f8
20
e1
f4
ec
e6
05
0a
e1
f7
03
04
0e
e8
f3
1a
10
fa
01
0e
f3
00
f6
ea
0d
fd
01
ec
04
fe
0b
f6
0b
f2
ef
07
fe
f5
05
04
f9
07
06
01
13
02
f8
fc
fe
24
02
04
0b
04
f9
f8
0c
f7
e7
ef
01
f4
00
06
0d
0d
0f
fb
fa
04
f0
fc
0c
f7
fe
05
0a
f4
fa
f5
02
26
08
0d
eb
ec
08
fb
00
e5
f0
0e
f9
01
f1
24
f1
16
03
f7
14
12
f9
07
f7
fc
05
05
12
09
f6
0c
fc
09
f2
f0
04
08
ff
00
08
04
0b
01
07
14
e8
f4
ec
e1
03
fe
06
fe
0b
05
f2
07
14
02
08
fb
fe
e3
09
f9
ef
ff
e1
01
04
fa
0d
f6
03
01
e3
fa
ff
07
09
06
fa
08
f8
fa
e7
f3
f3
13
e3
eb
fe
f2
fc
04
f1
ee
11
09
f8
f6
17
11
07
0d
12
fa
06
0d
03
03
02
04
f2
12
0d
ed
f2
1b
e8
03
ed
f6
f7
fd
19
03
f6
fc
01
ed
e5
f0
0c
02
05
15
f5
13
0d
0b
fb
e6
1f
03
0e
02
00
f3
1c
04
e6
f3
fb
05
fb
03
ee
04
ec
09
14
09
f9
f8
05
06
f5
f7
14
db
f8
08
fa
f5
15
18
f4
ee
02
02
e7
ff
0e
f4
e9
24
00
fe
f7
0f
fd
ed
05
fb
38
f4
fc
f0
16
f3
03
f8
fe
08
0c
00
ec
f2
e6
fe
f9
fd
21
f7
12
ce
15
0a
04
ef
fa
01
1c
fb
02
04
e2
12
c7
df
22
04
f5
ec
0e
fd
0e
10
e3
02
07
12
03
f1
19
0d
06
f6
05
18
fd
f9
26
02
f6
01
ef
f1
eb
f8
10
ff
07
f6
f6
fd
fb
02
0b
f2
06
03
01
0d
f2
0e
00
e8
07
14
f1
f8
f7
f5
f5
16
04
e9
ed
0c
f6
fe
01
15
10
04
05
06
0e
02
fe
f8
e7
f1
07
f7
f2
1d
f4
ee
0e
ff
1a
f6
fb
05
e7
01
0f
fd
f5
ee
10
03
0a
fa
f1
01
f8
fc
11
fa
f3
fa
ff
ec
06
dc
11
fa
f8
01
f0
f7
0c
07
0e
02
f0
02
0f
ed
f0
0b
ee
f7
08
e5
02
0e
f2
02
0a
18
f4
fd
08
ef
f5
ef
ff
e4
f6
1a
f2
00
db
13
f7
07
01
2d
16
db
18
07
1c
11
01
f5
0f
f1
f0
fe
01
00
1b
0a
fc
ec
f5
03
f7
fd
2e
16
1c
f0
11
10
fa
fc
05
e8
04
1b
fc
0a
ee
16
c9
ff
1a
ef
e1
db
f2
f6
03
0e
f3
e5
1a
25
0e
eb
09
f2
fb
ff
fe
fe
f1
07
10
f7
04
f5
f5
f6
fb
fa
ea
f7
0e
fd
eb
fe
ff
fa
ee
f6
02
07
0d
13
f6
ec
07
e0
fd
09
e5
12
fa
db
01
07
e7
01
10
f6
17
f7
fa
0c
05
0b
fb
fb
10
f8
12
f8
ff
01
fa
fa
02
01
f3
fd
fa
11
f4
00
f5
08
08
20
05
fb
16
16
19
06
06
03
04
09
f3
f6
1d
fa
1d
08
01
ee
f0
08
00
08
08
0a
07
f6
04
03
0f
03
2b
fd
02
24
0a
07
d8
0c
dd
e1
01
d5
e5
de
f1
ea
ee
0d
fb
ea
1e
f4
fd
08
f5
03
f2
fb
21
f2
1c
06
0b
ef
df
0e
de
06
06
f7
f2
1c
04
04
fd
ef
f0
09
e9
0c
fd
05
12
ef
05
fe
03
fb
f8
0b
dd
fa
18
0b
f3
fd
03
e2
f1
f0
1a
03
30
0e
f8
10
04
04
f6
1b
05
04
10
0c
f2
fd
ea
f9
07
03
f5
dd
0e
10
0d
1f
0e
ee
f4
23
ea
fa
1e
05
da
00
ed
06
3a
ed
0e
f0
dd
00
eb
02
10
f2
18
1d
02
29
db
04
ed
ff
08
f8
07
01
1c
ee
f0
0a
20
ea
2f
09
fa
07
14
0c
06
1c
02
1b
2b
09
e4
32
f0
dd
00
0d
2c
fb
e1
ed
fb
02
f2
0b
fe
04
d0
e8
42
fb
f1
21
e6
e3
e9
f7
ff
ff
01
e2
df
0c
20
0c
dd
0e
0c
0a
e3
ea
1e
00
0c
b9
f7
0f
1a
de
2d
27
11
e3
01
10
e7
1b
21
04
ea
f4
0e
df
1a
f7
e8
46
e1
12
ee
f9
24
f2
27
ff
02
e5
f4
fa
e0
07
f0
ca
19
e7
f0
f6
02
e2
ea
fd
0f
08
e3
0f
e2
f5
fd
cc
1e
06
fc
fa
e7
fe
fe
c3
1e
f2
01
fd
ee
cc
d4
de
fb
03
32
fa
04
f4
fa
16
fa
ea
02
02
dc
37
e3
f2
d7
18
1d
fe
d5
04
ce
00
ff
db
d9
d9
de
1f
17
24
dc
eb
d4
eb
d8
fa
03
f9
f2
12
2a
ef
13
10
19
01
0e
e7
e1
ec
e1
fc
fe
16
02
e3
0e
0f
d3
1d
f0
0c
e6
ee
d4
fb
16
e8
ff
e0
e3
02
2a
fa
04
e9
d0
dd
de
e9
14
33
f0
22
fe
fe
03
0a
ff
21
0f
d0
07
f9
df
e4
1a
29
c2
df
ec
30
07
07
04
f3
18
3d
11
08
00
fe
e4
e7
34
e8
08
e9
fc
f3
14
22
f7
17
07
1e
c9
0c
f3
02
1e
0e
e8
d5
0f
13
18
14
fc
e7
1e
e9
0e
1e
02
1e
fd
14
0c
11
f1
f3
15
f5
03
1f
02
f8
13
f6
fd
d1
01
de
fb
fb
f1
0c
ef
0b
e7
35
02
24
fc
e2
10
01
0f
39
ef
f0
09
09
f1
40
27
02
06
16
f1
07
e7
1f
26
de
0f
0d
04
ef
0d
11
ea
12
cd
35
f8
db
3a
12
f5
09
e5
2d
df
eb
26
20
0b
09
e2
e4
20
4c
02
f9
19
f8
02
02
d1
f7
fb
38
fd
00
f5
10
01
eb
12
e0
27
f3
fd
ed
db
ce
ff
36
09
ea
fe
fb
fd
e1
10
f1
0e
e8
e2
d6
f8
fb
2a
04
e6
e7
ef
ef
f9
15
f0
05
e7
fd
29
0a
01
ce
c6
f3
09
fe
12
11
c2
00
16
0f
c9
ee
d9
09
08
ee
e6
0d
f7
09
16
c6
09
0b
e9
f1
fe
01
14
0c
04
4e
0c
f3
1e
3e
fc
f9
02
1e
d8
17
d5
1a
f4
f3
20
2c
0e
cc
11
1a
31
09
01
36
fc
cc
16
20
d0
0c
0b
e4
ff
14
18
02
fd
06
d7
d9
0d
ed
f6
fe
e3
f0
25
07
f6
21
01
ef
17
10
fb
d7
16
d1
fc
02
dd
04
0e
00
24
06
03
0b
ed
00
e9
ff
14
04
08
d3
16
cf
12
d6
10
d6
f3
10
f3
e6
fb
13
09
0d
1d
ff
d5
06
06
04
f3
ec
33
00
e6
e5
f8
e6
f1
15
de
2e
f0
1c
04
2a
25
15
0b
da
f1
eb
13
24
f8
0b
1a
f4
e7
02
cd
f6
08
fc
0b
dc
02
0b
ee
25
3e
20
07
ea
e0
f0
e5
23
20
f8
d9
ee
f5
fa
0b
e7
fa
05
2a
f4
0e
04
07
24
cf
db
3c
f8
f4
eb
15
fc
08
16
14
07
24
f0
18
ef
fd
cf
f4
0b
f3
fb
dc
fe
1c
09
04
15
0f
fa
fc
f3
1d
04
2b
ce
f4
02
1e
01
1b
06
0e
1a
ff
28
06
0f
2e
07
f4
e3
d0
f4
05
09
ff
d9
e4
13
f2
e5
09
f6
11
26
26
f8
23
eb
d6
fe
f8
ec
08
da
fc
e8
11
eb
04
de
15
09
f7
1a
0a
d7
0e
05
e9
ff
f3
fe
ff
2b
fd
f6
14
2f
14
fa
0f
0a
bc
e4
04
eb
eb
fb
13
f7
17
0f
ff
19
34
f8
f4
e3
f9
12
fc
e7
24
fc
2b
01
d4
d7
e4
fe
d1
0a
09
ee
f3
f4
0c
fa
33
f5
f2
15
ec
ea
27
0a
fe
0c
e1
02
0b
06
e3
16
0b
0a
25
fe
f8
29
f8
dd
f6
08
15
fe
19
f9
04
16
02
ff
fc
fc
1e
0c
f2
fc
bd
19
ee
f5
1e
2f
1e
03
f0
0c
dd
ff
28
f5
f4
10
d0
d7
2b
0b
dd
f6
f4
eb
26
ef
11
15
f5
b7
d8
d5
ec
05
e5
f9
35
06
26
f5
13
f9
ef
ba
ea
f9
ea
f1
02
30
18
05
0b
14
fa
e0
11
2f
19
16
09
eb
da
e3
da
14
fc
ef
31
fd
19
eb
0a
f5
0d
e7
09
17
f3
e0
ff
0f
0f
ea
e3
f0
1e
d8
fe
ff
16
e4
cd
05
e9
0c
ee
19
d5
e6
1d
de
f8
1d
db
e8
e3
f5
0b
ed
0f
ed
11
f2
19
1e
23
ec
2e
06
e0
10
e7
c5
05
0e
ff
2a
e9
3c
26
0b
1e
fa
18
0c
01
fa
27
fc
29
d3
0e
12
22
e4
0b
fa
02
13
14
da
e5
0c
10
2d
eb
0a
1e
23
0f
f4
e3
da
14
cc
ec
1d
0f
fa
fa
fa
27
17
16
03
fc
dc
44
f5
1f
ec
ce
ed
04
f0
36
d2
17
c9
0a
cf
f8
f5
18
0c
ec
24
fa
0f
02
e0
e5
f9
fe
19
ec
01
fb
ff
f8
18
0c
0b
20
18
07
fc
fc
f8
0b
f9
02
01
fd
f4
ef
00
f8
0d
05
fa
04
f5
f4
fb
1c
0d
1b
fd
f4
fb
13
01
0e
00
0a
f6
22
0f
df
12
16
07
f8
e8
e3
22
0e
01
fb
ef
0c
e3
ea
f4
fb
0e
11
15
0b
1f
fe
06
1e
19
0f
e2
08
00
e4
04
0f
e8
16
1f
fe
0c
f6
02
ff
fc
0c
f0
04
04
00
03
f6
fa
19
e2
11
e9
0b
fd
fd
04
13
df
28
f6
f2
fe
ef
d5
1d
ea
f1
f5
f0
f9
0a
09
01
0c
e6
11
02
e6
f2
20
f4
1c
f2
02
f4
10
00
e5
09
f1
09
fc
f0
f7
fc
01
f2
06
08
09
d9
f6
07
01
e4
15
ed
08
fd
2e
15
11
fb
f1
01
12
fc
08
05
09
fe
06
e7
f1
02
e8
b6
07
e7
f9
0a
06
2e
10
fd
f3
df
fd
0a
de
1c
14
ee
ea
04
0a
f8
03
fd
fd
fe
ee
ef
fa
fe
f2
f9
03
fb
e1
fb
26
ef
e1
14
09
0e
f8
07
e4
06
01
0e
f4
00
16
0b
18
04
f3
12
ff
f5
17
01
f9
15
09
f6
09
e9
d9
f5
ea
f2
fc
f8
07
00
ec
27
18
01
f6
db
f9
ff
0f
21
f8
ec
01
01
e9
e6
fb
fb
f3
04
01
f8
01
01
fb
0b
0d
08
21
1e
08
ea
0a
e8
0e
07
f2
0d
e8
0e
f7
ff
0a
f7
02
04
f1
0c
07
14
fb
08
07
04
03
d4
1c
0f
20
00
f7
0c
15
d6
12
05
ef
18
f7
1c
0c
19
21
0e
14
17
28
f9
f7
fc
fd
0d
0e
03
d9
fa
ef
05
fe
12
0a
f7
f6
0b
0c
0b
05
f9
dc
0f
00
ed
fa
ee
0c
ee
0b
e8
f4
e9
06
ee
ed
f2
0a
02
ff
06
e9
06
01
e7
13
e8
f1
dd
14
f8
01
fe
0a
fa
02
0f
24
0d
05
09
09
f9
fc
f5
f9
19
08
1a
23
ea
15
13
f8
e3
f5
0d
f4
f1
06
fd
10
07
e9
05
d7
00
02
02
02
0c
f7
25
ea
03
e3
11
19
db
fc
ef
e4
12
06
d8
06
1a
1a
f9
fb
df
07
ec
e5
e1
fd
ed
f2
f4
ef
11
f7
fb
17
ec
ef
01
06
fb
f6
e6
03
00
08
0e
fd
02
11
0e
ef
1b
f9
f0
0f
00
f7
ea
12
0c
1a
e5
08
0e
17
17
18
04
09
1a
fa
11
ee
0d
02
04
03
0c
25
00
15
14
13
16
08
01
f9
f6
05
0a
1c
15
0a
ed
11
05
f7
f9
10
fe
04
dd
0f
03
07
03
19
09
06
ee
fb
d7
2d
05
fc
04
f3
02
01
eb
02
16
00
f6
12
e2
ee
fd
e8
ec
13
14
db
fb
15
fe
f5
e3
f3
df
f6
e7
06
08
0c
fa
eb
17
14
12
e5
07
e4
f9
f2
02
12
f0
05
f8
ef
ef
05
0f
fd
f9
df
08
20
f4
2b
05
08
1e
15
e8
ea
16
dc
07
f5
06
20
fe
dc
01
f1
11
10
ff
e6
f0
f1
ef
0a
fb
13
ea
23
0a
fa
18
05
09
01
d7
02
f4
f9
cc
05
06
f7
21
fd
11
0e
f3
07
f2
f1
17
f0
00
22
06
f9
01
04
15
f3
f5
ec
05
01
fd
fb
06
18
1f
12
f0
fd
ff
e6
e5
1f
f2
09
f8
f4
12
ec
03
f3
02
0c
f9
e6
f6
f6
fe
fa
f6
02
f1
0d
f0
01
f9
f6
eb
fe
21
fe
13
20
d0
eb
08
11
02
09
f9
e7
f7
ff
11
f8
ff
14
ee
0d
f6
f1
02
1b
07
f8
18
12
d8
14
fe
fd
ff
f3
06
ef
01
f2
fb
16
f7
18
11
f0
04
f3
01
01
f7
f9
00
fa
01
f1
ec
00
05
02
f2
09
fd
08
f3
da
11
e9
0f
13
d6
e6
fa
f7
0e
0b
ff
09
ff
f3
f4
e2
16
06
0a
f6
03
09
fe
16
02
03
e6
f3
fe
f8
02
ff
0d
e3
09
0e
29
0a
05
e7
0d
0c
e6
25
f7
04
e8
f8
06
28
fc
07
e9
01
fc
f8
25
0b
0e
f0
cb
16
18
20
ef
05
14
05
1c
ef
f4
ee
f0
14
00
04
09
f8
f4
f6
04
de
e8
0c
f5
00
1c
0f
ef
06
11
ec
fd
0f
0d
16
0f
f7
f0
02
f8
08
f5
f0
24
05
f6
07
fa
f3
f6
03
fc
f3
ff
e9
fc
07
18
09
09
11
0f
18
1a
16
1a
ea
0a
18
fb
02
1d
18
f0
f3
12
f8
fd
28
ec
1f
eb
17
f4
0c
f4
06
12
ec
f3
f6
15
02
09
df
04
0b
fa
0d
00
01
0f
ed
05
ff
e8
31
df
f8
fe
e8
17
13
f0
da
eb
e8
f6
0b
1b
f5
14
03
f3
0f
d3
08
1e
e6
fb
00
ff
ee
02
f9
f8
0c
10
fb
10
0a
05
01
e5
20
f6
03
ef
15
ff
f6
13
02
01
16
11
f0
f2
f5
fd
03
e7
f1
06
1f
1c
e7
fa
22
09
1b
0a
ff
df
02
e7
e7
0b
08
fb
1a
01
0a
ff
1e
0c
f7
ee
00
0b
fe
e5
e4
f8
09
f8
fa
02
ed
19
07
21
f2
f2
f1
0e
1b
fe
0d
ea
e6
f5
0c
0d
04
1d
ec
3a
1d
d9
f9
f7
2f
d7
14
a0
32
16
15
f1
35
f8
09
15
cb
35
32
13
0c
18
c5
2c
1f
fb
22
07
f2
fe
42
e1
e9
f5
23
f7
f2
f8
f5
d4
e5
e5
39
eb
ec
08
fa
3a
05
f8
e8
28
34
ff
fb
05
f2
f6
f2
2b
e1
eb
13
de
d4
d9
d9
09
fb
f5
0d
24
f1
e3
ea
e7
f4
1e
05
e2
fd
ef
fc
f2
ec
18
19
d9
df
11
f5
d3
08
ef
ef
19
e9
1c
d7
2f
26
08
32
1f
29
f6
ea
ff
fd
0f
31
fe
19
02
0f
0c
da
f2
26
f0
06
1c
ec
e5
eb
ec
dc
f5
0b
fd
20
f1
02
04
05
f8
04
33
5c
06
13
de
26
12
34
0d
03
db
ef
e5
dd
1a
05
ed
e9
1c
10
fb
e5
c3
fd
fa
fb
1f
fa
02
e1
14
e3
28
df
f3
f5
07
d0
02
e7
09
02
08
1c
ea
ce
13
ef
ef
2c
01
12
12
11
23
0f
fc
1d
e3
f6
ce
19
e7
f2
05
cc
f9
11
00
de
03
d3
06
39
0c
10
11
e6
fa
10
2d
26
0a
f1
21
7f
f6
06
ee
f4
ef
05
c3
08
bb
e2
ce
06
05
fc
26
d9
2d
d1
f8
af
0e
35
e0
f6
f9
05
0e
eb
02
25
e9
0b
0e
2a
f7
fa
f1
f6
10
fb
f2
f4
23
dd
f9
2d
33
00
ef
e7
0d
1e
fd
28
14
09
0d
23
1b
14
1a
e0
f6
58
02
e3
ca
e6
f7
05
de
ff
f3
e6
bc
04
f5
d3
3f
08
30
08
13
0e
f6
df
f5
2e
e7
1a
fb
de
fe
1a
08
dc
e0
d6
06
f3
03
ff
01
f2
46
ef
0a
2a
f3
de
06
14
05
25
db
d0
0e
e2
ec
03
fa
d1
d0
f9
f5
09
41
95
e1
18
05
15
31
f2
31
ea
09
17
2f
03
31
15
09
0a
eb
17
03
ed
e8
d2
0e
05
0b
e1
09
ff
33
da
e3
15
0f
f4
2f
10
ea
0c
fb
df
ff
26
30
30
e0
fe
1e
39
3e
04
08
01
00
29
ca
26
21
e6
12
fd
0b
ec
ef
ed
f8
fe
0b
e8
15
f3
f0
d5
0c
ff
ff
e5
0c
f9
28
2f
f2
ef
0e
3f
d7
c7
fd
16
0a
e1
f4
1c
04
2e
14
d6
07
19
fe
1a
e1
e7
ee
22
02
26
0d
ea
21
0a
d8
d3
0c
2b
bb
f0
15
f6
ff
f4
ed
01
1d
23
1a
15
07
09
e6
eb
1e
14
1b
05
18
fe
f8
18
1b
0a
e7
32
fa
c4
03
1d
e4
02
0a
f1
0b
0c
ff
06
fe
f1
17
00
d9
28
cd
df
03
f0
11
15
ff
dd
2e
ef
04
20
08
e8
0e
04
08
3a
e7
ce
22
08
0e
24
f2
cd
e3
f5
f4
11
0c
ae
1c
25
1e
da
40
fc
da
09
30
21
e6
f8
e3
36
2b
0f
de
19
02
11
f0
e1
ff
fe
c2
14
1d
0e
ea
21
0f
f0
0f
f8
31
12
e3
e4
05
15
0c
0f
21
11
2b
16
ef
de
f8
0d
ff
02
32
0c
f9
ea
0e
14
dc
36
2e
0b
12
0d
db
08
1c
08
f9
d6
f3
d1
e1
db
15
e2
f6
0a
f9
d7
0e
09
fa
ce
16
08
fd
01
10
10
ee
1e
2f
f1
eb
0c
df
ee
cb
fb
22
f7
fc
e7
10
fc
e4
ea
d4
03
14
21
11
fd
ed
d8
f9
ba
12
4e
fd
e8
d2
d7
db
14
00
c0
32
f7
21
01
19
0d
0f
36
1d
3c
f1
04
21
e1
f0
3b
e3
eb
f1
e8
f2
0b
e1
c8
dc
13
1c
07
dd
14
2e
05
fa
37
fa
01
db
d0
11
3d
ef
13
18
de
34
f7
f9
cd
d8
f4
0b
21
18
23
ef
01
06
23
13
10
10
f7
22
63
e1
f2
eb
42
05
cb
17
e9
b7
c6
ce
22
ea
41
ff
be
3c
18
f8
fb
de
f9
dc
d9
df
17
f5
16
32
ff
0c
28
0e
2e
e3
e3
ef
00
e7
01
0b
1a
c9
03
f2
0b
e6
19
05
14
ef
fc
dd
04
e3
c8
0a
3b
1f
30
22
ff
fb
fa
f5
0a
0a
e9
e0
1c
e2
fa
f2
e0
db
fc
cc
f6
07
c4
31
0a
fa
03
f6
df
21
36
cf
f7
f8
03
f6
05
06
e9
32
09
f5
1d
e1
17
20
04
dd
fc
2c
1e
22
00
e8
e2
0d
fb
07
01
11
f9
fe
e7
38
00
0b
f3
1a
00
17
2a
e8
e5
00
0f
dd
e9
08
c2
eb
cc
17
ef
fb
0f
09
f0
24
f8
06
d9
ff
08
3d
09
20
28
15
da
f4
05
11
00
07
05
20
27
f1
f5
2c
f8
1b
21
d1
23
26
0f
06
e8
f2
39
f1
f5
1d
fd
f9
34
de
f2
e5
0f
d9
1c
e1
e6
03
14
01
2a
1e
fa
16
f9
0e
f1
20
e6
f3
26
0c
da
ed
1a
27
0b
f5
df
1f
10
1a
2c
dc
e2
0c
00
1c
f1
fb
bf
fe
03
27
05
f8
c0
36
05
00
f4
10
0f
00
fb
12
29
d5
f1
05
e9
f8
2b
de
e2
e7
d1
e8
fb
0a
97
04
14
10
ed
1c
2d
07
01
1f
18
37
e9
07
05
fe
1a
e7
f8
08
e4
cd
07
03
c7
f4
18
da
03
03
0c
37
da
00
e1
d8
e8
f6
94
d6
16
07
13
de
ed
02
de
e7
02
e7
13
ee
01
23
d9
10
5d
c0
12
f3
8d
e0
ea
1d
05
24
2f
de
09
2a
3e
38
f5
e2
e1
f4
fc
e0
01
d0
1b
e7
ed
18
32
ed
0c
fb
4f
27
d2
f1
17
ef
f2
f1
39
3f
36
fe
f2
0e
0e
13
0d
f2
11
fa
0c
03
f1
1c
0f
18
e8
16
20
d4
31
a1
d2
17
14
2a
71
0d
02
1f
04
2f
09
13
15
0e
bb
b1
0c
2c
1e
f2
20
e9
ec
2c
e9
17
2d
16
d9
fa
e9
0e
cd
02
11
11
08
21
36
06
f9
31
de
07
f0
02
a0
ff
cc
f9
df
23
f8
ea
1a
0d
07
e1
28
ef
00
eb
fc
37
ee
f1
1e
bd
c2
ed
e0
d4
34
01
13
e0
f5
ea
2c
0b
14
0f
b9
fc
e8
01
22
e4
1e
f8
5f
0c
cd
23
df
f1
f4
ee
18
24
fb
fe
d6
e3
1c
03
b1
e7
16
21
fa
f6
f4
ee
fb
07
0a
fc
20
26
20
12
04
08
ec
e1
fb
08
11
dd
d5
be
e5
0c
fa
e1
fe
3f
13
04
13
43
b2
d8
0a
f2
ff
fe
f2
f1
06
1a
33
bf
25
26
d3
f2
13
e6
df
f0
e9
1a
f9
ed
19
15
f4
0d
f9
17
17
fc
d7
14
ed
0c
09
29
e2
16
32
03
0c
d2
13
1f
f1
00
d2
2e
e2
03
f2
db
df
1c
e3
ca
37
35
32
e4
fe
de
ea
eb
08
ca
e5
04
e2
fa
fe
fe
db
15
ea
cb
17
df
12
ca
10
e7
e7
e8
31
e9
3f
15
2a
35
f8
3e
e8
08
0f
0a
13
07
0e
1b
09
40
00
fa
ff
e8
d5
1a
dd
f9
07
30
b9
2f
1a
df
11
3f
e3
fc
12
02
22
aa
0a
db
d1
05
de
dd
ef
e5
e9
df
1c
ed
c0
21
f8
02
07
41
fd
e4
62
e1
ed
0f
f6
20
e2
f6
03
e4
eb
12
2b
2e
7f
f9
d4
0e
10
02
43
d8
03
28
2f
43
e8
fe
0b
be
20
e3
e2
08
f4
12
2b
0a
34
fc
f3
d5
e4
36
f5
1d
d2
f4
f9
1a
16
30
12
3b
c4
20
20
fd
1f
32
da
3f
0a
f6
2b
0f
f7
0d
e2
25
b1
cf
fc
0c
05
a6
07
11
15
f6
ea
f2
20
b9
29
cf
07
0a
23
1e
28
c0
1e
01
ec
f4
1c
f2
ea
0c
1f
bf
11
da
f6
e0
d7
47
17
41
1b
f9
41
16
09
38
20
1d
d6
18
21
01
1e
c2
11
dd
01
05
ca
1b
3f
07
11
d2
09
1d
ee
d2
d2
45
0c
fe
d7
06
0e
33
f7
fb
05
35
25
c5
e6
ca
04
0c
09
08
cf
42
04
08
03
cf
bf
d1
06
26
dc
fb
25
e1
35
f9
fb
3d
fe
c3
e9
26
dc
f2
10
bb
e5
d4
c0
ce
25
09
ec
e1
fa
13
fb
e4
e7
fb
0b
1f
e6
cc
31
d2
ec
f9
06
e9
23
1f
e5
d5
f8
fd
b8
06
13
dc
fd
e8
c4
14
f8
bf
11
d1
d7
28
07
fc
ed
2f
e8
26
0e
13
00
23
41
19
e9
24
47
d8
39
f1
1c
e2
31
d3
e7
eb
41
ca
e0
50
1c
28
f0
b8
26
f6
26
24
27
45
44
f6
0f
ed
f6
e9
19
ca
3e
09
d7
fe
ef
09
ff
37
d3
0d
14
15
06
d5
cd
1b
3e
16
e7
13
c2
3c
18
d9
c2
e4
43
f6
e1
01
cb
04
0d
fa
fc
d8
ff
24
d4
26
57
56
f0
fb
ee
29
ee
f5
05
01
14
1b
fe
08
10
3b
e2
28
e5
15
f1
08
f0
f4
04
43
fe
ce
24
f1
13
29
22
17
2a
0f
f8
f7
f7
dc
1d
c9
e3
09
15
de
0e
f7
f3
02
ff
19
e3
c6
29
fa
f4
0d
f5
ff
db
f9
13
cd
e4
d1
e6
ce
17
00
e2
ee
0e
f5
f0
d7
18
3c
d2
1f
08
f6
f7
f2
b1
ff
1e
1d
07
d5
0b
27
fc
13
fd
c5
22
fa
ef
33
ea
06
1e
fd
17
fc
df
0b
c2
07
12
26
4a
c6
11
03
14
34
e9
db
e6
f4
00
d8
33
da
09
02
e1
e0
d6
ec
28
cd
eb
cf
05
f9
08
0c
36
3f
ea
03
fb
29
d9
fb
07
fc
04
ff
eb
0e
10
1b
34
11
f6
d9
12
03
c6
04
e0
4b
f8
0c
16
ce
d8
30
f0
f1
16
fa
31
f0
eb
e4
f5
22
d9
da
e3
e2
d3
d7
1f
cc
dd
28
c0
b5
20
f0
3e
dc
23
16
29
16
fa
b0
fc
f1
07
da
00
4b
07
01
33
eb
19
0c
06
c2
0d
2e
04
fe
0f
de
c3
15
f8
dc
4f
0a
e2
1b
ed
19
27
f1
12
2b
e5
00
f1
0d
44
20
a7
1b
19
d8
1c
fe
22
fa
0d
06
d8
2e
94
c9
2a
a2
04
c9
1a
21
05
f3
0c
ce
d8
14
1e
05
02
f1
de
f2
bd
01
40
2b
0d
db
0e
0e
b3
0a
fe
d7
fe
0b
f3
d1
4c
e4
fc
f6
2d
11
35
e5
ab
1a
f7
2d
46
e2
2e
07
da
ff
08
0e
17
b5
48
cc
47
0d
20
1d
0c
20
d2
33
07
f7
f8
e7
15
f4
ff
f7
27
15
e2
f6
e0
06
0c
03
df
09
04
0b
09
0b
25
11
23
01
f6
f3
1c
20
f9
3c
c9
31
ea
15
13
d6
dc
1c
ff
12
03
1a
1f
fe
02
02
ed
0f
e7
c7
f0
f1
d1
f4
0b
f1
f3
0b
d6
0a
12
18
ec
f5
08
30
f6
02
0f
05
e0
dc
20
ec
fc
de
01
f7
11
f1
f1
e0
ea
f2
ff
e6
fd
0e
07
24
f4
04
fd
de
2c
dc
11
f1
f3
2b
09
ee
13
01
ff
04
ec
35
e1
37
e5
e4
26
2c
2d
fb
03
26
0d
29
2f
d3
ee
e4
1b
fa
cd
08
0d
01
ce
f3
07
22
03
e2
25
0b
13
d4
ef
22
1a
f8
e2
c6
05
19
ee
fe
e8
22
19
1a
db
f4
d7
f2
1d
c1
02
f3
f4
27
26
fb
f7
e0
f0
0a
f4
11
e8
f8
e1
d0
2e
42
11
e7
0b
ef
f7
0c
27
07
e6
e6
1d
17
ea
f8
fd
04
c1
07
0e
01
d7
ed
fe
e7
09
e4
f9
01
1a
0f
ec
fc
fc
2a
f8
f9
f7
f8
18
09
d1
fe
02
07
25
c1
27
00
f2
fa
30
f3
f3
f0
cf
0d
fc
36
01
20
f9
d4
11
2e
2a
fd
0e
07
e6
24
10
e8
04
08
05
10
23
03
2b
11
ff
cf
ee
1d
1f
07
f2
3b
f5
09
dd
0c
2b
1d
ea
fb
0a
20
ec
c8
0a
de
10
0e
f4
03
1c
f3
08
26
e9
0b
e8
f6
f9
0b
02
11
18
f9
ec
0c
fd
e1
1b
f0
ff
f6
13
f2
f4
10
01
26
e8
26
e1
f6
dd
dd
18
11
f8
03
1b
e3
0b
de
08
f6
db
1c
d6
2d
0c
19
e3
11
12
fc
05
ef
00
25
1e
04
f7
ee
1c
02
ff
06
f4
27
fb
0f
1a
9e
e8
fa
fe
f8
f5
08
26
f2
f4
24
fe
39
fa
e7
e8
fd
f5
f0
06
f0
ed
fc
e3
de
fc
f6
37
e6
dc
e9
1e
13
d5
ff
d7
05
fb
fd
e6
15
13
0e
e6
e9
fb
ff
02
f2
ed
e4
f1
16
2f
c7
06
f1
bf
07
06
fc
15
ef
01
ff
0d
00
1a
e2
13
30
27
f5
f8
ef
f7
e0
17
15
08
02
eb
fa
05
fd
f4
27
df
e8
d4
d7
0e
00
ef
03
03
f2
f0
0f
18
37
02
07
06
dd
ec
fc
e0
17
ff
29
09
ed
0b
ef
2d
f7
e2
e0
33
02
f0
e8
14
0d
f3
f6
ec
0c
ed
e1
dd
21
1a
17
32
d9
05
d5
21
15
ee
e0
ef
de
f0
09
04
e9
02
f2
df
f6
38
f2
e5
ff
05
fb
f0
0b
fe
17
eb
f3
13
14
06
c6
f7
e5
0d
ed
ec
e3
fe
1f
ea
fc
d8
3c
32
f6
d8
f6
ed
d1
fc
f5
f6
0d
00
fe
e2
0d
ed
fc
0a
24
da
19
e9
e3
f5
e3
0e
3b
30
ce
f6
f0
01
0f
02
2a
0b
e3
1d
24
d8
03
fe
1f
09
09
00
1c
ff
f3
18
f3
ea
13
1d
18
26
fc
ec
e4
f2
0c
eb
fc
0e
fe
1d
38
f2
0c
02
1d
f4
dd
dc
4f
07
07
21
fa
17
f4
fe
ee
f2
1a
09
f3
f7
05
10
34
2d
c8
05
11
e0
17
12
08
24
ea
0d
f7
f6
13
05
17
0f
f8
f5
27
eb
ec
27
ee
e1
1a
f1
47
2b
f1
fe
e0
f5
17
ec
ed
fd
ec
28
2c
e7
05
eb
01
e9
11
e9
d7
02
06
df
0b
f6
11
14
f3
d1
06
28
1e
10
f8
08
df
f4
17
fb
fa
f0
d3
e7
df
d7
ed
2c
e2
08
01
dc
f8
d4
33
07
23
21
14
0e
21
e4
0f
e1
f3
fb
04
00
db
ef
09
1a
e0
16
1c
1d
3d
f4
fb
03
1d
e3
e9
4d
2c
30
20
0e
fb
e0
07
e6
03
0a
01
f6
32
0c
18
fc
f6
09
0f
07
ea
0f
f4
01
dc
fe
07
fc
06
13
34
f6
f4
21
0a
27
1a
1c
05
0d
fd
13
56
03
ed
0f
f9
fd
01
0a
04
fb
08
18
f8
e8
f3
19
13
f4
f9
ed
25
ee
0a
06
dd
c4
fb
f9
10
11
d5
eb
ee
db
f3
17
30
d1
e5
ef
22
e4
08
ff
d5
f8
01
e6
e9
11
0d
14
16
e9
20
db
f1
f8
05
11
0e
2a
f7
23
d4
d6
03
13
ec
e4
08
fb
1b
c9
de
e1
0b
fa
0a
e3
1a
f2
15
fa
cc
11
e3
14
0a
2e
36
1d
ef
11
03
05
26
e8
ed
f4
f3
1f
29
2a
ac
ff
f8
fb
02
f0
0b
32
08
07
23
0e
38
03
16
f1
09
f4
08
f0
1d
38
2f
e4
20
ea
10
0f
bf
df
dd
ea
fe
1d
ea
1d
03
09
29
e7
13
cf
25
0a
0d
0b
0c
1f
d4
00
fc
07
01
e9
28
06
f0
01
01
d5
2e
e5
0c
1b
f6
fd
0a
d8
ea
02
dc
e1
2a
36
e0
f9
20
f1
fd
27
0a
f3
00
05
0b
22
17
03
12
11
fd
03
dc
e7
0d
e9
30
26
df
06
f7
09
15
ed
2d
29
f9
00
e6
f2
06
0e
04
12
16
f0
20
f7
e4
ec
de
0d
fb
0e
05
e2
e8
0e
e8
07
e4
f1
f8
05
f5
21
23
ee
0c
00
e6
12
fa
21
ee
14
ee
18
44
f7
20
00
1a
3a
08
0e
f9
e9
e1
0c
07
02
09
38
e9
09
fe
03
f1
09
3f
df
39
e7
39
1d
eb
00
16
ff
f8
e6
ea
0d
df
0f
e5
ef
11
23
be
d9
36
ec
0b
e3
d3
a9
07
21
28
f7
18
df
0d
fd
fa
ea
1a
ff
0d
d9
13
fa
12
ed
ed
03
3d
26
01
1a
f5
df
34
fb
d5
12
12
3c
17
db
da
f5
fc
ed
e8
2c
10
16
d7
17
07
2a
17
ef
df
d4
32
00
e8
05
ea
1f
ff
03
12
08
2b
cc
19
f5
ef
0f
ec
13
ee
05
f9
29
f7
1f
f4
ff
e4
d3
ea
1d
f8
e4
19
0a
ee
19
21
db
0d
01
ea
05
21
01
12
16
10
e6
e5
f3
cb
19
ed
d8
04
ec
0e
1d
ed
27
08
dd
f4
d8
18
13
14
da
e9
1f
1a
1c
42
02
f9
09
30
06
09
37
1b
d3
4a
10
ca
09
12
f3
0d
f9
19
e6
d6
0a
db
f0
e0
13
1f
2d
0e
e6
06
fa
ea
00
da
e9
26
26
04
0e
fe
f6
f1
01
f7
01
0f
d7
06
2f
0c
64
e4
f1
14
0f
33
12
ed
f5
d5
3f
0e
29
16
eb
20
e2
0a
11
19
d0
de
1a
fc
fa
d5
e8
02
f3
01
e5
d9
30
33
0b
f7
f5
00
0f
f2
f1
e8
00
f4
1e
05
f4
09
f4
00
21
dd
d2
2a
ba
0f
eb
fb
f9
0a
fc
fa
f0
18
fc
ff
08
fe
ff
da
2f
d6
eb
02
08
d5
f4
e1
df
00
34
0a
e1
32
09
04
fd
3f
ed
e6
24
f0
e8
e7
e3
fd
f9
1a
01
09
f0
ba
1d
24
0b
f0
05
24
07
e3
35
e8
e0
46
17
e7
2b
ee
e3
c4
f2
28
e8
3d
f8
08
17
00
10
db
e9
20
1a
ff
eb
bf
e9
12
1b
06
00
13
2f
3b
f8
ef
f5
26
1e
24
34
eb
c6
2a
db
f5
df
fc
02
45
13
fe
25
ee
2a
02
02
f9
0d
e9
e1
f1
d9
25
d3
f1
d9
eb
ef
24
15
f8
24
ea
1e
d5
06
e7
dc
2c
1f
10
04
e3
00
d5
e1
0c
f8
12
19
f7
ff
31
15
07
04
d7
16
1b
05
06
20
fc
f1
16
fb
29
ed
f4
09
31
fd
00
03
d6
0c
1a
d4
19
17
ee
07
fa
ef
ea
f8
11
21
18
25
d9
f0
02
f2
10
0b
20
0b
22
ec
0a
22
ef
ed
f1
2d
f7
df
dc
e1
ed
ff
f4
d7
1a
08
da
fd
23
fc
36
ec
fd
e6
0f
e1
f1
fd
d8
0f
ec
f5
0d
05
fd
d9
e8
fb
37
d6
d9
d2
ec
29
ec
f5
cc
16
1d
df
e9
23
09
e3
12
d8
d9
d9
e7
d6
ff
f5
11
4d
03
f0
f2
02
0d
d3
1c
f5
1e
26
fb
11
0a
e2
1b
0e
dc
1a
12
f7
ce
e9
ed
fc
f9
0e
e5
ec
de
0c
03
c7
f7
1d
07
01
ff
3e
2e
e4
dc
f9
0c
f7
01
fd
fc
1e
19
17
ee
ef
08
00
02
f6
ec
fa
e6
cd
24
e6
1b
0b
0b
0c
ec
f2
f9
f4
fb
f8
f0
0e
de
14
fc
24
3e
00
b5
12
14
f3
fb
1f
e0
02
27
16
10
fe
0f
ff
04
ea
04
2a
fc
ea
0a
fe
c1
f6
c1
f5
17
28
23
10
e1
21
0e
fb
f3
d8
f4
ee
11
e9
ef
31
e7
da
11
e0
ff
27
18
f7
db
de
fc
fd
e8
bd
05
fc
e8
c4
ed
17
05
02
f1
12
03
f4
0a
17
e8
d0
de
ff
20
15
05
02
0c
16
28
fc
de
ef
19
0e
06
09
fe
0b
fc
14
e8
2a
f1
ea
03
fd
28
17
af
d4
08
f3
0f
e8
0d
31
ed
15
e2
ec
38
0b
0a
14
e3
07
dc
0f
c6
c3
1f
f8
f5
0c
e5
1a
4b
15
fd
09
1b
eb
0d
28
10
05
f4
2b
46
fa
f1
1d
31
ee
e4
fe
f0
c0
dd
fd
e7
ef
fb
f3
00
11
d6
fa
17
0d
13
f0
e2
e8
00
0c
23
dd
f0
14
ef
fe
f3
1b
ff
fb
df
14
0e
07
09
e3
11
e3
1b
eb
30
02
de
26
14
30
0d
16
14
db
16
fe
f2
0c
ef
f1
07
30
0d
d9
e5
22
db
ec
1b
0f
1e
f1
fe
06
1c
19
f4
c1
f0
e2
fa
fb
eb
11
1c
1a
ff
0c
e2
05
f6
eb
0a
cf
28
ea
f8
1a
01
ce
17
01
01
2f
f4
ec
e0
24
fa
21
15
d1
ed
e8
ec
f3
0f
fc
ea
d7
18
d3
04
e0
0a
fb
f4
13
e9
07
e0
fc
0b
19
f7
d6
1e
32
fb
f0
d4
ca
26
f7
fb
e3
25
fb
00
12
17
d9
e3
2f
ec
16
0d
33
0e
d0
01
01
f3
e1
f8
ec
ed
13
db
ff
e0
e8
fc
10
06
05
09
e7
fa
e6
0f
12
3b
ff
3f
20
ee
f5
0d
15
33
f8
f9
fb
fa
eb
07
13
16
06
f1
eb
28
ed
0e
f8
f9
f5
da
00
02
12
01
25
06
e1
2a
11
27
21
30
ee
25
f6
28
18
fe
be
dd
09
ef
19
09
10
f3
12
f4
28
2a
ea
cd
d9
1b
e9
c9
17
f5
f3
f2
16
dd
44
e3
d2
44
f8
09
e6
d3
08
f7
0d
e7
2b
f1
0e
ef
cb
e9
0a
da
f6
c8
d4
19
e4
eb
ae
fb
1b
4e
c7
fa
20
f7
0f
ed
fc
fb
09
13
e5
e3
f9
28
08
e7
d2
30
fb
2e
1e
fb
d6
4f
2c
e5
f8
d0
1d
04
2b
b5
c0
32
fd
d1
c5
ed
af
12
d9
0c
14
1c
f1
eb
1f
08
48
cf
d5
e5
d9
ed
0a
07
f7
06
a9
f1
e8
09
f8
da
05
f6
23
ea
2c
c6
11
e1
0d
1c
12
e3
d1
ed
17
ed
f0
07
df
2c
49
dc
16
59
13
d6
1b
e0
1e
08
4a
06
b0
bf
e0
d0
fc
b3
f7
fd
15
15
06
cf
29
1f
d2
f8
fb
b8
1c
d7
c0
32
e3
00
fa
c5
44
3c
ef
36
ce
bd
19
cf
d2
fc
fe
e9
0a
d9
ed
24
f6
d8
06
eb
e4
23
39
d8
10
03
f9
2f
11
cf
bb
2c
e5
09
37
19
fd
3b
d0
13
0b
e1
f8
31
c2
e1
0c
00
14
21
40
27
e6
18
3d
32
02
d5
fd
f0
fb
13
fd
23
f7
0b
19
e4
d2
d4
1e
01
10
21
e3
36
ce
13
21
e4
da
24
f1
fe
39
c2
d8
bb
ce
d4
1e
41
e6
d9
cc
f4
d9
14
17
ef
d4
55
2d
df
3b
ff
ef
30
1c
14
dc
d6
fe
1e
0f
ec
11
28
26
ee
bc
fa
d9
15
ed
dc
de
ed
ef
db
d2
f5
fb
4b
ee
fc
1c
02
23
ca
fe
f4
dd
31
e6
c3
fa
f2
20
f8
fc
26
0d
0b
1b
f4
e1
49
f4
f2
04
df
00
37
1b
b4
18
48
ec
f0
08
32
fb
c5
0e
12
ef
4a
34
10
cb
06
f6
36
15
2b
15
1f
eb
00
f8
60
1f
eb
39
bb
e3
f8
45
1b
28
05
2f
ee
b4
0f
e9
fe
18
00
40
03
2f
d2
c4
f2
d0
c9
1f
11
c6
03
c0
0d
c2
24
03
f1
e9
39
2d
b3
f9
ec
1f
d9
15
05
f1
17
f2
10
e8
d6
f2
ea
fe
f8
fa
0f
ed
28
18
09
f2
c1
1b
0c
e7
02
31
08
04
e2
c8
c7
21
ae
29
c9
c4
16
20
ce
3a
fc
09
48
43
2c
25
2e
b2
d2
13
26
1f
ef
0e
f1
f2
12
4c
ac
cc
45
04
bf
df
19
1c
ea
f6
e5
f6
30
fd
f9
04
2a
12
fb
f7
0e
04
1a
f1
4d
fa
37
ec
d9
f2
13
fe
c8
44
fa
28
b0
32
ed
e8
e3
01
d2
10
17
c4
f7
05
05
ff
f8
cb
ff
08
e7
1a
2f
db
f8
f9
1d
47
35
24
fc
d0
b4
0b
d7
07
f3
ea
11
10
d4
19
f7
16
53
e0
0c
1a
c8
01
f6
ae
09
13
dd
fa
ef
ff
f8
09
e7
ef
e3
d7
10
e8
44
dc
2d
0e
4d
21
3c
f2
d3
ce
0a
06
08
0f
cb
00
c5
33
15
f6
af
b1
e0
e3
08
2e
e8
f8
3f
0a
d3
fa
d3
1d
fc
f8
f1
0e
02
fb
f0
29
10
06
11
e2
48
0c
f2
cd
0e
11
f7
18
ff
1e
23
2a
f0
f2
f8
d9
17
d9
13
1d
00
fb
1a
1d
1d
dd
f6
f7
0f
07
0d
3d
dd
39
f3
c4
11
d9
ee
e5
f7
d4
ba
02
f6
ba
11
1f
0c
16
31
fe
eb
fe
17
02
00
07
dd
bb
e3
0b
dd
f6
f5
21
fb
32
d3
0e
39
1d
e5
e1
f1
e2
fc
30
18
da
f3
f4
c8
fa
1f
0c
1d
ee
f7
0d
0c
26
06
c9
00
f4
27
ff
25
f9
e1
2f
f5
4a
31
34
2b
db
01
07
f4
fc
d5
13
da
39
05
ce
13
fe
fa
f0
08
39
28
fb
01
15
31
e3
f4
df
09
08
e4
f9
ff
fa
19
f8
fb
f1
fb
05
02
da
43
03
03
fe
22
09
22
e6
25
f9
0e
15
17
0f
e1
36
c1
0b
30
c8
cf
e9
ca
ec
c6
f2
e2
c8
09
fa
c2
f6
d9
30
e0
04
0c
0f
0b
d9
f7
3f
1d
e9
05
0b
39
07
f8
c2
3f
f9
07
fe
f2
08
36
14
e3
09
d1
01
0c
e3
2d
0a
0f
e7
0e
04
1c
03
e7
ff
1a
1e
0d
47
d9
2e
cc
fe
23
eb
d7
c8
e8
b8
f4
03
fa
e8
0c
f5
e9
23
c1
28
22
05
e9
f8
0a
10
ea
26
0e
11
17
06
5a
ee
d2
e6
22
fe
fb
18
1e
f8
34
fd
dc
e4
1c
f9
15
04
2e
08
f1
ee
16
27
f2
fb
15
f9
fd
16
f8
fc
cd
38
f6
f3
1d
af
fc
0f
f5
1b
d7
13
e4
d7
ef
c6
f3
ee
d4
ef
e7
ff
23
04
d0
21
a2
e1
2a
16
2a
f5
a1
f7
e6
da
ac
3e
01
25
02
f3
23
13
16
05
ca
d8
28
24
b4
e4
56
f1
f4
25
c1
ee
26
9a
09
28
31
1f
a3
fb
f5
da
fd
1d
db
2d
fe
39
dc
1d
f6
e2
f5
e8
fe
2a
cb
08
05
e4
3c
d3
f5
f5
11
06
fd
28
f3
1b
ec
d3
ed
ce
07
29
15
ed
0d
e0
d9
90
0b
0b
1a
0b
f9
e2
00
16
b3
50
b5
fc
1a
0b
22
ec
06
fe
24
2b
30
27
15
2d
11
ea
5f
41
b1
15
b0
1f
09
31
f8
ef
f2
f6
df
39
f5
ff
d8
fd
fc
0c
ec
28
3f
f6
04
f1
f7
24
16
d6
09
33
0c
18
db
14
28
0e
0c
ff
cc
01
fd
d7
09
fb
05
d9
e8
06
fb
ea
0a
fd
f1
ff
2e
2c
d7
1c
f2
c6
fd
06
db
d9
e4
d2
ea
17
f2
f8
32
e7
f2
2a
fd
ff
ee
06
2f
f5
df
19
e3
f5
f3
0b
4c
03
f2
03
18
e3
fc
f5
fb
e9
2b
03
f4
d7
fc
12
0e
ec
22
1a
f8
32
b0
f8
18
0f
dc
07
fe
e9
fa
0b
ff
1a
17
42
fe
00
f4
d6
3f
09
dc
0a
f1
0a
22
07
1b
c7
e7
eb
09
fa
ee
1d
f7
18
d0
14
dc
d7
cf
df
f8
2c
ea
26
09
05
16
3f
29
0a
dc
06
02
c8
fb
31
f5
04
0c
0b
d8
24
ed
05
fd
de
d8
1f
0d
e8
02
de
ea
14
1b
fe
fb
c1
cd
06
1b
17
fd
00
1d
40
20
10
12
dd
ee
0e
eb
d9
0c
07
f5
f7
02
07
ee
f9
fe
fb
09
20
ca
ef
e5
e7
fb
ec
f0
19
de
cc
05
ef
01
db
01
db
f0
f8
fa
25
c6
05
e2
02
1b
36
08
db
f4
f2
f4
f7
05
2b
04
fe
e0
2e
25
29
f3
20
f3
0c
54
25
f5
09
13
e8
14
fa
09
e5
04
39
23
ec
db
ff
16
e5
1b
cc
26
fc
09
f3
ee
fe
17
f5
03
18
0e
12
f3
f0
cc
19
f2
ec
0c
e1
4d
18
05
1b
c1
c7
1a
f9
01
ec
05
0e
d5
f6
f4
14
3a
ec
b3
d2
0f
05
ff
04
d5
f6
12
35
17
ef
1e
f9
f4
04
0c
eb
17
07
f9
d3
f3
1b
1a
0b
07
f6
13
28
0f
f4
1a
01
05
fb
e4
16
2d
15
2a
09
1d
05
d1
f0
09
0a
1c
ec
fd
0c
07
27
da
eb
0a
e5
ef
f4
f9
05
d2
ef
fd
1b
f2
f2
e5
d2
ff
35
ef
02
ee
3f
eb
f7
0b
0c
0c
10
f1
fd
f1
07
0f
2c
2e
00
29
ef
e8
ef
16
ec
04
d7
dd
1a
e2
ca
f5
f2
11
f9
ca
e1
0d
0a
d7
08
2c
07
f4
f0
ec
1f
21
b6
dc
f6
4a
1a
e8
05
5e
0f
23
0b
fb
f2
fb
01
dc
fc
e7
e7
1f
e9
fa
da
d5
ed
19
f0
ff
cb
0a
f3
12
d6
26
22
ec
11
1c
ce
10
db
ee
0b
1e
03
fc
f9
22
00
d3
1b
d5
f1
2a
d6
e8
fb
2d
19
0f
3b
ed
06
f3
fb
08
0f
1f
01
d5
2b
0f
2b
0c
d3
0b
f3
17
06
01
fe
08
2b
11
fc
17
e8
02
1f
15
e2
ed
10
e1
e6
cf
05
f3
f6
fa
0d
1a
da
fb
fa
ea
ff
ef
04
fd
cb
ff
1c
19
d6
ea
10
f8
1b
c1
12
ed
f7
20
29
fb
08
fb
c9
18
02
2f
22
28
d5
c5
24
29
1c
ea
29
f9
f5
0a
07
d5
ff
f3
d2
f0
2b
fa
02
22
16
09
ef
34
09
d8
fe
00
1a
eb
e4
02
f2
22
fb
01
0f
e4
08
19
08
0e
03
14
fe
f5
e4
f2
33
c3
fb
bf
ea
01
f8
03
f2
e6
19
e7
25
13
2c
23
e0
ca
fa
1a
cc
e4
0a
f8
f2
0d
32
ef
fa
ce
10
cd
f9
0d
ff
eb
0d
0c
f1
f0
2f
07
03
0d
16
0c
f6
d9
b4
20
e8
08
0b
f0
d7
03
ef
e4
15
e9
ff
f8
f0
1b
17
09
01
f1
1f
4f
16
e3
fb
28
1a
f4
0c
0e
29
c8
f2
ff
f3
fa
e1
d1
e1
eb
05
e4
e6
ed
ff
d4
de
e0
12
30
f8
00
05
cb
de
e0
13
34
f4
0c
d8
f9
0e
14
d0
df
06
df
20
00
0a
0c
10
04
0c
04
fe
e9
cd
21
f2
07
0c
eb
f4
0a
cc
f4
02
03
01
2a
25
ec
1f
19
ea
f6
0b
c7
03
10
02
02
13
dd
0d
e5
e0
f2
eb
10
21
fc
1c
05
f9
e6
05
e0
2b
0f
e7
f7
13
1f
05
da
f5
0a
0b
01
0d
da
1c
22
f4
fc
d8
de
0f
1a
05
06
ea
0d
d4
16
ff
f3
08
17
e4
2f
17
07
f9
d2
1d
d9
1c
1a
e8
c6
ef
f7
f4
f9
19
00
c3
19
fd
4b
dd
1e
e8
07
0a
10
df
04
1e
05
e7
ef
f6
20
04
e5
10
e2
0f
19
f5
ee
f6
21
f9
e0
1c
09
f2
ff
03
19
44
f3
11
dd
f9
0c
0c
1b
0f
df
1d
f1
1c
dd
d8
11
df
de
3e
df
3b
11
ee
1b
ed
1e
f7
58
0b
07
01
14
06
f8
f4
2c
ef
09
14
ed
14
17
f4
05
06
1f
0e
02
1e
fe
d7
ec
04
fe
21
e1
e0
fd
0a
f8
00
22
f0
f5
2a
15
de
ff
06
ec
28
04
e3
de
cf
35
f8
cc
bc
10
14
fc
22
22
f9
fb
f1
2d
f8
0f
09
f5
14
f4
15
f6
ea
25
17
f1
39
f9
03
1a
0e
f3
d1
f9
d4
cd
db
dc
0e
18
ee
03
e5
2a
f1
dc
0c
d1
fa
cd
0e
02
07
f4
07
f1
f1
16
0c
d4
ba
0b
fa
e7
28
09
00
0c
f4
3a
0a
fb
26
04
fe
f8
10
0c
12
40
d7
1c
3b
2a
01
fd
e0
05
0a
e4
e4
f9
22
2d
01
e5
fe
16
ef
2a
d9
3f
18
0d
d3
20
00
1f
df
e2
3d
01
15
fb
ff
ce
29
fd
e2
10
d8
2e
ff
2a
0e
f3
fa
13
1a
03
fe
14
23
ea
02
db
08
35
e4
cd
c7
fb
dc
fe
ed
dc
f5
1d
fa
ea
23
25
f0
08
2c
e4
1d
f7
f6
1a
ed
e9
0e
e6
07
d6
e3
11
3f
03
0f
f3
20
e1
1f
fe
eb
24
0f
19
db
f7
e7
d8
26
f7
d0
f3
04
09
02
1e
e6
0a
ec
ee
f9
34
e5
1d
ce
da
0e
00
2a
00
13
19
15
f2
16
09
05
0a
2e
f1
f6
f6
0c
24
e1
0c
24
1e
d1
e1
3c
13
21
e1
07
fa
0c
0a
ec
fa
ff
01
0e
d6
e4
21
1a
1b
e6
2d
1d
e8
04
e9
08
09
1a
3d
37
f4
0a
f6
06
15
ce
08
04
10
05
d7
00
3a
39
f0
fd
01
f3
4a
04
f2
0a
45
13
c7
15
0f
00
08
0d
10
f0
eb
f4
06
45
48
c6
07
e8
d2
e5
1a
11
2b
fb
f9
08
c7
01
01
e6
0b
02
0d
14
dc
fa
05
07
eb
39
e7
01
f6
ec
37
fe
0d
f2
f6
16
d9
08
25
15
17
11
2c
f6
ea
14
e5
f1
fd
2a
f5
20
1b
d5
ff
f6
46
f2
fa
14
15
eb
f9
3b
31
09
19
d3
fa
18
ff
f2
d6
d3
26
30
f3
f1
fa
00
60
bb
17
07
1a
0d
e0
0f
4e
17
e4
22
05
23
dc
f1
fa
f1
24
fb
f3
23
26
e4
43
ff
fb
1a
00
c5
1d
fa
df
13
cc
0e
25
c2
f4
30
15
0b
c7
1c
fe
d4
cf
0c
d9
16
ef
f6
06
11
ec
fb
ca
f2
ec
02
01
ff
04
01
39
d5
f7
fd
f7
1e
dc
30
fc
ec
fd
00
13
ee
f5
d9
ff
f9
05
e2
30
f7
e2
17
fa
11
00
12
21
02
2e
10
cd
29
f5
01
f3
07
08
ec
e6
23
f2
0a
11
16
f6
f5
2b
04
25
05
ff
d5
0f
14
f3
e7
01
2d
e9
e8
fb
da
e6
16
f4
ef
0d
dd
0c
0e
f5
09
ee
ca
07
20
f7
fe
04
20
e6
08
f0
07
2d
ea
fe
e1
fd
df
f9
fe
e8
11
04
fc
e5
fe
35
13
0f
f5
f6
30
d9
13
f4
eb
e7
fd
ce
db
12
ff
f6
1c
e4
1b
08
08
fe
07
03
ff
fd
02
12
1e
f1
fe
0d
e7
4d
20
15
00
e3
99
28
fa
fd
ed
0b
f4
ce
ec
17
30
30
d9
c4
09
22
10
07
ed
ed
01
f4
e8
f0
20
f1
d3
1d
12
10
ee
f9
2a
fd
eb
de
0a
0a
06
fc
08
fa
16
f0
e5
e9
0f
05
d8
15
d8
07
f8
2c
de
f1
1a
e5
22
bd
1f
f0
fd
21
0b
fc
09
1c
cf
e7
e4
39
07
29
ea
ed
1a
39
34
f8
18
f5
ea
1a
0e
d0
f3
1a
d2
d4
23
1e
f1
df
00
05
f9
08
2d
15
f3
11
fd
2e
d7
f1
e4
11
f7
0b
14
04
f2
2f
34
fd
f6
d3
2b
1d
e3
0c
f7
2d
d9
02
08
f1
f4
11
fb
07
16
0a
1a
d2
e5
e8
00
2f
fd
c4
b9
1c
d8
ff
12
eb
e7
13
26
2f
2c
cf
e2
3f
e8
28
fa
1f
ee
e5
25
2b
25
55
e4
45
05
09
cc
1b
fd
27
f9
2a
d6
d3
fe
d8
f5
f4
39
0e
05
f9
de
02
e9
1f
2a
fd
03
d9
12
0e
fc
d4
c6
1a
27
bd
06
3f
14
26
f5
2a
ba
1f
0a
e4
f2
15
1c
e0
ea
22
24
ff
13
e9
e0
fc
09
d7
09
ff
e7
c7
e4
f6
1c
e9
0b
d1
15
00
1c
d6
06
22
f8
f9
36
0b
ec
db
ba
16
1b
22
12
d8
da
10
fa
12
06
da
dd
1a
f8
35
12
19
e8
ef
01
f8
34
08
17
fe
13
fe
05
e6
c0
04
f8
d5
fe
fe
18
20
ef
e9
09
f8
e8
ff
00
15
3e
b3
fb
e7
df
06
34
0a
07
d2
dc
f9
c1
1f
f5
fa
07
03
fe
ed
22
ca
f3
dd
09
27
07
08
d9
05
f4
01
f7
0e
2e
ef
1e
f8
fd
33
01
d0
19
06
25
1e
1a
fd
0d
f0
fd
fc
0e
02
29
fa
3a
f8
14
f5
05
0a
c3
e3
fe
ff
f9
15
44
c2
26
f9
fb
eb
0d
28
26
f9
fe
12
ee
11
0d
de
d6
34
f4
f4
fe
db
ca
fe
f3
1d
ee
f0
de
df
f4
34
ef
fd
f7
cc
f0
13
0b
28
19
e8
e1
0c
f7
06
de
fb
13
10
2f
e2
00
db
fc
10
1d
0e
e7
f6
d9
f7
0f
0b
2d
f3
f6
3a
02
ca
2f
05
02
ef
f7
24
1a
0d
08
dc
0e
08
01
db
ec
f0
e4
0a
e9
ef
16
d9
f7
e9
06
0c
fb
0c
d7
f7
00
0a
ee
f9
21
f0
fe
d6
fe
e7
0e
21
0d
f8
33
f9
15
16
20
08
21
e0
e9
e8
fb
25
ef
f8
24
01
10
0b
06
e9
12
11
54
d4
e0
05
05
1c
fe
d7
fb
31
e7
10
f1
e8
14
f4
03
34
0c
e4
0c
fe
f0
f5
ef
f6
e4
db
dd
08
ec
f7
e7
07
06
fe
c9
ec
15
ca
20
1f
05
81
06
0c
e0
f9
15
21
d0
11
1e
16
fa
e3
c6
32
02
eb
22
be
00
2b
04
e3
dd
df
d3
e8
da
1d
06
dd
f2
d2
08
25
10
14
d2
46
ee
1d
10
dd
2c
18
cc
c5
f8
f6
09
fa
07
fa
23
0a
ef
19
10
fd
f2
2b
2e
21
27
0d
0b
f2
10
2a
c0
f0
11
ff
fb
19
eb
ee
11
00
0b
f8
f1
e4
ed
e4
1d
36
14
13
16
e0
3a
be
30
01
06
f4
e7
e2
f3
ed
e0
02
2a
f0
f5
22
13
50
b7
da
d4
30
15
14
15
ea
f7
59
28
f3
00
c0
28
fb
fc
ed
1d
36
1d
f5
1c
aa
d3
e7
30
fa
eb
15
d5
08
f5
1d
22
25
e8
d2
ff
f8
d4
ce
05
e8
0a
fb
b6
ce
0b
28
c9
23
f0
e3
36
07
33
1e
e4
15
12
1e
1a
18
f3
00
e1
f7
2e
e4
19
e1
07
f4
ef
ee
fa
03
11
de
1e
ff
c7
12
17
eb
eb
e3
fe
31
2b
0b
18
e6
11
e5
e5
f5
1e
1f
2b
39
e1
f4
fe
26
06
b5
0d
0a
44
df
08
28
f8
f4
35
d7
1b
21
d2
fa
59
f3
09
db
04
fb
f1
dc
ee
f1
e3
e6
02
f4
17
15
d4
54
ee
46
d0
dd
0d
32
ff
e8
0c
ee
fd
03
08
10
24
3b
0f
1a
ed
0c
f8
f8
26
0f
0b
0f
dd
f9
22
f7
e3
0e
4b
1b
11
00
eb
18
e3
e7
36
d3
d3
df
ba
18
2a
c7
e4
f1
f8
f7
53
2d
ef
f4
00
12
01
03
15
ed
f0
07
20
1b
05
e7
cf
d7
fb
29
cb
31
19
01
f9
d2
51
11
36
05
ce
f7
0a
17
07
03
f1
1e
c7
d3
f0
fa
23
1e
d3
22
22
dc
27
f6
0f
f8
1c
39
42
f4
d4
0e
fb
fc
e9
38
03
e5
0d
f9
2c
2d
1a
fb
1b
f9
22
3a
18
08
f7
ed
22
03
cd
1e
dd
fe
a9
f0
ec
16
f0
32
0c
16
26
dc
e6
f9
ce
19
dd
c0
c6
27
c3
02
f4
08
15
0a
0d
ac
cd
2e
fb
f0
21
f9
1a
50
d9
c5
eb
fc
15
0e
03
ee
09
0f
3e
09
f1
1b
31
c3
ec
d6
19
0b
25
c0
a7
e3
22
27
fc
e2
e9
16
d6
2d
27
f1
fb
22
10
db
f7
f2
f4
ff
0c
f5
fc
cc
1a
fd
f8
26
06
17
0a
fc
c4
2d
fc
2a
d7
d9
3b
15
0d
20
f8
f7
02
38
02
db
cd
d4
08
1c
ec
05
f0
02
37
f3
24
05
f8
35
e2
27
e6
f5
c6
16
36
ef
04
f8
26
07
e6
0c
4b
06
c8
18
14
15
0c
e9
f4
fe
e8
02
ff
e5
f1
fd
1f
f9
0d
dd
2f
fc
ea
13
ff
01
cc
04
05
22
e7
cd
da
0a
38
e1
0f
f5
06
fa
f6
2d
f5
c6
ce
f9
01
f7
f8
fb
f4
1d
22
99
1b
ef
01
0f
08
19
29
02
f6
e1
15
0a
20
d8
c1
0a
13
0f
c2
d3
0e
eb
29
cd
06
38
ee
f1
08
2e
fd
0a
c8
36
fd
ed
06
cb
1b
37
f9
01
ee
04
e8
26
3d
2a
42
21
a4
ea
18
fb
06
12
17
cd
0e
0a
ef
f4
39
ec
2b
36
ed
16
e4
f7
e7
f9
e0
f9
2a
fa
ef
f5
0a
19
01
ea
e2
06
c5
f4
15
eb
eb
da
f4
d5
ff
42
d7
e1
1c
22
ed
b7
fc
12
05
4e
26
ef
2e
35
e3
ec
d3
1d
f5
1f
24
e9
f7
1c
19
09
20
03
be
fb
de
04
1f
fb
e3
2c
00
17
1e
b8
01
e2
09
00
e3
e2
a6
b5
08
d5
0e
1d
43
f2
51
04
2a
06
ed
06
0b
ae
09
e7
00
15
0b
f5
00
58
fc
f7
d3
dd
e9
08
f2
eb
19
0d
18
e2
fa
03
22
d4
05
ae
02
06
08
4b
ff
ed
12
28
c6
10
2f
05
f7
f7
eb
04
f4
ff
e8
48
dd
f2
1f
fc
de
c6
e6
e2
ec
ef
15
1a
06
1e
e3
e6
ac
36
1c
04
e4
f7
c6
f3
05
c0
21
f2
08
2c
f1
01
21
ed
05
17
05
13
e9
13
02
df
f3
55
2f
f3
19
f1
00
0e
3b
1f
06
06
d8
e9
16
ec
e3
0d
c9
0b
01
fa
ec
e5
ea
e4
34
d4
07
3c
fa
12
f8
ca
11
e4
ed
05
e4
fa
ea
1f
de
05
06
f5
fc
bc
f1
d4
b7
21
4b
e3
03
01
ee
3f
15
ff
f2
24
28
b6
0f
14
11
af
19
1f
d0
0a
40
dc
fe
ed
2b
ce
ef
ff
e5
3f
0f
e9
07
03
fb
ef
0d
3c
2a
fb
e7
04
dc
e3
20
05
ff
da
c4
0c
c3
ea
fa
1a
07
30
15
04
02
c9
17
e0
08
f7
03
0d
d5
1e
10
fd
04
14
2a
16
2f
0b
b4
0c
0f
de
27
e0
23
e1
1c
d1
bb
26
e3
2d
f7
f7
13
e0
13
f4
09
f9
db
e3
d1
b3
fc
cc
0f
fc
24
c4
06
24
01
f0
d1
13
06
2e
f2
e2
30
fb
2b
e3
07
ef
05
b7
da
01
0e
22
ea
04
fc
f8
d5
fb
b4
27
fb
b7
27
25
24
26
25
04
2d
34
f1
ee
1c
17
e4
fb
2c
0b
eb
08
ff
1c
ef
04
ef
04
09
cc
e5
fa
0c
f2
de
16
10
e9
1b
c7
ee
1e
fe
ea
da
15
fd
da
05
2c
05
1f
1d
05
01
15
fd
02
02
ff
29
06
01
e7
13
01
0a
ec
ee
e2
00
16
40
19
f4
12
0a
2b
2c
0b
fe
0b
02
15
f2
cd
1c
f9
f5
e4
f4
fb
e7
e8
db
12
20
e3
0c
08
0e
0c
fd
09
12
f8
0c
d1
d8
f1
1c
06
07
07
d7
2d
fa
f1
fa
eb
0c
f6
29
fd
e8
0a
e3
07
09
f2
fa
11
08
e5
f1
35
e1
10
f7
e7
e3
ff
e8
f1
03
ef
0c
01
1b
cb
10
fd
f0
10
1a
03
f1
f1
10
0b
04
04
eb
f3
1d
04
f7
ff
fb
1c
ef
06
ec
df
02
09
d1
02
08
1f
0b
da
cc
0c
fb
18
f0
fe
ff
15
1d
dd
ea
06
df
03
fb
fc
e9
f4
0c
eb
23
fb
18
12
01
0b
0f
dd
f6
f0
ea
14
dd
e8
0f
11
fb
04
1c
f0
16
0a
f4
17
fc
14
05
14
05
16
bb
fc
c7
09
f0
f0
0c
f1
fb
fe
12
f7
19
02
03
f0
0f
22
00
f3
e5
fb
0a
f4
0c
01
fd
d9
0d
30
1f
ef
0e
07
2d
16
ff
ff
14
0b
e6
02
fc
21
ff
f2
07
ff
21
fb
0e
e8
00
ff
11
cf
0a
d9
03
0a
00
f2
f1
04
fa
14
1f
00
02
2f
f9
fb
1c
ea
17
fd
f3
22
d4
ff
0b
f9
19
27
fc
e1
f2
ec
00
1e
1d
d9
f6
15
25
f0
13
f7
1a
ff
f8
ff
13
ee
03
0f
fe
24
26
fe
16
0d
12
e9
0b
08
17
14
e2
41
14
16
fb
f3
f3
15
0a
02
04
08
00
dd
ff
15
ff
1f
13
e6
fd
32
01
fb
0a
eb
d1
13
ee
12
e9
eb
ff
ed
18
10
ed
26
d7
fc
fa
3a
f2
ea
08
ff
09
e0
e0
0a
12
ee
e5
fc
0b
1e
d5
28
08
00
da
e4
14
00
fc
df
f2
fd
17
ff
e9
ff
01
12
ea
05
e3
1c
19
0e
c8
f7
0a
d5
18
e8
06
f3
f7
11
41
01
0f
f1
ed
14
fb
01
01
f6
02
c4
19
23
25
f8
04
f2
f0
24
08
fb
08
05
ed
f4
1d
ed
ee
f5
11
0f
f0
e1
0a
16
f4
24
10
15
11
06
ee
11
19
08
0c
0c
39
ff
22
fe
f4
cf
2b
0a
0e
08
ec
20
f8
1d
13
f2
01
01
ec
02
1c
13
1f
bf
21
fe
ee
fc
f7
d2
ec
f6
fb
f7
06
ee
de
23
f1
07
df
f5
1d
10
fd
f4
23
ff
12
06
11
08
f1
f8
e1
2e
f3
ec
11
ee
08
14
f8
f1
21
fe
0f
fa
04
fb
2d
14
00
f8
e0
48
ff
0a
f8
b9
d8
0e
ff
0a
13
06
10
bf
0a
f0
1d
2e
dd
d0
e7
fc
ef
09
07
d1
ef
03
0c
09
27
fe
09
e2
08
0e
cb
ed
fa
1c
e9
05
21
0e
1f
f6
ff
11
12
dc
fc
e8
1a
03
fc
fb
e7
fe
1c
1d
f5
10
fb
f3
f0
01
f8
12
0c
1f
27
e2
e7
fc
1b
00
c4
07
ed
f7
f2
d4
04
00
33
ea
1b
13
00
0a
ec
0f
16
f1
11
2a
10
0e
f1
fe
f3
0f
0a
15
fe
05
1c
e1
17
02
e6
fa
3e
04
24
fa
16
17
f2
fd
04
02
f1
09
e2
22
12
18
14
0a
43
10
ff
f3
ed
15
02
e8
24
e2
f4
18
0b
13
f1
fe
1b
3a
23
06
1d
ee
d0
19
1d
f3
1e
0e
e8
04
f7
d9
04
ec
fb
ea
0e
dc
0e
ff
f1
ff
d8
1d
f8
01
16
f3
1e
01
05
fa
f9
28
1d
04
ef
20
03
30
1c
09
f4
f0
05
06
f0
da
02
0a
0f
e0
f8
e0
26
0f
ea
09
0a
05
04
d3
df
09
f7
0a
0a
15
17
01
db
10
d1
0d
f8
f3
f7
f4
d3
04
0e
f1
eb
17
f4
fd
06
ca
11
12
eb
10
eb
d7
11
11
fc
0d
ef
1f
08
e5
ee
11
0d
1f
f1
29
08
11
f2
04
d4
15
1a
e8
12
1e
0c
de
eb
e4
17
06
09
fc
e6
07
fa
fe
f7
08
0e
ee
04
d7
33
14
e0
10
e4
ea
fc
0d
00
e9
2d
1d
04
db
e7
0d
e0
e3
08
e9
f4
fe
09
01
c9
2f
20
f8
16
fb
dc
f1
f5
0c
15
14
e6
10
fc
02
18
06
fe
f3
f8
0d
07
1c
fd
e7
f2
0f
08
09
0c
f8
e9
f5
fc
f4
e6
07
0c
42
f5
e0
01
05
20
f0
e7
11
e7
0f
e9
24
07
2b
ee
f9
f0
ff
e7
15
21
1f
07
e6
1b
08
08
1a
d8
f4
25
17
15
f6
03
0e
e3
fc
05
eb
e4
17
f3
ec
f2
f9
10
db
f2
e2
02
27
d8
de
e1
28
fd
e3
08
e6
fb
1e
fc
f8
0c
08
ee
f9
25
ed
ee
ef
09
10
00
20
ff
f3
e9
ca
1c
16
14
f9
01
16
1a
06
f9
e4
0c
fa
0f
f3
1b
fa
c8
c5
08
1e
0b
08
e7
18
fb
ea
fa
cb
28
fd
06
ef
0b
ef
fb
f3
22
f5
fe
d3
f5
32
fb
06
10
00
