e5
10
09
05
e5
f5
ff
25
1e
f1
f3
e5
0f
c5
db
f9
e9
12
f3
35
0f
eb
f1
f0
cf
1f
df
ff
0b
f3
31
fd
ec
e4
d6
0f
d7
20
f2
00
fc
08
de
ed
e1
25
db
e3
f2
21
e5
ff
f2
34
dc
e6
de
23
2f
39
21
1d
2a
1a
05
31
22
e7
f0
e8
c4
ea
23
11
d2
f8
e8
ce
0a
17
f1
f2
ea
ea
fa
32
1f
0e
d6
f0
c6
eb
01
ec
1d
d7
03
cf
1a
c7
b5
f2
2d
07
1b
01
08
0c
cd
00
e4
1b
fa
26
0f
c3
fa
f2
ca
0f
1a
f5
dd
30
ed
1b
5f
12
e9
25
f0
24
f6
05
f4
fc
05
07
35
eb
f4
17
d8
07
21
09
f3
3b
eb
0e
02
08
1b
c4
ee
16
16
17
1a
fd
18
d9
ff
00
f5
02
f0
ea
19
3e
d9
c6
f6
f3
f3
02
de
18
f2
1a
1a
cc
0c
e7
03
1c
f6
e3
16
d9
3e
15
da
f0
0e
14
00
0a
04
33
1e
f9
0d
f8
3c
f5
67
ec
f9
fe
1b
3d
0d
31
ef
f8
1a
06
f0
e2
12
c5
f4
0a
18
fd
0f
d9
08
ef
e1
0f
18
0c
0a
10
ed
4a
e5
e3
03
f9
dd
17
f1
2c
08
1b
0e
56
fa
f7
c4
03
bc
db
f0
d8
e4
13
2b
f8
10
09
11
ef
fe
fd
cc
26
06
d5
f7
24
38
e7
01
1b
03
ff
23
11
2f
c7
09
e5
e4
f3
f3
f7
ed
1e
31
fe
0c
df
e1
1a
f3
0f
2e
2c
f0
fd
01
2b
f5
f4
ff
eb
05
1c
f3
11
12
04
fa
1c
31
e2
35
bb
0d
dd
ed
02
fb
11
19
00
ec
03
09
31
0d
e9
d2
2a
e4
f7
f7
fd
1e
16
f6
3e
dd
29
1a
28
16
ee
f0
f9
f0
f9
f1
e8
0d
cb
f7
f6
d6
dc
0c
f6
1b
09
34
13
f2
43
0c
df
c4
d2
f8
d9
f1
bc
0b
45
e1
f1
f6
ed
f1
09
16
dd
03
ac
f7
10
01
10
28
eb
df
ff
fc
37
1a
eb
21
fe
ef
e9
37
32
12
dd
e9
de
05
36
2a
07
ff
e5
08
d9
eb
1a
17
02
06
df
14
12
22
1e
15
05
16
ff
f0
e0
08
16
f1
10
f1
f2
fe
43
f5
06
14
19
d5
d2
17
f8
f8
1e
03
d8
3b
00
29
ee
2d
fe
ed
ec
0f
ef
f4
16
ec
ce
cb
c0
e7
1d
17
e2
f3
03
f8
24
17
0d
f7
05
28
0f
dd
0e
ef
eb
25
fd
22
f2
03
f2
cd
d8
f3
f8
00
2e
0f
03
01
fe
61
04
12
2c
10
e3
ee
37
dc
d8
f9
e1
02
1b
f0
ef
20
e1
dd
c9
fa
11
0d
f6
f9
fa
eb
cc
f0
d7
e4
22
39
0d
d7
06
e4
0a
b7
e4
00
02
26
aa
cd
32
cf
17
05
2e
fd
e5
d8
f9
e8
2f
ef
e5
d6
af
f0
d8
ef
f4
f9
2f
18
dd
e9
32
34
e4
ee
e8
04
25
03
17
0a
08
ec
db
fc
e3
0a
23
f4
07
21
d8
de
06
06
24
cc
04
f5
04
f3
11
ed
cb
f9
f2
0a
0f
06
f8
f3
07
0f
05
ec
0a
fa
40
ca
01
ca
21
f8
2b
11
e1
12
1d
e4
11
e0
e3
d7
fa
db
e4
04
17
eb
d8
17
17
e3
2f
0e
bb
06
e5
13
f9
19
1b
08
37
1d
b0
ed
fd
c2
df
c7
20
14
f2
f5
ec
05
e7
eb
f7
ab
e3
ca
d1
e8
06
21
10
dd
26
0f
c8
eb
12
f5
2e
f8
25
0c
c1
e0
25
00
18
05
ea
da
0f
38
19
46
e0
f2
1a
e6
27
f0
05
dc
ee
b6
45
47
0f
f3
10
f8
e2
e1
d4
31
03
ea
17
08
08
f8
0c
1f
fd
16
09
f7
f8
03
13
db
28
13
cd
08
28
0d
25
2b
28
ff
fa
19
e6
05
e9
f6
0c
fd
24
d0
e2
14
ce
d0
1b
f3
07
e3
e1
f6
1a
00
04
81
e3
22
df
e3
ed
21
e0
fa
05
2f
df
1d
e4
00
11
06
d0
0d
f9
20
04
1a
0e
06
fa
e9
c9
10
e9
0a
06
e8
f3
4d
f3
00
e1
f3
d2
13
3e
fb
04
0d
f4
e1
1a
d7
19
1c
10
e2
ee
e9
24
10
fb
44
07
07
0c
01
12
01
ec
2f
15
fc
19
0a
2b
e7
e3
ee
0d
02
f8
22
0b
07
0e
0b
2e
e3
c5
31
e3
d4
fc
2c
10
e3
f1
f2
0e
2d
0c
14
0b
10
e6
fc
12
14
15
e7
ea
29
fd
0f
12
f9
10
ee
f7
fe
13
06
fc
d7
6d
c5
2a
02
af
dc
20
00
23
fd
e3
fe
c7
f7
26
fc
17
2e
e1
09
38
1d
f9
de
2f
de
be
f5
04
fc
06
06
91
dd
f0
f4
fe
ec
2d
1c
e3
38
d2
fe
e3
e7
f7
bd
ee
35
aa
ed
1c
eb
eb
fa
3b
0e
44
f9
48
48
25
f3
17
1c
df
fb
39
1b
f7
1c
03
cc
09
dd
00
2b
22
21
d9
ce
2a
f4
ec
f9
fd
00
dd
2b
1b
f0
03
e4
1a
20
ed
00
17
15
12
54
01
1a
ff
f8
e0
f7
10
e6
28
22
0f
26
33
fc
2b
fe
0a
13
e7
1a
37
01
11
d9
ff
18
29
03
e7
ec
d0
e2
17
64
cf
01
d4
1d
fe
2d
11
2c
d0
dc
eb
11
e4
f0
df
fa
0d
ce
e7
1c
02
ea
4c
31
27
e9
d8
10
d6
09
e0
d6
0c
14
fa
cf
16
15
00
f0
9b
25
47
3b
03
ef
28
57
eb
f1
1f
09
09
25
f9
fe
ee
eb
03
de
07
fc
4f
06
01
da
3c
08
0f
ef
32
38
d9
13
ff
14
0c
2f
fb
0c
f6
c6
19
30
fd
df
ff
fe
10
40
0c
f2
01
3b
e4
c6
f4
ea
34
0f
20
24
e7
33
11
fa
ee
2a
17
16
22
18
71
1a
0c
3a
cd
08
c2
e5
fd
cb
fe
02
08
19
c6
e8
07
cc
f5
02
ef
cb
e8
29
eb
f3
b5
0a
fe
ca
35
13
f3
0c
2f
20
dd
07
17
17
ff
eb
cd
f7
07
26
31
06
0c
26
04
12
01
19
d4
19
d8
11
e8
c1
fc
f3
3b
ec
08
12
26
08
23
d5
df
ff
e3
e2
bb
0b
0c
f9
01
25
29
f3
1d
11
05
e0
1f
fd
1a
f7
be
01
fe
e1
15
1a
cb
2a
0c
10
df
33
e9
e4
1c
f0
2d
25
b6
fc
e6
0c
19
f5
e7
c6
0f
d6
1d
ed
ef
22
ca
ec
be
34
e2
08
41
f9
f8
ff
1b
e0
35
b4
db
e7
03
e7
c1
ee
02
1c
ff
27
e2
f9
0f
02
fe
d1
11
f6
ca
12
0f
12
a6
15
4f
0d
00
45
52
31
e2
17
e6
f6
14
d0
f8
e9
1b
49
da
1d
f3
55
15
e9
10
49
e8
3f
f0
27
09
22
f8
cd
e9
39
fb
19
ee
f5
bd
ef
dd
2e
1f
e0
ff
f7
cb
d9
14
f4
25
be
e0
c3
11
3b
39
03
d4
cc
f6
e2
9d
29
12
0e
f6
dc
e4
1d
16
2e
ee
0d
d1
20
49
02
05
f8
16
d9
2b
f3
17
37
02
04
f8
1e
0e
26
f4
26
1d
cc
f2
e1
09
4e
fd
fd
27
c4
4d
f5
06
c4
f2
10
04
05
eb
03
12
fc
e9
e0
24
56
c0
e6
f9
ee
13
23
2d
15
ef
d7
ff
46
f2
0e
1e
31
19
f9
e0
f6
c3
dd
f7
fb
ec
00
db
1e
dc
fe
30
19
04
2a
2b
21
3f
00
05
11
08
09
ce
e8
cd
e8
ff
d0
db
bd
01
6e
ff
23
c3
32
23
d6
18
3e
01
34
08
07
f4
fc
26
b1
f0
08
02
05
f2
19
0e
b5
f3
c4
fc
d8
21
f5
0d
1b
ae
35
0f
02
ee
11
2a
fb
e8
f8
f9
14
d8
36
c1
0f
09
05
db
2c
03
1a
0e
de
20
13
d9
e3
cc
d3
ef
fd
f3
fa
0e
ff
d5
d0
48
04
d9
13
ee
e4
01
d6
23
d6
c8
cd
0a
1d
0d
fe
ca
e4
f2
2b
04
20
c3
36
ef
d9
c6
07
f4
23
d6
e3
02
17
2d
16
21
cc
1c
f8
17
28
42
c2
ee
29
d2
ec
01
12
41
fe
e0
0c
d1
eb
19
43
2d
05
f9
17
d8
df
dd
e8
ec
11
05
f7
31
07
fc
d1
19
e6
07
04
f4
0c
26
15
2d
2b
bd
2c
0d
14
06
f1
10
20
e7
1a
41
f3
24
db
ea
1c
10
46
40
b1
bf
01
f2
ef
fb
fd
f5
df
27
01
da
56
0b
fc
0e
e1
d0
2b
f7
f1
1d
3a
0c
45
a0
ce
2c
18
ee
3d
27
ea
33
e6
d8
2c
17
3a
99
f4
02
d4
f8
f8
f2
dc
d6
0a
10
fb
18
f9
16
fa
26
fd
14
05
01
19
b0
f3
1b
e5
e5
0f
e8
31
2f
d5
0a
f2
da
b6
0d
ea
0d
ec
f9
1a
12
0a
28
b6
ab
d6
16
f7
3f
10
a2
e5
b8
32
35
01
a2
d5
40
07
03
ff
27
da
4a
e3
da
11
2e
0c
f0
0a
11
00
e6
39
ea
1d
0d
ed
ff
fb
02
15
41
35
19
17
15
d4
db
d1
dd
12
ed
f4
08
4f
28
23
f0
1b
fe
1a
f8
de
11
24
fe
de
3d
07
e1
08
f7
1f
0b
2e
1e
e2
be
ea
f0
b5
ec
0f
ba
d1
f8
37
14
f5
c1
f5
d8
fa
e1
06
d8
e2
22
19
f8
38
64
f8
d8
0d
d8
e8
c6
f9
fc
1c
15
03
f1
1c
35
da
e4
dd
e8
e9
f8
db
eb
f3
f6
1a
e0
e4
e5
fc
ec
4d
39
f6
44
c7
ec
da
1b
0b
f3
f2
d7
10
09
e9
da
1b
f9
d0
f9
c9
f4
32
ea
0a
0b
d9
57
d7
d2
ff
13
dc
dd
2b
98
f9
1f
2b
a0
10
d5
0d
df
0c
d6
fa
16
28
ef
f9
e6
f5
41
14
12
0e
16
d6
c2
00
c5
43
c3
f7
e2
2f
1b
13
36
11
c9
fe
d6
16
f7
1a
3a
cb
19
0a
1f
12
5a
13
d7
02
e3
f8
fe
0a
10
e3
d3
dd
0f
ee
e6
03
b8
d5
02
0a
1d
11
20
2a
f4
de
07
1e
f1
3a
f7
07
0d
15
cd
0a
0c
fc
37
07
9f
e9
0d
e7
19
ea
27
03
19
d1
f4
d1
ef
14
fb
eb
26
fe
28
15
e7
f8
a7
e1
36
e6
06
01
4d
fb
e3
41
d5
c7
f3
d6
13
1d
e6
08
24
4d
11
cb
00
1d
d9
e8
02
4d
30
34
f2
32
e5
fd
0d
b2
e8
2f
1e
45
e6
0c
15
d6
f3
cf
09
0e
39
bb
17
f1
05
ed
f0
d2
ec
f2
24
47
ff
09
14
10
c8
de
d8
2a
15
35
0f
1c
ef
13
23
0d
5b
2e
e5
3a
19
16
bd
0d
47
13
ea
1f
c0
16
dd
f4
3f
11
0f
d6
f4
dc
c4
de
18
d5
20
0a
17
f8
21
06
34
eb
fc
f4
f7
b3
df
ea
28
19
fa
df
11
19
cf
13
15
fe
38
26
21
ef
0a
0d
f7
08
fc
32
d9
f0
1e
c6
0c
0e
f9
3e
0f
37
f2
f8
e5
f5
f1
17
fb
1b
1c
20
ff
f6
5b
13
f2
04
d9
f0
21
e5
26
2f
3a
fd
d9
f0
e6
ea
28
0e
0e
1b
e2
fb
fd
f3
37
ff
03
e6
10
42
d8
f7
ee
e7
e8
fd
d2
1f
06
e8
cb
dd
ff
e4
15
f0
fc
10
1c
02
fd
d6
f7
dd
0b
d8
05
0a
d2
05
03
df
ee
f9
f9
e6
4e
32
02
37
24
eb
1d
e7
fa
d9
f5
ec
e8
0f
db
14
f5
15
0f
0a
f2
3a
ea
fb
f9
09
17
fb
0d
0c
4a
fb
fd
2d
fd
06
df
01
1c
4a
a8
05
35
ce
10
fe
f7
37
fa
fa
05
00
07
df
1d
11
4e
0c
0d
f0
1b
1c
dc
33
e0
fd
28
05
1c
ff
13
27
17
21
ea
12
ff
fc
17
11
f7
05
2a
f9
f2
17
00
ef
ee
f1
0d
24
e8
27
ec
12
35
22
36
01
d9
de
26
f6
f2
02
29
15
19
17
fb
25
32
f0
03
f7
1f
14
26
de
e9
31
03
27
15
1a
0e
14
05
23
0c
f9
f7
e8
18
e2
f6
fb
c0
01
19
f1
1b
0f
ff
ef
fb
02
28
0b
eb
ec
da
18
e8
ce
e4
ed
e5
d5
ee
2b
12
fe
fc
f7
da
ef
db
fa
ff
19
1f
f4
f8
46
1b
f2
10
03
f6
dd
d8
03
e4
ff
db
24
ff
00
12
fc
ed
13
0d
2b
11
e6
ed
30
c9
fa
20
1c
e9
da
fa
03
06
f5
00
08
18
05
1b
22
28
3c
f3
0f
1d
fb
4e
e5
0f
fd
fe
d7
15
1b
fc
09
ee
02
d6
fb
dc
04
ef
d5
38
f2
08
10
e1
06
40
e6
08
05
fc
0e
10
ff
04
ec
37
0d
f4
30
0a
0f
e9
0a
e4
f5
22
f0
ee
19
14
f3
02
f7
f0
0d
16
2a
2d
f3
f1
fd
10
1c
e1
e4
15
0a
31
40
0a
ec
29
50
19
f9
12
16
f1
30
d8
11
fe
e5
f5
e1
ed
ca
07
fc
df
77
ff
cf
0b
eb
ce
26
c0
0b
1c
47
f9
ea
e7
19
18
09
ef
32
1a
0c
03
0b
fc
2d
f4
ee
f7
36
0a
db
da
eb
ef
1d
08
40
fb
08
c8
1e
d5
e9
ff
1e
f6
03
f4
53
f3
30
c9
33
2c
17
f6
31
26
29
fe
17
de
0f
1e
0a
dc
1a
cc
e3
3b
fa
fe
11
fa
e9
1f
03
17
21
e0
fc
f4
e4
f2
1d
fd
14
ed
00
05
05
22
2a
14
f2
04
c3
dc
0e
e8
ee
3c
eb
b1
dd
06
f0
0a
e7
f5
d3
0a
2d
09
11
e7
f3
c1
eb
ed
2c
14
df
fe
d1
22
01
f5
eb
2e
04
ef
ec
fa
11
ff
01
ff
d8
db
f7
d9
10
f7
1f
39
29
d7
0d
fe
18
14
26
ea
06
ea
d7
dc
30
17
f1
0c
0a
06
f1
07
e6
ff
e1
fc
0f
03
eb
18
15
3a
f3
e3
d6
f7
10
ed
d2
30
f5
ff
1d
00
0a
e6
e8
1d
fd
23
07
ee
07
dc
d9
f1
1b
ed
e8
b6
f3
d9
01
fe
f4
1c
ec
f4
d9
f1
01
08
09
d0
2d
d3
aa
ef
f9
3d
ce
06
ef
16
3b
e0
d1
eb
f0
02
24
21
0f
0f
e1
f3
c4
fa
d1
03
09
e9
fd
37
06
27
09
f0
35
d0
f3
f8
df
14
1a
fc
dc
c5
e6
0f
0e
fd
f8
00
05
1d
12
bf
33
f6
ff
28
05
ee
f5
ce
13
10
f3
21
f5
da
d5
fd
06
15
dc
fd
14
f4
48
03
1a
18
22
e2
07
08
11
27
14
0f
09
f9
fa
0e
ed
09
df
0d
25
f6
1c
2c
35
fe
fb
10
2f
d1
f1
d4
12
cc
dc
be
20
ee
bf
07
ee
1e
f1
f1
2e
0e
f3
db
3f
f1
f6
de
de
f4
e1
35
e2
2a
ef
17
23
f7
d4
14
eb
10
05
cc
ef
06
e1
24
09
12
01
16
22
eb
0c
1b
09
f9
17
d4
0a
11
d5
46
e8
0a
23
dd
d5
3c
0f
2b
f3
07
17
4a
ed
1e
30
f3
e4
fe
ea
19
fd
fc
21
30
0b
12
2c
d7
10
ef
eb
10
3b
f8
18
fe
0c
f3
20
14
14
e7
fd
ec
0a
f0
12
f3
f4
13
ea
e6
12
2a
e4
d9
ff
14
f5
1f
2d
d4
de
d1
e0
14
0a
23
f9
00
03
e8
00
20
18
f0
c8
ea
22
10
f5
9a
fa
06
0f
08
0a
f7
04
f2
f9
c9
1f
0d
01
d4
3c
1f
e0
03
2c
03
e6
05
2c
ee
fe
0a
1c
e0
0c
1a
ee
34
e7
1d
3e
ee
f6
db
cb
f0
fc
18
37
0f
1b
ea
0c
ed
fc
43
f5
2d
f6
f0
c6
14
ed
cf
0f
0a
d2
dc
e5
0a
ec
04
eb
e4
17
e6
ef
eb
de
fd
15
19
15
1f
0d
f0
fb
f9
f2
08
2f
3e
fd
22
f5
dc
e1
10
c7
ef
eb
ed
0e
44
d5
30
3a
05
cd
08
f6
d8
0a
fe
f8
23
08
f7
31
14
07
ee
de
01
e2
fa
1d
f4
12
16
40
fa
e9
1d
dd
c2
02
1e
e9
12
f2
0b
01
0d
2e
db
02
16
15
11
19
12
fc
29
13
20
10
05
f1
f1
fa
c4
0a
05
4a
cb
b7
16
f5
15
e5
eb
37
db
c5
cc
eb
e8
cc
ff
20
f4
0b
e0
d7
1b
d2
d8
e2
f2
e6
05
d3
e7
0a
1b
0f
22
37
06
f8
21
03
13
eb
07
09
f3
e5
27
08
f8
f2
f5
ec
15
bd
11
27
20
3a
1a
0b
f3
0f
05
1f
fe
1f
47
fc
0e
26
ff
f4
36
14
06
fb
d9
08
c9
e5
ee
23
04
28
03
15
ee
1b
0f
fe
f8
e7
d5
19
f2
d8
ff
2e
12
0e
f2
ce
d2
e4
14
ba
12
e6
27
1a
3d
ed
16
f4
34
d4
c6
01
d4
00
02
ed
e9
d4
00
33
12
f9
05
ec
1e
ed
e2
f0
f4
cb
ef
d9
f6
2b
27
f1
ed
25
fd
0f
cf
2b
15
10
ef
25
20
00
f5
f4
cf
19
a8
b6
dd
13
ee
19
0d
15
2c
df
47
1b
01
0d
06
15
e7
2b
29
33
f8
1e
1d
02
f5
e2
38
23
f4
dc
f2
21
00
f1
f3
06
06
1a
18
fa
ff
cb
df
f3
1a
0d
16
e7
32
df
f7
b5
f8
1a
22
fb
21
3a
0d
5d
fe
e7
ea
13
43
ea
07
36
2f
25
11
c7
b8
ce
fa
f3
24
fe
d6
5f
db
ff
e3
ed
11
0a
d1
16
0e
17
ff
cf
0a
c6
0e
0e
fc
e4
03
e5
02
d0
ef
ce
e9
d3
1a
23
10
1d
f0
cd
c8
da
d7
dd
e0
0e
cf
f6
e7
d7
c3
17
e7
dd
39
e5
df
3e
3b
17
d8
e0
19
14
d7
06
f1
e0
ce
2e
24
04
28
e1
d5
dd
05
38
06
c0
0c
f7
21
17
bb
4f
c8
e6
00
1a
f9
28
fe
c3
31
3e
f2
0a
ac
da
1e
02
c0
24
e9
d6
e3
0c
ff
f4
02
f6
c7
dc
df
17
ed
02
d8
05
43
0b
1b
ff
19
f6
d7
04
e9
14
e6
f1
1f
1b
34
0f
0e
cc
14
c8
e7
ff
dd
14
fc
f2
fa
37
1b
16
d6
d9
c5
ef
f3
f9
c9
1b
f5
27
f2
d9
fb
1c
01
28
2b
29
d0
de
13
16
ea
3f
b2
e8
f4
f0
ef
29
0e
f8
2f
f9
20
09
23
f1
61
09
ea
02
e8
e8
14
02
ff
10
3f
f2
dd
08
36
f6
f7
02
01
fc
32
25
08
ac
12
ff
c7
d4
56
2d
1a
1a
d4
0e
f1
e2
1a
dc
3f
4a
db
2e
f3
db
0b
00
15
da
0b
14
a3
0e
da
2f
38
0a
11
04
11
19
f9
5b
10
da
f2
e6
4c
20
e6
1f
f2
0e
2b
24
dd
e0
fc
e8
eb
00
ec
21
fb
b4
f3
27
fc
1f
e7
df
da
09
01
f1
ed
e8
f9
d9
de
fc
09
1b
f3
d6
31
1c
0c
08
fd
0f
ec
ee
1a
cd
55
e7
08
0c
e1
f6
3a
d9
f7
f3
f4
2e
fe
08
04
f5
21
07
12
21
56
ff
e4
1b
17
f7
f2
eb
c0
16
e0
17
1c
33
0b
f8
fc
f2
09
ee
be
f3
08
1a
13
03
d5
0f
19
10
eb
e2
0a
02
0c
f4
09
1c
21
2f
db
f6
44
af
0b
1a
e9
0f
1f
c5
f4
fa
d7
ee
fc
f9
05
32
b8
f8
d0
e2
2c
26
1f
08
01
e1
13
43
0c
5c
ef
c8
e6
1b
f5
07
ec
10
d2
d4
1b
15
33
c2
fb
bf
1d
fa
30
08
14
e9
fa
08
1c
e1
d1
08
13
09
12
2a
02
18
8a
de
36
ef
c1
d3
fc
2b
de
c8
ea
ee
f5
c2
03
f0
bc
db
f7
12
cb
18
ca
13
2e
14
03
4a
fc
f3
bb
e9
bb
f4
20
14
0c
f0
19
0f
f0
04
0f
0b
50
07
14
e5
09
23
13
df
d6
f7
ec
02
05
ca
09
2a
2f
01
f7
11
19
06
04
2d
08
eb
d1
f5
dd
0d
f2
20
1d
1c
c4
07
2f
ec
0a
31
fd
db
e4
5d
3a
d3
00
0c
eb
05
ec
01
03
fd
17
c8
07
0d
f1
e5
03
fc
1e
bf
f0
e1
28
18
15
e5
38
19
eb
58
39
e4
14
ff
eb
01
19
02
fa
df
f1
30
bf
cc
fc
0d
2d
1f
ea
07
2e
1c
ff
f7
10
d1
fb
ee
00
bf
eb
14
1a
fe
09
f5
f5
06
cc
b3
04
2c
10
cc
18
1d
f7
bc
ba
d2
ed
e9
05
27
ff
f9
1a
06
01
d5
f4
e9
08
d2
c9
de
ff
ea
ea
fe
ef
eb
b5
e2
ea
39
29
c2
40
23
dd
ff
17
27
24
26
df
ef
e8
23
ce
24
e7
1e
0f
fc
d3
34
e7
03
e4
09
f1
f6
c6
00
4b
ef
03
f5
1b
06
03
17
f3
27
1f
0b
c7
9a
05
1a
fd
14
18
18
15
44
d3
2b
1b
d8
e8
c8
10
bd
3c
0c
25
34
09
ea
e6
e1
dc
de
bc
fb
32
25
cb
e1
f6
ee
0d
f7
f6
15
0f
09
fe
ff
1a
e5
0b
ea
da
0f
21
03
fc
d9
fe
f3
f2
eb
1b
d7
10
11
fb
fe
16
0c
16
fe
12
f1
f1
ec
18
0b
0c
f5
f1
1c
f8
20
05
e9
08
11
11
df
17
0f
f8
fd
37
01
e8
d5
fc
fb
0c
13
13
e7
04
02
e5
15
ed
04
ff
05
ee
f8
ea
11
12
0e
09
ff
08
01
fe
fe
2d
f5
3a
ee
f7
1b
02
de
f8
fe
0d
10
01
ea
e9
0f
17
f6
1d
02
e8
05
02
e1
19
e3
25
21
fc
f3
f2
01
0c
e8
1a
28
f8
f3
f1
37
f3
05
1b
07
eb
f9
18
1f
e5
20
f1
12
0e
ff
06
11
ea
fc
f3
f8
f8
0a
f8
12
09
e9
37
07
e0
f3
0e
fa
0b
14
e5
17
ed
c3
ec
02
10
fd
11
e3
f1
0d
07
09
22
dc
0e
00
13
ea
01
1a
10
e3
18
1a
12
f2
ff
fe
e1
ff
04
17
f8
08
09
ea
fa
01
fe
f0
f3
ee
ee
1c
0d
f3
04
0c
f2
04
07
f5
09
fa
e6
e0
fe
f3
00
27
f9
0a
e3
f5
f5
f3
04
eb
19
0f
0e
07
eb
ea
20
0c
f6
16
fc
15
10
e1
14
08
11
ff
e0
03
f9
0a
02
fe
f4
f7
37
07
f5
fb
0e
e8
ff
f4
26
e3
f5
07
da
e6
1e
da
11
07
e7
23
0f
08
e3
1b
c4
1e
01
e9
d7
f8
0e
1d
3f
de
0c
08
28
e8
05
17
0f
27
18
00
10
f7
02
2f
f7
f7
0c
30
13
f6
e1
0a
d1
fc
fb
31
0d
f0
1b
08
20
fd
fd
03
06
fd
ec
f0
ef
02
04
0a
01
16
1c
f8
ee
ef
ef
13
f0
f5
00
fc
02
fc
f5
02
0d
da
ff
02
f6
e0
e4
1a
f0
f2
01
01
d4
e7
0b
0b
f4
f7
24
18
01
1e
01
18
09
fe
ee
00
f9
09
0d
fd
f8
ed
ee
09
e9
21
0e
cc
f9
13
01
11
fd
ed
fa
0e
fc
00
0b
1e
1b
0b
08
fc
fb
fb
e8
07
17
f5
1c
fb
07
fe
02
04
ef
05
f3
15
e5
df
ff
d9
26
f6
10
18
04
e0
f1
03
0e
fb
01
d7
03
fb
ed
0e
fa
08
0d
0b
eb
f9
fa
ff
10
12
17
f0
eb
e3
09
ed
22
f1
ed
df
3c
eb
17
1f
00
1a
e4
0c
f3
03
01
ec
e9
fd
00
f4
e9
16
1b
19
0f
00
1a
08
0f
eb
e3
18
fe
fc
f6
09
0d
07
e9
0e
ec
f5
10
06
01
0c
e3
11
12
0e
fb
17
f0
ea
09
0b
0e
07
e6
d8
ec
1e
cf
ed
f3
1d
0e
f1
d5
07
19
ee
ea
06
ed
09
f6
d0
02
18
21
05
d5
df
26
f1
0a
fd
da
16
f6
eb
10
ef
0f
11
ed
04
04
16
ed
f9
06
f8
2e
27
02
10
f8
ef
fc
2a
f1
08
08
15
02
0b
f8
d4
16
e8
1c
07
e6
eb
0c
13
fb
ed
f9
f1
10
f3
ea
00
f7
0b
06
06
0a
16
04
09
13
e6
f4
14
e4
e4
de
e8
f0
14
f6
0b
e3
18
0f
e6
14
d7
ec
0c
07
f8
05
ea
e2
ec
02
cd
03
03
20
1e
1f
06
1c
ed
1f
f8
f1
ed
f5
f5
fd
f0
e6
16
10
0c
e1
26
fe
0f
2e
1a
e8
f7
f8
1e
15
02
fc
1c
ff
fb
2c
df
24
1c
fd
fd
d4
f8
e7
33
01
12
06
15
09
ea
0a
08
0b
f5
22
10
0b
e0
ee
fc
e4
0d
ed
f7
22
e4
e9
f2
0c
00
f9
0f
f3
ed
0c
0d
fd
0b
05
d8
11
0a
eb
ec
0d
f4
16
f8
e7
21
f6
f6
e7
07
0f
f8
03
01
0a
e3
28
f8
c8
d2
29
03
06
12
08
f6
cd
0b
ee
10
db
03
01
04
f5
f2
cf
f1
32
02
13
d7
2c
1a
ee
fe
2d
f4
e8
f8
e1
06
0e
02
f9
fd
e6
26
0c
e9
fb
02
f6
2a
f8
0b
e9
11
04
04
f8
0a
1c
2c
f9
0a
eb
ed
e5
07
02
eb
16
f7
1a
f0
21
e3
ff
0f
15
f4
f1
e7
0f
0a
ff
02
ff
fb
14
1b
18
f0
e2
13
de
f8
25
f8
f1
f8
11
00
fc
f6
d9
cf
fc
05
e8
01
fa
fe
fb
f3
ed
01
05
f4
1e
02
f0
38
01
f3
f5
ee
f5
f9
05
00
31
fa
f8
12
e3
0b
f0
ef
fd
21
e4
0b
fe
10
f0
0b
0a
e8
de
05
f8
ff
ea
d6
19
18
09
d3
30
21
21
1e
13
13
ec
db
f8
14
f4
2f
e2
17
06
21
e1
0f
0e
08
0a
01
fe
0b
e8
19
13
0c
f3
f6
00
0a
07
12
f2
f9
03
ec
09
16
f7
21
fc
e2
e3
dd
fa
ee
03
11
04
04
f4
15
f0
0c
de
0b
13
04
ea
03
09
f7
28
19
d2
07
fe
f8
02
f3
06
00
e6
fc
f7
f7
f6
fa
07
03
23
eb
fb
fa
f0
0e
f5
e6
1a
de
dd
03
0c
19
ff
dc
e6
1b
e4
07
fd
e9
06
05
12
10
fe
e6
17
0b
1e
fb
f1
22
00
25
1b
eb
f9
01
fe
13
1f
0c
10
07
04
25
f6
eb
ea
fe
fa
ef
03
ff
f6
da
00
05
f5
fd
08
01
1b
fc
15
29
05
1c
1b
25
f7
e6
0e
f4
0b
df
13
0e
0f
f4
db
f2
0d
e9
03
11
d1
e7
0d
00
0a
fc
ca
ea
02
0e
00
fb
0a
14
1b
d0
07
0c
0a
03
0f
0b
09
13
11
20
f9
17
12
1d
27
ec
13
07
fc
17
1f
ff
cf
fc
fe
05
16
13
04
32
fa
fb
0f
f1
f6
06
04
d8
e7
f8
0a
28
f3
19
1f
fc
07
d9
1a
13
0b
13
f1
11
cf
06
ee
1d
2b
20
0e
13
08
fd
15
e8
0e
09
f0
02
ea
1c
11
06
15
12
04
eb
cc
22
f9
0a
fa
08
ea
0f
26
fb
11
07
d6
cd
2d
f1
0c
11
e7
2a
04
37
0c
f6
0b
fc
0c
0b
ee
09
06
ff
ff
0e
d7
14
f8
ff
25
10
fe
0f
f8
f7
f8
03
f8
05
00
15
f7
fd
04
23
ee
f9
fd
05
1d
f5
16
e9
14
fe
f0
df
17
ee
20
f7
1d
fd
13
0e
fc
ee
e2
f1
06
08
0f
e8
1f
0c
04
e6
fd
03
f4
0c
fa
f4
0c
d9
15
17
00
f9
2a
1d
07
05
0f
f8
de
f7
f0
f9
fb
e9
e3
f3
16
fc
ff
05
09
ef
12
18
d7
eb
e9
13
14
ea
1e
0b
34
e8
ea
d5
e9
e7
12
ef
ce
0a
e8
ff
03
dc
fc
ee
da
08
f1
0f
10
cc
0f
05
f5
f9
0c
e2
0a
f2
eb
00
01
24
e0
de
19
0a
ed
11
e1
12
e2
03
11
12
c5
0c
fc
2d
cc
fc
1a
0b
f0
fb
18
04
f1
f7
16
16
f6
f2
1d
ff
09
10
0f
e7
19
e4
d1
07
09
03
02
01
09
0f
1c
0d
ec
f9
f7
12
05
e3
06
f9
d8
01
d1
f3
01
03
16
18
0c
f7
03
0c
fa
c1
16
0a
e5
f4
e1
de
24
ff
0c
0c
f9
18
eb
10
01
f0
08
07
1a
f5
01
ff
1f
e7
fb
2a
02
e8
fa
0f
2c
2f
06
16
f6
06
f5
e3
fd
d9
11
04
0d
09
f3
ff
04
2d
e9
fd
0b
eb
fa
f8
0b
01
f0
08
20
ba
28
d1
01
0e
f8
f9
06
13
f0
ff
07
16
f8
e9
ca
ef
ff
fd
ed
23
04
f7
06
0e
08
df
22
07
f1
44
f2
1c
09
13
01
f2
08
e6
25
f3
03
f0
16
b5
10
e2
0c
e9
f9
f0
06
21
01
fc
0d
e6
e9
f8
02
f5
0e
f8
02
e0
10
31
f4
04
21
08
fa
ec
f0
e6
30
e9
01
08
dc
f0
f8
df
fb
11
11
0e
08
e5
e9
11
eb
f6
d8
f6
13
d0
e9
04
35
e6
01
f0
08
fa
07
c8
14
08
dd
f1
fc
df
14
2b
08
08
18
f1
0a
08
03
02
0e
f6
01
ef
02
f3
f7
2e
e9
f6
df
07
0d
02
06
03
f2
04
f0
04
03
ec
f9
da
02
16
de
de
df
ea
15
0c
27
20
0b
13
10
23
1b
fc
fd
0a
cb
13
ee
0c
f6
10
05
f8
01
ea
ef
f1
16
d6
07
ed
fe
f3
08
ea
12
dd
ff
05
c8
dd
03
05
fc
21
0e
11
14
eb
20
03
10
dd
1c
0c
00
1c
f7
36
0d
03
fd
f5
02
0e
e2
08
12
e5
20
eb
f4
05
11
12
0d
e0
ef
02
00
f6
ee
ff
06
f2
11
f6
0a
08
d8
0d
f4
f1
f4
05
ef
f8
ff
25
f7
fa
fe
1b
af
1f
09
de
fc
08
ef
0e
1e
0c
0c
e0
f2
e2
ff
03
0d
e2
24
ff
09
05
e7
01
eb
1c
f2
e4
fe
f8
05
11
f4
e3
e5
2a
18
04
1d
17
ff
f0
f1
04
f0
f8
f1
0d
ec
09
fc
ff
04
e9
0b
1d
ec
ff
e8
fa
e4
fa
fd
fc
d6
20
1c
1f
fa
ec
e5
0a
0b
f7
f9
ef
1d
ff
19
07
e8
1c
0d
10
f7
ed
d7
eb
ed
f2
02
ff
ec
dc
d4
12
fb
d3
01
08
12
09
f8
e2
0f
07
ef
06
0b
fa
f4
09
23
21
1f
1d
09
07
05
12
fa
0b
0a
f0
f4
eb
1f
fd
06
f5
f8
13
0b
00
12
02
13
fd
24
ec
e6
f3
f3
eb
e1
0a
16
07
fb
f0
06
ef
0e
ef
e3
df
e5
ea
05
d6
05
1e
01
17
f2
e5
fa
09
04
f9
09
fa
e0
14
fb
13
f4
0c
d5
d7
fe
23
03
f5
f5
f5
07
12
22
ef
20
f3
01
e0
f9
04
fd
e9
ec
ec
db
f6
14
ea
ea
f4
f2
01
01
15
cd
e3
ee
ed
13
ff
07
03
23
f0
00
f1
c2
22
f4
21
f3
06
1e
e1
f6
0e
22
f6
f9
08
ff
14
ff
19
1c
f0
21
ed
ee
f4
f4
ff
fa
05
e9
f3
07
1f
f7
f4
21
09
13
f9
31
0d
fb
dc
c7
fd
04
e7
d4
e2
e2
00
0e
0d
e6
24
f5
25
e1
18
0f
0a
e7
ee
0c
e3
f7
09
ff
f8
e6
ed
28
d3
f3
d4
07
f7
e8
fb
00
13
09
25
13
0f
0e
00
fb
06
fc
0a
0a
14
fb
e8
d9
04
ef
1d
00
ef
14
03
f7
01
f1
28
e0
f2
f4
ce
18
f4
05
e9
f6
0b
07
e3
f5
01
ef
f5
1b
18
ee
12
00
fb
f8
ee
f8
30
07
f3
38
cb
01
e6
38
1f
e9
19
f0
e4
f8
17
fc
20
18
f0
f4
07
fc
04
27
12
01
0d
1c
05
07
0b
06
16
24
0c
d4
01
23
f9
3d
eb
27
f0
22
e7
f3
e0
f6
f9
dd
ff
04
f6
05
0f
fb
0d
03
04
f1
fa
e6
ee
1f
ee
ef
e9
0f
08
05
fd
e5
e8
05
0b
0a
cf
e7
ef
19
d8
f4
f7
ec
fb
fd
04
ed
f3
f0
16
f6
fc
e3
14
07
f0
e5
14
f6
0c
eb
12
19
ea
09
fb
e5
22
08
ef
02
17
04
34
ed
0d
ec
e4
d9
04
ea
e9
fa
e6
f0
e6
12
26
20
1a
1d
ed
0b
eb
ee
3a
07
15
c1
11
1d
d1
ec
0b
fe
f2
fc
06
fb
03
04
f0
f9
e9
fa
15
ec
f9
1c
f6
e8
e4
e1
18
e2
f5
07
f5
23
f5
f2
f9
e0
dd
08
06
23
15
17
28
c9
f2
ed
18
21
f3
d8
f5
2a
ef
05
33
cd
f0
ed
30
0d
0d
db
f8
31
12
ed
db
f3
ee
e5
d2
f1
0e
17
1c
f2
f8
ea
12
03
fb
d3
f1
1f
f3
0f
10
fb
27
27
ed
16
02
f4
f6
e1
22
28
db
02
12
1b
f3
ff
f3
02
09
05
ff
11
00
f1
fc
06
18
09
0d
1b
06
fd
46
f2
e5
f6
dd
f4
0b
c5
f9
0d
f9
2e
26
01
f7
fc
16
f2
15
ef
18
ef
07
ff
f7
da
d6
0e
ed
0d
37
40
06
05
e5
25
f9
06
fb
df
27
ff
34
26
fb
13
06
e5
e7
d8
0a
08
f3
f4
11
06
17
0d
0b
07
0c
07
ff
ff
26
e6
f1
f2
1c
e3
d7
0d
f7
e0
28
08
37
f8
08
ff
f8
f8
f7
fa
20
ee
fb
ea
06
00
06
05
0d
ea
f3
e5
dc
fb
ea
05
fb
f6
e4
fa
e7
b7
ff
fc
fb
0f
0d
15
f5
d8
ef
f4
23
e0
d8
02
ea
e8
ef
1c
06
14
19
f6
02
f6
13
08
de
d5
1d
33
fa
f0
0e
e6
e8
df
f8
fb
10
f3
b8
23
fd
ff
d4
13
10
2e
f0
f5
fc
f8
d4
dc
e7
17
20
db
fd
36
fc
fa
d5
e7
02
1e
e4
f0
0a
3f
b2
fc
07
1a
df
f7
fd
30
fa
f6
b4
1d
16
03
e2
18
0e
e8
0c
ff
ec
e1
08
28
0f
18
38
15
09
fc
10
02
0b
22
e4
09
08
f5
0c
0c
fa
1d
03
e9
f9
26
06
06
e9
11
0b
01
f1
fa
f1
02
03
dd
14
21
f8
bc
f8
f5
13
33
fd
e9
f8
e9
17
1b
02
fa
f5
16
0e
f6
32
ec
1a
db
24
0d
fd
1c
f2
f9
ed
f9
cc
ee
06
07
d1
d0
0a
de
18
e8
0c
f2
11
f9
02
07
05
07
fd
e8
fe
fc
0a
15
fd
f0
06
d4
ff
14
f6
d3
b7
f5
03
ff
2f
f5
d8
19
0e
11
d2
3b
08
01
31
fc
f6
e5
fa
25
fd
09
31
1e
05
1f
e7
ff
09
0d
ff
1f
ed
ee
e0
07
c2
f6
f4
06
ff
f0
09
02
0f
11
f0
e8
15
ee
03
fc
19
f7
f5
1b
0f
ed
d0
e0
f8
1b
21
be
fb
e6
ff
e8
ff
06
e9
e8
0b
00
f8
39
0d
0d
10
d9
35
0d
26
ec
1a
db
f3
db
fd
06
f2
23
09
ca
08
17
04
0f
e9
09
d7
06
04
e9
0c
ef
fd
eb
0e
f6
d4
0d
e7
ba
19
bb
ec
14
1e
fa
e9
13
df
e5
0a
12
05
12
f9
14
db
16
0d
ca
07
28
ff
e8
00
18
f9
db
fa
ec
17
d7
0d
2c
fb
22
ec
f7
2d
fc
f9
dd
4b
08
01
f1
14
ec
ec
fb
0e
fb
e9
e6
f7
06
f4
fa
cf
10
00
24
1a
0a
11
16
e3
e0
fd
00
20
0a
fe
f7
05
0f
ef
f1
ff
f0
eb
16
f0
1e
02
01
f5
ec
ea
ff
d6
1a
0b
ef
05
04
f3
fb
2c
db
02
09
14
0f
18
ec
0c
04
08
fc
bf
16
0a
de
04
07
10
e8
dc
f2
02
fc
e2
f0
05
06
ec
dc
1e
ef
e7
fb
e5
f8
de
11
05
07
04
ea
15
dd
1e
11
de
e6
e7
01
f4
fc
f8
00
ee
24
e6
05
f3
f9
02
0f
e8
e9
de
fb
09
1c
0b
ed
f0
08
16
0e
f1
ed
d3
ed
ec
ef
e9
34
f2
f0
e3
10
0f
06
e6
05
20
f4
f8
06
0b
1a
29
1d
24
15
fc
fc
14
06
04
1e
13
f3
06
f7
fa
00
08
0e
17
37
4b
14
12
23
fc
f7
f8
c9
df
e0
16
03
04
fd
e9
fe
e7
ec
f2
e7
f5
df
10
fd
05
e4
24
1e
20
31
e6
dd
f1
0c
36
0e
08
d8
e1
cf
fc
15
12
1d
13
15
17
ed
ea
05
ef
fa
13
18
13
f3
10
f2
db
ec
05
fc
f9
f2
20
e7
1a
01
04
34
04
11
f4
09
14
12
ee
12
1f
25
1b
16
1c
f4
12
17
07
f2
f8
e6
03
0d
02
22
fd
25
eb
f5
17
e3
d7
0c
f9
d6
02
e7
e0
ff
ff
f6
d8
1a
01
0b
f2
0a
0f
1c
ee
0b
f5
e7
eb
14
07
ca
0a
10
f4
fa
34
e6
09
26
fb
f7
0c
ee
b6
f1
d7
e4
0d
26
e7
08
e1
ee
1c
15
07
08
28
20
fe
2d
d9
d1
04
fe
2d
10
33
15
1d
10
e7
0c
02
06
ec
01
02
17
15
18
db
05
f6
f6
d8
e3
f7
42
f8
26
f7
0b
1c
3f
ea
20
00
05
29
d8
18
13
df
1a
00
02
fd
13
fc
05
b6
14
04
ff
3e
16
11
e0
f6
18
c9
ef
e6
15
06
0b
0d
09
20
01
e9
2e
ef
e3
db
ee
e7
f7
03
12
d8
21
11
24
0c
f2
2a
f4
05
08
c4
dc
02
be
06
10
c3
01
11
fc
dd
01
0e
08
e3
13
23
fd
e5
e7
e6
cf
e6
00
e8
03
f3
1d
05
24
f1
d4
fd
09
eb
09
17
05
0b
1f
ff
1f
e2
16
b9
e6
fc
e9
15
32
0e
f7
ff
d6
e0
24
29
0c
f5
02
0c
cd
e1
0c
ff
eb
01
28
23
f0
f5
f2
3e
f5
ec
2a
19
c3
01
f1
e4
0a
fa
fe
d7
d2
e8
34
1b
c6
e5
03
df
f3
07
fc
05
1f
3d
10
fb
df
01
03
17
11
dd
e6
19
ea
1e
e1
fd
fe
00
f4
ed
1c
fe
ff
00
fc
b8
ed
06
d4
da
09
0c
03
02
1a
0f
04
ed
02
06
07
05
f9
16
e0
3f
1d
ee
1a
ce
fa
e0
04
18
fe
bf
d7
ec
05
36
fa
d9
fe
03
fc
e5
0e
d8
06
d6
0f
09
1c
fb
fa
31
ff
ec
20
12
ff
06
e4
fd
c8
f5
1b
0e
d7
df
f0
eb
05
f6
fb
f0
f2
ff
f2
04
24
0c
26
0c
f6
f7
f8
2b
2c
19
33
e3
06
37
e1
0b
3d
fb
f7
11
e5
ee
17
d9
22
2a
e1
0f
0d
01
12
25
ed
ff
19
d3
18
e2
0d
c2
f3
e1
f3
24
33
2f
0b
da
17
02
35
12
28
b3
f6
d0
04
d6
12
08
1a
ec
2c
fa
c3
44
f8
26
fe
fe
e6
e7
07
4d
db
c5
1d
17
0a
f8
12
06
05
14
f6
e9
38
f8
f5
d9
28
fa
ee
f8
e9
f2
1d
ee
33
19
07
10
1d
09
07
fe
0a
25
fc
fd
d3
11
e4
d4
03
f9
cf
e7
03
fe
b5
13
09
07
db
10
f4
3a
18
c5
10
f8
dd
0d
23
12
28
fb
1e
fe
ca
23
e9
fe
0c
e6
41
05
fa
23
cb
dd
03
f8
f2
0c
d8
0c
2b
e6
00
1c
0e
09
ef
db
1b
f8
f9
20
f1
09
ff
1c
f3
00
c3
16
02
fc
02
4a
ff
3f
ec
fe
f2
e9
f4
26
35
14
d5
1a
96
03
d4
fb
ef
2a
f9
d4
fe
f2
1b
d7
10
f6
db
0f
0d
17
ae
dc
1f
00
f3
fe
0d
fd
20
01
09
12
01
de
f3
0e
f7
15
0e
12
e4
01
f7
e4
fb
ec
01
0a
04
db
f7
0b
18
dc
fc
f7
f4
00
01
f7
d5
ee
13
d2
39
f8
14
ef
17
02
12
c0
dc
15
0a
fc
e6
09
d6
ed
27
06
01
c2
fa
dd
24
06
f5
f8
0f
04
18
27
07
2f
ff
f7
1a
04
f3
fd
0b
e0
ef
f0
11
db
24
23
e0
04
09
08
1b
f2
1a
c1
f0
17
e6
07
0e
12
bb
0f
09
16
e2
f4
30
16
13
00
0a
35
e3
eb
f0
eb
13
f8
01
aa
e5
ed
1e
f1
e6
fd
e9
fd
10
f1
f9
fa
17
ea
df
2b
fb
d6
af
0d
04
f1
eb
dd
ef
04
03
fa
14
0f
b6
06
00
17
dc
02
ec
22
18
cd
3c
fc
1c
01
dc
dc
ed
26
20
f4
32
29
f3
fa
f9
08
fc
11
4a
da
31
1c
e9
f4
f2
14
0d
20
2f
02
1b
38
23
c0
fb
08
24
1f
f3
ee
e3
e4
08
fd
09
fd
e3
f4
15
2d
01
f4
28
0a
e1
07
24
e0
2a
09
01
f8
ff
fd
fb
0e
0e
02
ef
0e
fe
02
06
f3
30
18
11
0f
f8
f9
05
f6
08
f8
0d
fd
02
d0
08
ed
ec
32
e4
e6
04
32
f4
e8
08
08
08
41
17
0a
60
19
f9
18
fe
19
1e
7f
23
34
03
16
07
fc
13
15
be
25
0a
f7
0a
28
c0
27
de
f4
08
12
fa
33
44
e1
1a
0a
d7
08
1e
0e
e9
26
f1
00
39
eb
ef
c9
e6
ec
04
ac
fa
d8
c2
2c
27
fc
f6
27
e6
10
e0
fb
0a
e6
ef
2c
12
03
f9
d3
0a
ea
18
f7
fc
f6
12
fa
34
ff
1a
ec
06
10
18
fc
f8
ff
cc
fe
07
e7
04
ed
d7
15
fc
f6
e3
e2
fd
fb
ff
f1
f9
e3
bf
06
f6
e8
19
eb
ff
f0
f7
f3
eb
fd
13
da
dc
f3
01
0a
00
28
19
2b
03
00
f1
0c
fd
26
1d
54
02
ff
03
dc
09
d2
29
fb
f7
27
17
02
1d
12
d4
0a
f1
04
d6
28
3c
0a
17
f8
fd
07
e0
e8
20
f4
f5
ea
04
27
ff
0e
e4
16
ff
10
f2
f1
01
9b
00
1d
03
0d
08
fb
e0
f7
04
d1
f5
1c
18
14
14
e2
f7
db
0c
db
fb
14
f2
db
ef
26
f6
01
21
18
ee
22
0b
17
bd
30
11
11
fa
e4
24
05
04
f7
02
fe
f9
1e
13
e4
e1
f5
fc
aa
e2
18
fc
f4
1b
12
1c
0f
ff
29
00
c2
08
24
18
fa
e4
f8
10
e0
14
f9
fc
f2
26
18
0a
02
eb
fd
f1
09
05
0d
ec
fe
fa
f7
f3
db
0f
fd
d7
ef
13
1d
f5
f6
f8
f1
f1
0e
03
f4
fa
e2
07
fe
fa
e3
fa
06
ec
0e
0e
1c
1f
e4
10
fd
0a
05
01
01
12
fc
0d
22
12
ec
04
1d
e4
1a
fa
06
f9
18
fb
10
0e
ec
0a
04
fd
00
09
de
45
d2
fc
1a
f9
e5
e9
f8
ec
20
c9
0e
ca
1f
0c
f8
d7
e4
08
01
ec
13
21
d3
d8
0b
39
f7
11
1a
24
1e
33
14
10
e9
23
28
df
21
d3
05
ec
f2
11
ec
cc
13
23
03
fb
fe
df
10
fb
0d
ff
2c
f7
2f
fb
f6
0e
1c
26
1b
cf
05
f3
f8
ef
0e
05
fd
e8
e8
f3
00
05
e5
1a
e9
18
02
18
12
19
15
f1
f8
0a
00
f7
00
02
f3
fe
e9
07
fa
10
f8
27
fe
05
f2
01
18
11
f0
04
fc
ee
fc
00
f3
16
f7
f8
f1
f6
1a
1d
f2
0b
f7
f9
0b
1a
09
11
17
ec
e7
02
fb
0b
ee
05
d0
19
e9
e1
de
da
f6
15
19
25
f6
0c
11
f4
fb
f8
ea
2b
03
f2
e3
03
ec
ed
f6
16
fc
f6
0c
0e
0e
ed
f7
0c
06
dd
0a
ef
dc
0b
f6
f6
01
25
e5
f5
fc
f7
0c
17
dc
e0
f6
fa
f2
0b
fe
1b
e2
dd
1c
27
dd
0c
ff
12
ef
13
08
e8
0e
2b
fc
0d
e9
f5
fd
22
16
ff
1b
ef
f7
0b
f5
0c
e5
e3
17
fa
ec
ff
d1
fe
20
f4
06
0e
fd
d9
f7
12
03
11
00
04
f3
e4
07
06
17
09
18
df
f3
19
fa
09
0e
0d
05
0a
01
03
0c
fe
f8
fe
eb
f8
e7
f9
f8
0a
09
fe
09
0e
1c
e6
f1
ea
fd
2e
ed
0f
03
01
34
ea
ee
e5
0f
11
f2
fc
d6
e1
ea
00
0d
0f
f4
06
00
08
03
1c
04
05
fd
0d
06
df
fe
23
1c
e6
05
ef
d8
10
fd
15
fe
fe
fe
e1
ec
f7
f7
02
09
09
32
eb
09
2b
07
fc
1d
f3
10
f7
e7
f4
fb
e9
12
f0
00
f5
0c
f3
0d
09
04
11
f4
e4
e7
17
e8
00
ec
0a
fc
ea
0f
f0
f2
04
fc
f8
0e
e8
e0
d6
15
eb
0a
e5
22
00
1e
ea
1d
f7
ed
17
18
e3
06
0e
f1
ee
ed
f8
0f
08
0f
f9
e2
0f
1e
11
19
ed
f7
02
06
10
30
06
11
02
f9
fa
fd
09
f9
e7
05
eb
f8
f2
09
0f
e3
fd
24
f6
de
f4
03
00
15
f5
0b
15
08
f2
2b
d4
20
f4
ea
eb
2d
d3
3f
e4
f5
01
0f
fd
0b
fd
f7
15
00
3f
06
0a
08
fa
13
13
cc
03
e4
db
48
f6
03
de
1b
17
0f
e2
fa
ea
fc
12
41
e7
11
24
ea
20
14
fe
fa
12
f8
15
01
12
fb
16
e5
14
ec
f4
10
e2
01
fc
07
0a
f9
f5
f6
22
fb
ef
ef
dd
f4
ed
12
e3
34
f3
fd
ea
04
12
09
fb
f7
e9
11
0a
01
fb
1a
f4
f2
fc
d8
d5
15
fa
f5
13
05
fd
e5
05
fa
03
18
09
e2
f7
fd
df
f9
1b
fa
f6
e2
ed
f3
ec
f7
ee
10
1a
2b
19
13
01
ee
ed
1e
f9
03
15
e8
0f
06
e4
11
ff
29
06
05
e9
1c
04
fa
fa
ff
02
26
10
d1
f9
ee
f9
e6
10
10
0b
0d
18
fb
f0
ec
eb
08
f0
2a
15
0f
01
11
f4
05
dd
e4
f5
fc
0a
fd
ee
0f
11
f9
0d
ff
0d
16
12
e8
06
f9
db
e9
0a
16
18
f3
03
e5
f2
ff
0c
11
ff
07
0d
15
d4
fe
f4
ed
f4
09
0e
f5
fa
0f
f8
20
e4
e8
21
07
01
0d
15
1a
e0
1d
ea
04
ef
2f
dc
fa
0c
ff
18
fd
03
13
e8
07
07
e8
24
22
0f
1f
fb
0c
1e
0e
f2
24
2c
11
04
ee
07
f8
bd
00
f4
fc
f7
15
ea
f8
eb
17
00
eb
00
08
e4
e8
01
02
fa
08
ef
0f
f8
ef
13
e0
07
0e
1a
fe
f9
f7
e3
09
e5
0a
fc
f6
f3
0b
2e
0a
db
0e
df
04
17
01
f0
e8
f7
ec
ff
01
00
fe
00
f1
ec
fd
f6
0a
f4
29
09
ec
19
f9
db
06
fa
ee
e7
f8
11
f9
0d
f0
f8
07
23
2e
f5
02
e0
f8
0c
07
da
ee
10
13
03
17
04
f8
00
01
0a
11
11
ea
c2
fe
de
17
06
f8
fa
f3
16
f1
fd
f7
f2
f4
fc
fa
f7
16
0f
1e
08
eb
f9
ee
02
0e
df
ff
1e
07
f1
f1
ea
f0
1f
21
e9
19
0f
f8
05
05
f0
fb
0f
ea
fc
fa
f2
c7
1f
ec
18
01
f9
04
e0
1f
02
f2
16
00
1b
03
13
17
0c
f4
fc
0a
06
17
0d
1b
0c
16
cf
10
00
fb
25
e4
0f
2b
0b
03
17
e1
10
07
fb
e6
f1
23
06
0b
07
f2
01
05
20
df
ff
f1
ea
15
f7
0d
e2
e8
02
12
12
ec
f4
f7
f4
04
26
f8
12
f4
09
12
20
12
f9
01
21
de
01
0b
ef
0d
d1
0f
ee
0e
33
d8
19
fc
29
18
10
b8
0a
2c
09
24
e3
ec
06
af
f6
4b
5e
a3
e9
df
ec
f0
26
e4
e6
f5
fd
f4
f0
24
fc
14
25
e7
f5
e9
2a
16
d4
de
1e
25
19
11
e9
e2
e6
30
e5
c1
e3
19
ff
cc
d0
2b
f1
0e
e0
f2
0a
fb
c2
04
44
10
dc
22
01
df
14
15
19
f8
2c
f1
d4
de
13
39
5e
19
15
0f
dd
0f
0b
e9
ed
05
08
fc
ee
3a
2b
d7
30
ef
f8
ff
fa
1a
0f
1f
fc
da
16
cc
eb
4c
08
f8
f8
e8
cd
c5
dd
f7
1d
06
32
1f
01
d9
19
0e
15
c0
15
fe
cb
20
0e
ff
ff
dd
f4
28
fb
f6
41
e7
0a
11
00
f9
2c
f7
b6
e6
d9
d8
ee
24
3b
16
d5
23
1c
1a
dc
25
0e
17
0b
38
43
00
d9
f6
f2
f7
2e
c5
12
40
d4
14
13
cc
02
18
e5
e2
f9
e4
0c
fd
12
ee
0a
00
1d
d1
10
a7
fc
38
0f
13
fc
d1
81
f8
f9
07
f7
f6
08
cf
10
0c
0b
13
f9
16
0c
01
f8
f2
f4
10
3a
0d
c6
03
12
fe
e8
07
05
ec
ea
1a
f7
3b
f1
12
b7
d9
d8
e4
1a
ac
ba
19
1d
11
11
d8
ca
f1
f8
e1
cd
f1
0e
1a
33
e1
05
f0
18
f9
15
1a
d3
e4
14
28
f6
f2
44
21
0a
3d
d0
f4
fd
17
e8
2e
de
1f
ec
10
11
dc
17
e6
f5
df
e8
f5
f8
3a
cf
f3
2a
fa
02
1f
dd
ce
d0
fc
0d
09
0d
06
da
d0
d1
16
36
14
06
06
5b
3e
60
23
0e
e4
f9
f9
0e
00
c0
e7
e3
f2
1b
27
d1
18
fe
03
fb
ff
c9
21
e8
16
fc
e3
07
ab
cf
eb
d0
09
1e
ee
20
19
10
3c
2f
0f
0d
ff
f1
23
21
0f
fa
21
2e
05
3b
db
d9
bf
d8
f2
06
08
3d
29
e0
d8
38
df
14
06
c8
b3
0d
4d
d9
00
ea
fd
1a
04
c4
dc
ec
26
e7
3c
22
17
d3
fd
0f
08
0f
04
e0
2c
de
29
f3
d8
19
02
cf
f8
0e
dd
db
f4
01
10
31
f7
d4
d6
de
c1
13
05
ee
e9
30
f1
dd
17
d7
0a
f5
47
1c
fa
0a
e4
2b
f5
f2
1d
12
c1
0a
cc
f7
f1
e5
3d
22
18
f5
df
d4
e1
f9
c9
e2
df
95
0f
ea
38
e6
44
e7
ea
db
0a
bd
ec
ee
f4
de
ff
14
ea
21
f4
03
ff
e9
12
e8
d5
01
1f
0a
24
a6
d6
14
f3
07
e7
f5
ce
0a
47
e3
ff
e4
e2
20
e4
28
bf
f8
bb
ab
3d
de
01
21
13
10
fa
ea
fe
e8
27
b9
40
dc
01
e7
d2
08
db
30
eb
0f
dd
f6
07
0c
d4
19
ea
28
fc
03
1a
03
1c
ba
fd
28
bf
f5
dd
cb
2d
0f
5d
1e
1b
d8
1f
10
08
bf
e9
2e
e4
17
d7
fd
f8
0c
33
eb
f6
08
20
27
14
24
da
df
1f
30
f1
25
e8
58
d5
27
0b
f9
f7
d2
1e
23
06
e6
aa
d1
f8
09
25
52
0b
06
08
1c
f2
ed
dd
01
02
fd
eb
dd
18
3c
fc
ea
d8
4d
2f
04
fa
16
4a
d6
f1
eb
13
fc
ed
e6
f2
02
fa
f7
10
0e
cb
df
0b
37
fe
e6
be
e4
5b
f2
46
28
0a
fd
f3
11
e2
4d
fa
23
da
d1
fd
25
13
1e
e6
e7
39
3b
00
02
4e
2c
f0
d9
0b
db
34
fa
fb
3e
f6
14
05
ec
ca
e7
e7
e1
e9
10
56
18
34
f5
e5
f2
7f
0c
e6
d6
e6
f9
20
e2
1c
24
59
04
ee
17
7a
fe
14
07
f0
29
e5
02
ee
e5
13
d4
0e
eb
35
26
d7
08
1a
07
d6
e1
f4
0a
0f
df
f4
34
13
de
01
1d
fc
fd
14
f1
e5
1a
fb
e8
df
12
ed
09
25
0a
0a
fb
0b
05
34
10
36
27
12
3b
3c
e7
54
00
e2
d5
31
f3
0f
0b
4a
c1
d1
d6
3b
f0
05
17
dc
f0
e9
09
cd
e5
ef
f5
f2
fd
fa
c6
13
0e
0d
ce
fc
27
f6
f2
18
11
f2
ca
eb
a0
f9
f8
3f
cd
ff
ea
21
ee
13
22
21
e6
22
f3
b3
ed
30
33
fe
fa
f0
0f
13
42
e1
ca
ea
1c
f8
dd
e8
11
19
12
dc
f4
df
16
1e
e7
17
e4
0e
fb
32
f1
ea
23
f2
f3
02
2f
c8
09
15
43
05
11
e1
21
03
f8
16
da
ef
dd
ed
26
0d
16
dc
ef
32
4f
dc
e4
c8
ff
d0
04
e5
20
23
37
2b
1c
d7
ec
0c
20
eb
08
55
e1
0f
df
f4
04
f2
11
08
b1
22
2d
35
e8
e5
d3
3f
22
ef
eb
28
fa
1c
07
f3
df
23
39
21
fe
41
d4
01
1c
0e
e0
27
eb
1f
0c
1c
2a
0c
31
8a
00
e9
02
df
29
04
05
15
c4
e5
bd
ae
cc
03
e5
ca
f7
1c
09
4e
e0
00
df
12
f3
e3
e7
14
f6
d9
b8
10
1b
17
ea
19
ff
00
07
12
de
f0
0f
e6
0c
fe
fb
31
1f
2d
f9
03
e5
0c
0e
0c
09
eb
0a
02
fa
04
05
e8
e1
56
ef
06
23
d6
05
17
fa
d5
32
15
08
0d
f2
0d
0d
ea
03
1f
2f
22
fd
cd
03
f7
e5
37
fe
f9
f8
e3
05
ff
01
10
0f
01
28
fa
04
ff
fc
f7
f2
0f
13
fb
f9
2a
19
06
0b
ea
f9
10
04
d5
db
05
01
2b
09
0c
37
f5
cb
f1
f0
11
02
04
e6
1d
13
15
4a
e7
1f
e9
08
fe
e5
0c
f7
1b
29
f2
e2
19
11
af
15
d9
d9
39
49
f8
1d
fe
f8
fb
dd
f2
e6
d7
18
04
fa
14
f4
f1
0d
04
15
e7
02
fd
e4
e9
09
fa
02
f0
04
dd
1f
0f
1f
f6
13
f6
0b
da
f1
e0
17
f6
e7
e8
e3
17
f7
f8
19
22
10
f6
33
0d
09
e9
39
f8
ff
21
ea
ee
f8
10
f6
ee
ed
ff
1d
f4
e5
00
1a
00
06
08
06
25
d0
04
01
f9
30
2e
01
25
2a
e0
ef
d7
4c
f5
fc
43
dd
ea
31
c7
02
e3
f2
e7
f2
f4
17
f3
d0
fd
13
19
2f
fc
ec
05
db
12
0e
ea
e9
f0
27
fa
09
e6
ee
d4
e7
fd
ea
fe
03
2f
02
15
fd
20
07
16
d1
e0
ef
ea
e3
01
00
d8
fd
fc
d6
26
27
f5
ee
f9
42
fe
19
09
e5
fb
e8
0b
d9
e6
e8
f9
f0
27
23
fd
d2
05
00
30
04
c2
f4
1b
f7
03
fe
35
08
39
02
e8
d6
de
18
fa
db
01
f2
d2
df
e2
2d
f9
df
dc
f8
05
ff
ff
f4
fd
04
03
02
ef
ef
04
07
e0
ed
f1
3c
39
22
14
10
ee
f1
10
11
f2
d7
1c
0c
1e
14
f9
0a
f7
f4
03
1f
09
ef
f7
f1
db
ed
fa
e3
f2
07
02
d1
22
23
0e
fb
da
d7
d7
10
f7
e3
10
05
27
e8
ec
f3
03
e1
0d
fe
2d
06
ea
02
26
fb
04
0c
f7
cb
07
08
f1
f1
01
2b
0a
0a
23
0b
0f
f7
f6
0d
f8
1f
00
eb
f4
0e
09
fe
ed
09
00
37
26
06
f7
fc
ed
11
f4
f8
e4
f4
29
0f
e5
ea
2d
e7
e0
ea
14
05
fc
e9
29
cb
35
fe
09
37
f4
0b
03
f6
05
d9
00
d1
f5
ea
12
e5
05
df
e0
0b
01
0a
ba
04
e8
07
da
13
36
15
13
07
e2
e6
bf
fc
32
07
0a
06
e7
1a
f6
12
0b
fe
02
01
f0
f2
0e
d2
16
e5
f3
f8
ed
09
14
00
e7
13
0e
07
ff
1c
29
16
1c
f5
0c
07
ec
05
f5
f1
ed
ea
02
1f
11
e5
f1
3b
02
09
f5
f4
27
1c
22
2d
e7
ee
16
06
f7
d2
e6
f7
1c
09
f2
1c
09
ec
07
0f
0a
ea
34
04
f9
ef
13
e5
23
1e
ea
e6
de
13
10
0e
f6
31
2c
0e
06
d9
f8
f4
10
1c
22
e0
da
21
d3
16
de
f8
04
fa
f5
f1
ee
26
1b
23
05
1d
33
dc
fc
fb
0e
02
f8
e3
de
02
f7
da
0e
ff
04
fd
ff
fc
ff
03
e5
13
f6
18
01
0d
df
10
0e
16
e1
10
1e
ee
2b
da
e8
c1
f5
e7
03
ee
04
eb
18
f5
08
1b
01
05
ff
2c
24
41
e8
f0
ea
14
eb
14
e0
e8
20
f7
fa
2d
0d
0d
04
d2
29
1f
d5
00
fc
01
24
1f
e3
eb
e7
34
ff
3b
cd
18
f0
2c
e1
f2
34
04
2b
ef
f3
15
c4
f7
14
fe
0c
d8
13
2b
f7
fd
19
21
02
11
05
f7
0f
15
0b
d0
3c
1f
15
0a
df
fe
ff
28
c5
e4
e1
0b
d4
2e
d9
f8
0f
07
e8
15
e2
fb
0f
fe
e6
10
15
e0
02
d2
ed
08
38
09
0d
15
03
f0
17
ef
09
fa
18
1d
ea
de
0f
f9
fe
f1
f0
fb
f6
07
dd
fa
1a
08
04
f4
07
05
c4
03
e9
f3
fd
fa
ee
f3
1c
17
20
d2
ef
27
45
07
fc
c6
de
18
d8
05
18
15
e2
0a
f6
25
0d
eb
18
05
1b
f3
dd
06
11
fd
14
fc
ef
23
07
ef
f8
09
11
f1
f5
ed
07
05
e1
19
01
ef
dd
26
01
ef
f8
07
e8
fe
08
cf
1c
e5
1c
03
05
e8
fc
3f
cc
09
29
f4
07
24
01
f6
e4
03
1f
00
e0
ff
c7
20
00
20
05
fc
00
03
fb
18
1a
d3
e6
ff
2b
39
03
03
f4
fb
d0
07
17
ea
e2
ed
f2
fd
0e
fb
0e
09
04
20
e8
15
f3
fb
24
24
dc
0f
e3
c4
11
f6
32
11
fc
db
f4
ff
f4
0c
f6
0b
0a
08
05
03
08
d5
0c
16
f9
30
f9
fc
1f
f8
f4
1a
d4
1f
da
10
d6
fb
0a
02
f0
01
22
15
fe
ef
f9
f9
d5
0d
f0
e9
f0
f3
ff
1f
b9
0f
08
e4
c5
d7
fd
fa
ea
14
19
15
06
09
26
18
0a
35
28
14
01
22
05
01
f4
08
1e
f0
07
09
1e
0e
19
18
ff
e4
e3
cd
fe
01
17
d8
f6
f8
e1
16
1c
f8
f1
2f
fa
0f
47
f6
01
09
07
39
f2
d3
f1
f8
13
08
08
f5
0f
02
bc
16
f0
ef
fa
e2
ba
f3
12
cd
e9
2a
ed
b9
21
0b
02
14
1d
f9
fa
20
1f
00
df
21
fc
ff
13
e3
19
d3
f6
20
d7
d8
0c
d5
ff
cc
db
fc
05
06
08
d0
d4
fc
fd
01
c3
35
fe
ff
01
05
0c
ea
06
f7
2f
ff
ef
03
10
03
1b
1a
3b
03
e6
d7
0a
02
d9
f7
0a
44
14
e9
e8
1c
12
f4
ec
e0
c3
07
ec
0b
24
08
c8
0f
d3
f5
15
e3
4f
07
f4
0f
f8
cb
e0
09
22
1a
30
58
07
f3
0e
f2
c8
e0
24
07
08
f7
05
d2
24
f1
03
e6
fe
e3
0f
eb
1f
2b
07
0d
f4
d7
0f
fc
f3
e5
39
08
2b
e6
ea
35
08
e0
14
ca
e6
e9
17
e5
fe
f5
34
27
1f
f4
d6
07
19
ea
35
03
07
f4
b3
04
16
1f
da
e6
d4
19
11
22
04
d5
eb
15
1f
08
53
fe
08
13
f9
18
0b
fe
00
35
37
e6
24
fd
24
ea
0b
3a
e3
f2
0f
33
e0
e3
fd
b1
19
dc
ed
0b
03
fc
0f
e6
db
1e
2f
fe
0a
0f
1f
ff
f8
da
f6
f9
f0
f4
1d
31
e1
06
f6
e8
08
23
11
c2
24
32
f2
0e
13
10
ee
4f
31
d4
df
e3
f8
fe
f4
0d
17
f2
bc
c2
35
de
fb
da
f0
f7
ee
3d
1f
cc
d1
d7
ec
e5
07
f6
64
00
0c
16
0d
fe
fe
f1
09
d7
32
fc
ee
f2
f8
e7
f5
df
11
eb
f5
ea
de
09
00
e4
37
ef
d6
14
26
c6
f9
0b
d8
05
20
cb
f8
fc
f4
dd
0f
e6
0e
f3
dc
c1
f5
f3
ff
ef
30
e2
fb
a9
0a
00
df
ff
f8
36
fe
14
07
ce
1a
f8
ea
d1
f5
e8
09
dc
23
06
ca
14
ea
0b
f8
f7
2c
df
da
d7
15
bb
0c
2a
05
37
23
3e
17
fd
11
26
1c
17
e0
21
e2
07
21
0e
17
01
c8
d2
06
22
0e
e6
1f
df
f7
fb
e9
aa
01
24
ee
01
25
ee
fa
09
e5
04
f5
e7
2a
f8
f8
dc
eb
1a
fd
40
17
e8
e7
35
ea
20
1b
01
de
16
e5
1d
f7
3d
0f
2e
09
ef
df
f7
ee
2c
1f
ec
f5
f0
10
15
ec
ec
14
03
f8
d6
f8
f0
ed
f5
f0
b0
26
17
00
3f
fd
fa
fd
17
f3
03
02
f2
d6
ec
23
27
e7
e4
2b
c7
22
0f
fe
fd
1f
17
e1
23
1e
bc
03
17
ec
fd
29
f9
11
fd
f9
eb
ef
eb
e7
f7
f0
f6
15
0e
ca
1c
09
12
07
f2
ea
d1
07
e0
3e
07
15
e8
0f
ed
0c
10
0c
e1
e6
06
c9
ec
b7
4c
f6
01
f8
fd
e9
0b
f2
09
f0
2f
ea
dc
32
ee
0a
2e
d6
ee
27
c6
3b
bf
31
1f
13
f8
f7
22
eb
fb
ec
3b
cb
0b
0a
cc
cf
22
ea
2f
ea
0f
06
08
fe
ee
f5
07
e4
d1
15
49
dd
ef
16
f7
05
d9
24
d9
03
00
de
06
cd
e8
1d
f1
1f
4f
1d
02
1e
3b
1f
ff
f8
ef
10
fd
cf
dc
f9
05
13
f8
e4
e5
f0
27
e6
f8
2c
f8
e6
18
ed
06
e9
28
10
ff
23
0f
0e
05
d4
fd
09
f5
09
c1
0b
fb
ef
ff
07
c0
c9
f3
05
0c
06
07
2d
e1
23
1b
e8
d5
f6
d1
1e
d6
01
f3
f3
f0
f1
eb
12
1f
02
37
ff
f0
3b
17
fc
da
1e
0c
e9
fc
e2
21
d6
1a
f5
c5
1d
0f
e8
e2
fc
26
fa
22
e0
09
f8
ee
16
24
27
18
29
e1
29
de
22
10
f4
e8
ea
35
24
ec
f7
03
ff
16
0b
21
0a
06
16
e0
f2
cb
f9
27
f2
0f
e5
df
ff
c9
0e
ff
10
fa
40
1f
09
f9
d4
11
18
fa
35
09
1f
ff
29
f6
d4
eb
14
f8
2c
ff
df
42
f1
0e
eb
18
f8
03
ee
0c
e2
ae
12
0a
11
df
02
fa
ff
dc
0e
16
0b
20
fd
1b
f6
c3
10
ec
f4
ea
db
05
f4
23
fd
35
19
be
0a
fc
d0
ea
fb
13
15
14
24
08
09
31
ea
e7
d5
14
c3
04
09
ed
0d
43
00
e4
05
13
ff
06
04
d4
fe
25
f6
fc
f4
d2
fa
09
df
25
ea
1c
fe
16
d0
1d
c8
f4
f3
fe
ee
f4
db
14
16
14
1f
f6
05
0b
ed
f1
34
fb
f2
16
1c
e0
40
e1
0c
17
17
f5
d0
03
0f
ff
be
24
01
36
0a
bd
09
cc
22
f2
f6
e3
e5
f3
39
ff
ef
33
00
fc
34
00
ea
12
0c
ee
fa
07
d5
0e
2f
1a
df
3e
15
03
67
e0
2f
ff
f9
26
17
f6
fc
fc
f9
f1
ec
1e
34
03
de
ef
e9
ea
2a
33
f8
33
08
1a
e2
03
22
17
c0
07
ec
f7
10
e3
f4
36
cf
20
dc
0a
e0
f4
df
1e
d0
e9
e9
5e
f3
02
d0
f8
01
f3
9c
02
24
ea
ff
2a
40
f9
03
11
0a
29
f4
15
fb
cf
f0
14
22
f8
09
26
d1
0c
d7
fd
07
f7
17
09
17
f5
0d
07
dc
0e
0b
fe
e3
f3
f9
03
1b
23
09
fc
e7
15
f8
1e
ff
ec
51
d7
d0
0e
0b
dd
14
f1
0c
f3
ee
13
ff
10
f2
04
04
02
09
03
0a
f8
04
09
ff
fb
fe
d7
08
ec
fe
15
ed
00
ef
1e
f0
24
f4
fc
fc
ef
09
f5
f8
14
f7
eb
05
f0
24
02
0c
0a
0c
fc
df
f7
02
f9
f8
f7
f8
e3
ee
05
f0
1f
00
11
03
fd
ed
f7
f1
fc
05
0e
0a
05
10
f4
ec
d5
e6
f0
0a
03
05
f2
0f
03
0b
f4
f4
0e
1c
01
fb
00
19
0a
1c
f4
06
f0
eb
e3
f4
31
27
e4
e2
16
14
de
f0
00
07
08
16
e9
1b
f7
ee
f5
16
0b
fc
0b
dc
fa
f0
19
1d
15
20
00
04
1a
f1
01
09
13
22
dd
0c
1f
11
10
e9
fe
0a
16
fc
02
f7
f7
f9
11
f2
e8
f6
02
0c
fc
f9
0e
13
e8
d4
01
0c
21
fa
f6
f1
1f
f7
1c
fc
f3
16
ec
02
19
02
e7
03
f3
0b
07
0c
00
06
fd
fc
00
10
1a
00
f9
00
1c
05
fe
07
e8
02
fa
0c
0c
ee
fb
0e
0b
e8
db
1b
10
ea
05
1e
0d
f5
03
05
fe
e0
0d
05
0f
0b
fd
13
02
11
04
fb
07
15
f4
16
06
03
15
15
27
26
03
e3
15
11
e7
22
06
ee
02
fb
fb
df
f7
ff
11
00
05
06
e2
11
fe
f2
02
14
10
06
01
e9
fd
e4
ef
0c
ec
16
0c
f1
ff
f2
2d
f8
00
07
0b
f9
01
ff
0a
ee
15
ee
00
03
1c
f1
fa
ee
e4
20
fb
f0
e0
ea
e5
16
09
f1
f2
fb
e1
f6
fb
ff
ff
30
15
eb
e4
1c
ff
07
fc
1a
33
07
07
f0
17
0e
e8
09
f3
14
01
ec
e0
03
20
08
14
ed
f2
1c
de
fd
eb
ff
d7
11
d4
e4
fb
0b
02
ff
f6
d1
16
f4
09
08
f2
0a
f8
fc
01
f0
ea
27
03
14
03
03
e5
f3
f4
0c
08
0a
fe
02
09
04
e7
f4
00
f3
12
ea
fc
f5
03
c5
02
fa
22
0e
03
f6
fc
08
eb
00
ee
05
24
df
fb
0b
f3
fd
14
d5
fd
17
0f
eb
ee
2a
ed
f9
12
1b
05
db
01
fa
0e
f3
f7
f5
03
08
e9
03
01
17
02
26
0b
ec
01
17
f8
ef
0c
07
f8
01
e3
0a
e9
f7
17
0e
16
fb
02
ef
14
1d
f7
0b
ec
14
21
0a
10
ef
1d
f7
0d
fa
02
f5
f3
09
17
f5
ee
01
f3
00
f6
dd
16
24
1b
24
07
07
f1
ee
06
0c
d6
04
1c
ec
11
e9
04
db
07
f8
f4
0a
1b
e0
08
f5
07
04
fd
fd
fb
e1
0c
12
fa
0e
09
07
ea
24
e9
e7
ee
03
0c
f5
fd
0a
fc
e9
d7
ef
0c
ef
0c
eb
11
13
04
fc
ee
0a
14
1f
11
11
07
0e
1d
2a
ed
f6
25
00
fb
1f
fb
1d
17
08
e7
f2
fd
0e
22
f1
12
21
1b
0c
13
f5
04
da
0c
fe
f2
fc
09
0d
13
0c
f9
14
02
fe
09
da
02
fc
dc
0b
00
ed
fd
e1
12
18
fd
13
f9
fc
f4
e5
0b
11
05
eb
e5
12
f9
1e
01
05
0b
fe
ee
f7
03
17
15
05
12
ff
f3
11
19
d9
12
01
fe
1c
26
11
15
d5
fb
03
2a
01
e7
da
ff
e3
18
f4
0f
01
0f
13
15
ff
e5
d7
f6
01
1f
09
03
02
f9
03
13
f4
0c
02
05
08
fd
f5
18
fb
f6
fd
e9
15
d7
f8
00
e8
ff
02
08
16
f7
0a
06
12
0d
f1
fc
09
0b
e0
f7
f7
f0
26
d3
f6
1d
f6
e3
15
03
f3
f0
21
fe
03
fe
f1
06
0a
e1
f2
f6
db
20
f7
1f
ed
f0
e9
d3
eb
e3
18
1c
1e
f0
fc
10
f4
f0
ed
05
0f
0b
f7
19
00
1d
09
0a
fa
d9
10
fc
0a
08
09
f6
eb
01
16
f6
db
0e
11
e4
0b
0e
f1
16
08
f1
2a
ec
f3
10
05
f7
fa
eb
06
08
01
fa
12
21
f0
00
f0
dc
1a
fd
ff
de
f5
09
e4
04
f3
fe
ef
e9
e7
0a
e3
0f
1e
0d
2a
1c
0b
02
09
05
03
f2
03
10
df
e9
fb
f0
ea
0f
d2
f8
e4
00
11
ff
f4
1a
fc
08
f1
00
17
0e
09
e0
06
e1
ef
19
e1
fa
1e
23
04
e3
1a
f1
22
08
1c
f9
0e
f2
05
12
03
15
1d
0e
cf
02
f1
13
fa
e0
18
1a
fd
e3
ff
fc
10
03
0d
02
06
d9
24
e1
ee
01
00
0e
e5
f2
fa
08
f1
ea
18
ef
1b
f8
37
00
1d
11
f6
21
0c
ea
10
07
e1
09
0b
fb
0e
2f
e4
19
ea
ea
08
ea
e2
f3
f8
1d
10
01
fb
c9
0d
de
f0
f1
dc
20
0c
ec
33
03
e6
e3
e5
39
fe
ee
f5
12
ed
3e
0c
07
f5
22
f1
17
29
fc
15
f5
22
02
fe
2a
08
fb
0a
05
1d
fd
13
0e
18
e4
db
fd
f2
f3
0e
f8
08
03
0a
08
f1
ea
00
d3
fc
ee
03
12
09
fd
fa
ea
0d
dd
f1
11
ec
ed
28
1a
e8
fb
f2
0a
f2
f4
f9
06
0a
fb
08
0c
da
f9
e9
e0
fa
ed
e9
ff
ee
ef
01
f2
00
fc
0a
24
e7
11
0b
14
ee
f7
ed
fe
fc
05
f9
12
01
17
ef
0e
1a
09
dc
0f
f5
f7
ed
f8
f2
f9
1b
e7
0a
fe
02
06
ef
10
f5
14
02
d9
04
14
1e
f5
1f
f8
10
03
ff
19
12
ec
ff
14
f4
15
ed
1d
fb
f2
04
15
06
f3
f6
dd
ff
05
07
02
06
ef
07
e5
22
01
0a
e9
f9
17
02
15
f0
e1
06
e5
e5
11
fd
08
fc
fe
fe
f7
02
16
2b
fe
02
fe
f2
0a
08
f9
f4
04
fe
f7
fb
02
05
11
f9
0c
ef
ef
ef
01
fc
e8
ff
d8
ef
07
19
f5
02
f2
11
fb
1a
fa
2d
fd
e5
ea
13
00
fb
f8
0d
f9
f7
f9
04
cf
fc
25
20
f3
e7
f5
e5
e1
d5
01
04
fb
e9
0a
f5
21
f2
09
04
35
21
f4
0c
02
d5
fc
05
0a
f5
e4
fb
fb
e7
10
f6
ff
03
05
09
09
f0
01
ff
fc
0c
f5
15
e9
e3
f3
ef
e3
ff
ee
fd
f8
05
e8
00
00
fb
f7
f5
1e
1b
18
01
08
0d
0b
13
13
e2
e0
f5
f6
00
08
07
0d
ea
fb
f4
13
18
ee
05
08
10
1e
f7
f2
f9
f6
f5
0d
0e
02
ff
f2
f1
e5
03
21
e4
09
1e
0c
16
f8
f1
10
09
02
09
f4
fa
05
f6
04
f9
01
f4
13
0a
02
04
ec
0e
e3
13
fa
fa
ed
28
10
1f
02
02
07
0c
0c
11
f0
e3
1e
09
d3
f1
0d
ec
f8
01
02
f4
0a
0a
03
ff
1f
fd
e9
05
da
f8
0f
f6
fb
e3
eb
08
00
01
20
10
0d
1f
f4
ec
fb
22
03
01
eb
05
e9
f3
ed
ff
04
11
f6
de
fb
09
fa
f1
e2
0c
0d
1e
0a
fe
f3
02
fa
05
f3
fb
ea
03
f4
12
e7
11
d1
20
f0
0e
fb
fb
04
09
14
fe
06
26
f0
1a
f4
f0
fe
04
07
f6
17
f7
07
f7
13
12
03
09
11
13
ed
ef
ef
19
09
08
f9
13
f4
ee
04
0f
fa
05
04
09
11
05
fd
fb
f7
07
10
fd
f7
03
fe
f7
1a
ff
e7
02
fa
17
f8
e0
2e
fd
f1
1b
f6
fc
eb
f3
01
29
05
ff
eb
03
04
f2
fa
fa
e9
ff
fc
ff
f7
15
f8
f3
f6
fb
ec
3b
e9
02
03
1d
1c
fb
fd
06
e7
0d
06
fd
0a
ec
0f
fa
e4
1a
03
f2
f2
fb
ed
0e
0e
05
11
f9
f9
f2
08
00
f0
f9
06
09
ec
08
f1
0b
04
e8
f8
07
ee
17
07
fb
12
1d
1e
0e
ff
0b
f5
e3
11
06
fc
fd
fa
fd
00
06
05
17
f7
1d
1b
f1
fb
e0
fc
01
05
fe
f5
f7
06
fc
06
04
e4
11
f6
11
0c
fd
11
17
eb
04
02
e9
da
05
e4
f8
05
f4
0f
e6
f8
09
0b
f1
18
0f
09
02
09
fc
f9
10
f0
01
04
fc
f3
36
f6
0c
ef
fe
03
f3
0f
0f
06
f4
e6
ee
19
2b
17
e1
1d
f5
0a
10
f2
09
fe
e9
ff
0f
0b
00
0e
13
0a
ff
ff
2c
ec
e7
03
fc
fd
01
e5
10
ef
13
ff
05
fc
04
ff
e3
07
02
df
0c
01
e1
fe
10
eb
0b
11
e2
f3
df
ed
ed
06
1b
18
0a
12
f3
0f
0d
f3
fd
fb
f9
e2
0d
0c
01
0c
1a
f7
0b
09
eb
0a
05
28
15
f4
0e
13
f3
24
19
fb
08
e9
02
19
f8
e6
0e
14
17
fb
0c
e8
0b
05
09
07
ee
02
06
e6
fa
12
18
fe
03
14
09
e8
09
ff
ff
f8
0f
e4
f2
f4
08
06
de
07
d1
ff
10
fc
f3
f1
fe
f9
fb
19
f1
fc
0d
07
10
ed
05
fe
00
01
04
df
f6
ff
dd
0c
1f
fd
23
fd
e8
fb
15
0a
e3
17
0e
0b
0a
ea
07
fb
00
25
ff
ea
fd
ed
d7
19
02
fd
e1
01
05
ed
04
06
19
1a
18
21
0c
f5
f7
f5
09
f4
f9
05
f1
04
00
f9
02
08
13
09
17
db
0d
e2
e7
15
f5
01
19
0b
fe
0c
fb
f4
e6
0e
fc
ff
f4
01
0a
1a
f2
11
09
00
0e
06
fa
0f
17
16
00
f3
c8
32
f2
f6
05
e7
ff
ff
f5
31
e9
0f
0e
ec
0a
10
e9
eb
ed
d2
22
14
e6
0f
05
15
0a
09
fc
f3
f8
1a
e9
f3
ed
ec
2b
03
01
03
e5
e9
e0
03
13
eb
02
f2
fd
f6
2c
f5
f1
20
1a
0d
12
fa
e7
f6
13
d3
15
0d
25
f6
0f
fe
07
1c
01
26
15
f8
f7
e2
11
fc
ea
e4
1d
0d
0d
15
fb
f0
20
09
fb
13
fa
1f
00
0a
ff
e9
0f
00
da
f6
f5
1a
f9
10
02
fe
1d
ea
ed
fe
17
ea
0e
12
e3
fd
f1
f2
e8
e2
07
09
07
f6
ee
ff
0e
ec
16
fe
f0
ff
0e
0f
0d
0b
18
fe
12
ff
12
11
f1
ed
1f
24
f8
0d
e3
f3
00
fc
fc
f9
02
03
16
1b
ef
e7
fa
05
ea
03
ef
fd
0f
09
2c
02
08
fd
07
07
02
ea
1c
0c
ef
0a
0e
f4
ee
f6
e5
fb
ff
e9
0b
f9
da
17
00
00
0c
34
03
ef
05
01
fc
d9
0a
e3
2f
22
b2
f3
0d
e7
fc
e8
fd
df
e4
16
22
5d
fb
e8
23
de
e2
13
fe
1f
de
f3
14
c5
dc
fa
17
1a
0d
ee
db
06
fc
01
d5
f6
3c
2b
29
10
da
df
d3
24
35
1a
01
f0
d4
11
f5
11
0d
3a
d1
e2
fa
e6
01
04
2e
f0
05
38
e3
02
cc
17
ec
0b
00
00
ee
44
e8
0d
ad
17
23
fe
fd
26
13
f1
ef
ca
e5
db
28
22
29
ed
df
01
09
1b
cd
03
17
15
f7
e5
0f
fc
24
ff
18
13
f0
04
12
fa
f6
09
e3
18
ed
15
3e
e2
d7
fe
08
16
01
05
01
07
e7
18
15
59
fb
e8
f4
10
f3
2a
cd
36
ed
f7
d4
c3
04
cf
03
2a
dc
40
c6
00
1d
d4
fb
f6
34
ed
04
02
ee
10
f5
e3
c3
03
24
1b
1d
03
e4
e4
fc
e9
07
23
1e
eb
f1
df
09
e3
08
f2
1f
ef
03
df
24
fe
11
06
3c
00
e7
e0
12
e8
06
0e
0a
eb
c3
e6
e1
fe
de
f6
10
2f
fa
22
ec
07
03
00
fb
16
3e
fb
19
e3
fd
2c
d9
3c
f4
fa
e1
21
b8
37
e6
c6
f3
ff
02
f9
ff
10
d7
df
cc
1a
f0
d9
4c
19
1e
1a
1b
04
fb
11
23
ef
e3
bf
05
02
01
f4
0b
03
fa
33
f8
41
f6
00
26
17
fa
08
e8
ef
17
e6
02
fc
1e
0f
0f
e1
e8
e4
f9
f8
e7
f5
d3
0c
df
27
08
01
f5
e2
ba
fb
de
ed
12
f8
f3
fd
e4
04
fa
02
db
14
f4
08
f4
e7
19
e9
0a
ff
22
40
05
f9
02
f4
f4
0c
f5
f4
44
ca
15
23
15
f1
13
d6
05
0c
e4
14
c9
fa
1e
d4
d0
29
03
21
fe
07
49
cf
3e
f6
e3
0c
e2
e7
ea
fe
f9
25
db
08
e8
ce
fa
dc
09
09
fd
e9
05
22
10
37
06
0a
2a
f4
da
0a
33
22
08
fe
12
ef
0f
ff
f8
09
d4
3d
0c
fb
f0
2f
d9
2f
e3
f6
0b
24
e5
ff
d0
e4
17
e0
0b
ce
02
06
cb
d7
ec
04
31
04
e7
dd
14
10
15
2c
2b
26
0d
f6
20
26
d9
1f
0f
ff
d7
1d
0b
fc
da
e1
3a
f5
22
09
ce
2f
1e
f6
28
1a
ed
ee
e9
12
02
05
de
ed
e7
f3
da
f8
ed
11
ff
0b
fa
f8
ea
ca
dd
c0
27
e4
f8
fc
1f
cb
f1
0c
32
05
c0
e9
fd
16
19
f4
08
e2
05
da
14
d2
d9
01
f9
c5
38
0d
cd
f4
e3
cd
e8
0a
14
0f
0e
ec
19
eb
dd
1c
fa
33
12
e3
ee
ec
06
f6
ed
f5
c1
dd
0d
26
f3
01
fe
d2
fd
bf
e3
df
eb
ff
ff
28
fc
eb
00
fa
0e
16
1f
d0
1c
08
ea
fb
02
30
0e
15
e0
07
ed
03
27
2a
09
1f
fb
f1
f4
f8
0a
ef
ed
dc
de
f0
2c
30
ed
0a
f7
0b
da
10
fe
dd
16
e2
e4
e1
d2
0f
1b
f0
ef
0d
18
f6
cb
17
d0
e3
21
0e
0f
1e
1b
33
0c
31
f1
f4
ef
04
f9
ee
b7
22
fb
2a
f9
fd
04
e8
0b
f8
07
22
e5
11
ec
2d
14
06
e6
06
06
23
15
2d
02
03
0b
f8
28
da
f9
18
d1
21
bf
1b
fc
ec
11
eb
e8
ed
26
16
d3
08
fb
13
08
cb
0a
f6
0a
ed
f0
13
13
01
21
fc
02
f7
dd
c1
17
ec
1e
25
2f
09
43
1f
e9
01
db
ca
04
04
fb
0c
27
f3
0a
0c
e2
01
e5
43
ee
ef
f2
19
09
e1
10
10
f9
4e
13
1a
15
fe
1a
da
10
eb
01
e6
eb
2f
ea
f7
36
ed
e4
05
e1
e2
1f
20
29
e6
e1
f7
d7
f9
27
07
03
0b
c8
3d
0e
12
03
d9
e5
06
0a
0d
0d
ee
0b
e0
fa
f4
ee
e8
de
15
3b
e6
fb
21
e4
e4
e5
03
e7
11
1a
29
cc
f1
08
e1
cd
b3
f2
da
10
09
10
da
00
11
16
1b
07
e4
0b
f1
1a
15
1d
0a
f6
24
d5
08
21
fa
0b
17
dc
21
0b
00
05
ea
ec
f6
02
58
3c
f0
22
0a
1a
25
17
07
f8
fd
0e
2c
fd
37
ec
1e
0f
ff
ff
18
23
04
26
11
ef
eb
41
c3
04
34
01
04
e1
0c
f9
f2
c9
eb
f8
f9
f2
2f
11
df
2f
13
3f
e7
0b
db
e3
fb
28
0a
cd
f4
0d
f2
fe
f4
19
ee
15
2a
2c
01
e2
09
30
ec
e6
0a
f0
f2
f2
30
e1
fc
e8
17
ff
f7
f2
ed
14
94
39
fd
f1
2e
e2
db
0d
03
16
12
fc
ef
1f
1e
fd
da
5a
f3
da
30
0c
2b
14
e5
25
f9
16
d4
f5
0a
05
fe
e3
e3
db
ee
ea
26
c5
1d
00
df
da
26
e7
3e
09
00
1b
2d
c8
ef
e3
15
19
24
e5
f4
e8
ff
fb
0d
04
f8
04
0a
eb
18
34
0f
fe
f1
1e
ff
23
02
f5
11
fd
1e
fb
10
28
0a
14
03
e4
33
24
2b
17
25
dc
f4
30
13
f2
0b
e0
fa
25
16
20
ff
e3
f8
03
ed
38
d0
ec
fe
e0
02
fa
10
a4
c6
fb
05
f3
14
07
54
fc
07
ec
18
d7
40
3f
ed
15
ef
fb
0f
fa
e9
4a
0f
38
de
2f
e8
d0
02
15
09
26
2a
eb
0e
d2
f8
dc
be
1a
0c
37
f0
f8
fb
0f
1d
0a
ed
f9
f0
f9
e4
a6
ef
ee
fc
d0
0a
e7
08
14
20
11
a7
2f
f2
ff
bc
04
0f
eb
38
4f
12
fd
02
f0
c0
37
0b
da
ed
d5
e3
c4
e0
2c
19
2d
ea
de
24
2e
13
16
e7
17
02
f0
d7
ff
31
24
06
ea
fb
07
e9
d2
1a
f6
f2
ea
1e
00
35
32
e6
f3
ef
f1
19
30
ff
f6
27
fd
04
1f
d6
f4
1a
f3
0d
39
28
14
02
4e
18
d0
dd
ed
3c
e1
24
0a
0a
09
0f
e9
89
f5
d5
dc
09
37
15
e4
1e
0a
fb
14
16
c3
d6
18
f4
f2
21
18
33
12
ff
28
0b
ca
cc
e6
f3
3a
ec
33
17
e6
1c
c4
2b
f0
01
f4
16
01
0b
16
12
2b
fc
f8
dc
33
02
e9
ee
0a
fe
e1
fc
19
f6
c4
07
f8
e6
ca
c2
2c
d4
d4
06
f1
05
49
01
23
fe
2f
fa
24
c2
21
d6
df
1b
e0
fa
13
0a
0f
1c
e7
ef
04
11
00
fc
ed
29
e5
f6
d3
10
01
07
37
5b
08
fe
13
f9
21
26
03
0e
01
04
2f
19
28
2d
60
0e
1f
20
22
ea
ed
0f
f3
11
40
36
20
08
11
4d
de
fb
03
10
21
ff
ef
fc
02
c2
6a
c5
d8
1b
da
0b
18
f9
0f
fd
ff
d0
e9
fd
3a
0e
b2
0c
28
e2
e3
fd
3f
1d
2e
29
7d
fd
e0
35
04
1c
fd
0d
de
20
0c
ef
f7
15
0c
06
de
f6
ec
29
dd
e6
cc
13
ed
ff
3a
2b
e8
e2
0c
f7
c2
f6
fd
28
fb
19
a4
1c
20
17
fb
2d
0d
03
14
ff
f7
d9
2a
0d
1e
da
1d
f8
f1
1e
35
e9
f7
d7
1b
36
e1
1b
ec
fb
07
19
1c
4f
cc
0c
2b
62
e0
2f
fc
fb
2d
1d
a8
fb
0c
0d
ef
20
0c
c8
08
ee
10
07
10
19
55
39
10
ef
11
d6
0c
ed
ed
d9
06
12
e6
fd
18
db
f8
ba
12
14
06
fa
01
33
25
ff
dd
d1
0b
2f
ef
a8
b9
e2
24
fa
f3
e2
b4
06
cc
32
08
1c
12
22
08
08
e0
ef
fa
f9
e8
09
f9
d5
fc
19
f3
ee
04
0c
f3
0c
2f
f5
f3
3e
ec
0f
fe
14
dc
17
ea
29
56
ff
0c
e8
13
19
ea
0d
ec
f3
02
ff
13
25
46
20
e0
07
c8
cc
3d
18
f4
d8
d8
d8
39
c4
f3
16
f9
03
e3
2b
20
0f
fe
fe
cc
01
10
fc
d6
22
0b
fa
0c
f5
01
1f
ff
d7
0b
07
dd
05
e3
0f
44
ed
12
fa
c9
e6
d6
0a
34
e9
02
ed
23
1d
dc
0c
f9
e2
1d
cf
1a
f4
f3
28
fd
0e
0a
ec
24
0f
17
c3
39
0f
21
16
2e
df
0b
f5
f9
e8
19
3c
04
d4
ef
19
54
7f
09
f8
fd
f6
15
27
f2
f7
fa
27
08
fb
f4
08
12
23
f4
ca
f1
08
08
09
2d
e5
13
28
14
33
17
3c
ed
2e
e0
ed
df
0c
f8
c3
40
12
17
0e
fb
bb
f0
ff
b2
12
eb
23
35
ec
0a
c6
eb
27
dc
cb
c5
2b
08
ec
2c
0c
41
f8
e1
eb
28
ef
ea
ec
e7
f1
f9
0f
ee
ed
27
2b
ee
3d
ec
09
05
e5
e8
0b
11
b8
ed
27
0f
27
24
04
ee
f0
05
e0
e9
00
19
0a
10
4d
f5
f9
09
19
0b
d5
1a
17
cc
05
28
fe
e4
d9
cc
0e
11
f1
10
db
17
d7
01
0f
fd
2e
17
0b
ef
3f
01
d2
f7
cd
0a
15
27
13
23
d7
08
25
26
05
4c
18
05
e3
29
1e
0b
ef
bf
e8
fd
ea
4d
06
06
0d
f4
f7
f6
f8
12
ec
03
26
09
cb
ea
0e
fc
ff
e0
bc
03
ef
5d
fc
f5
3a
1a
ff
eb
bd
f5
1d
e2
f9
ea
c9
0c
15
1f
e1
0d
e5
97
0c
c9
08
05
24
eb
1e
e6
e4
e6
05
fc
2b
af
16
d9
20
4b
c1
0a
f1
f8
03
fd
f0
ea
eb
24
16
eb
dc
26
df
01
cc
e9
14
f7
1c
ff
16
27
1f
01
ba
d2
b1
1d
12
3c
e9
cb
2e
db
10
1b
f1
f9
1d
fc
10
08
ec
f6
ec
9d
0d
d2
37
10
e9
f6
f9
0a
eb
15
f2
39
ee
25
c9
27
ed
2e
e8
ee
1d
03
d9
1b
fb
f9
12
1b
c1
1c
fc
36
32
23
c5
06
4e
2a
f3
13
de
0a
e1
04
1d
c8
27
1d
03
fc
fe
f7
32
f4
ea
41
f6
f4
0d
fa
fd
f2
28
e0
09
39
fb
fb
01
09
25
4d
f6
f6
f1
0f
d6
e5
0a
3b
03
ee
f9
b3
f4
ca
4f
f1
e8
03
4e
05
1e
10
c7
26
1c
b7
f0
d2
2a
05
1f
fd
e5
d5
17
a7
1e
1f
ec
ed
10
ed
07
ba
17
f8
08
fb
ff
de
05
16
e6
16
e4
e7
28
27
f8
