dd
0e
35
d0
dd
23
ec
0c
0d
fe
13
0b
1c
ff
0f
32
15
2b
e9
10
eb
15
08
00
e5
08
f2
e6
e8
03
f6
21
f5
fe
11
0c
e6
ee
0d
ff
0c
24
e6
e3
fe
17
0b
ed
fe
12
27
ef
25
48
f1
02
14
dd
f0
e1
f5
fd
21
04
ef
fa
cf
2c
ff
cf
33
01
f3
16
ed
f5
f4
f9
dd
e3
12
f9
14
33
06
0e
08
fc
f8
ff
04
ef
05
0b
10
f3
f4
f9
e9
e3
f2
15
f2
d5
ef
21
f9
e9
02
0e
fd
fb
0f
e7
f4
0b
db
c8
f8
ea
f9
14
1e
15
ed
f2
12
fb
14
0e
2f
af
f1
1b
e3
25
f2
08
e8
23
ef
f8
39
43
20
0c
ef
03
fb
11
0d
e4
db
2f
05
fa
d4
f1
11
37
e3
28
fb
f3
f1
ef
0b
31
2c
f0
2e
f6
f7
f9
30
00
ea
e6
27
ed
16
fd
f0
2d
f7
de
00
ed
1a
06
23
ef
09
03
04
1e
ff
f6
19
08
01
02
02
fb
d7
14
14
0b
e8
f3
08
0e
11
ff
1b
e5
ef
1b
10
26
f4
dc
fd
f2
f0
0a
06
ea
01
e7
e8
27
06
d0
2d
01
14
fe
f0
0b
0d
ea
f6
e4
dc
ec
2d
04
11
2b
f3
16
d0
fe
e3
1d
e9
e6
c3
3a
0d
d5
18
d7
1e
0b
0e
bd
11
e2
c4
b3
04
f8
31
f5
f0
1b
e2
0c
1f
bb
e6
16
0e
f3
eb
ec
03
cc
d6
19
09
0d
16
b4
f0
32
fd
dd
ef
20
c8
ef
ea
0e
ee
08
e4
13
f7
c5
f8
22
18
26
22
0f
e5
df
f6
e4
19
f7
12
07
f8
13
15
05
f4
ee
20
e3
04
01
1c
05
f6
06
ca
f0
fa
e5
e6
fe
f1
13
f4
f8
da
26
fa
fc
eb
f9
fc
ef
eb
ff
0a
23
ec
f7
e7
09
2b
e6
00
1d
11
ed
f9
1b
d4
0f
09
e8
f2
ec
07
d2
1d
fd
f6
30
f5
0e
11
fb
e6
00
05
f5
fa
25
de
00
f3
13
17
00
ef
f8
e3
0c
10
f7
1b
ff
0f
03
e7
e5
f1
f7
06
e4
0b
24
02
0b
0e
13
05
ee
f9
01
0b
dd
f3
1f
1d
11
1e
d2
1c
0e
18
1f
1f
12
03
1f
ec
fa
13
19
ed
db
ce
2b
1f
08
23
d7
0e
02
05
ea
1b
2e
d6
ab
eb
e0
1a
12
1d
05
19
26
25
e6
f0
ff
0f
0a
15
d6
3c
fa
f8
04
05
13
1d
c7
f0
0a
f7
00
02
2b
f4
f1
f8
f1
ec
0e
0d
fa
08
e7
05
19
04
13
05
fc
cc
ee
0c
15
0c
ff
e8
0e
d9
fb
09
ef
fa
0f
02
f9
20
1d
f6
ea
e3
d4
f3
14
11
05
01
1a
ef
03
f8
fc
f2
01
18
f4
19
29
e9
08
2a
38
17
db
f3
ed
21
e8
f5
f4
06
20
f1
e2
46
0e
f6
2c
09
d1
d4
02
f7
ed
07
0c
1e
4e
30
c8
ff
13
fe
17
f9
fd
f3
17
cd
fc
13
41
e6
f9
08
ec
07
15
1d
0a
09
2a
19
03
cb
0e
18
fc
ec
11
34
eb
0b
1d
e4
77
3a
cd
38
06
09
ec
fa
31
0a
e4
13
af
e7
e5
17
53
09
23
f1
17
f5
fa
ff
17
fd
db
29
f4
e7
f4
f5
21
f7
0b
26
ed
0a
f1
f9
ff
12
0e
1a
08
f1
01
05
fe
ff
06
02
f4
dd
f0
04
19
f6
10
18
04
03
cd
1c
05
ed
08
f9
1a
f2
f6
e7
f8
06
fd
1c
fc
ee
f7
d5
ea
f9
f2
0b
ff
fa
03
0a
e2
f2
fa
0e
04
12
22
f7
0a
06
fa
1b
17
f7
11
03
e6
02
f8
f2
f3
12
19
f6
1f
3b
07
04
da
1d
df
dc
05
f0
fa
0d
f2
ef
03
0d
23
0c
fc
fd
fb
13
f8
0e
02
fb
06
f3
e9
1c
08
2f
ff
0c
1b
eb
0c
f2
0b
ef
09
fb
0e
26
03
dd
10
1b
fb
04
f1
f3
ed
0a
e9
fe
14
01
fd
01
f0
fa
ea
08
f9
fc
fc
0b
1b
04
f6
fd
1b
02
00
fa
14
e5
f3
0a
fd
07
10
ff
08
0a
fe
fd
f5
10
f6
f4
f0
09
fc
0d
03
f9
20
05
ff
e7
11
12
0f
ed
ee
f2
14
ed
05
15
f4
e1
10
e7
02
13
fb
fe
f9
1f
12
e8
0e
e7
e3
f9
fa
db
13
09
0a
07
f2
f3
02
db
16
f4
f7
ff
03
0b
d7
e4
11
ec
02
ec
fe
0d
00
16
e2
06
22
f6
0d
f3
e8
0d
da
04
f5
0b
0b
e2
e7
f7
17
fa
f9
0b
0d
dd
14
f9
01
11
2f
07
04
12
19
e0
f6
d8
e5
f8
0f
00
10
f5
10
e5
04
f7
04
fd
1a
16
f2
ef
fd
ed
f9
f7
00
24
e4
01
11
eb
da
09
0e
05
16
0a
05
0e
08
00
12
3a
08
f6
06
0f
f8
0a
0f
eb
cd
ba
38
1b
e6
25
ce
28
fb
07
d8
28
f3
bc
86
07
11
0f
ff
04
f6
e2
16
29
c8
ef
15
34
29
e6
ef
fe
08
cb
11
01
13
15
ae
c1
28
c6
dc
1b
28
d7
df
03
17
df
4f
fd
dd
11
c0
fd
1f
08
18
0a
ed
d7
e5
01
1b
10
0f
00
f4
27
d3
f3
d6
12
d3
e5
c8
00
fc
dc
05
f0
1b
f5
36
3c
ff
fc
d1
f7
0b
22
fd
1d
0a
fd
f7
37
08
04
fe
e1
f6
ef
f6
29
36
fa
f0
f5
20
f0
ee
d6
05
e6
c6
d5
f0
fd
18
03
07
06
09
f9
d6
e4
01
00
e4
26
0d
14
00
21
07
25
d9
03
12
eb
f6
08
39
15
11
dd
fe
24
f6
25
e2
f8
45
e8
f5
d0
15
10
e2
fe
1a
05
14
14
dd
0c
33
e9
05
0e
20
f3
0c
fe
f8
26
dd
e5
3c
0d
d4
e4
17
17
fe
12
13
da
e6
f4
14
dd
24
10
ea
00
c0
e9
fe
b8
1f
be
2a
de
21
fc
d5
0f
34
f0
df
da
ed
ee
06
14
0a
eb
23
31
e6
0f
0d
fa
e2
03
1e
17
f1
f3
ec
d6
ed
f2
cd
1c
04
2a
d4
ea
f9
03
16
f1
f9
dc
f5
df
fb
2a
db
16
06
fb
f0
db
06
18
0f
e1
f1
24
10
e0
ee
0c
1d
bd
e3
17
1d
01
fd
e6
e3
18
34
15
d3
e6
17
f4
e9
d8
d7
f7
f3
0c
1d
02
04
04
fa
f9
ef
dd
f5
1b
20
01
14
26
ea
26
e7
f6
fd
ed
d8
13
1c
1d
fe
03
d8
d2
05
16
00
01
01
08
0e
2a
f3
f4
20
f5
d6
e1
cf
f0
f2
f1
e1
05
fa
05
23
fd
f6
0b
1a
2d
e4
ee
05
21
03
e8
bd
38
0b
3b
d6
fd
19
ee
09
09
ef
f4
07
df
2e
e8
19
13
ef
bb
c3
c6
e8
fe
0a
fb
fa
03
35
2b
01
0e
d6
2c
0c
f2
27
4b
05
13
da
29
ae
eb
02
ea
ce
b7
16
22
1f
38
fb
11
eb
3a
15
0d
29
1e
e6
06
e0
d2
18
ff
03
ff
05
c5
2c
ef
dc
08
1c
06
33
d4
11
ed
eb
fe
f4
b7
fa
0c
d9
e2
36
fb
07
f1
f4
c9
f4
fd
18
f7
f6
22
a4
39
14
11
f4
32
cc
ec
f1
ce
e7
e0
f2
51
2a
45
01
f4
10
35
f5
2f
01
e5
35
23
e3
df
25
09
ce
09
0f
e1
27
f4
29
2c
16
02
23
c9
2a
16
d8
f2
fc
81
b5
1a
f8
07
35
27
22
c9
07
ee
e9
db
2b
33
1c
20
07
f0
e7
05
ef
f9
37
11
ed
e9
07
e4
2a
e7
14
b9
0d
10
14
04
f1
27
06
fe
18
f7
12
f4
f7
1a
1f
19
19
1e
fe
13
09
fb
f2
fa
fb
28
14
e3
eb
f3
04
11
01
0e
05
14
c1
ca
f2
01
f9
07
1d
20
cd
1c
00
1c
fa
cd
f3
d7
00
e2
01
0d
db
f8
e1
23
f7
0e
c9
f2
1b
d9
e4
14
fa
1a
fe
f4
13
db
fe
27
fd
03
f8
f8
04
14
d3
0b
07
d2
00
14
ec
15
ee
1e
24
d0
46
04
27
e9
e8
f2
e2
ef
e9
0a
05
07
0a
0a
fa
1e
0a
e9
18
ed
25
12
05
de
1c
12
d6
34
16
f3
f5
e4
0f
13
f2
01
07
dd
26
fc
02
3c
10
35
f8
da
11
e3
c8
ef
07
d1
fd
d6
e0
00
f5
16
19
38
ef
e5
e3
f5
29
ff
02
fb
ff
e0
fb
dc
e0
f0
00
1c
f5
ef
ef
eb
fd
14
ee
f2
f7
27
df
1c
ef
0f
fc
f5
e9
02
e1
f8
ea
f0
2b
e2
0a
2b
cb
e3
07
fc
d9
07
df
fc
d6
fb
0d
06
f9
fb
00
f7
fa
0e
dd
11
0b
f7
01
26
0e
0c
d8
4c
1e
eb
1d
07
12
f8
00
18
eb
d4
e3
0d
09
be
24
07
f4
23
ff
ed
01
ed
13
d3
f5
22
dd
13
be
e3
07
1c
ed
f0
22
f2
10
07
e4
1a
35
26
f9
ff
19
f7
dc
10
d8
2c
e0
dd
08
14
fc
17
ed
00
fa
f2
13
c9
3b
23
be
09
26
ea
e3
05
ee
09
2c
13
ec
fe
fb
14
04
9c
d9
de
0d
02
de
fd
05
26
ff
02
f0
00
2b
f6
f7
db
ff
0d
04
14
eb
d0
ef
42
14
ff
20
02
f0
f8
0d
fa
db
0f
08
e5
ff
f1
27
00
e5
f5
f2
f4
fc
21
02
16
f3
ca
e5
29
e4
dc
d5
01
0b
f4
05
22
f6
eb
1d
04
f9
24
07
26
24
fb
f8
d7
16
d7
ec
0e
ca
15
f4
18
10
f4
e9
2d
d0
33
11
f7
f0
ed
0b
fb
14
10
e3
25
e3
30
0d
d0
09
11
1a
0d
03
b5
21
fe
2e
14
f5
ec
c5
ec
0f
2c
40
1c
f0
01
f7
ff
2a
1a
fe
00
ca
21
e7
0f
21
ce
2c
e1
de
eb
22
c1
35
2c
3b
2e
12
22
ff
ea
02
e7
ed
09
e5
d4
08
17
20
f8
2d
07
c2
1c
fb
f7
05
f3
f2
36
11
20
05
e2
09
0f
e5
28
e6
ac
b9
ff
02
05
09
18
e5
f2
1b
cf
25
fa
e6
0e
ff
16
12
20
ec
08
f8
13
e2
03
15
cc
ee
0e
3a
32
0d
0b
f9
02
01
36
e7
fc
22
fd
f7
05
0c
e3
09
d0
1e
1c
13
d7
03
f1
11
28
08
02
21
d0
e6
d5
0e
0e
ea
eb
03
f1
ef
14
36
e4
25
f9
08
e1
15
f2
ec
e6
06
fd
ef
fc
1f
0e
10
f2
fd
00
ee
07
1b
20
0e
12
14
f6
0e
f2
e9
ce
09
19
ee
e4
06
fe
03
0c
f4
fb
e5
f8
f6
03
d4
07
12
ff
e8
f6
11
ff
03
18
10
16
04
f8
11
fa
05
f1
e4
27
ff
f7
06
16
f8
f6
12
cc
35
2c
f2
2c
f1
1d
f5
0e
f7
da
24
c4
c8
cd
ec
1b
de
37
fe
03
2f
30
dd
08
fa
18
1d
0f
bb
1c
e0
0b
fb
12
22
02
11
f7
f0
0f
f8
22
0c
cb
15
09
12
d2
ec
c5
cc
39
ed
f9
58
11
41
ed
04
d4
0c
2d
df
e6
0d
11
f4
3a
ed
f8
ed
ea
fe
f9
25
0e
c3
e4
eb
14
17
15
0d
f4
ed
31
ff
20
02
0b
f6
01
f0
fe
2e
18
f4
0d
fd
fe
fb
ea
df
f6
16
0e
0a
f6
15
31
e6
f3
0f
ec
d7
f6
10
00
f3
ee
fe
f4
ee
c3
f0
27
f2
16
ef
e7
05
fa
03
f8
f5
fa
10
e6
0f
26
27
f3
ea
f9
15
1f
e7
10
05
f5
24
19
1a
0a
12
25
eb
ed
2d
ef
ef
fb
18
f2
14
14
dc
15
31
10
f8
16
1e
f6
d9
e9
0f
e7
d8
22
17
00
18
e3
ef
fe
ff
fd
09
f1
02
17
ff
0e
06
0e
18
04
0d
fb
f1
1e
01
03
2f
1a
06
1c
08
f1
f6
f8
ef
e1
eb
02
ee
f9
0b
f0
0a
fb
18
08
f7
0a
e1
05
0c
0b
f1
12
ff
e7
11
15
06
03
de
06
05
e5
11
e5
03
03
ee
0e
f7
fe
03
1b
03
fb
e0
05
05
0a
08
0d
f9
0d
05
08
e9
ef
0f
0e
e7
06
ee
0a
25
00
fb
fa
f5
11
fb
10
fe
ea
fc
fb
e9
e4
06
06
e8
21
00
f0
fe
fd
15
0b
27
d5
0b
f8
1d
f4
fc
17
01
e1
cf
db
f8
19
07
11
fc
19
f2
ff
fc
0d
10
f7
16
e0
ec
08
f8
ee
fb
f4
f0
fc
17
05
e1
d1
03
25
01
10
03
05
1b
06
fc
fd
05
1a
02
17
eb
e3
0e
ef
f9
01
11
f2
28
e3
f0
0f
f5
05
15
fa
0f
f0
ed
e2
03
ed
cb
05
e2
fa
0f
0a
33
f5
fd
de
18
ed
5e
e1
09
11
e7
f0
0c
0d
21
f3
01
d0
cb
f1
1e
f6
f2
0b
f6
19
14
ff
15
0d
0d
f7
e0
f6
04
f4
e3
1d
ca
02
09
f5
28
f0
1e
1b
f6
16
d6
08
fb
f5
ff
dc
0b
05
c4
0f
02
44
2a
10
45
f8
42
ef
1b
3a
2a
0a
dd
11
d9
fc
ec
04
16
dd
00
19
f9
e3
f8
f6
0a
ff
15
0b
10
fd
0f
fd
f9
f1
f1
ff
f8
dc
ee
0b
32
f4
fd
12
ed
02
f6
f9
06
fe
42
26
0c
f9
17
09
01
08
07
27
fa
da
f9
e4
fa
f3
05
1b
e6
04
00
21
f0
16
c2
37
cd
f4
2c
12
24
d9
e4
eb
27
24
21
3d
08
fe
04
dd
fe
11
ec
ee
e2
d4
04
0f
05
20
00
f9
21
f3
40
f4
f5
0b
e4
f8
ef
05
f9
eb
0a
f9
0a
22
f8
11
eb
eb
42
ff
f4
ea
f9
e4
bc
f8
d1
09
04
e3
e7
07
e5
12
07
ff
1a
f2
f9
16
f3
08
fb
1e
f5
10
f7
0c
f9
fe
ee
08
ec
01
ff
0f
fb
fe
17
15
02
d7
18
fc
f4
fa
13
f6
01
fe
f6
20
12
0d
1e
f4
01
15
f3
f6
22
12
26
1f
41
1d
08
12
ee
e1
fb
fa
f0
ef
fd
23
f3
25
e1
fb
19
0b
11
f4
01
f0
04
fa
0f
2e
ef
f5
0b
e8
ec
22
d2
fb
f8
eb
23
f9
f9
0a
0b
17
1b
d5
26
13
eb
09
e3
ed
0e
fa
ea
13
17
01
fc
22
04
07
f9
f7
40
fa
d6
f1
07
05
be
f3
c0
0e
ee
cb
df
f6
ea
15
f3
e8
23
06
14
06
f8
1b
d2
f7
f2
01
03
10
0e
fd
13
0b
e5
f1
f4
1a
11
00
17
fb
f8
fb
06
eb
0c
f4
0c
10
01
ee
0e
00
f7
fd
e6
11
08
ec
eb
f8
f3
10
0d
16
2c
ee
05
f2
ef
fc
04
f7
f4
14
fd
e9
3f
ea
12
fb
de
f4
0c
17
03
ff
1a
f5
e4
dc
21
fe
00
11
fa
fb
2c
f1
dd
f5
00
f3
dc
0d
f4
f7
f9
0f
dd
ec
08
dc
09
eb
1a
f9
07
1a
f9
02
de
d6
f5
e0
f6
e1
d3
fe
34
21
13
f4
2e
0f
27
07
fa
3a
13
0c
19
e3
ed
14
d7
14
01
f4
0d
e3
ee
ff
08
ec
f8
fc
0e
22
ff
01
f5
0b
05
f6
f5
fc
20
f4
15
0a
f0
e4
0d
f6
f2
0b
09
d3
f7
fa
f7
11
0c
fa
fd
fa
0c
12
e9
fc
d9
cc
de
1e
e3
ff
3f
02
0b
d9
03
ed
13
e2
52
f2
1e
f0
f7
ed
03
06
0c
03
1e
f8
eb
e6
32
f2
10
0a
f1
fb
0c
04
f8
e4
1e
ee
f2
fc
f1
14
f3
ff
c0
13
fa
e5
17
f2
3d
1c
ea
11
f6
f6
e2
d7
f9
e4
0e
10
ae
f2
30
1f
0c
f5
36
f1
54
f0
fb
35
26
df
16
c5
1c
f6
d2
06
f4
01
fa
fd
e4
09
ec
d4
fd
07
1e
27
06
f4
f7
e1
11
fe
ea
f0
d4
11
09
11
ed
01
c2
ec
ee
01
18
fa
d1
fa
14
e2
eb
fa
16
e0
0f
e5
07
fd
0e
dd
fa
13
c9
de
3e
14
20
14
0e
31
fe
f6
f1
f8
f0
0c
f0
29
02
18
c9
ec
fe
0c
28
fe
f6
05
e6
ef
f3
ea
06
1d
03
fc
fb
26
fc
fa
1b
0b
e1
fe
fe
0c
09
2a
f6
00
07
22
e3
f8
ee
e4
03
28
f9
28
10
1d
ed
12
eb
d1
ee
01
fb
fb
f4
22
ed
e8
fb
05
28
d9
0f
19
b2
27
fd
ed
f4
fc
fb
d7
df
e8
19
ee
ed
08
11
2a
0b
0c
08
d8
22
f9
ed
06
0c
13
d9
f4
e8
f7
c6
03
20
f1
01
db
eb
23
0a
f1
f2
fd
f3
eb
e0
d8
f2
c0
d8
2d
00
e5
51
f5
27
07
f8
05
ff
05
0c
21
dc
00
0b
fa
fe
2a
ef
1e
ef
0b
fe
13
f6
11
10
eb
ee
da
1e
13
24
13
f8
1c
00
15
f1
f6
03
0e
eb
34
16
22
e9
16
1a
fb
11
f7
15
fb
08
f2
f1
e0
43
01
09
19
fc
ea
19
05
e9
04
e9
0c
f0
0b
d4
f0
f9
1c
d3
cb
10
fd
27
e0
10
f1
1c
1c
f4
31
3f
f6
2b
f2
1a
0e
c9
f2
d1
b1
1e
fa
e0
1c
fd
05
1f
e3
14
f5
e2
fd
f3
d9
10
17
f9
f2
0e
d8
0e
33
d6
cf
e6
f3
16
fe
16
f7
f7
df
e6
ec
f0
1e
fc
2d
ef
34
e1
15
f3
26
29
23
df
09
d9
ec
15
fc
31
20
d3
e7
ed
09
00
fb
fc
0c
e9
4a
07
2f
25
dc
fa
03
11
09
29
2d
0e
30
0a
02
0d
0e
d9
09
16
24
11
f5
1d
36
fb
06
ec
f7
ed
e6
0e
24
f3
f6
ec
f3
c4
ba
0a
fd
31
dd
2c
fc
0b
e5
d6
0b
f8
f0
32
1a
27
07
08
e1
f3
e8
ee
e1
13
e6
fe
ee
0b
ee
f7
26
01
05
ed
3b
f6
f6
21
f2
30
07
0e
1b
bc
e2
fe
12
dc
1a
fe
01
f5
d6
f6
2b
20
38
fd
f0
11
df
01
0a
00
dc
fc
30
00
12
00
04
0e
f4
0d
13
e5
f3
04
eb
15
25
d4
cf
d7
f1
ce
1c
09
10
35
44
03
1d
14
10
18
0b
f0
f9
1e
0e
ff
11
0e
f8
33
01
be
02
1e
2f
f2
ef
23
18
0e
ce
25
1a
be
13
26
0c
f2
e9
e4
f0
f9
d5
13
fc
f2
43
f4
d4
f8
ee
10
e5
ec
0a
0e
32
e3
14
06
12
15
f5
fb
dd
ee
03
f1
de
ea
05
18
f9
d5
fd
3a
f4
e7
e5
14
06
01
18
f1
07
0d
e7
ff
e5
0c
06
fb
04
ec
25
01
0c
2e
eb
0c
ec
ea
f7
df
1b
e7
0c
f9
f1
f9
fc
13
e6
04
d5
fe
e1
fb
f1
17
12
d1
0e
27
2f
e9
d6
05
d6
0b
e5
e6
d6
0b
e9
df
01
05
e1
1f
07
ce
e5
03
e8
ef
16
bf
eb
1d
cc
f0
f5
fc
2b
da
ed
24
07
1b
31
3e
f7
f3
f6
d0
e6
fc
05
03
56
13
f5
fc
ea
19
fb
02
f0
e7
10
12
02
1c
0e
03
00
d6
ce
fc
0e
ea
1d
ff
fc
2f
13
03
d9
06
22
f7
dc
e4
27
e8
ed
1a
f2
05
1e
dd
06
08
ed
05
05
11
df
d7
d7
34
d6
10
24
0d
2b
ff
05
12
eb
2b
16
db
df
f2
fb
09
e5
1a
ed
ec
11
f4
f9
37
f5
11
19
25
ef
07
db
e8
05
11
34
eb
f5
0a
ea
06
1a
03
27
0a
fd
df
f2
e3
e6
04
e6
0a
f4
1c
fd
ef
0c
17
17
fd
e5
fe
eb
09
d7
e7
de
0c
5f
ed
0f
34
fd
27
e0
fc
1f
24
f4
0b
05
27
ee
c9
1b
07
db
f7
14
f1
da
20
f1
d5
e0
ee
31
2f
d5
ff
00
f9
0e
df
0c
fb
fc
22
0f
d5
00
12
f8
c4
02
1f
fa
fe
e8
1f
08
04
ea
02
e9
18
fa
ec
f5
e8
b2
c7
fb
e3
f3
e2
22
04
ff
04
06
15
f9
16
f6
0d
df
c7
f3
13
04
31
08
f7
1b
da
0a
27
20
14
00
29
01
0e
e5
fc
ae
0c
f9
e0
08
0b
29
30
e7
09
d2
ef
e9
e2
03
f4
f5
19
1a
09
e9
fa
ff
f4
ea
ee
fe
15
e1
18
0b
db
d5
e5
26
e9
f9
f8
31
fc
23
d1
22
da
17
29
10
e6
e5
d0
15
0c
ec
4b
0f
f6
f4
ff
ea
eb
e9
fe
1c
1e
40
f4
1a
1e
e6
f2
ef
ea
03
20
33
15
25
f5
15
09
12
e0
ec
15
16
f6
29
2e
49
f8
0b
fb
22
e1
00
1c
09
f5
f2
bc
07
ff
a9
df
d6
e7
fa
f8
16
f5
e0
f7
12
0c
f5
2a
11
fc
f7
12
14
fe
f9
fe
f8
1a
06
f7
09
ea
f3
fd
d7
e6
cd
1f
eb
f3
fd
f2
d7
00
1c
01
00
1d
fa
f6
d7
e3
fd
09
30
ee
19
ed
22
25
e0
f8
00
d4
0b
ed
21
f1
13
fe
f4
ff
0c
21
f4
d8
12
0d
dc
07
fe
11
e5
e3
0d
13
14
f0
01
f5
13
fc
06
f5
da
25
ef
f0
e8
12
fe
1b
f4
04
17
d7
2e
be
04
ff
04
0e
41
00
05
e3
fe
0b
e2
2d
fd
10
f8
d0
14
4d
0c
08
1c
f0
0d
3e
0b
f4
ec
e8
d7
09
12
d6
ef
d8
ef
ed
ff
01
1a
2e
df
fb
f8
e1
0d
fa
bb
16
06
08
0a
d4
f2
1e
01
16
e2
c8
26
e4
fd
26
fc
16
0b
f9
0f
07
f0
f1
fc
f9
11
1b
3e
03
0e
eb
0f
f6
01
ee
f7
e7
f1
00
0a
ef
e9
0b
fc
e9
f1
0b
1c
10
e4
f1
3a
11
08
f0
2a
26
eb
e8
f4
16
15
f4
d8
04
07
02
0d
f1
12
24
27
f5
d2
eb
13
f5
05
0f
f3
1f
f6
0f
22
f8
e5
06
0a
26
2b
14
1c
e0
26
da
01
1b
e7
cb
d4
0b
cc
f5
13
f2
cf
17
08
00
e6
02
11
eb
e8
e3
0a
ef
e8
f8
10
1c
e6
14
f4
e2
0d
e0
c1
17
18
16
08
e9
ef
1e
f3
06
02
d1
0d
ec
ef
20
1f
fd
16
d9
0f
f2
f5
ef
ea
f7
01
38
43
f3
ff
f1
0f
fc
14
07
14
f4
f6
fc
14
e4
04
f1
ff
02
fe
13
0a
01
e0
fc
e2
f2
0b
fa
06
27
e6
f7
18
0f
e4
10
f3
ed
15
04
f1
03
13
06
10
f9
f7
d2
11
01
f5
0f
d7
35
11
10
e8
0a
e7
06
fb
e9
16
08
1c
e6
e2
db
11
2e
fb
e1
d5
e3
dc
da
f9
e6
f0
19
0b
13
17
22
ed
ef
fd
1c
e6
06
0e
12
e4
d3
23
f5
16
e4
ee
10
1d
0a
f8
0d
f1
fa
f9
d6
d9
0a
0c
29
e8
e5
09
d1
2b
ca
1c
da
f2
20
1e
f2
04
06
02
0b
e5
29
e7
2e
09
cb
09
4e
38
e6
0d
08
fa
20
37
fd
f9
14
f7
02
01
10
f5
0e
fe
eb
fe
05
f5
fa
0a
f7
ed
0c
06
05
f3
df
1d
20
fe
04
d7
f4
c8
11
00
ef
11
e1
e5
07
eb
f8
2b
d6
fe
d8
fd
f7
02
0a
f4
12
07
0f
02
26
12
1c
13
fb
1a
f3
16
04
1f
f7
2b
e3
ef
03
0d
0e
f5
1a
03
13
f7
fe
07
07
f2
cf
20
f9
f8
0f
f0
1e
1c
e4
08
db
f5
ff
e1
ea
d8
f4
22
20
ee
f8
23
fe
1f
f4
09
06
00
0f
1e
04
17
f3
e9
e7
ea
3c
ef
17
09
e0
09
21
29
04
0c
03
de
2d
08
fd
01
10
19
00
f8
2b
02
11
09
f2
0d
e2
fb
0f
03
f8
eb
ff
f7
f8
f2
f3
ff
13
0e
03
f4
14
01
01
fc
09
04
f9
16
0e
f6
02
0e
02
0e
d7
ff
0d
14
0d
f8
09
04
0a
18
01
0e
ee
0e
17
1a
f8
13
fd
ef
dc
06
e5
ee
f6
e6
26
08
c5
05
eb
de
01
ee
05
10
05
03
f6
22
dd
04
f9
fc
12
00
00
e9
fe
03
fc
20
23
05
fe
f8
0e
f2
e5
20
09
f9
04
00
23
21
14
f9
d6
36
f7
16
0b
db
01
09
e7
e3
fe
eb
e3
fa
f6
f2
20
fc
44
f8
f5
ff
0b
1b
02
eb
11
f3
0d
e0
f4
f8
1d
f9
e4
f9
15
ff
08
07
09
ea
ec
fa
04
1c
07
01
da
f9
fc
f6
12
f8
18
f9
fe
ef
22
0f
19
ef
01
0d
ec
05
f4
11
fd
04
e5
08
29
00
e2
ec
fd
f3
11
f6
0e
e4
25
e6
13
fd
ed
00
04
f7
f3
14
fe
ee
08
17
fb
1e
11
fe
0f
07
09
e7
fa
01
19
06
e4
f5
05
ef
ff
02
f5
2c
f5
f4
f7
ec
0a
f6
e1
16
e6
fa
1c
cf
fc
f8
18
09
e8
f3
11
12
f2
08
fe
00
f2
1e
f7
12
d7
00
07
ec
f9
e1
f2
06
de
16
ee
e9
0f
f1
05
eb
f4
fe
ee
17
b5
01
dd
da
0a
fd
02
01
08
e7
f0
e1
10
16
db
07
e6
17
ed
16
d2
14
f9
03
1f
1e
fa
00
ef
08
2d
22
30
f1
13
12
c6
0e
3b
1b
ed
0f
fa
04
16
19
f1
fb
f7
2d
01
fb
20
05
17
03
f3
ff
01
0a
09
eb
ff
f0
0a
17
15
03
fe
ed
f7
26
03
0a
1d
03
05
06
0e
04
f6
fa
25
f1
eb
18
12
f9
08
1e
0a
f0
0e
fe
f8
ff
0b
14
fa
f3
03
01
10
f5
0a
de
19
ed
f8
04
e9
ec
e4
ff
f5
f9
d8
f5
f4
08
02
0f
dc
ec
f9
fe
05
04
d6
14
d3
d5
13
03
0e
17
eb
fb
0e
01
f7
01
f2
fd
f3
03
df
26
e1
0d
f4
0f
11
12
e2
dc
0e
f7
04
0b
2a
ff
12
ff
e6
15
0f
0f
0d
0d
f5
23
18
05
e6
20
18
ff
07
09
f7
f0
0c
e9
05
05
19
f3
ec
22
04
f5
2f
ee
1e
10
f2
ff
11
d3
0a
dd
f1
e5
17
11
fc
01
f8
f0
d9
e4
0e
fb
0e
f4
c8
e0
fb
03
fd
02
03
f8
e1
e7
0e
01
0b
ed
09
06
f0
11
fc
fa
fd
20
ff
fe
06
29
e8
fa
1f
fc
22
ed
14
15
00
f8
d6
0c
45
f8
41
fd
fb
1c
d2
0c
e8
f5
12
06
ee
d1
ed
02
25
ea
2e
f5
1c
05
e9
ca
12
01
d7
fe
24
0b
0d
2b
e0
ea
12
1c
27
fe
26
d6
1c
04
fb
22
09
0a
26
27
ec
2c
be
02
4d
12
fb
e0
18
db
e8
ef
f9
05
06
39
d8
09
03
09
2f
1a
08
c6
d1
e6
d2
26
e4
1d
48
fa
0a
f5
0a
0a
e1
fa
d8
c2
ed
e5
d2
21
03
12
cc
20
f0
30
e8
d7
3b
30
28
e5
f0
f3
ad
ef
f4
db
6e
02
48
0c
c6
18
08
3c
0f
0e
3f
28
c8
f4
0f
f9
3a
1a
fb
c8
06
0a
c9
25
00
fe
ea
2c
0c
36
fb
02
0e
0c
17
d9
4e
35
f8
11
fc
19
3e
01
de
e7
23
16
13
01
09
0d
f9
42
db
fa
13
d2
02
27
d7
eb
fe
de
ff
aa
25
fc
10
ed
02
22
f1
f2
0d
05
52
20
e9
02
f0
d2
2b
35
f6
f5
2d
07
1e
13
2e
d2
e7
e4
0a
ef
04
03
fb
08
db
c8
13
05
25
fc
1f
1a
be
ec
10
e4
c9
fb
45
31
cf
17
d1
d6
04
d6
00
ae
11
3a
1d
36
f9
eb
0d
b3
13
d0
0b
18
b8
fa
f9
14
15
23
db
19
d1
cf
d6
2b
16
0e
27
c8
01
d5
2c
ef
c1
cc
e9
03
10
03
ce
0c
b8
e9
00
f7
24
ed
ca
ce
36
de
f2
c4
34
14
f4
01
20
d5
38
ee
09
24
d8
f2
0c
0b
1b
0d
12
1a
09
e8
01
cc
0b
eb
e1
40
37
00
ed
d1
e0
52
dc
ed
1d
3f
ef
0d
0c
de
e0
18
c0
01
f9
11
db
ee
ef
fa
0a
18
f4
d2
fd
f2
14
15
d9
10
f6
d6
ec
0a
f0
4a
29
11
16
02
ea
02
e4
dc
e7
be
10
ec
f6
0b
0e
08
23
12
d8
c7
0d
fa
fd
0a
e9
03
52
f8
fa
30
e2
e4
d6
0d
f8
0c
f2
ee
15
c4
f9
ba
c1
fb
f8
35
fa
e5
f4
f3
08
cd
11
f5
dc
0a
a1
de
15
ed
eb
d6
1f
02
d6
05
2d
0b
63
00
3a
db
01
b5
ac
dd
dc
20
17
27
cf
e7
19
eb
be
09
0f
ff
f3
4c
f1
c8
f6
e0
16
cd
07
d9
03
12
0c
02
c3
08
50
fd
cb
ae
bb
d5
ce
ed
fb
2f
d1
07
15
d6
1a
38
f7
ec
f0
31
e6
e6
f7
af
12
ef
eb
c2
e5
26
1d
1a
18
10
5c
0b
1b
0b
f6
13
0f
11
03
36
e7
16
0d
10
e2
fd
d3
f0
2d
df
47
09
f8
cf
e5
e5
e1
e4
0a
2b
09
1a
09
49
30
c0
1c
f9
da
23
20
2c
03
f1
11
0f
41
0b
be
df
1a
05
f1
0d
33
42
eb
12
c6
1f
f5
ff
0b
0f
fc
e7
f9
03
f0
c4
e2
e8
f5
01
34
ec
db
10
fb
f4
39
f3
f6
1a
ef
b9
23
3d
17
2c
1d
f8
ee
f1
de
b4
f0
de
0c
18
0f
dd
11
10
c7
d8
e9
f9
d9
05
c2
c1
48
15
0d
d4
3b
f1
f5
e3
09
02
3a
ff
17
fb
ba
ee
34
2d
27
ed
f7
f8
06
de
f4
e2
3c
fb
16
f8
f7
f7
ff
f3
fd
19
de
17
05
40
0f
ef
45
fd
d4
e0
f0
bd
08
eb
1c
07
16
fc
26
28
11
20
10
e1
f5
0c
cc
d5
19
05
f8
d9
07
19
c5
e4
24
d5
47
33
0f
f8
c2
f3
dc
10
08
d4
e6
09
e6
f2
1f
fa
e5
2c
43
04
1b
f9
db
ff
27
d4
25
35
0c
c4
e5
00
da
f1
15
36
1a
1d
3c
2c
f0
f8
ef
1b
da
12
1a
3f
fc
28
0b
05
3a
1e
be
27
13
26
e4
fe
2b
29
ef
fa
e9
42
d9
07
3e
f6
03
e4
f4
ff
e5
f3
f1
f1
10
f7
0d
f0
ee
fb
0b
eb
13
0b
1f
30
d2
35
06
31
2b
d9
2f
1d
d9
fd
09
b6
f0
e3
e8
ed
fb
1d
39
ee
fe
dc
d0
f2
21
ff
cc
dd
1b
d6
04
e2
f7
08
c2
ed
ec
e5
42
ef
26
f5
ce
d0
ef
1f
e6
1c
e9
37
f1
f3
ce
fb
3a
0b
db
26
f4
1a
17
db
e9
54
c5
fb
f9
0f
0f
f4
41
f3
e2
cd
dd
ae
f3
01
24
2e
0b
26
1a
04
06
9a
fd
01
c5
f3
f3
03
25
32
09
1d
f3
4c
e3
e7
0b
10
4d
f5
09
ba
e0
f6
ed
da
1f
df
19
27
fb
2d
fa
14
06
18
3c
00
2e
f5
ea
e7
52
e4
09
3a
db
04
11
de
d8
07
0a
30
0b
21
38
ec
00
e6
1e
e4
01
f1
39
19
db
17
00
2e
1f
fd
f4
e5
2a
55
da
11
3f
19
0d
11
15
1d
11
03
34
12
dd
d0
d9
f3
f3
dd
f4
25
f7
0d
39
15
26
00
ce
e2
f8
e1
37
e9
2a
09
b7
ee
df
ed
e8
21
d4
fd
06
40
de
2a
16
28
04
f8
0d
19
1a
14
1b
dc
15
40
f3
05
d5
ae
0a
3c
ea
0b
eb
11
01
e3
1d
60
03
e7
0f
18
eb
b9
0f
f2
e2
d9
ea
e9
18
0f
eb
d7
e9
02
0c
0e
e6
05
07
e8
12
0a
f6
0e
fd
e0
07
f4
da
f7
0c
e5
08
c5
f1
de
06
01
01
11
f1
f9
e7
f6
f1
f9
e6
e8
0c
0a
da
fe
df
f1
15
f9
f5
f8
f9
10
ec
22
1c
2b
09
02
f6
11
fe
28
f0
db
15
cb
f4
f1
e7
ee
d7
18
09
ec
07
fc
12
da
07
17
f2
f7
f9
dd
03
05
11
02
1f
04
11
02
23
e7
cf
19
0d
04
0b
f9
13
f0
e5
1e
f3
02
ff
ff
f2
24
38
1c
c9
e0
fa
0a
e9
1b
fa
dc
f5
02
d1
1f
f6
ef
1e
f4
0f
f4
0b
04
d2
ee
e4
d5
28
e5
0d
f3
0b
30
f3
29
f4
fc
14
23
03
f9
ee
e8
fe
08
fb
1a
23
23
fa
e9
12
fc
f0
03
f4
f3
0e
e4
fb
10
0a
0b
ea
10
09
f0
0b
e7
f4
ff
f1
ed
d5
f7
cb
ef
f7
e3
2d
02
18
f3
08
fd
08
fe
fe
02
d4
fd
fd
0e
fc
34
34
fb
fb
f0
14
19
ff
e1
05
fc
ff
fd
0d
12
01
29
19
ee
c0
01
ff
e9
00
01
23
fd
ef
fe
05
f9
00
e6
e4
1d
fc
09
da
e7
ed
00
fa
f4
ea
bd
fd
e0
02
13
f6
ea
22
1a
0c
f8
1a
06
db
35
23
fd
ff
03
0c
df
f6
03
fe
1e
fa
0b
e7
0f
e2
22
f0
ed
f9
fe
d4
da
ef
e3
0f
16
22
ff
ee
f2
e9
0a
06
1a
ef
f8
e4
e8
e8
e1
fb
04
02
df
ec
1d
15
df
2c
14
1b
08
f7
f1
17
09
fc
fa
e7
06
19
05
cc
f5
09
18
37
0a
f3
39
0a
e5
ef
12
1f
f0
06
f8
09
fc
1a
01
db
f4
04
05
e8
ea
f6
12
0b
eb
1a
15
ee
14
f4
0c
ff
0c
fc
f2
0a
13
29
f1
0e
09
f5
ec
ff
e0
ff
0f
fa
eb
10
f7
f5
fd
15
f9
08
2c
1a
de
16
05
ed
05
f4
3e
f4
e8
df
00
02
03
00
27
e4
f5
13
fd
e5
14
10
10
08
14
18
e9
18
02
e7
24
01
23
c9
f3
0d
02
12
30
e5
1c
f9
ff
09
f4
27
32
ed
de
d1
1d
21
0b
26
ea
fb
eb
22
da
ec
11
0a
02
ed
ea
49
e3
ed
17
06
09
0a
2c
09
00
02
fe
36
02
06
0a
e3
f8
e1
09
f7
e0
03
12
d3
e2
d5
e9
17
fb
3a
e4
16
e6
0e
f9
e9
ef
1a
02
0b
05
e7
03
e4
01
fe
e8
18
15
c7
f4
ef
ec
07
f1
db
d5
0c
f7
1e
ec
f9
f2
fa
db
fc
f9
26
fa
00
e2
12
dd
fc
22
1d
f1
11
fb
04
16
2b
de
03
05
d2
db
07
f6
f8
1a
00
f4
08
dd
26
32
fb
f6
fb
0f
10
f1
f7
c6
07
fd
01
ff
23
05
fb
ed
f3
f1
f5
03
e7
1b
f2
00
f8
fe
ff
d1
fa
e3
d1
fa
14
d6
0f
d9
31
f6
03
19
10
ef
f8
ca
1b
fc
12
fa
f5
bf
f3
f2
db
db
f2
05
e1
21
0a
f2
d1
ed
11
04
f8
0e
0c
fd
0a
00
ed
f0
09
08
f7
e6
22
f0
13
12
0f
fb
04
27
09
ed
0f
30
02
f2
eb
e5
ea
e9
fe
12
e5
fb
e4
fa
d1
f7
00
0f
fa
09
f0
f6
d9
e8
1e
eb
f0
21
0a
f2
15
1c
f0
e7
f5
ff
fb
16
13
28
eb
dd
00
eb
05
24
17
0c
1f
04
db
fb
0e
09
ec
08
fa
13
fd
00
03
ff
09
fd
01
e7
e2
05
fb
f0
df
ec
e4
e8
f5
e2
fc
f2
f5
f7
19
fe
07
f5
fc
f3
f8
eb
06
0f
12
f2
00
d4
f0
0b
04
0e
ff
fb
e7
f6
0a
06
ed
20
0f
19
ed
09
01
e5
0f
01
fd
11
fd
fa
ec
e3
e2
fe
0b
0a
02
ef
fe
21
f7
15
f4
ea
ef
00
0e
0e
f5
da
1b
12
0b
16
fd
15
f9
12
17
f6
3d
eb
30
13
f4
07
f4
e1
f6
f2
1d
06
eb
f9
1c
fc
fd
f9
1b
d9
3a
ec
1b
0e
00
e1
09
09
f7
12
03
ff
cf
e8
d5
0c
25
f8
c0
e3
11
0a
f7
f6
db
fc
25
fd
f5
ef
0c
f0
fa
ff
1e
24
09
f4
11
01
03
0f
fc
eb
10
04
ed
20
00
f4
e3
0b
06
0e
1a
1c
25
01
fa
14
f2
ec
0a
0a
fb
0d
f6
fc
e6
05
f7
0a
ff
0b
da
13
f0
0e
1c
f4
0a
f1
ed
0f
ed
f1
00
0e
e3
ee
11
f8
02
19
00
e5
e8
0d
f4
e9
1d
03
0d
ed
d9
25
14
0b
c1
01
e1
00
19
01
f4
02
f1
f4
0d
e2
11
ec
1a
f1
0a
0a
e9
22
c6
1e
e8
01
18
3d
fe
0c
e1
07
11
0a
3c
07
15
13
d2
18
2f
1e
ef
2d
ee
02
16
0a
f0
0f
1f
d1
fa
00
eb
ea
05
e4
1d
f6
fe
f5
e8
ff
fb
fc
e1
de
31
ff
fe
19
31
0b
d0
01
e6
e0
03
f5
d6
f9
06
0a
fc
fb
f5
1f
fd
d3
0c
f7
1e
da
f4
f0
05
06
00
d2
0c
0b
f3
0b
12
f1
fa
0a
f5
1d
0d
2c
f4
e2
db
14
dc
0f
f1
ff
0c
07
e9
30
c8
ec
33
f8
d9
cd
f5
2a
12
0c
d8
23
5a
40
f5
ee
e0
08
18
ed
da
f2
f8
18
02
db
30
38
d5
de
eb
1e
d9
e9
13
8f
46
3f
e7
f4
20
dd
e0
47
ee
7f
33
3e
ea
14
c9
dd
da
e7
f3
1a
2e
08
25
ff
05
e1
ea
04
55
26
eb
04
cd
ee
36
d3
33
41
d0
f1
0f
0c
f5
2c
fe
53
ff
ca
08
08
2d
01
f6
d6
28
e7
13
fb
0c
ab
17
41
ee
0d
e4
05
e6
d7
3f
11
41
c9
d0
d7
fc
cf
f7
f6
cf
f1
0b
24
a5
fa
03
05
fd
f4
ce
2b
d9
04
f3
25
16
02
c2
e0
f4
17
de
e2
13
f3
d9
24
ad
23
39
21
1d
f7
c7
e4
ff
ca
00
25
ef
fc
fb
19
2e
fa
0d
16
14
37
dc
20
20
22
2e
19
e4
f0
17
d4
ad
ba
07
15
f3
b3
ce
be
5f
fd
dc
eb
f7
fb
2b
14
03
2a
dc
c4
df
d2
4c
f7
06
29
fb
4e
da
20
4c
0a
2d
de
da
c5
ca
e9
05
e3
01
1b
fc
ea
16
f4
3f
06
db
2b
02
0b
fd
c1
04
e6
c8
e2
dc
da
e4
51
19
42
64
34
02
0d
f4
11
5a
fd
32
d5
03
e7
d4
e5
2d
ff
e6
ee
b5
b7
f3
c0
2e
e1
fb
f7
0f
3b
bc
31
2e
e9
0e
e4
dc
c0
16
0d
f4
02
03
23
da
cf
37
fc
45
09
e1
24
d6
cd
01
9e
ca
d4
b4
b1
f3
ec
d6
21
1b
32
31
1a
03
09
3b
2d
f0
e3
ad
03
10
e2
01
d4
e5
23
dc
06
39
53
15
16
cc
1d
d2
ff
ea
ce
0a
bf
c2
0d
fa
f4
06
24
04
fe
08
07
e4
05
27
fa
b0
e7
cb
0a
17
e9
f7
19
0b
2f
ee
34
34
10
3b
29
0d
e1
d4
ab
b6
bd
f2
f9
2e
dd
aa
f9
0d
aa
2e
27
b7
11
fc
e4
e5
f3
17
11
37
e3
ec
14
cf
18
05
d0
04
0a
c4
da
00
19
f5
29
fa
14
d9
29
fb
fd
12
25
13
ff
d9
ed
dd
bb
00
e9
cc
54
e6
6d
f4
df
e7
31
13
e2
07
04
e2
ea
fe
09
04
17
42
f6
11
0e
b9
0f
04
02
4c
eb
01
2b
1b
2f
fb
b3
36
fe
01
25
c4
e2
33
23
06
ed
22
2f
f3
08
03
f3
1f
12
da
4d
fb
24
10
c9
13
3c
20
4b
ec
07
2d
10
f1
d7
24
66
d6
f6
13
29
ff
30
16
25
e6
eb
30
11
23
ee
00
ec
35
13
08
26
d7
09
22
ea
72
0c
12
21
bb
f2
f3
ce
f3
0e
12
f9
c1
fa
12
22
2c
3d
2d
0d
0e
05
fd
f1
23
d6
00
ed
c0
1c
de
d7
01
45
fe
27
e1
07
ff
f3
2b
3d
07
c5
00
cc
9b
e4
da
c9
09
c8
26
0d
f2
e6
ee
df
dd
07
e5
f1
07
01
07
ff
97
07
47
f6
d5
d3
bf
0e
45
18
00
f2
11
ff
c5
04
15
e0
0c
17
cd
fd
08
2f
f3
fb
48
36
e2
5b
ee
0d
fa
0a
fa
c7
1a
f9
d5
ea
ef
31
24
e9
24
0a
1e
f2
27
fc
1c
09
ec
e1
2e
fb
e3
cb
00
f9
1b
ea
38
6c
2b
24
a8
0d
3d
e0
1a
01
08
e6
fe
c9
ca
10
2e
2a
fc
10
09
43
e1
b2
0f
b7
f6
2e
c4
06
1d
b9
16
e8
0e
21
17
23
e7
07
5e
2b
38
cb
91
da
d8
c3
c0
40
b8
18
04
0b
43
02
e9
b7
04
04
18
fd
fb
2c
f9
ba
eb
24
24
db
11
0b
15
3e
25
0d
32
0a
3c
e3
bf
16
f8
3b
10
dc
04
2b
e5
20
d6
e1
59
fc
02
34
10
38
0d
bf
e9
b1
12
f2
f5
c2
99
5e
13
f7
55
34
34
eb
17
22
f4
13
3d
e2
d0
27
ff
cb
ff
05
22
eb
f0
e8
11
ea
36
f9
26
d4
f2
12
05
ee
20
19
1a
01
06
e7
dc
25
0e
25
dc
29
42
26
24
e9
51
34
d6
2b
fc
21
06
f7
e9
de
cb
f7
ae
d7
19
11
f2
e5
3e
2f
04
01
eb
ed
13
e6
e9
de
e8
24
d3
16
de
e9
1f
fb
d2
cf
19
d7
fe
fb
9d
1a
c4
d7
28
1a
2d
34
07
17
28
d9
0f
d2
e0
15
e2
21
f5
19
e7
56
08
27
1b
0d
dc
ed
09
03
43
29
18
1c
db
0f
de
1b
17
15
1b
e3
cb
32
10
06
ce
25
b5
fc
31
06
11
11
13
e9
1a
15
e3
02
eb
33
ce
22
e4
d9
05
2e
0e
de
de
08
eb
3f
07
33
15
37
03
0b
19
e9
cb
39
cb
2b
d6
fd
05
12
ff
46
d5
f7
d3
f7
1b
28
44
f8
25
d5
24
1f
c2
e4
e8
e0
00
ee
00
ea
c1
06
0a
14
f4
15
06
42
fd
b0
fb
4b
16
f0
2e
3b
e8
e8
e5
c9
22
e5
fc
d2
d0
07
40
1d
f0
f8
20
0b
fc
fc
31
05
e4
2d
ea
2e
03
de
d2
f7
d8
50
fc
38
10
05
1c
52
34
bc
fe
0d
c2
cd
b4
23
0a
08
ee
2a
15
ec
c1
f9
5e
f1
e7
1b
e7
e4
10
53
28
16
2c
da
1e
e6
05
8c
11
f6
3c
e5
2b
f8
00
e6
dc
dd
d2
4f
c6
07
09
04
f0
03
ab
10
00
da
f0
e8
08
f4
1d
19
f6
18
fe
f9
29
0b
10
d7
ef
d7
ce
38
ef
2e
cf
21
09
f3
76
10
ca
11
04
1c
1d
ef
18
bd
bc
fa
c3
df
02
07
0a
67
04
dc
dc
ca
e9
40
e6
f5
fd
2d
28
de
ff
e7
c7
c7
17
0d
3d
d1
2b
f9
02
65
f5
d3
ec
bf
39
09
00
23
1a
e8
da
20
38
04
27
cb
08
09
fd
b1
f6
37
cd
12
01
1d
23
f3
da
fc
f1
34
0d
09
29
f9
f4
ff
fb
b0
04
13
2a
f7
00
06
f0
b1
01
f4
bd
0c
eb
fc
04
06
e2
14
e6
17
ea
20
08
f8
24
ec
ff
28
ec
1b
bf
00
fa
2b
42
14
ef
df
f7
05
d7
03
14
3c
d1
e7
1a
14
01
d8
f4
fc
f1
0e
d7
ec
14
ff
f2
e1
28
02
0f
d6
00
fc
f7
1e
e2
f4
09
ed
e6
0d
f1
da
ed
af
31
db
0e
3f
f4
ed
d8
ed
f7
25
ee
e2
2e
3b
3f
25
18
e4
f9
0e
02
1e
03
03
ed
d7
d1
f6
bc
dd
e6
f4
de
ee
f6
d5
14
00
cf
e1
dd
fa
27
cc
fa
d5
da
0f
0a
bb
eb
02
f1
1a
ee
e2
09
cd
1d
f1
e2
f5
c7
f7
24
e8
f2
54
f1
06
f2
01
d9
fb
f6
ed
27
28
15
12
e9
33
26
31
17
02
1d
fd
24
fe
fc
ef
1e
c8
0d
f6
28
e7
00
d0
f0
ea
11
00
fc
13
21
cc
ce
08
da
e5
10
1b
e5
06
d5
f8
1e
d2
09
fe
1c
ef
d1
d8
fa
e3
4a
c2
23
1c
2a
d9
f9
fc
ec
28
f3
08
e9
da
08
cf
c3
57
29
1e
fb
ef
e1
f0
49
e1
00
e7
4f
2d
db
ce
37
1d
ac
36
fb
02
26
0f
11
da
e9
fa
d3
0d
0e
3e
f3
75
d5
03
d4
f6
0a
03
34
47
f6
11
17
c0
40
01
ea
0d
3e
d0
1e
ee
d7
17
46
22
e8
14
f6
e1
f3
df
37
ad
c9
06
d0
1a
1b
1e
23
c9
23
d7
21
22
e6
de
0a
4f
ea
55
ed
21
ff
e1
0a
f7
c4
23
e7
ef
06
f7
18
1a
23
fb
10
01
05
4a
07
1f
f1
12
42
d7
1a
dd
c4
40
d7
cb
b5
f2
3c
09
f3
e9
10
06
19
2a
fb
49
5a
9f
bc
e1
05
02
2a
23
d4
ef
19
08
ad
b8
f1
23
ba
21
24
c5
12
07
d9
fa
ee
4d
6f
fa
00
36
17
df
e3
c4
fd
14
f1
18
fa
d7
11
f6
ff
c5
d9
fa
fe
f5
41
02
fd
e9
19
36
04
fa
f3
b6
35
25
f7
11
c8
1c
b6
12
3d
d8
da
e2
c2
e7
e1
35
e5
b2
20
30
31
b6
fb
3a
e6
e5
e6
09
05
ec
3e
fe
e4
33
3e
1f
2a
c8
f5
f0
10
0d
3b
c1
fe
f8
c1
1b
17
0b
10
3c
0e
21
c4
f7
1f
dd
f3
07
f0
eb
05
e7
e4
36
f2
23
02
d9
1c
1c
0c
b7
fb
f1
e3
0e
d8
1a
f2
30
0f
1d
16
24
25
d8
42
ef
0f
31
ff
f7
fc
10
d4
f9
ff
ed
0a
10
01
42
08
c4
cd
ec
32
f5
ed
15
ce
ea
1e
d5
ec
25
23
e3
e5
f6
09
ef
04
0d
d4
53
0f
ff
bf
92
34
e1
fb
2f
05
22
09
ed
57
d5
41
c8
ed
05
f0
03
ed
25
fa
e0
06
25
48
38
f6
02
bf
18
db
06
16
da
ff
16
0d
d5
f3
09
33
27
14
e5
04
f5
ef
15
f5
d2
cd
f3
f0
f8
f7
11
fc
fa
f8
0f
ed
0a
13
b9
f8
0d
1f
1e
e3
d2
13
6c
ff
16
38
fa
23
0b
f0
ce
b8
f6
08
da
b0
00
2e
d7
fd
14
d9
c3
21
31
2c
dd
f2
0e
04
e3
02
bb
39
da
23
d7
1a
df
de
da
e4
ed
c6
5c
cb
d9
1a
fc
04
04
d9
07
1c
d2
db
ec
08
26
fa
22
07
df
d5
4e
37
e3
06
c1
d7
bb
fd
39
e1
2d
f7
c4
0e
dc
f0
d6
f3
cf
f9
03
f2
05
14
0f
52
be
ef
29
c9
02
f8
ba
ec
19
ec
24
2c
b7
14
f5
13
e7
a1
0f
ef
f7
33
e7
12
17
06
1c
f6
03
07
ed
02
18
16
0c
d5
d5
de
53
10
29
0c
d9
d5
ce
17
12
01
01
31
f1
ee
e3
34
29
dc
f5
e2
1e
49
f3
33
0f
15
c9
bc
30
13
1d
02
44
d2
dc
da
1d
ca
0a
04
2b
eb
ff
18
e3
24
01
43
04
19
ff
3a
fa
18
e8
f7
0a
fd
14
ec
f7
e1
e0
e1
34
27
af
b5
e0
04
06
f6
c9
fc
d5
2f
02
16
dc
3a
5b
da
0e
d6
06
28
ed
61
23
c9
f4
e3
19
22
dd
04
25
22
fc
33
ac
db
42
cb
f6
19
e3
01
35
e0
b4
17
d0
16
05
29
e5
25
de
3f
42
f4
04
00
0b
21
d0
c6
5f
67
a2
f0
ea
c4
d6
d0
e1
e6
2b
0f
0a
ec
fa
21
16
03
2f
f3
e6
f5
ef
08
10
15
02
0f
0e
e7
00
04
d7
27
13
16
03
e2
0f
f3
f1
1e
c4
f6
16
fa
11
e9
2c
f0
29
0a
c4
1b
2b
03
f5
d3
f1
23
32
f8
f0
29
f7
00
10
1f
df
f7
f3
03
17
34
dd
f1
45
01
41
15
f8
2b
fd
fd
fc
15
d7
f6
f7
01
0c
4d
00
3b
03
fd
fa
dd
eb
e6
eb
10
e4
f0
0e
f4
11
28
f4
0f
17
de
d2
fb
f9
29
08
d0
02
16
0f
f9
f8
e9
dc
d3
08
1a
f4
ea
0c
f7
f7
21
06
03
bd
0f
e2
14
1c
11
f2
13
05
18
09
21
03
14
e7
12
1f
dd
13
17
0d
12
f0
f8
39
01
fb
01
d0
cd
f9
cd
d8
e6
fd
3a
0a
14
fc
b8
f8
02
ff
07
ed
06
f1
f6
03
1b
13
02
cb
0c
fe
00
20
4d
b4
ef
33
31
07
fa
08
e0
16
d6
2f
28
17
09
d4
f8
0f
3c
f2
1b
2e
0b
04
f3
42
fe
d0
38
e3
e9
ff
0b
ff
fe
c9
24
f2
08
08
02
0c
40
19
1a
fe
23
0a
17
ed
1e
11
ec
f0
f5
19
e1
09
f0
f4
18
0e
18
08
0c
d7
01
03
fe
1c
ca
e2
28
f1
bc
e9
10
0a
06
17
fa
22
e8
1f
f0
ef
eb
f5
10
f0
f7
fc
0a
34
e3
00
f0
2b
26
24
d5
0e
10
df
0b
c5
06
f1
f8
04
0f
e3
1b
f1
e6
f9
f6
02
ef
e8
2c
fb
f1
1e
f2
0d
3a
00
0a
e7
f6
0a
2b
f5
ec
fd
0d
f6
ec
06
03
1c
e5
c7
24
fe
f2
f8
05
cf
fe
12
fd
e9
dc
01
f8
12
cc
e5
ee
d3
f2
e5
05
d7
04
fa
01
f4
e5
0e
f3
f5
10
35
e0
1b
a5
e0
15
e7
db
06
04
2f
ff
0b
db
30
e1
00
dd
f8
07
e3
10
fc
05
ef
23
f3
04
f7
00
07
ff
e8
f6
06
f7
e1
eb
ed
1f
16
cd
fe
09
2f
02
e9
13
0e
17
f0
10
ee
f8
0b
f1
db
dc
0f
0e
ee
04
05
f7
06
cf
ea
e0
ed
0c
22
d4
f1
06
02
fa
ee
24
e2
e8
20
ce
fe
22
01
d6
f5
06
c3
15
17
f9
f2
16
22
08
ed
ea
0b
f9
e7
14
df
1a
02
0c
e0
f7
ff
d0
08
f3
fc
dc
fb
f7
f5
05
c5
f0
b5
13
1d
ed
ff
e9
d2
02
d9
fb
10
e7
ef
16
08
f6
06
f6
f9
f2
02
1e
e6
19
15
ff
36
35
18
f0
e7
06
fa
01
20
1b
fc
25
ff
22
eb
0b
fb
fe
14
d6
de
df
02
d6
0f
fa
0b
20
e2
2f
1e
da
f4
18
ed
db
f3
fa
0a
0d
08
f5
11
e1
0d
e9
1c
0e
1b
d8
01
10
cf
d1
b5
23
19
e2
ca
02
d5
26
32
06
0a
e6
16
2d
1b
09
f5
17
1e
08
24
27
08
36
30
e0
1f
fa
f5
02
ef
04
18
fc
06
0b
16
0c
0d
0e
06
fa
02
44
ea
f7
3d
02
f0
e1
08
03
f3
0b
04
04
f8
2c
ec
ea
16
1c
f6
1b
00
00
0d
ee
16
d3
0e
1d
03
0b
ca
e2
e4
05
fe
e5
31
f7
da
32
03
24
c3
00
0e
07
df
ec
19
1c
09
f5
21
da
de
28
f1
0e
09
eb
f3
ef
0a
02
00
f7
15
2b
01
fb
fa
e8
04
f2
02
03
df
1f
00
f8
fc
f6
09
d4
f6
13
f3
0f
23
f3
fc
05
0a
fa
f4
c8
14
0f
d1
e7
05
e7
06
10
11
e1
fe
d4
f3
fa
f1
28
f5
22
e6
14
23
28
1c
ff
09
18
e5
27
0a
1b
0d
02
da
f7
ef
d1
f7
31
2c
e4
1d
f2
ae
07
05
1d
0a
f5
07
f8
ef
e9
f5
f3
00
f5
0f
ea
fa
cc
10
01
29
cf
0e
e4
1b
f9
e5
07
00
f7
05
02
e8
f0
d1
ea
06
f5
17
ce
ef
de
0a
2f
01
0b
e1
ee
18
fa
d1
f6
fa
29
2c
f5
fc
20
15
d3
09
cc
0f
08
f9
ea
ec
0e
ed
f8
1f
e2
fb
09
f6
0b
03
1c
08
d9
d7
fd
f2
ec
f8
e5
11
0c
0f
09
05
d2
cf
18
ff
3a
0f
ee
fd
eb
cb
03
18
11
f8
2a
e4
0a
2e
1f
26
02
15
eb
05
ee
07
16
d2
fe
d8
e1
fb
0a
09
f1
0c
e8
24
d8
f1
0c
23
ea
1f
f0
0a
07
db
10
06
f1
ea
04
d9
33
1f
01
e4
fe
05
fb
20
fd
40
ff
46
e0
20
e3
da
f3
23
e3
19
06
1b
f9
bc
23
06
1f
fd
14
09
1f
2f
2b
d0
17
f3
fb
fb
e5
fd
ea
04
e8
10
f3
43
02
fe
eb
de
2a
fd
dc
e5
06
c9
f6
eb
04
0c
e3
04
fc
e4
17
04
1c
f4
dd
c3
07
de
0c
06
f1
12
d3
ee
0d
f3
f9
0b
f4
ec
fd
e7
02
17
fa
07
24
e0
05
1a
0f
e1
f3
0b
e0
18
38
f4
e6
da
fa
21
f6
ff
ee
10
02
03
13
f5
39
f8
07
0c
ec
ec
f7
cc
f6
22
fb
f5
ea
0c
f7
19
25
16
e3
e1
e9
17
1a
fd
09
17
01
0e
fc
bf
e2
03
e7
29
d6
3f
ec
00
d9
1b
1b
cc
ff
e3
d6
17
e6
f1
12
f2
23
21
fd
17
f1
38
06
e2
d4
3b
05
03
f2
00
04
f0
d9
f7
f0
f5
15
de
ed
01
18
1d
df
21
17
ce
d7
1b
e1
08
14
e7
d7
2f
cc
1b
ec
1f
0c
f1
fd
01
18
07
eb
e5
0c
07
dc
ff
09
f9
f4
09
02
f4
0b
f1
f0
23
28
ee
02
0a
0a
0b
fc
fb
20
23
19
12
f8
02
0f
f9
de
12
09
d3
2c
ac
1b
08
e2
0c
df
35
28
e9
ea
c4
f6
24
0a
22
b3
09
e3
ff
dc
03
de
f9
01
26
e2
0c
07
25
29
ec
fd
00
f6
1e
22
e9
29
10
0e
0a
36
f8
01
c8
f0
38
00
13
e0
ed
03
f3
09
fe
cc
fe
2c
db
25
0d
fd
0a
01
37
f5
02
d7
17
fe
30
e8
be
f8
ed
dc
ff
1f
e1
f3
fb
fc
fb
fc
3c
fb
e7
d8
1e
dd
23
ff
09
1b
f0
1d
f9
cd
17
ed
07
16
ed
27
23
f0
02
e7
f7
e0
ff
ff
18
0c
1e
54
f9
04
f7
f9
ff
e3
fe
ed
e1
0c
f4
e8
dd
f1
23
1c
18
09
3d
44
f5
fd
da
ff
18
ea
2c
b8
01
1f
54
ca
fb
11
d0
0e
1c
fe
de
df
0d
f1
da
33
ef
fe
f0
f9
f1
ff
f9
14
01
1f
f5
28
18
0a
f0
cd
fa
14
1a
c3
26
ed
f5
02
e8
3e
f9
0f
d6
eb
ee
d5
31
da
0b
19
0e
16
e1
e3
25
08
0c
26
f5
ff
e7
01
ea
08
1f
11
0e
10
1b
ef
03
1a
3a
f6
19
dc
14
31
eb
eb
fd
05
f1
0b
20
14
f1
27
09
4a
fc
ff
38
f9
0a
da
f8
fb
37
ec
09
b0
2a
ed
dd
d3
d6
0e
e1
ea
0e
fb
f5
1d
09
39
f5
27
db
f3
dc
22
d3
0a
df
f5
11
f5
2f
dc
05
ef
2d
0c
e0
11
04
1f
13
fb
18
0f
24
29
15
16
1d
13
11
fa
0b
e6
14
05
04
02
f7
02
c9
0e
f9
06
d6
03
d4
1b
b1
fb
1b
1c
1b
f8
fe
12
f7
28
f3
ec
d5
0c
34
e5
2d
14
ee
0c
3e
f2
0b
e7
18
f5
eb
f7
22
bb
f8
db
20
db
18
f1
05
10
25
ed
20
0b
13
15
f1
06
19
0a
ea
05
0b
2f
08
f9
06
24
25
f6
fe
ea
22
26
e9
f6
ef
09
f1
ea
fd
09
fb
ff
e5
04
30
0a
17
df
37
f9
d2
01
f4
e4
ec
e5
19
ec
fb
1c
cb
fb
1c
27
ca
f0
12
f2
0d
08
0e
f7
ed
24
03
fb
ef
f0
09
02
02
02
07
11
e9
1c
cf
54
ef
fd
f0
14
eb
e7
28
e8
40
1d
2a
da
01
00
e5
03
02
2c
18
eb
1e
e1
f4
1a
e2
f1
0b
11
ec
26
cb
f1
c6
2d
ea
27
11
11
da
0d
f6
ff
02
0d
de
e2
f7
04
26
43
20
06
dc
d5
fd
ef
ed
f5
f1
19
f4
ea
10
34
ef
0e
ec
e5
f1
e3
05
fe
1c
27
0b
fc
18
ed
cb
f7
0a
08
11
dc
32
ec
11
0d
00
db
01
f2
fa
1b
e9
ff
bc
f8
22
09
15
2a
f9
f0
0c
e9
e4
1d
fe
d9
1a
f9
1f
f3
0e
dd
e5
f4
06
0f
cc
ec
02
08
fb
f7
17
00
cb
17
23
fa
c6
0a
fc
13
29
0d
20
d4
ea
06
e3
fa
1b
dd
0d
03
2d
e8
02
ff
08
00
0a
05
dd
3c
f3
ba
e8
f3
2f
fe
f7
ce
ee
dc
32
e6
28
14
f0
39
23
dd
fb
cc
25
09
42
13
0d
12
10
03
fa
e9
22
22
04
ee
1d
16
f4
f3
f7
0b
f3
03
e8
e0
00
26
0a
0c
0d
f3
e4
21
ef
34
14
f8
03
09
f4
21
f1
28
dd
e4
31
08
09
d0
10
0b
2a
fd
02
f8
1a
f4
0f
10
1a
09
1a
fb
e7
fb
14
e1
1b
3b
f3
38
e0
cb
0e
27
21
1f
f0
1d
07
06
27
f6
03
2d
06
13
56
e0
0b
09
d4
04
25
dd
fe
03
d0
20
07
ff
fd
dd
03
0f
fb
fe
eb
cd
05
05
de
f0
00
0c
18
01
d2
f8
03
f6
f3
14
db
09
14
df
e7
18
ee
02
af
c7
de
eb
0a
16
d9
de
ee
ed
02
f8
ef
21
e5
f3
11
e8
e6
fa
ff
22
ed
e7
27
da
f1
1b
06
e5
ef
1d
10
17
2a
fe
0f
ed
28
d7
e9
ff
ec
e6
e6
15
d4
f5
1d
05
c1
e2
2a
31
25
d4
09
06
ed
e3
ef
de
09
fd
f5
ff
e2
da
e1
05
ef
00
10
02
d2
ef
ee
13
fa
f7
09
f7
cf
ed
cc
fd
db
fd
29
21
ee
06
17
04
fa
f7
e9
17
17
0e
d2
33
11
f4
fb
1a
35
ea
17
ff
17
02
03
ef
e3
e9
07
00
05
15
05
ed
fc
fe
13
ef
2c
28
c2
f5
2c
f4
25
1b
e7
ee
23
de
28
e5
e0
2e
0e
f4
ee
08
fe
d7
ee
47
ec
f0
03
eb
e8
20
fe
f1
f4
0a
11
f0
0f
f5
11
38
0d
07
05
d2
d3
1d
09
07
24
1a
ee
0f
2b
d4
f6
06
26
00
e0
13
2a
27
f6
f0
66
08
f0
1b
01
59
0c
ee
df
02
e0
d2
e0
fd
f2
03
37
d0
dd
0e
08
f4
df
4b
d5
36
04
30
18
0f
db
da
16
fb
1d
e7
eb
00
2d
ca
26
44
cb
b8
d8
1e
d7
fa
eb
de
c1
0e
14
f7
47
fd
c3
42
da
14
ff
07
f3
2a
0b
e0
fa
d9
00
15
d6
fe
13
f3
d5
dc
d2
04
fc
d4
cf
f3
03
29
f9
d3
d6
25
00
bb
29
f2
d4
1b
e0
05
2a
fe
f0
be
b8
49
f8
1d
7d
4c
bb
39
19
ee
0a
f0
02
06
28
c0
1d
15
da
14
21
ef
ed
f9
ff
ef
eb
27
db
dc
2a
dd
fd
f8
f5
2a
fd
ed
1b
26
e3
d4
d6
e9
d8
23
29
ff
25
ee
e4
c9
0a
f1
2e
d7
ef
eb
e6
fe
f9
dd
e5
35
27
24
ed
1d
10
eb
12
1c
29
d4
0e
e7
04
fa
64
c1
81
a0
36
c9
f4
19
e3
18
ef
c1
de
ee
3e
17
c6
da
08
c1
f8
cb
8a
2e
f9
d3
39
f4
d7
2c
a9
e5
bc
bf
d6
ce
c0
6b
0a
88
3a
e7
02
5c
2f
df
fb
10
f0
3b
1c
08
2e
9f
34
0c
1a
1e
ea
c6
da
04
fd
0e
fe
15
18
dc
c4
16
47
f4
08
db
34
1e
d6
ed
1b
1d
cd
ee
11
42
1d
fa
0e
21
e9
d1
e1
d3
48
11
32
d4
17
1f
fd
f4
d2
2f
cd
3e
03
0c
00
11
e3
b0
13
10
e8
d8
f1
f7
0c
e4
1e
44
d6
ba
dd
1d
f6
07
d8
d6
e9
ee
c0
db
31
00
01
29
27
1d
0e
e8
11
c5
f9
01
cb
de
f0
d2
2b
e6
cf
12
f5
d4
45
dd
19
11
f2
fc
e4
dd
d7
f4
dd
17
04
e0
13
fe
ee
34
27
ed
10
25
ec
e9
ed
0d
3d
ea
e4
f3
4f
f0
f2
39
15
2e
e5
07
d5
00
5c
35
c2
62
f6
e2
1d
f7
f7
29
ec
0a
b2
d0
0c
0b
cc
24
0d
4d
41
e4
bf
2c
e1
fb
13
ce
29
fe
34
2c
31
18
26
b7
da
33
0f
eb
f2
ac
e8
0a
1b
e2
dd
fe
f4
27
cd
47
e7
c8
14
e7
19
4c
21
17
e3
ee
44
c0
ce
06
1d
f9
d0
10
de
ee
0d
e2
22
eb
f1
1c
c1
d7
e8
ba
16
f5
20
da
22
ef
30
0b
cc
e5
e8
1a
da
f2
c8
f9
06
19
c1
03
4a
fc
ed
01
12
e4
20
19
f4
ef
c1
16
d7
06
3f
1c
29
31
26
00
09
44
fe
f3
01
f5
0f
0a
be
e6
23
e9
10
cf
f2
f5
cf
38
08
16
07
fc
25
f5
c6
01
ce
0f
08
03
c3
c5
20
ea
a8
14
fb
f6
32
e6
f7
06
11
eb
22
c2
f0
2b
e2
f6
fd
f5
18
21
3e
2f
06
17
23
22
ca
3a
ff
d5
ff
c2
0d
e8
2c
f4
36
1c
87
0b
e8
de
0f
d2
11
0d
d3
eb
d2
0d
d8
03
e0
b4
39
f8
e0
25
c9
11
13
23
1d
07
3e
13
11
d5
5b
ea
18
21
1e
19
0b
e6
e6
c3
f5
f5
1e
c2
17
14
28
f7
d0
10
f9
e1
43
02
c5
2a
e2
31
f9
23
31
10
08
07
2a
e1
f1
11
07
00
0a
07
0b
e1
07
ec
24
2d
11
3f
d8
02
26
e1
10
1d
15
4e
f6
ee
f4
ee
ee
0b
00
3e
33
f1
e3
18
c7
26
19
a5
03
5e
c3
fc
07
03
ec
c9
13
05
c9
e9
bd
cf
08
cd
13
c9
e0
ec
e7
0a
57
e9
b2
fb
0e
db
d4
07
e0
24
cf
10
15
ef
cd
1e
15
f5
f6
12
b0
60
ea
c6
00
e4
00
dc
09
f2
f9
19
28
e8
f9
40
16
cb
11
0b
f7
37
1f
c7
18
d8
1b
2b
49
38
19
fe
fe
ee
ef
42
e1
dc
d6
e5
d1
10
23
e6
31
12
ad
ff
ef
db
16
be
01
11
d3
03
da
db
cd
03
f5
c2
f9
0f
cd
1a
e2
19
ed
ef
16
e8
10
11
03
f8
2b
cd
06
de
fc
fd
2a
bb
bf
fe
eb
c1
ff
e5
d4
36
46
37
22
2b
02
d2
19
40
1a
18
02
12
ed
f8
47
e4
fa
f3
e5
0e
f4
1c
cb
fa
ff
03
03
06
26
03
bf
f3
d3
ee
13
f8
e9
11
de
d8
1c
34
1c
0f
3f
f7
03
d8
f5
fe
f1
66
06
fe
02
14
04
1b
e3
fe
21
d6
0a
f4
00
d9
04
b3
f2
f3
2d
e1
b2
13
d2
08
ee
01
e9
16
e0
5f
eb
ed
0c
f7
e7
07
db
f2
11
31
0e
16
f9
01
3b
ec
c9
f5
0d
f5
0d
30
d4
29
b4
c2
e5
37
03
b8
30
17
3a
d9
f6
0b
f8
02
0e
ca
11
23
ef
e0
33
ec
e0
de
99
e2
4d
09
f5
42
f0
a7
e6
16
28
02
10
40
66
28
eb
24
06
f9
d1
17
e3
45
f3
37
2a
d5
07
13
f5
37
f4
0d
14
10
fa
c9
c9
0f
db
ca
e9
ff
16
69
0b
e8
07
52
e2
05
33
18
f3
fd
e1
d6
29
e0
1c
e9
e9
46
fa
02
2a
0f
f7
27
ed
05
f8
f0
c7
06
3b
c2
ea
f1
13
e4
04
fb
1d
ce
f7
e8
18
10
fa
05
fa
e7
ff
ce
ff
18
01
1c
1c
e2
36
ec
e5
22
fc
1f
13
1d
d9
18
05
00
38
c8
03
d6
f6
23
12
f9
f7
fd
14
0f
33
08
16
fe
d0
c6
0a
2f
0f
e2
fa
e3
1f
2a
23
ec
06
02
19
06
0d
11
3e
f1
23
cf
13
e3
e3
cf
0c
0c
d0
18
f5
f8
04
0a
15
51
08
1b
f5
f4
f4
f9
11
f4
23
25
1b
a7
13
fe
e5
e8
f9
cd
01
03
fa
03
fe
f6
05
13
0e
00
d9
03
0a
0a
12
07
04
0d
19
fc
07
0b
f9
c4
06
08
19
0f
15
c2
13
18
0c
0d
1d
fb
fc
d1
f1
19
07
e4
39
ef
ed
15
ea
cd
07
02
dc
f6
0d
07
29
f9
de
d8
12
08
e5
d7
ca
09
e5
2f
12
0a
d9
f8
fe
3d
f8
0b
cc
fa
22
0a
1b
fa
f3
f3
17
08
0f
18
f5
e7
1d
28
f9
f0
01
e3
dd
0e
1a
e0
f2
fd
27
ee
00
04
dd
cf
24
e8
16
32
0e
ed
29
05
f9
fe
09
12
e5
31
f5
e0
14
0f
05
fd
04
c3
27
13
f9
ef
07
dd
1d
d7
e7
29
fe
f2
db
f7
43
e7
15
d4
24
0d
fd
00
e9
20
03
10
bd
1c
04
10
05
f5
0d
df
08
38
f1
15
eb
d7
dd
18
cf
09
fb
d3
3f
0e
c3
11
08
1b
f9
ca
10
bd
d3
2a
fb
e3
23
13
19
07
0d
ff
11
fc
d8
20
11
e9
0a
cc
05
21
3c
f7
fb
00
f4
17
01
01
f9
24
1a
32
e1
fe
16
14
0c
f5
02
0c
09
01
14
12
ec
21
f5
05
ed
fb
14
22
ea
e1
13
fb
1c
eb
0a
de
06
2d
32
ec
1c
25
f5
f6
f4
0d
02
f6
0b
f6
1b
12
02
13
d2
17
02
03
07
02
f9
f6
f6
f3
04
2e
c7
00
f4
e8
db
10
1f
d9
f7
0e
f9
17
09
07
f7
15
29
fd
35
2a
03
14
f4
e8
df
17
11
16
ea
d5
ff
ed
cf
08
dd
ed
2a
e8
0d
e0
fe
f4
07
05
28
1c
01
00
ea
31
fc
ec
fa
17
0f
e4
1d
50
ca
fa
ee
f1
ec
e6
14
e6
03
0c
d7
38
18
e3
db
00
f4
24
e9
ee
0e
19
c5
00
0f
ec
0e
de
06
ee
0a
e3
f0
fb
00
fe
d7
f2
ef
13
19
dd
10
f8
ef
eb
fc
f1
0e
f4
04
dd
e8
0b
c3
0d
ed
0e
c6
f3
f5
1d
45
12
13
0d
1f
04
f9
0c
0c
f1
11
e4
2f
f4
00
26
1f
d3
1d
07
e7
17
20
ec
fd
02
20
f2
03
10
0d
25
fc
e8
1d
0e
01
ba
fc
08
ed
04
20
38
00
01
e3
e6
f0
1c
08
1d
f1
09
f7
ed
f5
2e
fb
06
e3
1f
0f
f9
e6
05
e1
d6
3d
f9
27
ed
09
fa
bf
f6
41
c7
fe
f8
07
1f
de
e9
06
10
fc
14
13
e2
0f
ec
fa
e8
f6
c6
ef
0d
09
14
14
da
16
f0
2d
ea
03
12
13
03
e7
d5
06
15
01
d2
05
09
f2
f3
ea
e1
14
fc
20
07
10
2d
fc
d6
04
09
0d
f3
1c
c2
1b
e0
ff
d3
ee
f8
fe
e6
15
f2
fe
01
0c
e5
15
17
13
13
12
1a
37
f8
d4
e9
e9
df
1c
19
fb
fb
df
f6
f5
27
fc
fc
f1
2a
17
ec
04
e2
fa
b4
fc
e8
d9
0f
f4
05
24
1b
f6
c9
ff
03
f8
e6
de
fb
1d
e0
f9
ba
16
1a
03
fa
fc
e8
20
f4
ff
fb
e3
2d
f1
ef
0f
ce
f8
06
0c
11
ef
e2
0f
fd
dd
ef
14
db
36
ea
f6
19
e3
12
0a
26
c4
fd
e6
25
d7
dd
0b
12
0d
0e
1a
17
fb
0f
12
22
07
fc
18
fe
f2
d2
03
f1
00
e6
25
ef
f4
f8
e0
16
d0
e4
14
f6
e6
20
2d
00
18
eb
e2
04
02
ef
da
e9
1d
f5
f5
07
07
02
06
06
fb
0c
17
f8
f5
f6
db
df
12
26
01
f0
2b
00
dc
df
bd
ff
0e
15
08
0c
09
1e
14
e9
f5
f0
ee
fd
e9
0f
e3
f0
de
28
33
24
ff
ee
02
2e
ea
18
db
13
d8
f8
13
f5
0b
0f
de
01
e3
df
f3
06
0b
05
34
e7
1b
0e
04
fa
e6
fc
0a
d6
e9
eb
0b
0f
4a
e8
e6
19
f7
e2
ce
de
f0
f4
02
fc
26
e2
d0
14
be
1c
48
02
ec
f5
e2
2c
1d
0b
1f
1b
24
fb
fd
e9
0a
fa
fb
15
db
e8
15
f6
19
eb
0e
0d
f5
f1
fc
e8
22
08
01
d3
1c
0d
16
fd
02
20
fe
f1
fc
de
e7
1d
27
14
cf
2d
15
06
3b
cd
fb
21
ec
29
0b
05
10
e5
ea
eb
22
10
0f
f5
13
e9
fe
03
20
e6
de
04
06
ea
fb
1b
26
f1
e9
08
16
0f
f0
0d
08
fd
de
00
ec
02
e4
05
fc
11
fb
18
f3
ea
f4
ee
08
ff
15
18
04
d8
be
23
dc
0b
1f
ec
e8
30
ef
00
19
27
1a
03
00
18
ee
00
4c
31
f1
d9
f0
04
f9
e3
e3
ef
32
ec
bc
f9
eb
f5
19
fc
ff
d1
e5
ef
e1
25
2c
18
f5
cf
1a
c0
01
00
dd
fe
f6
d0
22
e7
ed
1b
0a
16
10
cc
04
e7
a8
15
27
eb
f4
f3
ed
3e
03
16
06
e7
32
23
1c
bc
cf
1e
c9
c1
10
15
f8
81
02
12
27
0a
14
24
30
12
f2
2b
f3
14
db
03
11
fc
03
0f
ed
03
fb
16
d5
24
ff
fd
ce
00
05
e5
34
ec
0b
f4
dd
cf
03
1a
07
ed
e7
29
cf
08
1d
f7
fe
14
ef
fa
1a
10
e8
fa
e9
23
0c
1a
13
48
e8
fd
02
2a
fe
f8
d9
ea
33
c5
10
0f
c9
f4
14
05
0b
0b
2c
e4
0e
ef
c0
e9
0d
1e
f0
fd
06
fc
e9
db
37
03
34
f0
fa
1a
03
f9
07
04
12
28
4a
e3
ef
07
ff
f8
20
b4
21
d5
aa
00
21
fd
d5
e4
2d
14
02
e0
0a
0d
1a
33
27
f7
f5
17
fa
fd
f4
1a
f8
f1
0b
25
05
d8
0e
f3
0d
0d
0b
1a
dc
c5
d4
df
f5
17
23
d4
2b
27
09
04
f1
13
24
f6
ed
fb
21
06
01
d9
05
35
13
d3
dd
d2
da
1d
dd
ea
18
16
fa
d2
ea
33
0b
e4
ed
d9
f2
ec
f4
00
2b
fc
17
dd
d8
3a
d9
ef
07
c2
d9
15
f0
12
f0
ce
db
16
1c
4d
10
f0
fb
2a
e6
f3
36
1c
1a
f0
21
1d
0e
20
09
ec
f2
12
17
08
e9
0f
ee
19
53
e9
03
0a
c1
0c
0d
0c
fc
e2
16
07
f1
04
ee
c6
f5
17
2a
dc
23
00
d9
45
0e
09
e4
e9
db
f6
c8
16
16
3b
f7
00
04
02
03
43
19
25
ff
0a
d4
07
db
fe
d7
03
08
f5
0b
01
dc
1c
f4
f9
04
16
e6
ea
04
19
21
09
fa
e4
dc
06
14
fb
fc
2a
04
07
50
47
fc
13
e3
0e
26
eb
fd
f3
f6
ec
e8
f3
11
18
fb
fa
d7
27
ec
fb
07
ec
06
1a
f5
f6
06
da
d9
13
11
05
18
0c
02
0a
f2
0e
fe
19
f7
ef
dd
0e
f3
08
ed
fa
19
25
e9
fe
19
29
f3
08
06
13
fe
d7
fb
e2
10
05
ee
e1
01
b1
10
0e
ea
fc
f1
0d
04
2a
fe
eb
05
ff
e1
13
08
12
05
ee
16
0b
05
1c
f2
fe
ff
0d
eb
39
0f
08
fa
1c
f8
df
f0
fa
fa
dc
21
fc
e8
13
df
09
1e
34
0c
f8
28
f4
2b
0b
22
f1
ed
e2
ed
b4
1b
28
0b
eb
dd
fd
c0
39
e7
f6
f9
42
15
eb
04
f9
0e
e5
10
35
fe
17
18
f7
ec
0f
47
3c
0c
27
f0
f0
1d
fa
33
fe
f6
ce
0c
f6
25
dc
05
3b
f7
2a
02
ed
fe
29
05
1b
2b
d6
de
d9
d6
f6
2c
e4
ea
04
2b
06
22
32
b6
e3
12
f9
37
ca
fa
f0
00
da
fb
d0
16
11
d3
1d
3b
a5
09
e6
02
fa
20
fa
ce
c5
09
03
14
1d
15
14
f8
ff
fc
34
09
13
13
be
ef
e5
0c
f4
e2
00
38
0d
e3
f4
c4
35
18
03
16
e5
d3
0a
21
fb
e7
eb
d9
d0
1b
ff
ec
cc
f2
15
12
df
e5
e8
e6
cf
ff
fe
35
f8
fb
ca
25
e7
09
0b
18
f1
fd
ac
14
fb
ea
ef
46
ca
34
2f
ff
f8
fe
26
07
16
ed
e0
ff
36
fa
e4
fd
1a
e1
c2
e7
db
dd
51
c9
ff
31
1b
22
b5
d7
32
dc
c9
d9
d7
0f
db
ea
d8
33
e4
ec
0d
00
15
10
02
f3
32
fd
fe
0e
18
fa
19
19
f4
17
10
f8
06
f9
e9
e1
48
f1
e9
f0
d6
06
fe
fc
ec
ec
1c
08
e3
f8
1a
06
ea
fa
f6
fb
44
e5
da
0d
37
16
e3
ba
16
08
00
16
29
e5
08
eb
0e
da
f6
fe
2a
0d
08
fb
1c
e3
65
fe
e7
e7
f7
ed
08
2f
ef
f1
db
e7
d8
23
e0
0b
fe
40
d7
17
e7
04
ee
03
00
09
ec
0e
1f
e2
1a
21
ea
df
1e
22
23
f4
e7
1e
09
fe
ef
fc
e2
d3
08
e3
0a
1d
f8
09
fc
34
f4
2c
23
dc
0a
f2
14
1b
ee
e0
ff
17
f6
0b
0f
11
25
d6
0c
14
0a
da
12
e8
1f
04
01
e7
26
d8
e3
f1
fb
24
e2
fe
e4
f4
dd
2e
c6
01
16
02
12
fc
0b
eb
17
05
e2
20
17
09
10
0b
21
f8
e3
34
33
0b
eb
d2
1f
dd
12
c9
06
0d
04
08
09
04
0b
e5
f2
02
11
19
0b
2d
ee
0c
0d
ba
f4
f5
08
12
f5
22
1b
0d
f8
2a
e4
f6
0e
f2
fa
eb
ec
ec
f2
e9
0e
f9
05
16
23
06
ff
0c
07
36
13
f3
f0
f2
24
21
dd
f7
19
f6
01
e7
04
d4
0f
d8
19
f1
04
14
f3
10
1d
0a
21
0a
f2
01
fd
fd
f0
2a
07
eb
04
da
0e
20
0b
d5
0d
e4
d3
15
ed
14
24
0d
f6
09
10
ed
e5
e1
3c
04
f5
04
20
04
f0
18
f9
14
f7
ed
fc
17
fc
34
e8
e1
f9
23
fa
00
13
02
17
f3
01
dd
0d
00
2f
c7
0c
fa
fa
1d
07
f7
29
f6
14
ac
fe
0f
e1
d1
13
ce
43
f3
11
2a
f4
d9
fc
21
db
0b
45
03
10
0b
f1
d2
db
04
2d
20
e6
d0
d6
f1
24
21
cc
f9
35
2b
e7
07
04
ef
03
e9
0b
e2
ed
05
14
fa
07
4b
e1
11
dd
06
17
27
38
1a
c5
14
08
dd
00
11
fc
e2
c2
c7
fe
27
fa
25
f6
06
f2
1f
cd
20
14
44
c1
f4
0b
f6
e7
1e
10
0e
48
f6
23
d4
01
00
11
18
17
fd
11
f5
e3
f4
e7
12
ef
fb
e2
12
10
e7
0b
e8
00
ce
22
11
26
06
e9
c5
30
04
c4
fa
2e
f1
23
c4
03
e7
01
1a
fc
06
f5
1c
eb
fb
07
03
2d
e9
dc
11
e5
e4
ef
3a
25
4d
fe
f8
ed
f2
d3
f3
d6
04
db
d5
f1
f6
fb
0d
0c
c5
f2
01
f1
16
12
e8
24
f6
14
fb
fc
eb
19
eb
0c
02
1a
d9
ce
e5
ea
02
f4
f7
2a
e3
f6
fb
d1
22
d5
f6
0a
1d
de
e0
19
c3
17
e0
ef
f3
31
0a
f9
c8
de
03
cd
00
0a
fb
01
d6
14
ef
2f
08
f9
02
e8
f7
1a
b3
1a
50
ff
f1
1a
08
de
06
08
ff
07
1c
05
dd
f1
0b
09
f0
10
d2
f5
15
f9
f8
10
4a
34
d9
09
2e
fd
f9
f9
dc
11
f2
b7
11
08
0d
31
f3
f1
e8
fc
d0
f9
c4
5d
f4
11
03
1d
f8
1f
f7
fe
2a
06
16
f8
fd
f2
07
c3
22
1d
f3
dd
de
db
d5
0e
d9
f0
08
0d
39
fe
ff
29
f2
03
02
c8
26
10
21
16
1d
e4
05
fa
15
09
07
f5
09
07
ed
1d
fe
fa
f5
ec
eb
cd
ea
44
12
fc
20
e6
d4
07
11
bb
f0
1e
8f
10
e5
1d
fe
c2
ba
13
d8
52
31
02
e1
c7
1b
27
1c
16
f8
d8
33
d1
3d
eb
00
0d
d8
d8
e0
38
e4
3e
07
f7
ed
dd
22
2c
fe
12
e2
26
fc
14
f6
d7
d2
f3
0f
e0
f1
f2
16
49
f3
d6
e7
1d
e7
d8
26
1e
f7
1f
2f
0b
eb
04
e5
f4
25
1d
f9
1f
27
0e
d3
00
f2
f2
1a
de
de
09
05
f5
e5
f1
01
c6
f8
03
42
00
09
ff
fa
10
22
e3
12
32
12
16
d6
e6
f5
30
db
47
d5
12
0b
ec
15
f2
e2
f1
15
f5
fb
d7
4d
25
db
11
fe
14
f8
e8
c2
0c
08
d4
ea
e1
13
f2
0c
16
cd
00
dd
fc
d9
db
4e
11
fe
f6
02
dd
13
fc
0b
e2
27
f6
0c
f7
db
17
18
d9
e2
fa
fa
e3
02
1b
fa
0b
d2
fb
ff
eb
0a
f7
c9
e1
26
01
19
df
c3
19
0f
de
fa
ee
c1
34
06
0b
33
d6
ec
3d
0f
3b
17
f0
e5
e3
0f
2f
1a
de
f0
0e
e6
fc
4a
fc
2c
23
b1
2f
2d
c2
17
03
f9
08
0c
18
fd
c9
00
04
eb
fd
10
19
39
ec
01
fe
ec
1d
24
ef
26
18
48
0f
27
48
ff
e7
0d
11
fe
0b
e8
c5
0b
f0
0f
b2
0b
22
10
ec
e0
2a
d3
ba
07
da
c2
14
0b
ef
f5
15
f7
f8
2e
b8
ff
d5
2f
03
11
c2
0f
02
d0
ec
05
1a
16
25
05
33
0b
15
bf
f8
ec
0c
ed
dc
f7
03
19
08
07
1c
ea
32
06
0f
fc
03
d2
ff
18
00
cc
e7
e3
04
33
f7
3e
28
3e
0f
cc
2c
e7
e0
dc
db
05
c4
e0
f2
f2
14
d1
45
2d
0c
23
10
00
be
df
e8
10
18
08
01
29
00
e9
fd
ef
dc
19
12
55
18
32
31
01
18
e7
fb
ed
ec
e0
20
f6
fd
f9
ed
d9
0b
18
12
0e
60
f8
18
35
2f
39
de
18
b1
f4
d1
05
0e
22
e9
09
07
03
e7
e2
44
29
2b
10
12
e9
e9
09
4b
f5
16
16
05
e7
e2
39
1c
f2
1f
fe
0a
ef
d6
d7
24
d7
21
f8
dc
14
0a
1c
54
ea
0a
15
f4
fe
35
20
36
1f
e3
fe
ff
d0
e0
0f
fc
cb
38
07
0d
44
18
ea
2d
17
23
14
00
de
05
1d
ee
0d
10
fa
05
1d
d8
0a
fd
f9
30
ff
fa
c0
e2
39
26
0c
1b
da
f3
38
05
25
22
d1
d3
3a
fb
d7
20
f5
39
f0
30
08
ce
00
fb
10
e6
03
d4
00
0b
41
19
ce
01
fd
3d
f7
19
d7
0e
f5
1d
3e
11
17
d1
d2
eb
1d
ec
0f
0d
f1
30
01
e0
dd
05
fb
3f
01
2f
01
10
f0
0a
28
32
20
ee
fa
11
ed
d8
c8
0c
1b
df
03
13
fa
02
20
21
07
1a
c0
f5
fa
19
1d
0d
fe
c7
15
0a
30
e8
e6
1d
ec
c7
1e
33
e1
fe
e3
f0
f8
1f
c6
0b
ff
f7
12
0b
27
fc
0d
37
05
0e
f8
c4
e6
29
e4
eb
39
dd
d6
f4
b6
ea
62
d2
39
f5
28
0d
fe
0b
22
eb
05
0b
f6
09
e5
cf
03
0c
df
20
df
e3
ee
0d
1a
eb
34
17
da
cf
0e
fe
25
ea
d7
2f
45
f1
03
db
15
05
08
bc
f1
ef
0a
02
df
eb
12
e2
e6
1b
fd
00
14
11
0f
09
f8
12
da
fd
02
f9
f6
f6
d4
27
0e
ea
19
1f
f3
00
19
19
e8
e5
1e
0f
fb
15
f7
18
29
fd
15
f5
10
19
05
19
05
db
ea
eb
f2
f6
f1
e5
f9
d1
ea
d1
db
16
0e
d3
08
03
fb
0a
f5
10
f4
ee
ee
00
13
10
0b
0f
01
ff
ea
1c
c1
f5
f1
e4
07
0e
17
1f
0a
16
ee
0f
03
0b
f3
24
f8
ec
01
fe
01
13
03
f7
f0
f4
11
1c
0d
fa
0e
fb
f3
f6
e9
f3
f7
d1
f6
e3
0f
f2
02
01
f8
0f
f1
e4
f1
fa
f4
ed
da
0a
0e
fd
e5
01
01
08
15
eb
f9
01
0a
fd
e2
dc
00
16
f5
f9
11
06
f4
0a
23
f6
03
f1
16
f7
eb
f1
09
28
21
f1
fd
f8
08
0c
f7
0d
dd
ec
0c
e1
35
06
f3
f7
1d
12
09
00
f3
ed
15
0b
ec
13
db
f3
e3
09
f7
32
0c
fe
ef
01
0f
02
0b
ff
f4
1f
13
f0
ee
ff
d9
00
f4
e5
22
ff
07
12
04
eb
06
e6
06
f8
20
0c
eb
fc
10
f0
ff
f3
07
f7
05
36
07
21
15
04
e6
06
da
e9
11
00
03
f9
31
de
fd
cf
09
08
f1
0e
29
d8
09
0d
05
ea
f2
f0
f8
de
ee
fd
0c
fb
f3
fc
02
13
08
ef
22
04
0f
dd
0d
05
25
e9
05
0a
e4
20
fd
1b
10
02
f0
f3
0e
15
f0
f8
fd
e8
0d
0a
d3
fd
17
f7
08
22
18
fc
f9
01
f4
34
f0
11
e4
02
05
12
f3
da
fc
eb
1e
ff
27
1d
d2
06
e8
0e
05
e7
ea
00
16
ec
1b
e2
fc
1c
f7
01
fd
d5
08
dd
de
28
f6
31
0e
fd
0a
f0
e4
fe
07
1b
08
0f
04
e8
f2
f9
1d
1e
04
f1
f1
f6
f3
05
08
e6
13
0e
26
fc
f1
ff
f6
19
19
1c
06
18
06
1a
f5
10
28
27
e2
24
f8
ea
f3
1a
f6
f8
e6
f0
1f
e4
02
ff
f1
34
0c
05
0f
07
fe
0a
01
f6
22
04
f8
df
01
1c
03
dd
d3
12
f6
09
0d
0b
ef
0e
1a
02
ff
ed
e5
13
f8
ee
d5
07
20
ee
f2
fe
06
17
24
f2
ed
13
fe
ec
ff
e5
04
e5
db
03
f4
1a
e8
06
fb
f2
08
f2
f6
0b
0e
f4
13
e2
d1
03
06
d9
e3
fe
db
2d
0f
00
2c
f5
09
29
ed
07
fc
e2
26
14
f7
1b
f9
fd
f9
02
fc
03
35
05
ba
f2
f5
ef
f1
fd
13
fa
25
f7
ee
f3
f3
1b
b8
ff
07
01
08
1a
e3
1d
f8
0a
fa
f4
fb
0b
ea
e7
e5
c4
18
d6
fa
0f
f9
f5
04
ee
e7
fc
16
07
ed
0a
de
f7
23
e6
fc
ee
eb
08
18
ef
da
f3
f7
17
0b
24
01
11
d7
fe
01
0b
37
fe
ef
08
30
f8
f4
e5
f7
df
f2
17
fb
23
f7
f3
11
e3
04
25
06
ec
23
13
06
db
ed
f6
f9
0f
0c
f3
e8
16
e0
f2
e9
03
f2
f6
dd
1d
0c
0e
de
00
f3
f9
19
22
f0
d0
03
38
06
f0
ff
07
ff
ed
10
20
ef
09
f5
e7
10
ed
14
fc
0f
e3
ff
07
13
07
f7
06
fc
fe
ea
24
fc
29
0c
e5
03
f8
25
0d
14
f9
13
fd
fc
e5
06
17
e6
e9
1c
f5
db
10
ef
fa
db
f1
0a
0e
19
ff
e5
15
cf
d9
f0
27
08
14
4a
c9
fb
fd
fb
12
01
f1
25
0f
04
ea
e5
06
e7
fb
f8
1c
00
f4
03
e5
03
e4
ff
14
06
ef
02
d5
f0
ec
f6
e7
dc
ff
e1
ed
cd
fc
0d
0f
03
0f
0d
1f
e7
00
f7
0c
0d
ea
21
20
25
ff
e3
22
10
fb
0d
fa
ea
02
09
ff
00
f5
e8
f4
0a
02
e9
fc
0a
15
ee
fb
3e
03
17
01
13
21
f6
0a
ee
08
19
08
fe
ed
fe
fe
00
fc
04
fe
10
0a
e0
1a
f4
ef
39
d9
0b
02
02
1f
12
f4
03
13
ed
f6
ef
f6
fd
0e
d4
fc
fe
32
00
d2
ff
03
1a
07
1c
e6
1a
03
ed
ec
ff
11
fb
fc
05
06
0e
2d
03
e8
1f
f9
03
ef
03
09
13
07
f9
f4
e1
30
08
f7
0c
13
fb
fe
07
1a
0a
02
14
05
e1
e4
ec
03
dd
f9
00
f1
1e
f7
19
f8
0a
20
e4
f1
01
03
d9
0d
f8
07
f0
fd
2c
00
d2
eb
0d
15
d1
09
e4
18
07
08
08
f3
0a
fc
e6
01
0a
e7
0e
eb
f0
1a
15
d7
09
0e
0c
14
ec
fe
eb
e4
ca
de
ef
3b
0f
05
08
10
17
18
09
fa
00
0c
e3
f6
e8
1f
0b
ee
10
15
05
f7
fe
1f
f1
2e
fe
fd
f6
fb
f7
14
fb
16
07
02
fc
fa
32
ea
f5
fa
e5
e0
f5
0e
fd
02
ee
0a
fe
e9
ff
fc
fc
e3
08
09
ce
00
fd
fd
ec
03
fc
18
fd
03
e7
d2
f6
e4
24
0c
f4
14
f5
2c
12
27
f6
13
f3
06
13
0a
0f
1c
0e
e5
f3
e4
05
0f
