a6
64
46
4a
d8
47
c0
73
32
90
73
9a
31
55
1d
80
1c
69
72
5b
fa
c2
2c
61
1b
2f
ae
f0
01
29
92
1a
99
40
1a
f1
e6
51
c2
31
09
33
86
f4
ad
0d
bd
4a
e1
1f
12
64
11
09
45
13
ba
04
73
c5
ea
da
bf
1f
9a
77
16
58
d1
fa
e3
4d
07
c2
2a
91
7a
c3
c8
52
00
01
0e
f3
11
70
b1
9d
15
46
44
65
92
ba
d7
0e
ef
34
b0
1d
8a
1a
87
66
4e
ea
bd
85
4e
6b
4e
91
21
bc
3b
cc
bf
46
2b
51
52
28
09
37
64
6f
a4
4c
6e
08
4e
17
15
b9
1e
b5
97
47
b3
f5
3c
f6
39
45
e1
2b
12
d6
ad
7c
1a
78
68
35
e8
fe
9e
25
6d
d2
04
02
2e
42
42
74
47
ce
45
5b
14
ea
19
30
52
4c
19
77
ce
25
3e
df
40
bb
6a
2c
28
4f
01
16
fc
ac
01
fd
bb
1f
d9
d9
29
bc
f3
cc
bf
fc
ab
26
7c
2d
0b
ab
36
84
d5
85
f8
38
28
51
79
89
4f
a5
2c
e2
20
56
9e
f6
c3
c3
3f
a0
33
c7
61
ad
19
f2
34
9a
30
3c
5f
d5
b8
61
3f
9c
0d
92
f8
21
69
1a
3a
32
ce
a9
be
dc
95
fd
c4
61
50
27
9c
87
a7
cc
c2
78
cf
2d
b9
fb
08
a9
92
d7
3c
00
3e
5a
c2
01
1a
bf
14
19
38
f9
aa
52
d5
f5
68
09
39
b3
4e
57
ba
64
08
d3
fb
81
20
9e
31
21
e4
fb
d9
09
37
84
19
1d
b0
46
e7
bb
31
bd
3b
25
25
2a
12
e2
b9
e3
43
fd
a4
51
13
59
52
44
ba
5a
3a
40
77
0a
ac
50
49
83
47
ca
fc
0a
96
9b
5a
8f
b3
22
a6
e7
0a
ff
c9
c1
00
26
9b
f5
e6
88
a8
5b
b5
8d
99
9f
52
22
12
a9
98
1f
f2
bb
c1
c2
a4
82
d7
6e
c3
ff
d3
ae
80
ba
30
08
3e
bb
ac
15
6e
a5
25
77
76
01
ff
cd
76
b6
57
fa
ca
3d
b5
6d
f6
3d
1a
3b
7a
1b
e6
b0
e9
cd
e4
eb
22
26
3b
98
c2
f3
ff
db
16
04
73
08
22
35
53
28
59
f5
72
94
fd
ee
cc
96
46
d6
e3
40
39
05
22
e0
da
0c
b8
db
32
07
5f
59
1c
5d
5f
c3
a8
34
ef
15
b3
52
13
09
39
3b
34
d7
88
e5
4d
07
52
80
0a
46
fb
1a
13
1e
35
f6
10
78
b4
38
01
91
4e
82
09
7f
0f
26
8c
42
05
10
4c
15
3e
be
73
97
4e
14
b4
7c
7c
d7
f4
e8
7b
d5
a0
07
74
69
0e
f8
37
1e
2a
30
01
8e
e0
f5
60
e8
f6
1d
d3
14
3d
73
d1
4e
41
70
94
e8
c1
e9
b0
73
7d
ba
33
26
8e
26
5d
d2
de
30
32
9c
9c
de
d4
55
8f
9e
bd
3d
b8
29
07
b3
1c
3e
c3
5a
41
31
6a
a1
2f
af
1d
d0
34
ed
30
03
93
96
dd
17
38
7c
01
19
3b
55
75
cd
9d
84
60
3e
b3
db
ec
22
05
3e
b5
62
a3
6b
eb
6a
e3
98
b8
09
3b
04
09
b5
6f
7e
be
47
8c
8b
d2
ae
54
6c
3c
e7
94
ce
c9
03
ad
4a
3c
a3
81
d8
1a
02
8b
ff
bd
51
be
a9
41
3c
35
90
48
13
67
03
76
b0
b4
9c
8b
0f
4b
14
54
3b
17
58
a0
e4
df
b0
0d
69
2e
83
5d
39
ed
97
0b
0b
9b
33
16
d5
27
05
ec
fb
a1
90
a2
ae
ae
ff
aa
6c
a3
d3
89
6c
3d
fc
dc
8e
d6
1b
c0
41
dd
fb
29
7f
77
36
d9
4f
b2
f8
cf
65
fb
41
16
49
64
71
c4
6a
1e
19
a2
f8
15
69
15
57
7b
57
ca
36
c3
11
c0
f3
9e
e1
b7
47
3a
60
dd
00
94
f4
77
4b
a8
5d
13
b5
4d
8c
4e
f7
01
9d
bd
e2
f7
4c
43
b0
c0
c8
5e
5e
4b
17
31
66
73
12
6d
37
47
36
40
37
ff
78
bf
56
7a
f4
2b
41
1e
f8
3f
88
2e
63
26
fb
7a
04
a7
d0
48
b1
9f
24
fc
16
01
1d
aa
ef
69
11
7c
f2
6d
74
53
9a
61
3b
d6
10
81
d7
2f
1f
69
09
df
c7
9b
8d
d3
f4
a4
bc
25
c7
15
d1
ec
09
90
fd
b1
e2
4b
f7
17
67
eb
51
9c
18
76
82
05
bf
4d
88
d9
09
0b
1d
3c
c1
6c
08
4d
48
c8
a6
e7
7f
f8
f5
28
d3
ad
68
b7
7a
37
46
01
99
a9
d5
aa
bf
07
89
29
d2
61
c8
88
26
0e
96
49
77
b6
d0
e1
74
cd
01
e0
70
73
2b
bc
ed
ee
d6
36
a0
37
9a
13
d8
fa
d2
08
d8
be
1e
cf
ac
47
d6
8a
e9
e5
a5
19
42
db
7f
62
09
03
42
01
35
30
77
39
f5
0b
50
9d
96
31
1b
5d
c7
6a
1a
d7
e9
70
e2
78
27
5c
bd
81
9e
44
42
47
47
d9
63
95
83
9f
d9
98
6c
6b
f9
48
50
a8
65
27
44
37
06
f3
de
85
f4
f2
bd
14
84
6b
eb
06
c2
37
de
c4
90
c2
21
be
64
2d
4e
b0
8c
54
c8
85
72
11
47
52
ed
42
33
78
79
e7
88
98
67
f9
fa
ef
01
e1
38
01
aa
0b
92
3a
f0
d3
35
66
13
bc
58
a1
8c
e2
3b
04
3c
c3
cc
e5
3b
01
de
98
20
1d
13
69
be
04
30
03
4a
37
46
7a
fd
29
1e
9f
b9
cb
f8
48
e9
49
29
40
d7
39
71
58
3a
24
50
a5
07
1c
fb
e5
e0
06
73
67
2d
ed
3f
87
76
63
ce
d7
7c
7a
fc
3c
59
76
8a
23
8a
fb
95
ff
8f
47
d0
5c
d7
fc
29
ff
e2
42
93
92
f7
9b
5c
9c
1d
b5
30
09
1f
48
59
f6
3d
f4
3d
f4
0d
99
d1
e0
20
39
1b
32
84
7b
f3
b9
fb
be
81
94
dd
b8
c1
15
6f
a4
06
f7
10
9b
ff
a0
1d
c8
b8
ef
35
43
d1
b4
ad
18
b1
99
65
c0
30
ff
c2
c2
1a
be
f8
88
0c
4f
75
74
5e
41
28
44
d8
cd
38
1e
28
86
37
e5
84
6b
f8
a6
ca
b6
4f
04
4d
13
d0
60
d6
85
d3
91
0b
fa
5c
fa
49
9a
28
f3
c0
e2
ce
c8
79
43
d3
2b
df
8b
fa
2d
70
ae
89
f6
02
50
12
53
c7
d3
33
ea
8a
b0
31
13
ff
71
e2
20
1d
b9
7f
6d
dc
ef
02
c1
47
bc
09
42
cd
83
c7
3a
f8
4c
31
20
ae
e6
2d
68
3b
03
5c
7f
35
b4
fa
38
19
e7
92
3d
54
8f
80
47
e2
3b
18
db
f8
e8
12
fc
89
d5
07
c5
67
f5
13
e6
04
63
f4
20
2b
23
9f
82
dc
24
06
e2
c1
7a
08
63
04
0e
02
6f
d1
e1
50
28
aa
ec
22
6b
c9
56
3f
26
80
70
9b
51
1f
9f
19
6e
01
2b
7a
95
12
a2
d1
c9
f8
25
23
e6
99
01
3a
83
57
cb
32
45
d0
91
d6
2b
af
56
07
b6
0b
46
79
ef
1c
56
be
d2
fc
c8
8d
08
8a
18
d8
c7
16
f8
cf
d8
d2
43
9a
77
2f
5d
92
48
f8
8a
95
e7
d8
06
55
89
40
b4
94
12
cb
2e
da
5b
3a
67
3c
f2
f2
03
64
ae
6a
f3
c2
16
9d
e6
1e
b1
d7
94
5d
c6
4a
2e
e3
f9
4f
a5
bb
01
8d
13
d6
70
69
46
6b
d6
67
be
0d
f9
1f
9c
ef
8e
f8
62
f5
3b
56
e1
f3
61
e3
2b
f7
de
d2
e6
4c
b6
17
81
1f
c4
42
f8
15
b4
fd
12
e9
f6
38
9b
40
ef
9a
e1
d9
22
07
53
47
8e
68
1a
b5
70
32
c5
42
78
64
b7
79
72
df
b6
23
91
4b
23
77
1d
48
0a
e4
ac
01
f6
a8
57
d5
e2
25
60
43
69
f1
1a
6e
1c
f8
c1
32
30
58
c2
de
d7
28
ec
48
26
0b
19
b5
46
08
37
2b
74
3e
55
fd
66
16
c2
8e
72
7e
c9
1f
f0
c7
6f
2a
e6
e8
ee
f6
02
f5
b2
80
d0
22
85
cc
e5
86
15
3b
c0
ff
30
25
61
ea
74
aa
58
dd
72
05
15
eb
6b
be
a3
af
2a
95
1e
82
97
39
a1
20
01
4d
67
9c
3f
07
bc
71
24
e1
d0
fb
09
a0
1c
07
64
0b
a7
e2
ad
35
98
b9
96
69
ea
ce
80
3c
e0
1d
45
0b
9a
13
b5
01
e1
fa
f6
f4
e1
8f
b8
1f
df
16
23
9e
34
b0
ec
8f
79
cc
5c
5f
6f
61
8b
53
23
58
48
08
47
6f
bb
a6
36
02
8b
c8
72
45
bd
c1
ea
82
09
95
3e
a9
12
b7
6f
01
bc
2d
0e
27
06
44
12
eb
be
c3
05
29
1a
f2
72
ba
1b
49
04
fe
da
9d
05
3a
c1
43
14
75
e6
2e
cd
13
f7
49
b3
e1
94
57
f1
7a
1a
f3
c3
06
11
d9
f7
c2
70
1b
b1
df
bc
f3
e3
09
cf
f6
36
d9
11
87
2a
bf
c6
dd
de
3b
b9
c0
ff
da
c4
4d
06
1e
3c
32
3e
da
d6
03
27
14
05
a5
7b
03
01
be
bb
95
ab
d5
fc
89
1d
27
6b
ff
d2
78
18
34
5d
73
f1
8c
a2
7d
70
67
f1
f2
cb
b5
68
42
88
17
3a
ac
a4
34
0d
7c
2c
e5
6f
aa
12
e1
0b
98
78
06
67
1b
eb
cd
a0
1f
fa
e6
c5
b8
2c
70
0f
a8
70
2e
50
f0
33
f1
c0
6e
1d
76
1d
fc
72
49
47
f4
04
c3
31
ac
4e
fd
9c
ff
d4
74
92
71
78
06
e8
47
5f
0c
a5
e1
d2
a4
24
8b
f7
13
27
10
6c
eb
c8
1b
f6
e1
ea
c8
a6
af
2d
33
93
86
43
09
ed
c5
3b
c1
1c
2d
52
45
13
ac
bf
d5
59
b6
a7
10
45
a5
78
59
2a
a2
d4
c3
2d
21
7f
05
2a
ce
f6
e3
c1
48
77
ef
0e
20
59
40
8a
c2
01
aa
cd
10
c1
e9
cf
12
6f
fa
a9
0a
7e
4f
ff
11
02
e1
a0
9e
dc
0a
84
55
2f
ff
64
70
70
f6
19
83
93
e6
6f
f6
b9
2d
3f
33
1e
1e
15
40
c7
8d
12
ff
07
25
d1
a8
c1
1b
1a
2b
ac
35
83
db
d9
b2
ba
41
2c
54
3a
3b
a5
3a
25
8b
8e
bc
1a
cf
c0
b1
bd
d4
71
43
5a
2c
9d
fa
6b
98
3f
42
ec
91
19
25
d9
5e
c6
ee
f8
69
71
71
be
f5
40
28
97
8d
03
e9
03
4c
82
8a
ca
44
24
85
31
35
b9
e9
4d
9b
c4
a2
52
0e
83
ee
e3
08
8d
30
22
16
c1
63
4b
ce
93
ff
83
9f
f9
40
d0
22
db
e2
8d
f7
ef
ad
be
ac
be
ac
19
f3
e7
f5
d6
35
a4
55
3a
13
44
bb
e5
ff
68
18
bd
25
51
6d
9e
58
01
f3
19
fd
11
1b
8a
6e
e2
b4
e9
46
06
f4
a0
19
01
0a
a2
3b
f7
6c
f3
10
71
66
35
33
f3
a9
08
aa
5e
97
b5
ce
1d
d5
30
2b
cd
26
ee
e5
9f
6d
c2
47
46
84
23
da
01
dd
cb
b8
e1
a7
04
0f
ab
07
25
60
f0
82
c8
ea
a0
e6
35
ce
1d
61
a8
f8
c6
eb
91
24
01
fa
96
ec
3b
7c
43
98
ff
79
56
ab
d7
bb
b8
ff
ef
44
91
31
64
78
36
cd
9a
00
d6
e0
18
e4
c6
c8
ca
5d
37
37
60
d8
4f
33
ba
29
30
1a
b5
eb
29
f9
df
4d
96
b8
ae
e6
02
0f
80
a9
40
ab
35
9c
e2
7e
35
1e
3c
3a
11
33
62
cf
2d
b5
70
09
59
ff
9d
dd
c3
0c
cf
6d
b1
e8
22
62
e0
85
5f
50
c2
18
df
11
cf
f4
eb
d4
36
48
9b
e4
66
7b
bd
4e
23
2f
0d
bd
69
81
9e
99
c7
09
b4
e9
b6
52
51
8b
31
36
a4
d4
ec
ff
47
a1
4b
54
b5
79
8f
3b
50
91
be
b4
c1
13
ff
d7
06
a9
5d
50
17
53
39
be
aa
d0
1a
1c
fe
41
e6
ae
5d
ba
23
1e
ad
01
8d
77
37
8e
5e
89
c7
a7
8f
62
cb
63
ef
4f
f6
cf
b9
f3
df
bb
37
5d
9e
d8
31
df
36
20
58
cc
f5
d8
10
1c
e6
bf
42
ff
00
f5
af
46
27
30
9a
a6
63
90
9b
ed
cd
64
f3
ca
c7
b5
98
56
60
e4
4d
4c
26
6e
7b
ed
02
93
a7
40
68
3b
42
ff
84
6e
3f
aa
e4
2e
7b
66
1d
b7
ce
33
3b
39
75
d8
34
3f
5f
af
df
be
2d
e6
d5
c7
8f
db
72
45
f2
38
7a
6b
ae
30
e6
ce
2b
19
1b
80
15
18
9e
34
68
a1
bc
87
30
09
ac
87
32
57
65
bd
d2
8f
29
fa
d3
1d
ff
69
ad
5d
e7
32
f1
0d
2d
15
a4
e7
89
40
f1
a3
62
ac
9a
4d
9d
19
9a
e4
13
de
89
d4
d3
b8
91
b2
d7
77
0c
66
cf
91
bf
55
d9
88
4c
ec
bf
f0
38
d8
0a
fc
4e
8f
a7
4c
f8
7b
fd
e9
c1
54
0f
02
17
a9
67
4b
fb
46
85
08
cd
6e
aa
13
01
29
89
a5
ab
a6
1e
24
6e
64
35
21
bc
d0
a8
6e
e8
47
f4
1e
03
7f
24
02
ec
b0
f6
f3
49
0f
f6
38
1e
77
37
bb
87
3a
e6
ca
6d
c2
8b
31
76
01
97
0d
e7
ca
12
95
a7
05
6b
a4
e3
53
24
af
23
6b
4e
c2
ac
b5
61
88
a0
48
fa
29
bb
37
87
cc
f1
f6
c6
02
48
97
c4
24
bb
fe
12
3e
13
e2
7c
02
5b
a7
83
60
83
64
15
75
b9
af
5a
ab
05
8a
72
69
a7
72
31
7f
e2
d7
69
af
b4
11
35
dc
cb
9f
49
40
b0
d8
49
cc
2d
e0
d2
04
42
3b
54
ad
2a
22
66
53
aa
44
af
e9
a5
43
cd
e2
8f
82
80
01
6f
1e
fd
e9
01
5f
cf
52
b4
7e
51
46
33
e1
d9
b2
94
72
62
c1
cc
e4
e5
e1
de
71
f9
e2
01
da
d8
ee
6d
3f
7f
7a
d6
f5
ce
fe
80
1e
62
a6
01
14
27
dc
18
f1
bc
f8
ec
55
8f
3a
bf
cb
4a
cc
d0
24
e5
06
cd
f5
34
4d
90
f8
4e
49
ff
2b
33
34
97
ee
31
bb
28
24
85
6c
1a
37
8e
47
d9
5d
94
58
77
fc
b3
11
01
09
45
5f
0e
1a
05
16
85
1a
38
33
a4
53
11
e7
c5
e7
7a
c0
28
a4
c4
2c
66
8e
eb
77
7c
fc
ef
b0
50
5b
5f
f4
a1
70
26
69
17
74
39
f7
e8
32
27
d3
d3
5b
0f
01
ab
da
d8
10
be
25
28
c7
c5
ea
a9
06
b4
2a
c1
bc
35
e3
05
df
1a
39
d9
3c
74
ff
d9
d8
f6
0e
85
e4
ae
44
24
dd
57
c7
b1
ce
45
52
0d
36
e0
28
9c
04
61
ad
a3
3d
f7
1b
11
b8
f3
17
5c
55
a9
ab
7e
dc
07
8d
53
b7
0d
3b
13
60
39
53
01
1e
bc
dc
5c
fc
12
2c
f2
38
6b
37
d4
d0
d5
82
ac
34
4a
3c
fb
fd
32
37
5a
20
70
e0
f4
df
8c
de
fd
a2
39
ea
5b
5e
de
92
5e
e1
3c
49
1e
37
69
25
a6
f7
84
5b
0a
32
34
42
f1
5f
6d
63
a0
24
13
0a
8e
01
c4
52
43
20
95
0d
11
a6
fa
05
cb
27
95
73
ae
b8
e2
91
12
51
fd
bf
1c
46
d1
1b
f9
5c
bb
a5
3f
cf
c6
7d
e7
eb
0b
9f
9b
d0
2a
19
b7
30
23
38
e1
99
08
d9
c2
52
d0
cd
9e
38
40
f0
4a
6d
5d
f5
40
bc
20
80
54
f7
60
cc
31
17
5f
61
99
20
49
ab
b3
6a
6f
f4
86
3b
96
ff
70
01
27
95
d5
4f
f3
e7
8c
53
58
de
b8
70
ce
67
02
8b
ad
5a
0d
18
bd
92
e6
66
7b
98
b4
7d
07
9e
31
18
e6
d0
39
fd
bf
60
ab
50
9c
7c
dc
c2
16
65
71
7e
9f
7f
d3
ab
7f
5f
c5
79
63
53
04
8e
a9
d4
3f
52
ff
c5
11
1a
2b
fa
9c
27
1a
29
5f
ac
65
01
f0
b0
58
f4
50
ee
35
bb
2a
64
01
d8
c3
1d
92
64
12
5b
4f
3a
41
d1
2b
11
c2
b5
04
d7
4d
ee
16
ea
05
e2
6d
8e
04
c5
39
76
d3
8d
e4
7a
00
1c
62
97
3d
b5
b5
b9
ee
a7
5b
e7
80
4c
3f
f2
cd
f8
94
70
fc
e6
20
f0
1a
1e
da
8f
73
a8
ef
7d
97
4c
5e
a2
2c
87
42
e7
fa
4c
27
a1
d1
14
9c
a2
c9
0f
c6
22
7b
63
2e
f8
b4
73
34
c0
b9
c3
24
c9
89
eb
be
ec
ff
5e
85
50
d0
60
ca
7d
c8
1a
60
a7
e8
ea
b0
f2
8f
9b
e4
2c
5c
c1
78
8f
1b
f6
c1
07
c9
fc
06
82
35
75
54
ab
49
76
e4
16
30
98
5c
8c
6b
fd
0a
86
39
9f
2b
76
a8
9e
1e
93
59
90
0f
9e
4c
94
aa
2b
6a
36
e1
d9
c2
0f
8b
ff
18
32
bd
30
b2
03
3d
e5
df
c2
38
d3
7d
ac
7c
fd
48
e4
3c
c0
27
da
b8
ac
c1
92
68
d6
c5
7c
ee
75
53
4f
e4
6f
bf
24
77
67
b5
11
96
ff
aa
3e
6d
4b
5e
2a
65
41
b0
e5
c4
c9
8c
7b
38
90
a3
d0
bf
32
ca
b9
49
9e
16
9a
dd
a7
87
94
1b
3d
88
85
07
54
d8
26
07
f6
f2
f2
a1
91
ea
b2
84
d3
ff
a4
ff
25
dd
77
a6
47
b1
28
a3
87
91
7c
1a
4a
68
4f
11
fd
51
2c
98
18
53
2c
d3
e0
19
c3
d8
02
89
05
64
4f
ca
6d
69
34
b7
08
b7
dd
c0
37
cd
b8
6e
1c
ee
8d
ab
21
6f
4b
cf
fd
ca
4b
22
2c
36
fa
fe
99
cc
d8
1d
33
04
01
2d
5a
c8
85
d7
74
f2
e9
56
06
13
1a
82
5e
92
dc
ca
09
2a
d1
a2
d3
0b
42
82
aa
20
fb
3e
a1
31
51
36
c8
67
39
1b
42
c3
06
ee
dc
89
b1
2e
1e
48
b9
06
94
45
3f
f9
bd
4a
e5
12
68
89
01
2a
24
8d
59
13
9b
8b
a4
32
91
fa
7c
c6
2d
6d
e2
f1
00
af
05
55
eb
e9
4a
eb
91
e1
9b
bd
1c
eb
b4
b3
00
f7
fc
0e
0a
8f
89
f9
f4
ba
8f
86
09
34
1e
05
1b
36
4e
e3
b1
a2
c7
4a
e1
5c
25
37
36
f3
77
a5
4d
da
2b
1e
ff
5d
28
e9
d3
1b
ff
57
29
56
5e
08
10
85
b0
a4
34
13
15
bd
c5
c0
bf
c2
49
46
86
1c
12
65
18
d6
4a
4e
17
ae
12
b3
a4
8b
c6
a4
15
0a
72
94
01
9b
c6
d0
10
0c
05
e0
04
df
f2
f2
32
21
ae
a4
23
00
b6
2d
3f
08
1c
99
91
d9
d1
7b
0e
9a
3b
2a
53
e1
60
f6
c5
30
ae
4a
75
3d
b8
14
be
3b
44
61
7d
be
84
d9
7e
de
f3
46
c8
0a
1c
6a
31
08
89
4a
a3
57
83
b4
12
b4
5b
d3
67
2c
12
26
8c
ea
27
01
67
07
12
eb
05
fd
21
e8
87
6b
d7
7c
53
4d
04
bd
82
57
00
9d
37
c3
15
1c
68
23
f2
ab
e5
63
c1
ce
d1
47
1c
4b
c5
42
b4
43
6a
65
cc
42
ad
ad
fd
81
41
e0
34
be
cd
fd
d2
c4
aa
4e
8b
46
36
8b
14
82
c5
99
8d
40
d7
fd
0e
38
6c
aa
31
8d
5e
01
e0
cf
5c
00
c6
b0
e8
30
ca
89
3f
93
7b
d6
ab
bf
c9
3d
81
df
ef
05
5d
cc
75
b7
17
5f
15
59
93
8b
1b
4d
15
4f
82
7c
52
0a
a8
2a
44
cb
3b
d7
70
d1
97
af
ad
cb
8d
9a
ff
19
16
ff
99
95
64
49
95
01
08
69
16
17
6f
11
21
84
d2
d2
7d
6a
fd
63
16
66
fc
79
61
40
f6
5b
3a
ba
92
55
13
d8
b9
02
f8
39
ea
cd
93
4c
1b
1e
b7
3e
ac
74
f1
1a
d8
da
cd
27
65
7e
aa
74
28
97
78
3d
68
01
e9
48
53
6e
f6
70
ec
f1
2b
96
00
91
cb
56
85
23
74
81
eb
4c
b7
3c
bd
3d
09
71
30
78
65
e8
a7
ea
53
41
b5
d0
c1
cf
32
12
c5
31
ed
50
bd
a5
09
1f
0d
bb
28
af
54
ce
ae
30
ff
97
02
f6
a1
e2
ec
09
23
52
82
d8
c1
4e
b3
0d
b6
cb
96
d9
70
04
92
2a
71
a5
9b
dd
fe
42
8a
ff
f0
e4
e3
7d
9a
f4
c3
0f
8e
1d
f7
9a
8a
3b
1c
cd
95
78
16
1a
35
ec
35
e6
70
01
41
73
f5
5f
56
e1
c2
cd
23
34
8b
e0
01
db
cb
67
a3
c1
b6
b0
3b
26
6e
be
fb
01
b7
53
fb
bf
48
93
1d
52
4d
4f
c2
d8
77
5b
25
7c
d2
d7
7c
bf
6e
8a
3d
13
9f
a6
57
a1
32
0a
e2
ff
eb
d7
a2
ce
94
eb
6e
73
0a
b0
14
09
90
06
77
77
59
c2
e6
5f
7f
45
88
0e
23
b3
42
18
60
5d
51
67
c0
1d
18
d4
19
54
1e
3d
52
33
f6
0f
28
a2
e3
95
0c
6c
0b
9e
05
3e
ff
4c
98
0e
2a
11
a5
f1
7b
b3
a7
28
c5
d3
00
0b
0b
19
01
20
d2
bf
14
d2
fb
de
6e
d5
c6
e5
2d
e4
ff
dd
11
2b
96
5e
b9
3d
dd
08
12
18
0a
58
68
b7
ed
13
1f
d3
44
de
f0
20
dd
e8
ef
24
dd
d5
6e
28
b4
92
33
ee
b2
04
73
ff
06
04
ac
a3
ed
43
05
b6
3e
fe
07
13
85
21
05
db
f6
50
ba
7c
89
cd
8f
c6
69
e1
5f
7c
40
19
c6
1d
1c
3a
1b
86
b4
fe
e9
3c
49
d2
f1
95
34
c5
bf
c1
c3
1c
57
d0
33
6f
2b
1f
08
f0
12
e1
0f
34
22
b7
20
81
43
7c
11
8c
8a
e6
80
52
81
b0
cd
52
87
a8
a9
4d
38
79
fa
ff
13
fb
ed
31
d4
12
f7
76
70
49
ab
60
91
07
82
38
c2
48
02
b3
c8
bf
c3
18
dc
9a
c8
bd
0c
16
b2
15
b2
2a
de
03
dc
7e
f2
cb
ec
d9
e6
56
03
7d
b3
71
ee
88
8c
39
39
53
07
81
5e
4f
40
38
40
c3
4f
91
7a
1b
11
64
7f
b6
6c
ff
bc
89
70
6a
f5
bc
c7
6a
34
3d
fb
b7
9e
2a
0d
d9
07
7f
c9
0e
dd
97
2f
0d
57
cc
48
91
19
dc
82
c5
e8
17
f9
4c
eb
8b
81
9e
64
d4
53
d2
02
0d
a2
7e
14
f5
f0
c4
cb
d9
c5
6e
98
ea
d3
f5
88
e8
f8
20
6c
f1
33
bb
3e
8a
c7
c6
b7
9c
73
dd
49
01
fb
f4
23
0a
4f
1d
ea
1d
d5
89
0b
7e
70
75
e3
61
82
bb
23
4f
e9
0b
7b
1f
62
e6
24
03
21
0c
f9
04
cc
16
0a
12
4d
5b
b3
52
ca
bc
2a
8b
f2
1e
1f
f2
b7
59
90
1e
5b
95
58
24
d9
01
ed
87
9e
35
b4
48
b5
ff
3c
eb
a7
c2
7d
10
eb
21
9e
3c
e2
6d
bf
8f
db
ea
44
91
34
0b
11
68
99
f9
f7
ed
87
81
cf
03
1b
76
be
28
7c
29
8a
2f
f4
d3
22
0e
82
31
d7
55
b4
4a
bf
b4
0f
5f
c8
08
d5
af
e6
87
da
01
3a
f0
2b
e3
93
1a
08
95
ca
1f
4a
3a
43
bf
27
60
69
33
65
f9
cc
6e
fb
b9
d5
4f
d0
f4
8c
1c
75
21
fb
5f
19
17
ff
4d
96
54
07
e1
81
05
29
ef
47
fb
63
e1
50
68
10
d0
b2
6d
7f
6c
c5
0f
a6
cd
c9
e7
da
54
aa
27
19
09
b2
01
47
61
26
45
14
42
78
73
e0
e8
fe
91
37
a2
ff
a4
9b
f1
71
05
9d
10
65
57
50
94
33
69
3a
c8
a4
f1
b9
08
35
ff
b7
c7
8e
4e
43
22
ee
d7
5b
9f
d6
0e
32
4d
2f
16
67
e7
6b
7b
31
fd
a3
4a
db
aa
7d
8e
95
a7
d9
8b
dd
26
bf
d6
39
7d
90
5b
a2
a4
ab
12
31
3e
ee
8d
61
54
ee
50
d2
cf
44
c1
45
68
8f
32
ce
26
eb
8b
a0
01
de
5a
5d
fd
6a
07
15
32
1c
65
f3
51
94
8d
c2
cc
65
bb
6f
07
20
12
23
87
fc
ec
c8
bb
53
e9
7c
9f
ff
77
48
23
09
45
0a
a2
4e
3c
d1
54
4d
c7
7e
10
c3
62
0f
d3
01
0a
2d
b2
cd
6f
56
f8
d4
50
31
6f
37
ee
38
3f
9b
96
83
a5
99
4c
41
b8
8c
fb
91
dc
34
ff
f8
f5
1c
8d
29
03
32
6a
9c
d1
45
c4
fb
1a
af
49
2d
fe
d0
36
3c
a2
89
7c
c2
01
1c
e0
95
22
0e
3d
f8
34
03
e1
fe
cf
93
71
e5
5b
5e
be
4d
0b
36
ee
1f
bf
a7
c1
5e
57
22
b8
17
42
18
ea
d5
3c
9f
aa
ea
c1
57
9e
35
f9
28
a5
70
81
b1
03
03
a4
a4
cc
39
b3
f8
2b
ed
8b
e9
30
39
de
4b
ce
29
de
b1
1c
94
db
33
c2
51
13
94
f1
16
65
e4
7b
d0
75
cd
8f
1f
f8
39
e6
33
7a
ff
28
c1
57
1f
a2
aa
b2
24
f2
e0
fb
10
dc
ec
06
89
9a
05
df
3b
92
e2
0d
f4
d2
ca
81
45
52
bd
c2
b0
0b
d9
b5
64
7e
cf
be
42
06
37
f1
e1
b5
2e
f7
d2
fc
63
e6
a4
a1
4e
08
f7
5c
1f
06
4b
12
bc
7b
e2
62
31
60
ad
ac
b0
39
38
1e
52
ef
4e
5c
8d
e8
d3
1f
77
05
ff
2c
5a
55
66
dd
88
65
7c
23
8f
48
10
32
8a
c0
7e
38
7a
12
61
ff
bf
91
7d
38
9d
23
99
8e
af
2a
55
c1
d7
93
95
1c
2d
df
ff
80
a8
47
e9
dd
e6
0f
6a
94
23
8f
53
f0
d0
5d
2b
5f
cf
e5
77
c9
98
37
14
ff
4e
96
5d
3d
dc
c0
c1
a3
5f
37
f4
98
4a
54
21
b1
5f
64
a5
54
23
bc
1d
4f
a7
b6
70
d9
1e
0a
e2
6d
29
92
7a
d8
66
ee
d7
d5
59
4a
29
59
49
6a
33
99
34
a1
d2
b8
81
d3
d4
0f
5c
5c
24
70
f5
0d
3f
e9
fd
c2
1b
ac
90
77
29
ff
4b
5c
00
44
d8
95
74
f9
7a
b1
34
ed
98
79
ae
ac
d0
10
a0
ca
3c
91
5d
26
14
03
b6
16
99
8e
88
1f
d5
37
a4
c5
b7
e3
00
41
b6
ce
08
f6
d4
e4
05
3c
00
e4
5c
af
5d
7e
97
60
5f
0d
df
61
bf
49
43
a2
b4
c3
ff
1e
27
f0
f5
50
0b
ef
d5
6b
ae
3f
5f
5e
9e
01
f7
ae
ee
09
45
73
ce
05
5e
40
d9
85
37
41
0b
f4
a6
e3
a1
db
cc
44
6f
d3
3b
96
c3
b8
65
a3
4c
87
d0
01
79
22
39
f1
0c
f3
fa
53
26
ac
c0
da
87
7b
e8
bf
b3
0d
6e
a1
27
11
58
4e
0a
49
fe
83
ac
8e
8b
b9
de
6b
1a
44
ae
ec
23
1c
f0
5b
e6
39
df
21
cd
7c
ab
12
52
ba
07
d6
0d
e2
d2
bb
4a
8e
c9
34
cc
dd
03
0f
01
ea
ad
6e
2f
d6
33
04
ab
ae
72
3e
d1
c5
c5
57
a2
38
03
30
ff
ae
63
ea
ff
fd
2b
33
3c
f6
dd
b3
1d
41
7e
99
f1
c7
fb
dd
f4
f7
18
b4
f8
fe
74
87
5a
b7
89
f6
62
f7
e2
8d
a5
62
2a
67
e2
d5
7d
c0
df
88
8c
44
1a
88
6e
c9
01
bf
45
f4
47
7f
47
e2
66
47
b6
e6
dd
f0
9e
0e
a8
de
de
ae
b2
e5
87
17
fc
34
a7
94
0f
50
cc
e3
a9
73
fe
5c
60
40
a4
32
ec
b7
61
fd
cb
61
71
ed
47
82
65
31
62
5a
37
f2
28
26
34
07
1e
f7
0b
e1
aa
34
fa
61
5b
b3
67
af
3f
38
aa
97
32
e3
ee
1b
20
09
84
21
01
0e
74
75
ab
ea
0a
39
62
9a
08
e4
9f
7d
d5
b1
01
da
47
9a
52
15
fc
3c
57
ef
ee
08
d0
e6
01
ea
a8
b8
88
58
07
ce
6f
ae
22
7f
35
30
e6
0a
76
4b
96
2d
60
1b
63
56
df
e2
70
a6
5c
ec
55
4f
41
d4
57
65
f2
43
15
7e
0d
e3
ad
55
dc
b6
75
e3
26
82
de
71
c3
c0
78
28
26
47
2a
b9
87
af
b7
ea
01
54
f0
b3
c2
c7
d7
6c
fb
dd
4c
d1
b7
50
f5
85
d2
1c
4b
0b
f8
ff
ad
d2
d7
31
99
3b
2d
e5
0e
5c
0c
86
67
7a
b8
58
65
4a
c1
f5
24
f9
9a
3e
23
a1
a4
e1
72
63
72
22
3a
c1
bf
84
b3
ad
83
82
f7
15
b6
4b
e2
d8
86
e2
cd
ff
45
01
87
97
23
df
3a
72
46
00
9f
c7
f4
95
05
97
f8
12
d6
98
33
37
53
9d
00
d1
b8
4d
2b
b8
29
53
a8
bf
0c
3c
dc
d0
95
c6
c1
01
99
a3
69
91
e2
49
25
37
e1
6f
9c
8c
b3
53
4c
a6
7b
84
a7
39
ea
82
d1
0b
e7
14
2b
b2
84
d1
01
e1
47
d5
b0
63
2e
00
f5
31
40
f7
0f
8d
ef
be
3f
19
dc
37
d6
d0
08
05
d5
a6
e1
f1
61
cc
21
9a
7e
59
01
b2
e6
db
16
2b
59
50
7c
23
0c
89
e3
45
f3
a7
f5
1a
d6
2d
fe
50
fb
84
e0
9c
12
a6
8f
69
03
ec
dc
54
b7
55
fd
c5
eb
3c
8e
f3
9c
ea
5b
eb
e6
df
78
ff
3c
4c
ce
03
4a
e3
99
f4
aa
83
ee
ee
34
bf
23
ed
67
20
72
cf
c1
fc
b2
e0
80
db
4e
29
8b
4a
71
50
ce
e0
db
da
6f
e9
53
cb
9c
96
83
76
4b
98
d4
8a
fe
7d
53
28
ef
b3
a4
38
9e
a6
95
a4
2c
71
19
0f
d9
f5
f1
7b
9a
ff
e6
dc
39
7e
9b
ff
c6
cc
a5
4b
5a
33
fe
09
82
24
8b
c3
cf
c8
24
41
9e
cb
3b
76
be
52
7c
3e
0c
7b
d8
6e
67
c8
a9
76
79
cc
03
47
14
10
9f
aa
24
0e
8d
95
84
cd
f3
c5
b4
f1
63
7f
76
c6
89
1a
50
ff
b5
fb
83
20
90
15
a5
5d
10
53
ad
89
4d
1a
a0
bc
48
f3
d6
fe
1a
8b
56
16
fe
e4
3c
2f
8e
15
31
0e
e6
93
5c
ab
64
2b
40
eb
eb
73
01
fe
b7
c5
38
14
9e
22
f2
f8
b1
d2
6e
7f
2d
f0
78
d8
c7
88
78
f8
dc
87
77
95
46
d2
de
e7
25
8d
d1
40
18
ca
f8
a9
b2
41
a0
ef
dd
03
ea
0e
9e
c3
31
1e
20
93
e8
50
68
b0
20
8d
e2
1f
e4
f2
c7
51
0b
b2
fd
4b
dc
e4
24
84
9e
22
89
80
83
9d
79
72
07
20
1e
19
04
23
ed
c0
2a
a3
3c
7c
e8
d7
dc
d8
ff
fa
be
8a
80
1e
ca
d4
01
7f
a5
66
46
19
88
48
df
7d
3e
35
6b
4a
d5
9a
a8
4d
b8
93
76
88
ee
ff
e3
46
a0
91
96
2b
3a
ab
6d
41
fa
57
28
f7
43
70
fd
fb
14
cb
86
a7
1a
f8
8d
9f
af
9e
cf
09
c1
87
9c
4a
1c
ef
ba
ec
14
8a
f7
45
4c
4e
ce
d1
0a
7e
bb
5a
c6
b7
4d
25
94
09
85
7d
ee
4d
ec
45
e3
21
8d
5c
4d
89
89
98
c0
5a
97
df
21
62
07
0d
fe
ac
10
51
49
6c
8c
ff
cd
04
d1
eb
36
cd
6e
cd
4f
36
8f
e6
06
f6
70
e4
67
54
d3
27
91
88
d3
02
26
bc
97
66
74
3f
7f
39
40
e8
e9
90
7b
d9
45
c7
47
0e
0c
54
ec
83
01
21
0f
db
f7
01
3f
36
a2
61
b1
b0
10
2e
80
d7
61
35
f2
26
f0
01
cb
dd
c3
f0
cc
2f
4e
f9
c8
f3
62
9c
5c
ed
57
a9
d8
cf
9a
8e
5b
23
28
be
35
2f
3a
fc
55
b7
64
14
3b
b8
ac
c4
91
54
50
79
b5
51
f0
d3
09
9c
81
c4
b8
62
eb
0e
2e
c8
0f
8d
06
aa
78
58
27
48
ab
3d
bf
67
42
a6
a2
12
ee
f7
ab
31
bd
e0
5a
0b
39
ff
34
55
bc
89
5f
77
ed
d8
33
90
8f
1a
3a
aa
45
6f
2b
4b
33
27
c1
53
7d
b8
18
da
64
27
ff
b6
32
1e
f6
bf
a6
ac
4a
1a
2c
6d
95
e2
ed
f4
8b
17
ad
c3
02
09
01
19
c3
64
5c
2a
89
a1
2b
e2
db
1d
5c
88
49
8b
54
22
05
aa
83
63
20
30
7b
f7
9a
79
d3
65
50
cd
de
c8
e5
7e
ff
d5
f0
d0
a1
9d
be
fd
e7
07
18
b1
d6
58
b4
e8
68
1e
39
ac
98
fa
26
8c
82
70
44
2a
e6
eb
06
92
2c
59
55
df
99
4e
22
7e
32
e0
0f
2b
5b
1a
aa
99
f6
8c
bd
cf
6c
00
21
16
a5
b1
9a
ff
c0
d9
86
11
d7
81
b5
00
77
83
0f
ff
f1
70
51
29
90
e8
82
26
9d
8c
f7
47
99
9c
01
e5
e6
3a
55
8f
b0
43
fc
b7
b5
e7
f2
11
05
8b
6b
5c
93
b1
ff
09
13
4d
02
7e
03
24
7d
e6
0c
b2
d6
c7
c8
ff
1c
7b
0b
22
75
85
ab
3e
22
fa
df
82
dc
b6
75
64
2f
5e
f8
61
82
cb
88
b3
2a
06
a4
59
53
65
f2
53
e0
9e
f7
58
ca
fd
6e
08
e0
4e
c1
05
ba
df
c7
a2
4f
1e
1d
eb
f0
39
0d
68
7c
e7
d1
09
5c
3d
12
3e
2a
ee
d2
23
47
e8
2b
59
fe
b5
43
bc
8c
d4
8a
bf
be
43
f4
ee
e9
76
ff
23
e6
ab
e3
f7
78
fb
fe
42
c8
7a
69
2e
d2
f2
88
57
f6
32
d5
7f
5b
d2
8f
7e
34
db
04
e5
3e
04
13
45
c4
c3
37
a0
f7
9f
9c
d4
dd
d4
ee
f2
0b
e0
f1
1d
04
00
99
e6
d8
21
c0
89
65
22
ec
09
4d
4d
3b
04
15
8e
3b
ed
28
85
90
d2
17
ff
25
07
e0
f9
c1
98
de
21
ec
f2
79
d5
2d
2c
fe
81
5c
02
06
fb
44
b4
33
f1
36
53
95
1a
65
f6
90
0e
bc
71
a0
2c
6b
49
19
30
09
57
8b
59
77
36
87
10
41
46
7f
04
e8
b0
99
b7
77
ca
c5
26
44
15
4f
b1
30
7c
ab
b0
23
97
b1
d9
cb
d7
09
1f
09
e0
7d
7e
b3
ff
3a
7a
91
e1
43
af
1c
c2
aa
64
ea
9a
22
29
cf
ea
ff
fa
9a
2c
3c
6d
42
59
47
0a
77
a5
1c
2f
22
98
bc
be
d4
a0
90
e0
74
3f
e5
bd
fa
cb
72
9c
77
77
75
f2
98
51
43
b9
3a
bb
6e
e6
00
3b
43
8b
a6
56
58
96
b8
57
ed
e1
0c
7c
f6
22
a6
24
a2
d0
04
72
69
a7
8a
49
f1
c0
f6
3c
7c
fe
76
05
01
20
05
2a
a0
b5
bf
75
ba
91
11
de
1d
95
19
f7
0a
4a
d0
26
f5
0b
cd
35
96
c7
4e
1d
6a
39
c2
ff
b8
58
04
5f
e6
0c
60
72
b4
3e
96
4e
74
21
96
94
7c
c6
39
1e
79
41
92
7d
f2
24
74
70
51
e9
7c
f7
62
4d
85
be
01
c0
95
8d
f5
66
89
b0
1f
3c
0a
49
58
41
4d
fb
dd
f1
e0
a6
48
bb
32
c7
59
ae
cc
f3
eb
bb
e7
ac
06
5a
16
37
36
ae
95
ac
96
a2
92
80
f5
f5
6a
d1
ed
72
3e
8a
71
01
dc
ff
e1
10
bc
40
d4
aa
aa
fe
23
d1
dd
a9
de
3e
82
c9
4b
a1
79
03
c7
64
45
f6
89
ed
96
d6
fe
18
96
2b
3c
a9
23
d8
2f
2a
06
59
3d
42
a9
4f
c3
0c
a7
69
26
06
67
df
9f
50
d6
24
46
ac
d0
36
37
b0
55
96
41
70
45
f5
9b
d8
62
9a
9a
89
fc
09
17
7b
ee
01
cf
b7
30
72
c9
80
20
0c
0b
27
fd
bd
39
a2
9e
a7
d7
8f
5b
dd
eb
89
0a
cf
6d
15
bd
0a
a9
af
33
99
23
0f
10
86
21
37
5a
01
42
ce
16
0a
7a
e3
28
f3
0f
94
8c
c1
0f
16
b8
12
d6
33
d4
e1
98
1e
4e
e7
15
e3
f3
86
1e
e7
f6
58
6c
b5
a8
e3
6b
d0
76
09
ca
2b
1c
7f
c0
39
2e
a3
ef
59
c9
5b
80
0d
13
9c
d4
50
1e
01
69
6f
d5
dd
01
fd
bc
9b
99
f9
13
90
b4
7c
36
f0
c8
6b
bc
10
bf
e5
6d
5a
0c
a8
22
85
be
50
22
e1
36
fc
2c
bd
81
d2
fc
4e
a6
19
82
96
26
6c
94
89
73
b9
e4
fa
38
12
3c
2f
d9
5b
1d
a7
e5
6c
3d
b6
b1
c3
bd
8d
8f
86
bb
dd
e5
3e
10
d4
9e
15
56
c4
2b
f9
fa
68
a3
b5
71
35
af
5f
b2
5b
ff
87
16
98
e4
92
b0
ca
44
6f
51
4d
a4
d0
c6
8e
03
d8
ed
d3
30
48
63
18
36
81
bc
35
3b
63
b0
11
97
59
0d
72
c2
22
8c
d4
a6
75
d9
d0
da
02
40
ab
fe
b8
23
bc
07
19
00
24
d2
c2
16
36
e1
14
f9
10
c8
8d
23
cf
a6
b8
0d
da
74
ff
ae
22
5f
cf
da
1a
be
cf
63
ef
41
40
b7
c3
76
7b
f2
46
a2
67
f1
20
25
85
1d
df
59
7d
63
61
b4
09
85
e2
94
77
01
1d
e7
83
80
09
25
a7
c6
65
64
60
01
38
8b
05
a9
66
40
30
20
e7
63
07
7c
ce
d1
74
af
6c
4e
29
af
f8
45
00
43
9c
af
6a
2e
a7
9b
d7
0c
2b
c7
5c
1e
80
b8
7b
07
8e
d0
b6
4b
19
2b
81
28
54
28
42
9a
36
97
bd
fa
8f
94
f8
f5
c7
48
0c
d5
50
63
23
fb
76
de
01
62
00
59
0f
85
ed
18
37
e9
09
15
04
43
5a
74
cd
f4
c3
9d
de
a3
31
58
d4
16
b4
82
c5
52
40
04
c9
8f
ce
ff
28
6d
6b
2b
e3
75
cf
e0
18
30
f4
39
f1
a8
88
1c
b8
69
15
23
60
18
ed
17
61
f1
98
59
62
1f
0a
44
c3
bb
f3
e6
11
ad
b2
f0
2f
26
13
f6
10
63
33
f4
4e
fe
e3
56
9d
ad
6e
27
69
e3
9d
14
b0
1e
f7
d9
af
5a
7c
ec
a6
68
50
da
a2
bc
18
b9
86
76
73
11
47
e1
ab
30
7d
08
d9
0a
54
d4
19
85
c6
ef
cb
c9
1b
01
30
91
01
07
92
91
6b
d5
94
11
67
c3
28
90
37
df
e1
d6
4f
e7
3e
dc
0c
fe
6c
34
86
57
24
03
c4
1a
ff
4b
78
28
93
54
86
2c
c3
e6
03
49
f4
05
41
63
56
55
e7
f7
88
7f
c5
d6
54
b3
03
81
2b
ee
7e
f9
39
eb
a5
73
68
c0
15
01
09
43
b0
45
44
20
03
43
a5
44
8b
6e
a6
84
1c
f0
b7
e6
b9
bd
b8
a3
28
8a
a7
11
f7
bd
49
41
f4
01
17
8c
52
06
00
95
27
1d
24
cc
ee
98
fe
e9
f0
39
e8
0c
a2
bb
b2
61
aa
99
01
fd
5e
48
15
5a
e5
eb
c8
f4
c6
02
b0
cb
af
05
68
e9
e3
de
2f
df
fe
1f
d6
b2
38
0a
73
ce
2c
0c
4e
bf
0c
4e
2d
32
bb
07
e1
13
cc
a9
8a
25
70
72
51
d0
eb
20
ce
b6
30
ba
cc
70
49
ae
dc
f0
60
03
54
95
38
5c
a9
c9
c9
3f
b3
e3
59
01
76
1f
08
1e
0d
04
88
d5
ce
d9
03
6a
95
9b
bf
42
0a
6f
9e
df
09
c2
c3
14
f7
ce
07
2c
b6
0e
d6
10
01
98
b5
1f
75
e2
3d
b9
6c
66
59
5b
0b
c9
67
8c
33
f4
e9
1e
5d
89
40
2e
2a
96
89
96
e2
db
be
18
d6
60
0d
81
5e
14
3c
52
1a
00
22
de
cf
d2
8f
88
ac
64
15
db
46
2e
22
e2
4c
ff
7b
a6
52
5c
3c
d1
86
32
0e
83
d2
da
68
dc
23
c3
49
65
a8
35
53
00
94
e3
a0
0b
17
72
19
b7
e8
7e
05
90
9b
74
86
b5
c9
af
f6
91
a5
14
81
96
f6
02
59
ee
ca
70
e0
e4
b3
48
36
15
68
bf
58
54
cd
fe
fd
0a
69
44
ef
2b
e9
da
13
27
66
9e
43
df
cd
e7
22
46
64
91
01
36
a1
ba
f8
22
ea
03
e2
5f
7b
30
9d
f8
eb
81
eb
bc
c8
95
db
80
cb
77
a9
a5
90
92
6a
3e
7d
71
11
f4
ca
f1
52
8d
94
d4
25
47
c5
94
8d
1e
fc
9f
4f
d9
e9
c1
63
7f
e2
fb
39
52
5c
e0
e6
25
f9
9c
cb
e7
7f
dc
84
31
34
98
e1
0e
c4
2e
06
b5
97
83
25
bc
9e
24
01
06
c6
e7
50
d7
d2
89
45
3f
25
bb
09
0a
fb
30
83
fa
f0
b7
2b
2e
0e
ff
32
aa
02
c7
2f
55
d0
d9
a0
2b
ac
8c
3f
0d
9e
09
d5
1f
00
ac
7a
92
ce
5d
7a
c5
ec
27
ab
1b
18
e6
75
75
d1
30
87
5a
fd
f2
63
a3
41
07
b7
f6
21
6e
4b
c5
06
13
4f
f4
9f
15
4b
1e
92
e6
ff
45
bb
fb
11
b1
d4
d7
8e
7f
bc
20
18
2a
20
a6
c6
79
c7
14
bd
0d
a0
a6
4e
8b
09
87
f2
aa
14
e3
8c
2d
e6
24
56
a4
b3
c8
c1
45
5f
20
1e
d0
fa
fd
d8
a7
fa
db
5c
51
2e
bf
0b
3b
d4
fc
e4
59
29
68
fc
05
2c
f0
01
90
57
16
0d
43
e9
d6
71
47
a3
7b
30
ca
36
99
5f
79
ae
f8
b7
29
b8
6e
4a
fd
05
64
6d
52
f9
10
7c
5d
01
9c
90
ad
e7
1d
35
1d
67
47
bb
a7
79
87
5a
37
19
e4
4e
e8
34
97
9e
d2
db
5e
b9
25
bd
a1
0f
56
b6
d5
b5
3d
84
4f
84
37
ec
5c
8b
83
58
cc
e3
59
1b
86
3f
1d
0b
b5
8e
01
33
1a
87
33
d1
8b
8a
03
c0
dd
c0
21
eb
a7
26
f9
9c
11
06
1c
d1
ee
7e
05
95
58
ab
20
32
d2
d8
24
da
ff
52
0b
6b
b2
f3
5f
96
8c
da
7d
c0
bb
fa
e8
e2
d3
56
dc
1d
33
56
15
bc
f2
81
0c
ca
2e
21
77
ee
87
98
31
1c
e8
02
26
de
25
b7
eb
d0
e1
6a
f2
a4
5a
73
60
d5
fa
58
2f
9d
47
bb
86
c0
95
df
a9
e4
d9
1e
65
71
a3
4a
07
45
31
ff
d8
f4
da
57
0b
fb
25
b2
00
8e
de
e5
5d
43
91
4e
3f
ab
c0
35
36
f1
75
ee
fb
2d
a6
90
bc
e2
f3
73
39
59
ee
b0
90
e1
31
9d
12
be
12
ae
ec
36
89
54
23
56
3b
e7
ff
59
e0
3a
10
16
b8
64
e2
46
ff
07
ad
2c
06
02
ad
1e
79
95
d6
01
f5
6e
09
15
0a
d5
e0
75
19
d9
fa
eb
44
ca
47
13
9c
e3
65
1a
3b
55
9f
9b
db
70
cb
52
ef
6f
23
66
b5
12
dc
70
5b
5a
29
24
64
33
c2
c5
c0
d4
29
e6
be
d0
8b
11
cf
f2
59
a1
0d
c3
b2
b5
de
51
6a
09
11
58
fb
5c
00
bc
9c
a8
5e
fe
e8
5b
90
01
b3
bf
4e
79
0a
ca
92
7e
5d
b7
47
29
e6
a1
f7
fd
dc
b4
c2
dc
77
23
6a
2d
4c
68
c6
38
ed
f6
90
2f
34
ae
06
60
be
0e
52
f5
e0
38
2d
6c
93
ff
49
e0
18
ff
23
21
cc
26
04
50
6a
c6
3a
c8
4c
17
68
9a
f9
46
52
e5
7c
9d
89
a6
2e
dc
b1
ff
61
66
40
40
51
04
ef
05
47
6f
0b
78
19
68
59
93
d5
28
c8
db
05
1a
60
0f
e9
7c
f2
6d
1f
2c
5f
98
8d
2c
76
1f
11
65
4c
6b
4a
d2
ee
44
94
3d
22
d9
72
dc
8d
11
dc
c2
de
92
be
04
65
af
d0
e1
41
ec
7e
46
4b
83
ff
12
cb
b7
28
47
74
ff
14
7f
50
a3
3f
40
51
67
40
1f
83
c3
ef
ba
e5
90
84
db
1f
c0
66
22
e7
68
08
e9
79
a3
98
9a
3e
b0
16
e1
46
2e
5a
6e
1c
14
20
80
09
e4
bb
ab
c0
2c
2a
df
d0
c2
ce
2e
3e
19
cc
73
5e
68
c4
c9
9b
6b
58
c0
c2
aa
a5
30
6c
2f
16
20
bd
ba
50
b5
40
06
26
bc
a1
6b
f0
00
9e
74
71
c6
f4
0e
30
af
1f
26
b3
01
c1
7b
3b
4c
9f
74
24
ca
19
3f
17
95
34
bd
93
53
54
d9
b6
bf
8f
d6
08
78
5e
39
34
86
1c
ff
27
01
13
b9
49
67
18
0b
27
58
b2
d0
17
38
f6
57
d3
a4
29
ca
3a
15
53
cc
1f
0b
70
0f
df
f8
ca
c9
bc
13
c6
d6
ff
00
1b
2e
0c
41
e8
32
16
29
4d
d8
bf
45
d3
b0
c0
e8
0c
06
18
af
2b
f7
c3
1a
20
73
4b
ea
f0
55
90
8b
b1
a8
dd
f3
3e
fd
9f
e6
6d
f5
6a
ba
ff
7e
da
96
a3
33
30
c9
26
76
34
a9
50
cf
3f
f3
47
25
ee
8d
36
2a
15
b4
8b
84
8e
57
56
a3
cd
45
ad
7f
d1
b8
49
d2
f7
28
c8
9f
cf
2e
dd
e7
89
3e
36
20
d5
47
66
54
ec
5e
1a
e8
27
32
fe
00
ca
21
87
cb
2e
a7
19
c1
0a
db
80
3e
83
fa
f6
a7
de
b8
95
4f
36
32
ff
28
e1
cf
e9
bd
0e
78
89
5f
38
bf
02
f5
ba
df
fa
fa
b0
67
2e
22
4a
fe
3c
c6
6d
b6
13
0e
c6
29
8a
b7
91
d4
33
41
5a
b3
81
3f
5d
e5
2c
fe
6f
bf
70
3f
83
af
28
c5
fd
84
f8
d8
2a
be
b6
5b
d8
79
65
0c
06
00
85
1a
9b
bc
e0
7f
dc
09
d0
ff
cb
f3
c4
33
50
2b
01
46
6d
da
29
0b
11
00
f7
db
10
04
84
31
24
55
1d
f5
8f
ad
0b
e0
55
2b
27
39
b7
7c
70
79
bf
42
13
69
60
04
0b
39
95
62
4b
9a
61
49
10
5e
f3
f1
cd
11
b2
18
7f
19
1e
01
01
e6
76
f5
ec
8a
0c
47
34
ff
a9
c8
1e
e1
50
64
c0
54
05
36
c5
fc
04
69
f8
1d
72
d3
ea
61
b5
3b
ed
f9
a0
ce
25
4e
58
d0
28
35
e4
c3
fa
09
71
48
f1
8a
48
e6
18
60
c9
86
c7
45
02
54
07
d4
8c
49
f5
a4
4a
99
70
7a
a8
9b
f1
9a
39
2c
63
77
e1
c0
04
5c
87
3d
b9
1c
a6
7e
71
fc
d0
db
3e
80
48
6c
b6
81
16
96
13
cb
83
fe
6a
c9
39
74
a9
ac
13
0d
36
bf
0e
d4
ff
9f
2a
14
bc
28
91
d9
4b
34
8a
0e
c8
4f
20
54
cb
8d
f7
35
d0
c5
79
4c
12
5f
39
1f
c1
37
29
8f
6e
45
e8
ed
02
e8
fe
8d
c2
7b
38
05
cd
c6
f6
a5
a6
d7
01
3d
b3
6c
ff
12
20
ad
9d
8a
ff
fe
18
cd
28
76
ea
ae
db
f9
31
da
46
5f
a5
7d
c1
cc
7c
54
84
c4
e3
4c
84
ab
b4
61
db
78
06
cd
f2
63
2e
0b
dc
3a
37
17
1e
91
96
90
86
c1
ac
52
43
0f
94
21
e3
8e
4f
89
58
3d
84
ab
91
01
38
26
ee
ae
df
3b
0a
71
e8
65
f3
17
87
49
f3
d6
81
09
a0
20
e6
ec
2f
ee
e5
69
b2
e7
13
34
d5
2a
01
66
d7
48
d5
39
15
9b
48
9f
ef
e9
fc
fd
1c
d0
1a
07
2a
a0
c4
ca
70
e3
c0
e0
c0
c7
19
92
a8
28
30
d0
04
31
ed
17
7e
09
a1
6b
e7
73
ec
5e
e6
42
85
ed
29
7c
e7
16
ec
4b
d0
03
38
b4
a4
9f
0b
e6
66
99
8f
c4
9c
1e
8f
7e
e6
2a
23
30
1e
c3
c8
b2
ef
05
d6
52
65
6f
07
28
75
ea
7a
0b
9e
6c
62
3c
35
05
d3
04
b2
f3
4a
a5
7d
a5
01
75
33
d4
ee
2c
11
dd
ca
ee
33
47
3d
19
1a
23
91
72
84
9e
d4
09
58
ea
0b
f7
e1
9b
ab
d4
7b
5d
b8
14
01
32
5e
61
ac
e8
c8
5b
56
d3
76
4c
15
c1
92
10
0d
65
c8
62
d1
b4
08
f9
a6
2e
c5
c6
ca
93
7a
8d
3b
d8
6c
78
f1
3d
1f
9a
6f
20
ed
33
bb
b5
eb
79
b3
93
62
11
00
de
47
10
ef
02
db
d2
b4
d1
ab
75
10
37
04
78
96
bd
84
d5
a3
37
d9
dc
a8
76
7b
01
e9
66
33
61
66
d4
c6
06
ee
98
5d
d9
96
10
36
0a
ce
85
87
fe
35
e4
e7
94
a3
9b
6a
de
65
df
06
6e
69
88
60
39
93
8c
c5
d5
4b
9f
85
69
e4
3d
d2
2e
57
b6
3b
0c
f3
10
33
b2
46
ad
58
22
01
b5
59
ef
01
20
5f
ba
0b
8b
80
4d
2d
70
45
e8
8f
ba
df
3e
1a
47
ab
a9
2a
a4
e9
d6
87
f3
a4
82
8f
bf
b0
88
24
ee
ad
13
1c
70
f9
94
e1
13
b9
ec
25
94
ea
c3
d4
2e
6b
fb
01
04
89
7f
b6
22
be
c6
5a
52
5c
4c
82
32
d0
47
4c
54
7e
2f
6c
cb
de
64
67
83
81
22
4c
5b
6f
9e
1c
d4
98
53
5d
f6
4b
f1
e7
7e
0d
75
a0
7f
2f
dc
db
7a
d2
a2
54
97
1a
69
24
e0
24
3b
1a
f9
f4
d4
76
98
30
aa
a1
1f
2d
c5
d0
8b
08
24
99
b6
92
0a
0a
6c
47
25
10
93
9f
f7
7f
9f
ff
5e
14
02
ec
fc
ec
35
75
87
59
e1
b7
2b
1f
98
48
cc
60
7d
12
f6
99
c9
ed
84
46
20
8b
71
74
59
27
2c
46
04
1a
d1
99
6d
f2
a4
9d
c1
df
08
71
1f
33
02
89
5e
fb
8d
de
ef
b9
55
67
d6
fd
cb
76
cc
47
e1
02
b9
65
26
ba
39
aa
59
c0
d9
29
a8
01
1a
45
3f
cb
3a
b4
3d
f3
be
c7
27
4b
ca
c1
44
04
50
f3
10
43
5c
99
d4
ac
13
01
2c
f6
1d
0c
e2
7d
1f
ec
f9
64
6b
63
99
15
07
68
cd
b6
1f
a3
90
a2
96
10
9b
0c
b6
2a
8c
22
d4
22
e1
34
c0
db
73
0e
4a
22
ef
16
f7
7b
11
dc
47
5c
23
d0
6a
2b
1d
c1
e4
84
ec
ad
de
d9
3d
2e
4a
96
a6
9c
21
2c
6c
c0
5c
54
24
fe
c0
4b
01
fb
59
88
72
2d
04
14
1b
51
6c
43
ed
d6
26
1d
bb
37
92
7a
d7
6f
f5
7a
46
3f
0d
f1
e8
12
ca
02
49
73
6a
b9
bd
9d
84
13
a6
cd
a8
84
cb
68
20
05
8c
93
ff
97
7c
a8
14
6b
4a
bd
27
fa
c2
2c
94
4a
b4
22
35
dd
54
22
5e
20
77
4a
40
33
f2
16
c1
44
b4
1f
7e
9b
9f
f4
14
41
2d
12
41
f6
c3
d2
b4
c8
3a
10
d1
99
b6
a2
0f
a0
37
ec
b4
9c
af
ad
50
01
3e
75
e0
09
50
89
32
65
32
72
d0
9f
78
c6
91
bd
b6
f7
9f
a5
24
54
26
3c
da
4a
cf
c8
a5
c9
c6
5f
e2
73
c3
7d
a3
56
99
cf
51
9f
64
0f
9a
41
b1
d4
c4
3b
4a
ee
60
88
0c
fa
4c
dd
d7
d9
5f
1e
3f
68
1a
37
d9
15
c5
52
e0
2f
85
7b
63
2e
64
c3
48
e9
60
dd
4f
59
27
10
10
33
51
ec
ab
08
7e
20
c5
56
a7
01
1e
a3
93
21
4e
eb
98
cb
da
d6
f2
20
ef
4b
b1
3a
ec
82
47
3d
82
ac
3f
13
9f
65
d7
ff
39
4e
37
b7
3e
cf
30
f3
88
82
e5
6b
b0
4c
97
19
e5
5f
a7
10
59
cf
5c
ec
68
3e
da
7d
c8
0a
a0
75
b1
52
53
9b
38
b2
df
99
14
39
f0
be
ab
3e
fd
ff
bc
cd
6c
aa
19
68
bf
6a
2c
a5
14
a8
37
bc
f9
4a
c4
83
30
ce
1a
3e
f5
36
6f
e9
98
f7
82
8f
56
db
92
48
bf
24
5c
ac
34
e1
d7
ab
24
d9
3e
aa
4d
a5
20
4a
bc
27
a6
2c
90
44
6e
a0
d8
d8
f5
56
aa
20
5b
8c
d3
27
88
da
16
be
fc
e7
ae
0e
93
b6
0d
8d
ae
97
25
4c
ae
32
e8
0f
01
2a
39
cb
7f
10
9b
b7
6b
e2
d0
30
c7
5c
a3
b3
b4
b6
1e
60
1a
fd
f4
0a
08
e7
65
68
32
c0
98
7a
b0
f6
ce
d7
0b
b8
a9
e3
c6
aa
b9
2f
c1
dd
ba
67
7b
57
fc
79
fd
39
d9
1c
ab
90
75
be
ee
72
b9
fc
9e
2a
a6
98
fd
8a
39
b2
34
22
a6
cf
be
ba
0b
01
ce
13
fe
26
72
c9
a6
10
45
81
6d
ef
5c
7a
1a
eb
3c
5e
6b
37
97
be
fe
50
fd
60
0e
fc
2a
2a
b0
fe
95
ee
d1
43
e5
ae
a8
74
5c
2d
7b
e3
83
10
72
f2
fc
5b
14
18
46
2e
97
65
e8
01
dc
6b
79
c4
4e
0d
fe
78
71
25
7e
e5
ef
8a
e6
dd
0b
58
c1
65
fa
06
38
31
55
02
f8
3a
47
d3
a4
b4
86
f2
e0
f0
be
74
e0
ec
9d
f4
be
96
e5
f4
cf
6f
1c
d3
90
11
dd
1a
d2
9b
29
76
45
e5
89
63
9a
01
1d
a5
2e
36
a7
15
84
13
a9
a8
99
f4
36
3b
a9
22
ef
19
9a
e7
d6
33
a4
9f
c5
d4
58
97
53
b0
ed
9d
43
d1
98
db
22
10
a4
d5
2c
e1
cd
f5
e8
dd
a7
e8
e4
31
b8
5e
08
89
f4
32
01
fa
e6
f5
a0
36
bb
1d
1e
cb
ff
02
2a
f8
67
d2
1b
51
0a
c1
24
4a
d0
ed
06
b8
ea
fd
35
5d
f9
42
f6
ee
15
dd
9d
a6
04
d7
c8
72
8d
68
2a
0b
b3
47
70
cd
d6
c9
fc
52
9f
74
30
6c
01
df
80
39
aa
f9
cc
c8
2b
ab
e0
3e
eb
cb
d4
2c
bd
de
d4
82
61
5c
9a
ef
f4
e8
cf
9b
37
93
14
1f
f9
3a
8c
dc
c0
06
dc
e9
05
20
07
7e
73
c9
fe
36
a3
d5
3f
fb
c2
07
cf
48
28
ea
5b
c5
80
05
ff
61
d3
f2
ce
fa
13
ab
88
f5
b8
95
a0
15
6d
35
a6
0d
8f
9c
a2
b1
eb
db
ca
05
69
13
6c
90
cc
ae
30
1d
29
00
08
02
c2
37
ec
1d
fd
0d
19
4e
73
07
bd
c9
98
e0
36
ac
21
18
f5
09
b9
29
bd
7c
4a
64
74
5e
d6
61
a5
00
ff
cf
da
f4
d5
29
2a
1c
97
df
76
85
fb
a5
50
9a
f0
a5
95
88
40
8d
da
5d
f1
b1
0f
f4
2e
01
02
1d
34
70
eb
ae
59
d0
38
3c
4d
02
9f
8a
22
0a
0f
e1
09
09
ee
15
08
35
2b
b0
1f
fd
4b
52
80
3e
0e
e1
cd
ba
66
22
84
00
90
ba
11
30
45
23
fa
e8
e9
b7
37
6a
46
22
41
60
57
01
01
b2
ea
e2
e4
a8
6e
72
41
95
fa
d6
f2
d4
12
fa
4a
5c
31
81
2f
73
8b
09
dc
32
7f
a3
53
13
4b
fb
e7
78
20
40
d1
fb
50
a7
87
af
74
d9
70
f7
f5
39
42
bd
57
36
75
35
20
ce
67
40
8e
c8
33
c6
96
18
8c
d2
1c
79
08
33
9e
75
0f
67
01
da
b8
29
30
8b
f0
ba
e5
25
c7
ad
a1
44
92
56
29
3a
16
72
23
71
02
88
99
fd
ff
95
f5
02
bf
e1
0e
3b
12
bd
26
f6
8b
fe
dd
19
25
9e
22
fc
29
22
88
e7
81
81
e1
f3
fe
3f
ae
c8
6f
b8
bd
64
83
e3
d0
99
88
48
c8
ef
5a
d7
c5
d1
29
e6
62
d3
9b
e0
5f
f1
80
e3
d2
63
80
19
f7
06
13
7b
04
ff
a9
5a
9c
85
c3
17
5c
77
c3
a8
3d
57
f2
74
a3
38
e7
71
0b
65
e8
4a
66
0f
22
aa
86
d1
05
41
95
d9
ae
0e
7b
7b
a0
b9
ee
b4
0a
a5
af
1f
cd
41
06
05
9b
32
6e
d3
08
49
66
ed
e0
bc
0d
f9
69
66
10
4f
3a
7d
43
ec
ff
03
9f
1e
ed
97
d3
72
c8
03
d5
f2
00
7b
04
2e
a4
77
42
2f
f9
87
e2
0a
02
9e
f7
e8
4b
0a
cb
0d
61
f2
3a
88
8a
b0
1c
70
5e
fb
4c
3b
5d
0a
63
e1
6e
5a
74
82
cd
7a
69
06
4f
b0
3a
fd
6d
ff
de
51
e4
c8
76
0d
54
76
c0
c1
44
4c
fe
38
c5
4e
4b
59
dd
ae
f8
20
33
2f
0b
e8
32
96
12
8e
12
5c
ec
ce
1e
df
f7
97
b4
59
0a
68
82
4b
7c
14
b7
38
c8
c1
59
a4
2e
0c
bc
97
79
15
e5
be
32
15
2c
f3
02
d7
d9
40
bd
07
bc
6b
c5
0e
01
02
a0
17
c6
5a
12
f0
d5
b2
9d
6f
96
7e
10
57
35
a7
82
71
23
93
f3
aa
08
13
b0
cb
80
be
87
1f
0f
b3
dc
72
ff
cf
e1
e0
33
12
1f
5b
a4
c2
fa
47
75
88
96
29
3e
de
67
49
91
a7
a9
f2
48
0a
d5
58
b8
f0
e2
fa
2d
e5
f8
ed
1e
75
9c
0c
69
2e
d5
c8
9b
3b
65
e8
be
58
d6
8c
d5
1d
cb
c2
e6
95
84
04
66
fe
c7
1d
20
01
2d
d9
53
8d
b3
4a
f8
0f
d6
60
76
7f
01
cb
5f
3d
0f
89
d3
45
01
ff
77
83
be
17
dc
c3
7a
85
97
c9
31
92
4f
e7
30
1d
85
1b
ae
51
25
fd
60
2a
19
cb
c3
f0
4f
df
f6
59
a9
dd
19
fa
5e
fa
4c
c6
eb
6d
48
b5
34
b4
2b
9e
15
17
14
1f
bc
43
40
32
be
7f
e2
da
be
af
10
1d
6a
31
bf
a3
e8
ff
60
7a
dc
e6
a9
a6
f0
8c
54
17
44
29
52
63
b3
0c
22
67
e4
91
69
c7
78
c2
ec
f3
b9
96
41
2a
bf
72
42
dd
cf
2c
d2
43
09
e7
78
ca
34
b8
d8
17
da
7a
6e
d1
1c
05
11
f1
54
f6
0b
7c
fe
85
bb
90
e8
0c
e0
22
32
51
5b
39
c8
e5
55
b7
ce
da
d8
85
84
ca
94
ff
58
a9
8b
ba
4d
31
6e
3b
1d
f0
8e
c3
0c
fd
1d
6e
37
f6
10
a3
7c
7b
c8
23
ef
97
e2
26
e2
92
b2
63
20
31
70
1b
4c
d7
e0
6c
09
52
ed
20
2d
68
a3
8d
64
8f
10
68
ba
0b
e6
95
01
fe
0d
29
10
5c
e5
22
a3
81
17
8d
f6
f1
ae
84
71
27
3d
10
a9
66
26
04
16
2b
ea
28
e0
b0
bd
db
96
6b
7b
d1
78
a4
e0
a0
f9
cc
de
59
d5
a0
ba
58
cc
d3
ff
52
64
83
15
63
94
cf
32
ca
5e
bf
b5
48
20
e5
e4
1c
80
c4
9c
f9
8a
54
c8
0e
b7
6f
eb
58
dd
d1
d1
54
b1
ed
92
de
11
64
06
30
a9
28
c3
ff
65
85
08
9e
d7
d2
19
3a
a2
c0
c6
33
82
24
df
cf
64
93
67
a9
74
51
36
6d
83
69
7d
14
db
0e
cb
e0
9e
27
05
04
9c
7f
56
38
bf
68
9c
fa
95
96
5b
45
4e
64
09
ca
bc
f7
db
5a
76
bf
7d
54
06
53
ec
ff
5f
55
fc
10
fa
34
d5
7f
a6
43
8b
96
55
c7
25
75
01
d0
d3
7f
b9
6c
7c
3d
b5
3c
4f
54
60
08
26
6f
50
d8
84
a4
20
2b
57
41
b6
95
c6
bf
ea
8d
80
e2
6c
32
83
72
5b
19
3c
3b
22
c2
91
80
e3
0c
57
72
47
a7
4e
79
9d
42
e1
f4
b5
d9
59
62
d6
e8
76
76
95
59
f3
5a
39
f7
5c
23
e4
12
20
ff
ff
10
ac
72
d1
f2
01
48
6f
51
d5
af
bb
2e
43
c4
f0
c2
16
66
1b
1c
66
ef
4a
c1
96
60
7e
93
78
44
22
4d
42
f1
0b
02
e1
73
ca
4e
4d
f6
8a
78
47
01
9b
72
70
e9
49
c2
3e
dc
f0
5b
59
9d
a8
c8
b9
34
de
24
dc
f5
70
c3
bd
c9
82
7b
a1
46
7e
31
d0
e0
1f
b3
aa
1b
36
b6
eb
67
fe
7b
c9
b8
7b
41
d2
d0
40
c8
fc
9e
08
87
5f
e6
5b
89
c9
32
44
5f
1f
ff
11
45
b9
20
8e
0b
55
16
40
52
cd
9f
b9
c5
70
0c
e6
df
39
e9
9c
cd
6a
4c
30
c9
fb
a9
d6
23
41
3f
0e
ee
ca
ea
ae
a4
d1
82
24
31
93
8c
e5
19
9b
fd
c3
53
4f
60
db
7e
d4
88
9c
ba
96
9c
e2
9d
66
f2
f0
76
3b
c9
de
b4
00
42
f8
6e
07
d6
8a
b7
6b
6e
01
b7
86
f5
f8
e5
c8
c5
cf
fe
53
3e
68
ed
e9
11
50
ba
ca
27
54
95
68
05
dc
1b
8a
cc
d0
05
eb
4d
57
f9
f4
12
a2
b9
41
45
d3
0a
b0
ff
02
fa
c1
1d
02
1e
a8
d0
ec
75
6d
9a
00
6d
fa
0b
e5
4a
5e
fb
7b
c1
b3
92
88
b4
d2
a1
bc
80
00
13
5c
6e
f2
b1
cb
60
01
21
4a
d7
c5
04
21
16
5d
dd
fc
6c
cf
2d
41
52
27
c3
16
25
c2
2f
c4
22
70
b7
50
6d
e8
07
b0
6f
fc
94
c6
b0
7c
4f
08
6f
6b
f0
62
75
d5
78
b0
d1
40
24
0c
33
b4
aa
4d
d8
a3
91
50
e1
5d
72
34
25
52
e8
bf
d4
e6
28
dd
7c
1d
d6
dc
1a
9b
1e
ea
e9
55
a6
0a
a0
41
77
be
06
c9
cc
14
e0
32
e8
95
21
42
b8
eb
07
de
98
5f
e1
e7
e1
4d
98
d7
32
2e
c5
33
12
f8
5e
bd
24
90
1e
30
dc
ca
38
bc
af
c2
ff
8f
62
cb
c9
d8
16
30
21
99
0b
4f
51
7a
7b
6a
5d
1a
ff
9d
82
d5
2f
dc
b8
66
0d
bf
55
52
48
b9
05
7b
6b
5e
5d
9b
c7
09
c3
1f
e9
ea
e6
06
09
d7
ef
98
03
d9
c3
dd
d9
86
12
d4
cb
78
da
ad
89
23
84
92
fa
f0
f7
a5
93
03
a4
a8
b2
03
f9
7e
a6
d4
37
c8
0d
98
ee
84
11
42
58
f4
46
f0
23
a0
ad
1b
fd
85
80
7e
2f
f3
ac
2e
d4
20
bb
5e
8d
d6
8f
d8
2a
34
97
dd
d2
08
ff
50
ca
30
0c
9f
08
ac
50
d9
6c
96
30
c1
02
b9
84
ff
ec
ec
ad
cf
3e
71
7b
43
26
b9
20
7e
76
48
c3
8b
ec
14
5e
35
2b
c4
df
db
d7
bc
79
55
30
ff
93
d1
3a
ba
b2
00
b4
24
0f
c9
24
2e
7d
43
8a
a6
67
7c
90
79
2d
10
28
29
9e
c5
33
8c
0a
8f
ff
e8
da
8a
6e
37
05
33
ae
b8
92
88
ad
fa
0e
24
cf
6b
1c
db
d2
65
49
56
4a
80
13
e8
44
95
78
b6
fd
04
24
b2
34
61
a8
f9
38
2f
1b
96
e8
c7
68
dd
dc
5d
91
3f
5b
bf
8e
59
6c
7e
55
07
ed
3c
13
bc
ea
fc
5a
70
39
55
56
09
bd
3d
72
5d
e7
a9
49
b6
48
c3
67
0b
9e
f3
bb
d6
7d
01
62
17
05
b9
59
31
d1
71
97
42
2e
28
08
ad
3e
f5
87
6f
c4
aa
c7
8b
0d
52
74
9d
df
6c
2c
fc
94
1f
7b
7d
e0
11
7b
d7
65
98
e4
b6
79
bf
35
99
80
58
18
69
6d
20
90
c1
b6
1d
6f
aa
0c
01
77
e4
5a
7f
6a
6f
96
7f
13
4d
63
06
15
a2
3d
61
05
aa
91
c0
a6
a6
90
6b
19
0a
b4
0d
8a
82
ef
98
4b
f1
61
d1
d0
3f
81
ae
e3
3f
6f
53
6b
a8
0b
e5
68
9f
b6
91
75
71
e4
79
8f
62
06
34
fd
ce
15
01
53
20
18
f6
01
01
59
db
33
96
e6
f3
66
de
66
e4
f7
42
02
e7
c4
65
e7
4d
0a
ce
c1
16
c4
8f
5a
f9
81
9b
95
25
f4
df
ca
bb
a3
c0
81
2a
52
e1
3a
57
96
a5
8c
72
e6
5f
47
5f
ff
2f
72
1f
f8
09
7f
4e
56
6f
0d
f7
46
4a
2b
f8
78
bc
e4
c4
b5
10
4f
b5
35
2e
40
bf
37
4f
5a
86
c6
d1
d4
9b
10
83
ad
92
92
23
5e
35
1b
21
e9
3a
46
eb
24
9b
a5
b3
e0
30
87
92
bd
6d
d2
81
d4
75
2a
56
43
8b
5c
4a
01
bd
6c
c0
16
f7
e1
8a
54
dc
ec
bf
e2
d6
52
92
28
15
61
38
e2
92
e8
82
43
70
99
36
ca
00
00
13
a2
5f
f6
0d
a8
a6
5d
4f
83
f3
ad
3d
6f
c1
7c
60
ed
cd
82
19
7f
0c
b3
53
c6
af
ba
91
9c
7a
b1
3a
5a
39
91
f3
fa
37
ab
fa
88
ea
10
c0
01
ec
10
b2
d4
ef
47
d8
b5
f1
71
60
16
c8
f8
0a
d8
3d
e2
3f
53
c5
30
1a
1a
b3
d7
4d
c8
ed
e2
b1
00
ed
ac
ed
85
8d
56
9d
75
a3
89
04
e8
3a
59
64
44
0a
48
93
e8
5d
93
1b
70
b2
e2
5e
70
ff
3c
41
8c
65
2e
65
7f
81
17
e6
77
74
a9
0d
c5
da
c4
f8
03
d6
b3
0c
cd
f1
30
08
4b
ff
72
38
47
2c
24
18
95
69
d9
40
2a
b1
01
a6
27
8e
e6
37
54
79
c5
14
01
38
3b
fe
9c
19
4c
da
c6
cd
23
1e
43
03
be
a0
cc
04
a4
d3
ea
bd
fb
62
f7
3f
68
46
85
47
e2
6b
18
05
fd
29
4a
c0
2d
9b
95
a4
94
1d
66
ff
c1
dc
5f
6a
6c
5d
12
da
bd
6e
5e
fb
1b
ae
93
9e
3a
0d
31
6e
1d
01
3f
79
18
1b
66
c9
31
c3
75
ad
42
0a
1a
d0
1a
01
a8
74
9d
23
65
32
2c
a8
e1
e9
54
46
f7
b0
99
3f
75
ef
f7
df
d0
ec
fc
7f
4f
e4
83
ee
67
08
57
68
ed
77
37
e4
a4
b1
d2
15
93
4f
ff
98
d9
4e
31
df
19
0d
87
0f
37
be
eb
87
95
f8
9e
28
cf
08
82
bb
eb
40
03
a1
e2
e2
c0
99
13
40
2f
aa
3e
a7
21
b0
d7
9f
ae
9f
42
e7
1b
e7
22
b2
cc
01
34
de
01
55
7f
25
e4
de
a5
f2
e3
e8
cf
08
32
b8
5d
f7
96
e3
d5
fe
b3
d1
51
d5
6e
5e
31
45
5b
47
5e
9c
dd
96
bc
87
19
b6
f1
09
a8
75
c0
d6
3b
07
98
5b
6e
df
24
f2
b0
b7
0f
95
13
a2
f6
21
8d
d9
61
3a
71
e8
12
ff
8d
27
13
a4
10
e0
46
74
a5
73
c2
72
a1
3a
97
4e
eb
71
73
86
12
95
44
39
7b
6a
67
0f
3c
d5
ba
e0
0c
a4
b4
40
32
52
14
db
77
4e
6b
07
48
8b
89
15
77
b1
70
a6
69
eb
d2
c7
e9
b4
21
3c
bc
4d
3d
85
7a
f3
46
36
f5
ae
77
0e
e7
56
dc
cb
49
90
fc
9f
cf
ec
ae
c2
0b
48
a8
63
a9
f2
81
4e
96
7f
0c
17
a5
b3
4b
34
cf
f3
29
00
8c
b5
6b
21
b8
04
7f
95
a8
39
1e
74
37
26
01
23
1c
53
fc
a1
18
ed
2c
48
13
a2
1b
54
95
0d
d4
41
51
dd
48
69
cf
6b
e8
f5
64
f4
8b
27
ca
87
fb
9c
61
f5
57
f2
97
6d
a6
df
63
e3
5e
7d
64
d4
c3
5c
01
86
27
5d
e3
e1
9d
91
9b
d8
cb
09
4f
0c
41
ed
83
a8
48
1b
43
68
33
6c
77
3c
f0
86
35
85
f7
fa
6b
84
34
8a
3c
c8
fb
ea
ff
9e
64
32
33
a2
3b
8d
2c
b2
8b
fc
43
bc
5e
d8
8f
8d
59
fe
3b
e5
1c
25
bb
3e
70
73
9e
65
f8
33
70
0f
d1
32
fe
9a
fd
1b
ff
1a
e7
a1
02
8f
68
e4
70
02
69
cc
82
3d
cc
bf
20
fc
e0
73
df
3d
1f
61
8b
a8
d6
14
fb
11
07
f0
db
03
da
5a
49
a1
e6
62
69
87
14
1b
bf
cf
e1
16
e8
c7
a8
01
38
81
79
dc
8e
91
95
bc
23
94
87
bc
5c
7d
d8
73
41
bd
00
95
d7
4c
ce
86
ac
11
8c
5b
59
22
1d
14
81
89
83
8c
fc
f2
d5
c5
29
98
8c
78
39
e2
10
bc
c3
50
d8
6d
66
b5
57
e7
9f
79
81
5b
d5
3c
ca
32
37
02
8a
97
67
29
71
fb
54
01
70
21
6e
8d
6a
32
5b
ce
81
f1
f6
d1
2b
88
01
42
08
09
09
a4
fd
10
64
9c
01
58
96
f6
5d
12
30
18
d0
81
3e
b0
69
e5
d4
07
77
d4
1d
4d
3e
89
f7
b4
60
9f
68
26
96
bf
b1
8a
74
d0
71
7b
7f
f0
93
61
49
d3
42
20
a7
b2
3b
1f
6e
81
c1
5d
49
99
fb
5f
c8
6e
32
27
5a
1e
2d
4e
06
db
86
33
b1
1e
81
d2
16
87
10
8f
8b
0d
1e
c7
1e
fa
01
16
cf
b9
85
9c
1f
05
08
7a
46
a7
d7
f6
29
a8
ac
19
1c
41
d0
64
1c
e4
09
0d
e1
b1
f5
ce
40
55
60
03
0e
b5
77
69
ee
71
45
f7
b0
3c
72
b9
8d
03
00
ee
0a
60
5e
3e
ce
70
91
49
34
1f
b4
6a
52
7c
e9
97
4d
64
ec
9b
5a
93
b7
67
39
b6
1d
71
78
02
69
21
7f
9d
f1
ff
03
68
d7
57
48
f0
17
d0
f9
46
83
57
8b
47
27
70
ea
31
e9
2f
eb
1f
5e
75
db
50
29
3a
32
27
29
ff
8b
9c
09
d9
c9
9a
bf
3c
5b
e5
0b
d5
f9
a5
ec
72
71
df
ee
2f
05
05
0e
4a
68
e6
36
2c
76
df
4c
c3
1b
fa
16
7d
16
72
70
8f
1e
25
e0
c3
0b
ec
82
ec
2a
15
f6
cc
ff
30
72
fd
1f
8c
68
1a
8a
36
3b
c9
2f
e0
8e
32
d0
ac
54
ed
f2
ca
39
0f
0b
38
16
16
4b
84
cd
a5
13
f1
77
76
ec
b8
d5
62
ce
8c
9a
38
7d
20
e2
33
62
3b
f0
7d
95
d8
1c
e5
4d
81
d1
07
bd
0b
09
f2
0e
bd
5c
e6
ee
2a
2c
17
f7
ad
dd
f6
1d
01
26
90
27
01
ce
db
15
a3
d4
9e
18
c7
33
eb
1b
a7
88
d2
91
c5
1e
48
fc
4d
18
35
f3
c8
26
9f
24
ff
d0
97
d9
bd
c4
0b
7d
a5
6a
81
13
7e
ac
fa
cd
0e
e4
02
62
97
13
58
86
87
e6
01
cf
08
a7
87
c4
84
5b
f4
d9
3f
ad
e2
2a
ec
01
c0
bc
be
66
94
05
92
ad
5e
d7
63
ae
f1
c8
84
c1
39
fd
90
88
f7
6a
fa
a0
01
d3
d5
06
81
95
5d
80
b2
60
43
84
b6
45
33
88
69
63
fd
91
39
52
ed
06
55
7a
6c
84
39
d8
bb
53
d7
ed
c3
75
45
b9
2b
7d
1d
3b
27
87
99
a1
e4
9b
71
fb
97
5b
95
d6
55
ed
53
3d
d6
d5
02
04
2a
55
27
e2
6f
8b
68
86
15
e2
5c
25
13
b6
1b
c9
82
f7
97
86
91
39
a0
9c
62
00
31
d8
1b
1a
95
42
f3
ed
77
80
30
cf
5a
0c
b2
fe
30
2e
f3
16
41
f3
73
be
01
b4
6d
17
17
08
5c
e8
78
58
83
57
22
36
50
b5
5c
e0
ff
76
d4
01
fe
e4
05
10
f3
92
9f
69
72
fa
10
18
60
6f
e2
47
3b
82
d5
0e
0a
8e
a4
96
27
c2
dc
98
2a
b4
8f
a5
89
4e
db
59
50
7a
38
05
8a
92
b8
ec
0a
00
4a
82
22
e5
3e
2e
9c
e5
7f
ff
35
f8
46
89
af
ce
6c
6e
2e
1b
a5
80
da
b7
cf
6d
3d
be
69
fe
d4
56
05
de
3d
3f
7d
5f
e8
bb
60
ff
6d
5c
a4
35
01
ab
e5
4e
bd
57
d3
b7
e7
50
cf
15
7b
ec
63
e2
82
60
b0
93
f9
56
db
30
30
d6
ba
c3
80
31
05
dd
a2
1b
3d
10
43
32
2c
da
64
e2
3c
71
c7
b9
4a
14
56
1f
8c
a2
ac
91
f1
0c
a4
60
89
64
78
23
ff
c4
b1
cc
b3
a5
30
1c
92
dc
cb
c9
b0
03
45
2e
3b
51
23
ed
9d
a3
1e
51
c0
94
58
2b
b3
7c
8a
17
d2
68
93
03
8e
74
63
39
39
62
92
e2
33
f9
bd
9c
3e
68
90
80
97
af
b5
3f
98
07
e9
9b
f3
19
3c
d5
77
bd
9d
eb
d1
6b
11
dc
55
18
52
ec
ea
bd
91
2d
62
fe
01
57
5a
0b
6d
08
28
cf
43
c4
5a
bc
68
8b
b7
5b
c2
50
ca
8e
5a
b3
b3
52
c1
e4
8b
f1
79
97
f6
15
45
03
10
6e
be
57
ec
5f
4f
d4
fa
00
55
3d
23
ed
db
6b
3f
f7
30
a8
1f
1e
49
20
66
ba
24
86
13
47
65
3e
e0
7e
ff
a1
8a
b7
1c
55
d7
f9
91
0c
2d
cf
2c
e7
b8
dd
df
fd
3a
a9
46
3f
b4
fd
83
b4
0b
3e
99
d3
68
6d
dd
b6
37
8e
d2
a9
85
ff
63
c5
d0
6e
8a
11
9d
61
bf
26
88
c6
37
af
72
2b
cb
12
24
39
79
d7
23
a3
63
4e
02
06
40
04
10
c9
4c
28
bb
4a
c7
55
c5
b8
65
54
ed
4c
d0
19
13
96
f1
af
9b
75
52
3a
c4
3d
58
d5
48
34
32
cf
6d
f8
fa
73
22
1f
59
ce
01
e4
6d
8d
9b
d5
fd
5a
e9
c3
60
e2
5a
45
fd
c1
d6
11
d4
fd
d5
49
67
63
05
32
32
43
05
48
be
da
b8
3f
c6
ab
cf
6f
8e
57
70
bf
6f
4d
2d
1f
c6
7e
63
7b
bc
92
d2
31
da
e4
1a
94
b3
0c
85
46
db
11
31
3b
1e
ef
e1
f5
01
da
fc
3d
91
39
54
9e
60
34
d7
54
34
8c
da
97
21
27
d6
79
10
36
22
ff
01
3c
9a
76
54
80
50
0a
d0
61
31
0b
15
f3
bb
ae
93
02
d2
1d
d6
bf
dd
56
9a
1a
27
4c
af
37
dd
b1
44
e5
78
71
b4
52
9b
2c
c1
40
30
8f
fe
92
a0
ac
fa
1c
f6
62
03
b5
50
bf
84
e9
2a
35
21
d7
d0
67
17
fa
7d
c6
d6
fe
c4
d9
96
f6
6e
68
41
dd
3d
c4
d7
f6
e4
63
ab
46
70
90
01
dc
45
ec
7e
8e
23
2a
56
9d
ad
3a
47
14
20
02
fc
18
f3
7c
75
d9
a5
d0
09
69
db
f7
29
4e
9d
93
69
f1
a6
be
17
f8
1b
5c
88
f5
ae
83
3c
ff
aa
82
62
94
8f
11
2d
30
3f
dd
4e
c5
74
64
45
70
f0
07
65
fd
a5
ed
42
93
21
90
de
65
95
a1
3d
20
26
3a
84
69
9e
31
ce
db
d5
e4
93
1e
f4
cd
20
b7
40
1c
1c
f0
36
81
c0
f5
5b
7f
03
a8
d6
b4
64
d8
fb
d4
01
61
4f
ef
e2
50
6e
e6
9c
31
97
31
71
e2
94
11
3f
5e
cf
c4
b3
ec
0e
97
83
a0
7d
d7
7b
17
48
e9
6e
51
34
45
c6
11
59
94
98
5e
6d
e3
7f
b5
52
41
73
4c
3a
00
b0
75
63
e4
d4
14
58
ff
1f
3b
d9
2b
17
00
17
78
28
b5
9e
72
b0
8b
a6
b0
e6
5d
fd
8a
81
c2
57
63
57
75
11
14
a1
da
b6
f1
91
80
7e
75
8e
55
fc
e0
9f
ec
6a
19
ff
90
34
37
f6
bf
bc
98
2f
97
5d
35
28
ba
c0
cc
4f
b4
2c
a6
ce
67
27
fe
8e
bd
7f
b2
be
ef
be
1e
bd
9a
f1
67
c4
79
cb
95
d9
8e
45
6d
cc
91
f1
d9
36
c3
d0
a8
14
36
2d
1a
01
e9
fa
d1
05
7a
1e
58
11
8c
0e
e4
7f
ae
ca
15
49
81
cc
5d
13
52
bd
ae
ba
f8
71
c0
1b
dc
1d
e8
4b
26
13
2c
21
63
bf
57
41
de
d8
f7
cb
df
e4
d6
0a
9c
fd
07
26
17
e8
01
3d
43
d5
db
22
f8
25
5e
bd
25
28
ee
e4
5c
16
5a
b2
89
f5
c3
97
01
6e
c7
3e
bd
9c
e7
5b
88
f4
1f
fe
b8
ee
8d
ca
b6
c3
60
ff
ad
a5
03
cd
90
ba
48
e4
cd
54
4e
de
e8
2d
fe
c7
b1
5b
53
f6
68
c7
d1
f9
f6
e5
c9
ce
54
93
03
e8
f4
4f
42
e1
b0
45
ee
a8
82
68
95
21
db
52
e0
81
c9
e8
5d
c3
e3
a4
49
80
b5
cc
b1
ba
72
d7
f5
a9
44
eb
94
c5
83
eb
05
af
5c
a6
3a
18
19
9f
29
fb
14
58
f1
66
ba
9b
da
24
14
cf
14
c4
13
f2
d2
6d
6e
75
71
0c
cc
10
a9
b6
4a
27
2a
25
f1
ac
f3
c4
8d
f4
ff
89
aa
c7
f5
a6
30
96
01
e8
33
2b
8e
54
5e
98
7f
f7
c1
5e
88
41
20
42
0e
85
61
d3
23
c1
e5
ea
0c
4a
45
03
26
ad
46
cf
71
0f
eb
24
c6
65
9f
8e
cf
b2
86
ba
86
65
29
f3
04
be
50
1e
bc
48
8b
14
2c
3c
09
0b
37
ba
f0
22
11
b5
47
2b
b0
a2
63
86
7a
26
c6
cc
78
a1
57
2c
ea
59
bc
c8
73
8c
c6
e4
8c
e6
9e
26
02
d0
6e
b9
46
e1
22
b8
01
71
96
2b
f5
88
55
32
61
0d
88
e4
fd
ca
e5
0e
d1
d9
be
93
3b
e4
91
8c
25
43
1f
4f
43
05
f7
8d
e3
2b
a6
ff
07
d5
42
e9
12
65
63
91
a4
c5
02
40
e7
33
9e
c3
25
84
e9
22
dc
be
8a
29
4f
8d
2f
d7
49
81
67
93
2f
4f
7b
c6
7d
41
02
71
a4
1d
2a
56
aa
bd
41
29
d3
0e
67
40
41
ea
b6
4b
3e
de
6d
b3
e6
d8
02
4b
36
c0
be
76
ff
06
11
ca
ed
6a
b4
93
c0
7d
8a
c2
a0
60
67
2e
11
ff
31
1c
da
27
fa
14
50
57
e4
c9
33
11
b3
dd
8d
8a
7d
aa
5f
85
e9
d5
f2
43
5b
28
e8
ec
27
02
ea
0c
5b
cb
41
9b
01
24
d3
e7
67
a1
27
92
dd
54
a8
ca
3a
12
a6
e9
a3
38
b9
3c
71
99
95
a3
69
52
de
b2
1e
d8
42
b8
1d
9c
fd
7e
71
fd
ef
d3
89
90
67
9a
1d
10
57
9c
71
48
77
41
bb
d3
f9
ca
7f
7c
90
93
df
c8
28
a7
0d
30
42
42
fa
67
f1
2d
97
ee
f8
63
22
45
f5
39
d0
01
13
6b
29
ea
af
67
d9
5e
1d
2e
bf
bd
38
3a
e0
5c
d0
9e
e1
2c
cf
35
21
52
e8
25
66
ef
35
0e
b3
31
21
d6
2d
64
7a
01
66
fc
72
93
87
f0
f9
b1
f8
9e
f1
02
89
3d
f6
b7
a2
bd
5c
ef
bf
69
1f
26
ea
e9
3d
7d
5c
17
cf
bc
2e
15
2b
42
60
4f
2d
3a
68
3b
50
e9
60
9c
21
18
f1
13
89
65
f4
7b
0a
cd
03
50
ca
01
f7
01
ae
62
32
87
3b
3f
da
ca
06
2e
17
2f
38
d8
64
02
36
2d
7a
20
9d
7e
5d
39
a2
8c
bd
42
03
f9
f7
63
e1
8e
b9
d8
66
b7
a9
4b
f6
38
3e
f9
43
69
f9
da
ce
18
1e
f6
09
de
68
dd
f2
de
3b
41
e8
01
8f
9f
4b
71
0d
44
8a
10
28
5a
38
64
32
ee
f2
23
31
41
90
50
ff
e4
41
b2
87
f9
1f
d3
4b
ed
cb
07
c7
4e
dd
2c
0e
b3
c6
99
7f
23
9e
7a
33
1e
e9
12
ec
3d
a8
ea
0d
bb
5d
2a
b8
79
65
de
e2
6f
25
fd
0d
e8
ff
a0
1c
65
77
62
ef
7a
4e
7d
fa
69
2b
7e
1b
83
7c
4c
0c
30
89
73
6c
17
9d
b3
4c
a1
01
2b
4b
78
81
41
b6
00
cb
d8
de
ec
bc
0d
ab
24
31
4a
bd
5c
d4
99
d9
04
2a
30
44
64
0c
1a
14
ce
9e
cf
b8
87
8a
f7
3e
43
86
01
68
a2
fb
50
9b
92
33
4a
dc
92
f7
fa
73
bc
8b
c1
f6
a7
32
47
35
99
38
e9
d4
df
57
2c
31
5c
7b
ec
6f
31
ba
44
a6
8d
2d
f2
7e
92
44
0d
47
1e
16
82
7d
5b
64
40
1f
2e
22
e6
a2
81
a7
8e
10
dd
0b
b2
ec
25
0d
1f
ca
29
33
b6
19
1c
ff
c7
39
f4
cf
1a
57
f0
01
e8
11
fe
73
dd
c8
d3
5f
c0
3d
b3
e5
b6
a0
07
bd
e3
e6
f4
18
28
0a
eb
e9
6a
f3
cc
f6
f6
0e
39
e2
5e
00
0b
1f
b3
17
1a
f8
e4
34
21
e3
8c
c3
01
04
b0
33
35
df
12
3a
33
e1
31
5c
5e
bc
69
9f
ea
3c
1c
b0
dc
bd
37
1d
6d
f1
7a
c0
32
08
e5
94
e3
e7
94
83
4b
8e
1d
09
7a
82
26
2b
4a
ba
ac
d1
0a
5b
c8
df
11
be
01
ac
34
cc
ff
ce
f8
e9
9e
cf
c1
99
3f
79
d6
11
b6
cf
6c
04
10
20
14
34
6e
39
a3
49
27
1a
8f
1a
71
6e
32
ce
09
e5
b6
72
25
d6
d1
21
88
54
97
c2
f4
55
64
6a
8e
6e
bf
2e
01
59
93
83
ab
ea
7d
2c
03
d9
62
59
