d6
1f
ea
ea
31
22
16
fb
fe
3c
c1
19
cd
a8
22
4d
06
f7
a4
fb
e3
de
ce
3f
a2
26
29
f4
fc
34
1c
33
fb
2b
de
dd
d2
38
19
1b
e6
de
42
ed
4a
0d
ca
14
28
28
b2
35
22
ed
fa
7f
03
c8
9c
f6
f4
1d
2d
2d
c9
08
05
c5
2d
d7
08
ff
0b
d9
ee
cf
25
28
20
14
fe
13
01
fc
fb
62
e8
7f
d7
ed
3c
04
b4
ee
fc
1c
22
01
cf
cd
21
32
ea
3f
04
cb
0c
04
bb
37
c0
52
48
f6
e3
e2
01
1a
ca
39
58
ef
e3
e0
79
e4
0b
3c
0f
d5
f1
33
42
c7
44
e1
26
1e
ff
0c
24
d1
f8
e5
ee
f0
14
ee
25
13
cf
73
0f
bd
e4
1d
f3
16
29
c8
31
d8
81
d6
05
22
fa
23
c3
e0
1c
0f
14
48
b4
1e
00
28
d2
03
36
21
c4
31
37
26
e2
fe
fc
c0
ff
08
35
ed
13
14
cc
f2
03
fb
dc
e2
d5
d7
41
1e
e1
0a
1d
df
0a
11
e6
15
f1
c3
b7
fc
e2
00
5a
ef
17
bc
e6
e6
e1
09
d0
3b
24
21
0f
ce
cc
4a
1b
ea
34
f7
32
26
b7
2e
14
28
fe
b5
06
f0
18
06
fb
e4
ec
7f
0d
ea
f6
1d
d1
fe
e7
4c
c6
e9
0d
b4
cc
3c
b4
23
0f
ce
47
1e
11
c6
36
88
3d
03
d1
ae
f0
1b
3b
7f
bc
19
10
51
cf
0a
2e
1e
4e
31
00
20
ef
04
5e
ee
ee
19
61
27
ec
c2
15
a2
f7
f5
63
1a
df
36
10
40
f8
f8
0a
11
f6
c6
d1
cf
07
0d
1e
02
40
52
e7
cc
cf
ce
36
d1
df
00
f4
07
f5
df
04
26
92
fd
05
e4
a2
af
4c
d1
d7
03
03
81
b7
1f
20
dd
e7
68
45
03
59
04
47
1b
f9
cc
01
ed
1b
26
f8
ea
c8
cc
19
be
50
21
81
ee
2e
01
2a
f8
d2
f0
22
f5
00
1b
4a
41
1b
14
f5
f3
f5
c6
12
39
e6
45
f5
12
fb
05
09
d6
0d
e1
34
be
b0
fd
a2
5d
e7
28
3b
0a
b2
dc
08
23
f3
03
9c
06
f5
d1
21
f2
13
20
1a
cc
ee
f2
fe
27
25
31
df
d4
c3
12
d9
48
e0
d9
bb
7f
d4
30
41
01
37
c6
19
e5
07
02
d6
d0
f9
ff
e7
d1
2d
38
34
20
00
37
10
21
d3
c3
33
fc
f7
ea
12
1b
0f
cf
1e
d7
e9
21
0d
02
1a
c3
24
27
1d
f6
30
df
d3
14
16
1e
12
bc
99
cd
4f
81
cf
df
4b
24
da
90
11
41
d2
c7
0e
ce
18
e5
84
05
3e
55
0e
92
ab
63
d9
19
f7
9d
39
e7
c9
28
d5
27
2b
cf
09
0b
39
cf
ef
10
eb
76
66
06
2a
ea
d4
f5
6c
da
15
16
38
04
1c
eb
8e
38
c4
45
12
bf
cc
1d
2f
f4
d0
ed
db
28
e0
c8
01
e9
1b
0e
0f
1a
38
0a
16
2f
be
e1
31
ba
b9
ac
c3
d7
31
e7
1b
b8
3b
25
be
32
9a
cf
1f
11
ec
0c
ca
b4
cd
05
81
08
08
51
4c
4f
0f
47
d2
4e
ec
db
cf
e4
e5
f9
d9
bf
36
28
1f
b4
5e
fb
25
73
41
c4
e9
eb
4b
35
05
f6
45
fe
f4
6c
ae
5a
44
f9
f8
92
ed
c2
7f
03
2d
0e
34
16
c8
18
13
1a
e6
56
28
1b
af
d3
f7
ba
21
d0
e9
54
bb
c6
dd
1f
01
ef
25
df
d0
1e
1e
f9
18
0b
a6
26
17
d1
d3
1e
e6
33
ee
c8
4b
e9
ea
c8
10
22
ef
07
01
18
bf
5a
ed
81
99
5b
06
0e
29
13
e9
8d
18
d7
24
ad
08
02
09
e8
e1
92
de
71
04
2b
a5
64
3a
d8
fb
65
e5
c9
ef
ba
0d
1f
05
f1
f7
bb
64
1f
c5
f2
04
e5
6c
ec
1d
c4
2c
0b
0a
ea
1b
48
72
ef
19
ca
ce
ba
11
05
c8
38
e9
45
d6
57
b4
fd
28
37
e2
da
bf
27
19
fc
05
fe
f4
33
47
3e
d6
b2
33
a6
ec
61
eb
d8
ea
2d
ff
f5
e5
9a
81
f6
0c
cb
03
f1
fb
f4
e2
d4
03
0b
e5
44
05
dc
7f
02
e3
e6
d7
e7
f0
0c
00
6e
f2
ed
28
be
1a
dc
da
f9
4a
c1
19
fc
24
dc
1a
17
ca
b2
0b
ee
fd
ce
a0
39
36
15
9b
6c
4a
4b
44
2c
2b
d3
ac
ed
2c
e5
6b
bb
3f
10
5b
a9
2a
28
17
1b
04
fc
1e
bc
44
34
22
dd
e3
00
1c
14
32
d8
ec
08
c9
18
3d
e8
5b
f6
ad
ae
9f
ef
ce
08
2e
0c
0b
de
3b
d3
22
a1
20
33
0c
c3
09
18
e7
70
45
81
14
fb
e9
05
db
11
01
b9
f4
e7
e1
de
eb
19
0b
76
b8
ee
eb
cb
2e
da
a7
57
8d
8b
09
2a
53
fe
85
a8
5c
a1
16
f7
b2
15
11
3e
36
fb
a7
4e
26
65
ee
cc
74
01
7e
5c
b9
ea
05
fb
3f
68
2a
37
16
0c
7e
de
ba
b6
fb
eb
c6
09
fd
de
81
01
0b
e6
f8
13
03
40
f8
32
61
0b
41
40
57
eb
c3
22
e4
19
b3
2c
20
24
e5
a8
e0
1e
ca
07
28
91
c6
1f
ff
18
f6
81
cd
04
20
01
f3
18
2f
3f
8f
11
1b
18
06
22
1a
15
2d
28
4b
f1
35
2a
44
5c
d1
2c
11
f8
39
4c
fe
88
f7
fc
0c
36
2e
09
79
f1
f3
25
dd
e8
0f
0a
a0
c3
ed
19
62
e1
3d
4a
f5
10
a0
40
2d
1a
2f
da
2a
89
0e
d4
46
69
4e
23
2f
15
f9
33
c5
22
17
d9
05
c9
44
2a
0f
34
2d
0a
cd
81
54
f0
19
f1
13
cd
23
57
f5
26
0f
9f
8b
68
dd
1b
27
c7
60
0a
7f
1b
e8
19
f7
1c
18
d7
14
0f
fe
fe
21
a2
2f
ed
fe
55
25
fb
23
ee
eb
ed
08
ee
0b
01
2f
ec
f8
09
51
d8
ef
fa
0b
43
e8
31
cb
2d
fa
dc
b4
35
d8
49
eb
46
fa
2e
21
f6
d5
b8
db
0f
14
25
c5
4b
1c
0a
c2
f9
08
e3
1d
f1
e2
1c
a3
33
37
00
ee
66
47
11
0d
24
ec
ae
ea
d9
ee
f3
c9
bb
e1
36
f7
fe
0b
16
d8
2b
3a
9c
cd
c9
2f
31
cb
48
1a
7f
c6
cc
97
c8
c9
26
dc
94
16
cc
fe
06
b3
f7
da
ae
11
e1
20
22
8f
20
0a
e9
f0
1b
c0
15
e2
d2
ff
01
4e
bb
b7
37
15
d8
26
bd
26
be
06
24
28
81
1a
f8
61
8f
f8
38
18
dd
f5
34
09
e0
ec
2f
2f
ea
e3
3e
fe
13
23
1f
cd
33
c7
a1
0e
12
07
03
01
12
1e
39
1b
d7
f1
ef
24
0a
c5
0c
f2
af
02
a2
e5
02
07
2c
30
18
ee
06
19
f4
81
2c
15
c9
e8
c1
bc
49
fd
19
17
f1
30
d6
20
03
e0
10
0f
35
e9
02
fd
3e
ce
f6
54
04
d0
f3
1c
51
55
0a
28
ee
0c
ec
cb
fa
ba
1e
07
18
10
e9
ff
08
52
d6
fb
13
db
f5
f1
14
01
e2
0f
3b
81
48
aa
02
19
f1
f3
0a
22
e3
fe
0d
28
f2
d6
9d
e2
ff
fb
de
40
07
f0
0b
19
0f
c4
3e
0d
e5
7b
e7
33
10
20
02
e8
0d
d5
3e
eb
06
e6
25
81
1b
ce
14
d9
f4
e5
0a
37
01
f9
16
d4
d9
f3
03
ee
17
f2
03
ca
1b
52
ec
07
38
0d
f6
de
e5
d4
50
d9
02
0e
c4
e5
f3
c9
f8
1d
1d
18
0d
d3
da
1d
dd
ef
bd
f0
20
af
da
09
79
c6
02
dc
12
f3
0f
81
2e
13
b0
dd
f6
b5
2e
61
13
12
36
de
17
11
06
03
1f
e9
02
db
04
e2
ec
68
cb
e8
b5
11
1d
06
0e
06
e0
0a
dc
08
07
d2
ef
ab
05
32
b2
b3
b6
cf
2f
1b
5a
48
19
2c
24
4f
3d
f6
f9
18
86
2c
d6
1c
ea
23
0c
ef
02
ce
da
de
32
a1
10
d5
fa
e3
12
ce
2a
b1
fe
0b
81
b1
07
0b
f6
4b
1f
28
2e
d0
48
06
24
b0
40
1c
ff
3f
eb
7a
1d
07
fa
e6
05
21
bb
12
29
c2
4a
d0
e4
0b
26
29
1f
cd
e6
04
00
f1
e4
ff
0a
ea
1a
f0
10
0d
c1
14
ed
e8
ed
07
e5
f4
ff
3a
f2
f6
fd
2a
81
31
0f
ca
f9
0d
e6
16
2e
13
13
cd
e9
d1
ff
05
14
d0
39
ff
0e
08
d9
02
df
2b
ea
d5
fd
f3
08
1b
ed
d3
d5
42
25
0b
52
40
fd
d3
d5
0c
d4
ea
d5
24
c8
19
f6
fe
0c
bf
1e
53
c8
fe
bd
ef
b2
ef
f8
f4
8a
5b
4e
56
ee
c9
b5
1d
20
e7
ed
d1
53
fc
47
13
bc
50
25
2d
e6
c9
8d
c5
ca
d9
05
fd
c6
9c
85
32
f3
81
04
16
32
1b
e8
a5
2e
16
ce
12
23
ee
da
1a
69
62
5d
57
1b
16
0e
36
ee
22
1e
cf
db
c1
5e
f6
13
df
e8
3a
21
00
36
06
39
f6
6c
c3
b2
d8
d9
bf
a4
1e
43
15
f0
d1
12
cc
2a
cc
a9
9c
ae
bd
10
81
10
5a
02
46
d7
ca
f3
12
08
f1
12
f4
be
28
f6
27
e7
19
a9
ab
fc
48
06
ea
ea
e9
0f
26
46
dd
42
e6
03
bf
f2
09
fb
d2
d6
d7
b5
eb
2a
d3
d4
e7
e2
02
01
2a
98
c5
dc
d9
27
ff
0f
07
48
df
ff
e2
81
46
e7
44
e5
0d
3e
ba
e9
1f
4b
e9
f0
12
fd
2c
ff
38
3e
dc
4b
d6
d7
e4
e6
fd
f4
0a
cd
e3
10
46
ec
e4
4a
15
2a
f1
6e
1e
f4
af
81
fa
0a
c9
9d
bc
bc
01
20
1c
c6
4f
e7
54
ba
35
21
17
c8
d7
1b
bf
ed
15
ff
ef
c5
d6
59
9a
e3
9d
0f
ec
c8
f5
ff
2b
15
53
2a
21
20
00
f5
0e
f6
17
16
2e
f5
c9
a6
09
d9
41
ff
da
2c
07
eb
02
dd
5b
b8
e0
e4
8e
36
e4
0c
cc
ea
19
11
be
e6
03
da
e7
3c
37
d7
29
01
f5
ed
d7
ef
6e
11
e3
7f
92
02
ca
74
41
d0
33
de
c7
ef
2f
f8
43
32
de
e7
0f
f8
07
51
25
02
1a
39
0b
0f
18
0d
2d
4b
19
a5
02
49
f1
7f
d4
50
df
46
cc
e5
bd
eb
f1
b8
fe
09
ec
0b
1f
f5
1b
05
09
e1
f3
cb
db
41
db
dc
d0
1f
15
0b
f8
be
c6
0c
1b
18
89
c4
d6
3d
9f
e3
ea
d0
f5
f9
0a
d1
e0
d8
36
e7
f7
b9
31
10
da
bf
30
e8
1c
cd
2b
3d
cb
15
f3
be
53
13
d6
06
38
0a
7f
d2
20
cf
bb
a1
09
cb
c9
f2
c0
d9
c1
2b
5c
4e
40
48
da
17
d6
db
74
0e
2a
81
23
3b
a2
d8
15
fb
e4
f9
0c
f6
06
08
e0
f2
d2
f3
2a
d7
f3
39
eb
d0
c7
c0
2f
c4
ea
0d
ea
47
eb
e4
f2
c0
b9
0f
0c
47
2a
2e
52
90
e3
da
31
43
e7
af
e9
54
dd
0b
66
98
e0
d9
57
18
18
bd
f2
58
21
dd
be
e8
e0
d0
ad
e4
19
2a
33
e7
f2
d9
21
06
f8
ae
e4
38
e9
1a
1d
f7
46
46
de
27
03
eb
ed
c8
3e
49
bd
04
21
32
e8
ff
e9
04
11
0a
fe
1f
00
e5
f8
0b
2b
11
18
31
0c
fa
7f
e6
cb
ec
bb
e9
16
8c
f1
1a
f2
5a
4b
03
ef
f9
2b
e4
29
de
30
df
0e
fe
ed
b4
ad
1d
da
19
6e
7f
0c
0b
cb
49
f1
0b
f6
bf
4e
fe
67
4b
f7
26
0b
ca
cf
b0
14
0f
e6
e7
23
0c
2d
1a
16
0e
18
0e
fe
fe
4c
cd
e6
e7
32
ce
b8
17
f0
c8
47
0e
60
f1
0e
ff
f2
f3
f1
f6
38
e0
f8
da
0b
00
0a
08
17
da
e9
d1
c1
f8
da
08
f7
ef
cf
f5
d3
81
fe
fa
f8
1a
17
24
ed
ba
e3
ea
3e
c8
bb
03
da
d5
e2
31
0a
24
2b
ef
04
ef
20
0d
c8
b9
2f
54
f7
e7
17
d5
d8
ca
f3
f7
1a
eb
8b
3a
fa
ff
b9
20
1a
4c
e5
ed
f9
f3
b8
c5
d7
26
34
c4
fa
58
fa
f6
ba
d8
03
31
d1
e6
10
68
81
f9
0b
2b
ca
f1
fc
4f
f6
f0
83
30
23
05
cf
28
16
d8
16
fd
da
c6
0f
4b
1d
2d
69
26
10
f9
1d
04
14
3f
cd
11
0f
ec
16
16
f6
36
05
d4
f4
47
0c
0c
d6
20
14
03
e5
f4
e4
03
06
be
25
3e
f2
81
f1
eb
22
5e
fb
d4
f1
d5
2a
32
03
f5
ec
29
1a
ee
5d
db
30
bb
3e
17
fb
32
e7
f3
df
f3
a6
e1
0b
0d
af
ad
11
c5
29
d6
15
e7
1d
f4
03
0c
09
0c
fa
d7
fc
f9
12
25
fa
e4
0a
b4
fe
23
ee
b2
81
ed
04
fd
51
ed
ba
2b
19
1e
af
66
0d
01
55
f9
ef
d0
f5
40
fb
10
56
34
0a
3c
d0
fe
12
19
fe
3c
dc
de
c3
0d
88
ed
e9
0c
fe
e1
12
04
1d
21
e0
d2
29
dd
06
f8
31
ee
eb
34
1d
db
a3
c2
f1
35
3f
81
f7
ce
ff
d1
fd
0b
d3
d1
15
00
f0
6d
1a
19
1e
b5
67
19
4a
da
32
b8
e7
b9
fa
0a
e7
40
11
9e
0e
2a
08
1b
d7
10
b6
0a
07
d7
15
e0
fa
da
1a
ed
b0
17
d2
81
2d
82
db
24
37
f6
d6
23
c4
ce
12
21
08
20
f4
24
bd
29
18
9e
0d
49
fd
d4
ff
2c
f3
bd
f6
db
2b
b5
18
4f
f8
3d
dc
f0
4c
fa
f4
c5
7f
0e
01
e6
22
de
de
f7
18
f8
d9
d3
f1
0a
ec
f6
ae
1c
01
3c
2c
11
1d
26
cf
ca
fb
ff
36
10
fd
f2
08
1a
e3
e6
fe
e5
dc
26
e5
32
04
01
ed
df
dc
fe
b8
2c
13
e4
08
07
ea
f7
4b
c1
04
10
27
1e
2f
da
18
08
0f
f8
81
2a
14
be
07
0e
1f
d2
b9
e4
03
f8
c6
e1
0a
0c
d9
bb
3a
de
cf
f6
cb
f1
be
21
09
0e
07
d5
28
bc
3a
21
be
ce
cf
02
e9
f9
f1
00
dc
46
cc
0a
e6
f2
03
1d
d1
d3
bd
f7
11
37
13
e0
e5
0d
24
17
e7
e0
b3
e0
de
e3
d9
58
e9
e6
cf
1c
1a
0b
d4
09
35
ec
f2
0b
12
2d
45
31
3d
24
f9
f9
21
0a
07
32
20
ea
0b
f2
f7
00
0e
18
27
5d
7f
22
1e
3b
f9
f1
f2
a4
c9
ca
24
05
07
fb
d8
fd
c4
d2
e0
c4
e6
b3
24
f9
0c
bf
54
46
4b
74
c3
ae
de
1d
7f
21
14
a3
b7
8c
f6
32
2b
44
2d
31
35
d4
cd
0c
d8
f2
2e
38
2d
e1
25
e0
a9
d1
0c
f6
ef
df
4b
c6
3e
03
0a
7a
09
29
e3
14
30
29
d6
29
49
58
2e
25
2f
ec
1f
28
0b
e7
f3
d4
05
16
03
3a
fa
3f
dc
ee
28
ce
b9
14
f5
b9
03
d5
c9
fe
fe
f0
bc
2d
02
13
e8
11
19
2f
e2
12
ed
d6
dd
22
0d
a5
11
1c
eb
f6
59
d4
10
41
f8
f1
14
e2
81
e7
ba
d1
16
42
d4
0d
cc
e1
30
23
0c
0d
45
37
fd
4c
bd
b0
06
fc
4d
1b
57
23
31
1b
d6
15
04
0b
de
01
03
27
24
29
c0
09
ef
ef
bb
ce
f0
71
f2
41
f1
13
30
6c
db
37
00
09
46
bb
29
21
c8
2c
00
03
fa
20
f9
09
81
23
08
ff
78
2a
20
c2
ed
2e
96
df
cd
29
0b
15
19
12
3e
02
d3
59
e0
c8
b8
de
d0
ef
06
22
b3
3f
20
46
17
e5
51
e9
0a
0f
8b
bb
03
81
0b
1e
8b
03
21
f8
bc
02
1b
10
c8
24
43
fa
cc
d0
cf
a1
cd
ff
d1
07
e9
33
09
40
e5
b1
fa
0f
da
11
29
09
14
38
ff
37
ca
28
81
d1
f8
d8
26
5a
18
f1
ff
b5
c6
3f
4a
16
ed
03
15
a4
c9
16
fe
db
02
48
3e
e3
ed
e8
6f
ec
dc
4b
2c
94
01
e5
ce
12
f5
fc
b7
af
d6
5d
31
98
d0
05
c6
ea
0d
fa
09
37
6b
1b
f8
c5
02
05
29
1e
c3
d2
2b
d9
35
ca
fb
fc
ff
ea
df
31
fc
ff
ff
f9
81
df
0a
b3
bd
0f
15
06
03
2d
1a
08
de
04
0a
0c
08
f3
27
c7
6e
34
e0
2e
a9
f6
c8
06
2a
fc
8e
b9
d6
0a
71
f4
ae
fb
06
f8
c7
1d
ad
0d
a8
20
13
3a
f6
f3
65
fe
d7
43
26
ff
0c
c6
f9
8c
e9
39
1d
ab
bb
de
d4
09
eb
f5
de
e2
fe
e4
09
4b
18
4f
19
eb
ee
ef
5a
5b
35
6b
c3
0b
73
c0
17
7f
f6
ee
22
c7
e2
26
c0
38
45
cd
19
15
02
1d
3e
e1
ff
29
b7
28
cf
16
9b
ea
cd
ea
3b
53
4e
13
c1
26
04
57
1e
42
81
f0
b1
07
ba
1d
0d
2b
e0
49
f6
9b
70
f3
3f
fd
fd
d6
d7
0b
7f
c3
9e
2f
26
10
f2
1d
0a
08
21
f0
da
60
f2
ed
bd
44
f5
e1
f3
d9
e9
31
e1
57
2a
0c
1a
30
10
0b
fc
10
3f
fa
fa
b5
1c
d1
b5
06
f4
ad
d6
06
fd
81
20
0f
0c
c1
1b
ec
62
29
9c
1c
f2
c5
16
3b
1e
45
f8
33
fd
a4
3b
d8
fc
14
d4
6f
08
f6
2a
c1
d7
04
f6
ef
0e
d0
0f
34
e1
00
21
11
0a
eb
d4
20
f6
f8
26
ee
0a
ff
22
f0
00
b7
1a
02
fc
02
59
ff
4b
e8
fd
ef
e4
f2
2e
3f
18
cd
1f
81
04
cb
fa
ec
33
f8
cb
fe
f0
20
cf
13
f3
d4
12
10
1b
9d
b8
3e
00
e7
fd
19
fa
3e
03
11
23
02
bc
e7
1c
ed
29
1b
23
c9
03
ee
c8
f5
d8
03
13
08
b7
ee
16
2f
b8
f9
ee
e9
00
02
ee
aa
dc
26
a6
71
ef
27
de
2e
04
24
81
b9
2a
14
f8
cd
11
ac
db
4d
0b
01
85
f5
cc
36
08
ef
f4
16
06
24
3a
0a
46
ff
f3
27
07
ec
fc
10
d1
e7
e8
1a
c9
36
34
d0
05
0e
0c
27
eb
27
a2
e8
23
da
0a
14
1b
9a
17
0e
20
d4
ee
47
21
1c
00
0e
4f
d6
e0
e9
e1
1d
f4
02
81
d8
e4
2c
ea
d9
fc
dc
fb
1a
e9
f5
f6
24
dd
cd
43
f8
be
81
15
07
e9
e0
ca
e5
06
05
f6
1f
17
8c
0a
ff
24
c7
03
e1
35
26
b0
5d
f9
2c
02
c8
c8
e2
3c
32
ee
4e
40
eb
f6
f5
0d
f9
1b
74
c5
4d
2c
dc
ed
ea
1f
14
32
4a
04
35
70
46
81
f6
11
49
3e
e7
dc
c5
c8
10
f9
12
fb
c7
e8
29
59
03
e8
4f
14
c3
0d
49
c1
54
12
02
f0
ff
fa
f6
1d
1c
04
de
1b
fd
04
0b
e6
60
2f
23
1e
f0
f3
0a
ec
11
f0
1a
fa
04
9f
0f
d9
d8
64
c8
e6
04
32
f4
e8
08
08
08
41
17
0a
60
19
f9
18
fe
19
1e
7f
23
34
03
16
07
fc
13
15
be
25
0a
f7
0a
28
c0
27
de
f4
08
12
fa
33
44
e1
1a
0a
d7
08
1e
0e
e9
26
f1
00
39
eb
ef
c9
e6
ec
04
ac
fa
d8
c2
57
4c
f8
ec
4c
ce
20
c1
f6
14
cd
df
55
23
05
f1
a7
14
d5
30
ee
f8
ed
24
f5
66
ff
32
d8
0b
1f
2f
f8
f0
fe
9b
fc
0d
ce
07
db
b0
28
f7
ec
c8
c6
fb
f7
ff
e3
f1
c8
81
0c
ed
d0
31
d7
fe
e1
ee
e7
d7
fc
18
cf
d3
f0
01
0c
00
33
20
36
04
00
ec
0f
fc
30
25
6a
02
ff
04
d3
0b
c6
33
f9
f4
31
1d
03
24
17
c9
0d
ed
05
cb
33
4c
0d
1d
f6
fc
09
d8
e1
28
f1
f2
e5
05
31
ff
12
dd
1b
ff
15
ee
ed
01
81
00
2b
05
14
0c
f8
d0
f3
06
bb
ef
2a
23
1e
1e
d4
f3
ca
12
c9
f8
1d
eb
c9
e7
38
f1
01
31
23
e6
32
10
22
9d
47
19
1a
f7
d7
35
08
05
f2
02
fc
f6
2c
1c
d7
d2
f0
fa
81
d4
24
fa
ee
28
1a
2a
17
ff
3c
00
