01
1f
92
62
e6
8e
df
42
7e
52
e3
f0
c5
9c
64
2b
08
a9
f4
c1
24
13
35
af
f8
e7
dd
cc
6a
3f
f4
57
bb
4c
78
d2
d6
de
c3
c4
3a
0e
cd
e9
85
1e
f8
e8
89
e9
19
af
38
3a
73
7d
8f
42
f5
2a
16
05
06
48
f0
31
7d
44
b7
0d
6b
97
5f
eb
18
e5
57
ec
3d
34
b7
25
0f
f5
01
22
83
ff
57
f0
62
e6
9c
aa
e3
b4
75
35
34
39
74
2e
e3
69
97
1d
04
b6
47
7a
58
6d
29
d5
df
3e
60
84
70
bc
4c
3a
aa
82
94
85
7b
5a
16
9c
ba
54
9e
01
5b
ad
10
e9
f6
61
50
ea
40
fa
d5
d5
e4
e9
ce
45
8b
ba
83
12
19
c0
da
ad
44
19
f3
89
8a
c0
fe
1a
7d
7f
92
74
08
75
59
79
69
b7
d7
31
02
d2
01
09
c2
f8
8f
21
e2
50
db
bf
f4
16
b7
05
82
5d
a8
13
ec
a2
ec
fe
bc
73
d1
d5
af
cb
8d
99
b5
39
cf
d8
39
8a
30
58
7a
96
7a
0a
e5
39
9e
1c
01
85
86
5b
4a
34
ca
71
87
c7
c9
43
5d
c1
e3
d7
89
e6
0f
b7
64
11
94
99
c9
76
ec
c9
41
4b
4c
98
d0
41
23
43
36
a4
3e
3b
cd
ca
07
c7
6e
c5
eb
ce
3f
7e
40
54
c9
e1
b2
3a
f8
91
5c
43
99
d0
46
3f
fd
60
a4
66
2d
80
4b
e6
ea
48
83
c2
f2
b7
79
f9
8f
a7
cf
3e
c2
41
70
61
7b
df
94
fc
01
f3
9e
c7
1b
45
f2
41
d2
56
0e
54
01
13
c1
75
23
1f
6f
2e
77
61
bf
7a
e4
2b
46
3f
1b
32
05
11
39
f5
da
f7
9b
d7
84
dd
d7
32
2d
f8
2b
43
88
7f
b7
95
f2
e1
a4
4a
0e
06
ff
96
aa
7c
4b
53
bc
ef
31
6a
90
01
42
4c
c5
1f
fe
28
12
8f
13
1a
f0
40
20
5a
f8
b1
90
79
17
ab
35
52
f3
6a
f7
f5
f7
60
9b
d4
d1
08
2f
2d
ff
96
2c
da
25
ec
94
bc
50
d3
83
c4
e9
8c
5c
ac
fe
c9
3f
be
40
2d
13
54
c2
70
80
76
80
00
98
35
ec
8c
4d
aa
b3
16
e9
d4
4c
81
58
22
6d
8f
35
72
b5
00
a1
8d
98
ce
99
7a
7f
66
21
4c
b1
a1
9a
d3
50
29
50
dc
62
51
a2
5c
83
9c
ce
0a
1f
57
ff
1f
5c
09
db
df
f1
30
dc
79
19
91
d3
b5
20
34
9a
f4
7f
db
88
d6
0a
ff
49
da
25
4c
1d
ce
97
66
71
d5
b3
b7
9d
61
dd
9e
d8
02
36
f6
25
f4
e2
49
ff
de
16
24
1c
ea
43
44
48
0c
9e
7f
ff
dc
0b
86
61
52
35
96
eb
b2
f3
41
e5
a7
3c
7e
b4
70
65
f8
e2
5a
d7
65
03
58
e8
6b
7b
62
9f
c6
51
6c
04
ee
20
32
df
cb
cf
a6
e8
ad
ab
52
c3
a3
5a
73
ff
c1
f3
94
12
57
2c
e5
d5
90
52
33
07
e8
81
c6
bd
ee
3e
2d
69
e3
cb
5b
1a
f4
7c
1b
e1
0d
77
2e
5c
cf
ed
4d
d9
92
df
c8
5f
9c
bb
92
cf
a0
59
8b
ea
88
68
07
a0
98
a1
dd
0f
71
80
52
21
6b
5d
f9
de
21
19
84
98
15
de
e0
f9
0a
cd
57
01
db
9f
d8
77
54
53
39
47
7f
e3
ab
97
8e
29
ab
df
72
51
06
59
c2
1b
44
68
c4
e8
37
f2
a1
4f
5a
dc
44
fc
47
75
63
7e
21
da
38
84
34
76
82
bc
12
6d
b7
f9
41
5c
f9
27
44
73
11
f7
c0
97
bf
2e
4c
c4
df
4e
d3
ac
67
7e
b2
24
06
48
70
8a
54
9d
8a
18
a6
ff
3c
ea
30
fb
5c
f5
0b
49
a4
19
1b
a3
89
84
38
76
ee
2d
72
36
c9
8b
a7
42
10
bb
1a
e1
01
ff
d4
f3
df
51
ad
e2
b0
56
01
af
00
20
94
a4
03
06
eb
1f
bd
38
e3
be
4a
87
1d
37
65
f9
e4
dc
8f
21
9a
25
f2
c9
bb
3b
fd
37
34
4f
49
14
81
07
a7
79
cd
8f
f9
05
fe
f6
03
ae
91
f1
cb
38
c0
e3
33
93
8a
d9
33
21
e1
9b
73
d4
5c
d9
47
a8
d4
29
c2
ff
c4
09
51
d6
43
26
2f
9d
57
6a
0e
7f
17
d2
02
07
35
5d
5e
a6
01
f8
73
5f
19
e0
e9
c9
5a
c2
f2
dc
c6
cc
ee
e5
dd
5c
3c
7c
20
aa
e2
b5
08
3c
76
fb
7a
1d
c2
c2
a4
be
80
88
a3
65
40
de
16
15
c0
ed
3e
a5
ee
e5
c6
14
80
ac
65
04
e3
11
7b
82
0a
c6
5b
02
70
11
61
76
3f
c4
ed
35
1d
77
43
8b
3d
72
01
52
fe
e4
bf
70
4e
df
39
11
78
61
50
23
e4
7a
b5
b7
21
3b
22
b6
04
17
a6
53
fd
b2
8d
6b
d1
44
63
81
0b
5d
5e
9a
c3
d0
c3
13
c6
d8
5e
c4
2d
5e
a8
5e
dc
04
59
a4
02
1e
d3
22
81
28
d0
25
8b
93
44
f5
6f
40
2b
3c
1b
76
1a
60
b2
ca
11
25
e6
cc
ff
04
c1
a8
c9
d6
68
b4
b9
e1
f8
de
d4
60
f5
37
64
bd
e2
c3
73
3c
89
a3
50
65
43
2d
c1
af
b9
83
b8
56
b1
43
fe
73
7d
74
d8
25
a9
d9
1b
f2
56
0c
b9
2b
9f
5c
04
a8
36
39
45
eb
77
d7
88
a3
33
9c
ff
44
39
28
a0
2a
1f
c2
cc
0e
15
f5
cf
9f
76
90
82
d2
eb
fd
f0
48
28
53
f6
9a
3d
73
c6
ce
16
eb
ec
bf
75
35
87
e0
65
14
ae
6c
04
78
55
31
4a
22
48
f8
48
6f
32
fb
fd
87
d8
89
ef
dd
e0
a9
24
3c
00
e8
98
e2
01
a7
77
77
c1
7d
cb
4e
69
79
61
5b
83
81
2f
51
25
c1
e9
01
78
dc
d1
e1
a1
35
3d
dd
67
46
43
98
05
31
ca
c4
f2
c8
18
fb
25
dd
14
00
3a
a1
21
4c
f8
71
1f
27
f8
a2
01
f1
f1
0d
ee
ec
11
9c
20
17
16
26
f1
2d
19
03
f1
e4
e9
20
76
1a
8c
07
24
fc
d0
0e
0a
d8
d4
34
ed
78
e2
24
6d
b1
b0
c8
34
01
2a
4b
57
33
33
85
5a
d1
e9
a3
66
d4
2b
4e
9a
a2
0e
cf
49
ea
3f
4f
77
ab
3d
79
e2
d6
d0
63
1f
ba
6c
da
f7
47
b8
8c
99
5d
c3
30
34
91
45
b0
df
9d
b6
df
e9
b2
69
d8
80
ef
05
5e
96
67
6d
f5
26
17
21
0f
9b
82
85
39
8e
35
11
10
f1
a3
ff
5c
26
b6
ed
ee
24
ff
57
bd
b3
da
48
66
84
40
fb
09
f4
fc
6e
58
c2
3b
f6
b3
11
1f
7f
c9
81
18
50
d0
54
41
2c
a0
7d
29
22
fe
d9
5c
56
28
f0
58
79
0e
9b
87
7e
2a
7c
d3
13
19
ca
87
98
7b
b7
94
42
15
48
03
2b
ff
80
ff
b6
f7
57
0f
3c
8b
bf
7e
af
c5
71
4b
6c
f5
31
1c
33
0c
97
90
90
87
d4
7b
52
08
5e
e4
2f
8b
87
d8
03
36
a1
e3
6e
74
8f
30
3d
11
c4
c9
71
dd
ad
36
9f
18
e6
a7
42
f2
17
bf
66
e6
de
44
2c
6a
18
85
ea
dd
c0
92
51
39
e5
b1
97
b6
ef
7e
ba
b2
01
23
cc
84
c2
a2
c6
cc
a9
17
60
d1
d6
e4
af
fe
2f
cc
4e
e3
07
fd
ca
2a
c8
9a
03
49
17
67
01
88
39
da
13
b8
e2
72
1d
ca
ad
fe
b0
aa
5b
b2
72
48
ea
3d
10
ad
a0
03
5f
37
2f
ee
c0
fa
bd
6f
37
b5
99
03
b8
7d
16
97
88
c3
2c
9d
e2
15
22
82
46
c0
71
f5
09
4b
0a
4f
3a
f7
72
49
e1
9c
69
7c
28
ff
53
4a
92
56
2c
16
4f
c1
7e
b2
3f
8e
f8
eb
21
8b
c7
e4
16
57
6a
37
63
97
a6
55
82
d8
66
bd
f2
8a
6a
1e
ed
e7
83
53
61
10
b9
13
7e
eb
18
66
e0
1d
11
16
4c
da
cd
9f
02
05
f6
c6
a0
43
a4
f4
c3
8f
d7
83
0b
ef
3d
d0
8b
d5
c4
36
f6
cc
b8
da
05
f0
e8
2d
26
6c
a4
1e
9b
fb
b9
48
b2
ff
da
c3
6f
1d
f7
dc
2f
ad
d7
f0
62
97
7e
f7
68
36
52
b7
b9
9f
a5
01
05
da
7c
d2
92
1f
98
92
f1
f2
ac
eb
27
09
d8
94
ce
cf
c1
d1
20
ad
2f
68
ea
ca
e3
ff
18
cc
ab
cb
f2
41
c4
37
49
b2
08
dc
2d
f4
fc
27
0e
df
52
c9
04
db
cb
25
a8
1d
d6
6b
4b
ae
10
34
0d
ab
c3
e8
13
1f
bd
e9
69
26
bc
03
3b
f8
f9
3c
d4
af
4f
f1
b6
9c
37
c7
1a
71
1e
1f
f0
21
10
9e
32
a5
77
37
b5
b6
b3
ff
ff
a4
7d
97
d8
2d
21
e1
40
70
7f
b4
cf
0f
46
92
d0
b9
1b
65
ad
cb
dd
d6
f5
ee
50
3a
2b
27
67
f5
76
e1
d5
49
33
d6
5b
c7
01
ed
ec
a8
79
fe
c5
59
d1
32
5b
58
ba
5b
dd
32
cd
7f
89
fc
f0
d7
28
32
b0
ad
71
c5
4c
ea
a2
bf
2d
44
31
9f
e1
a7
3a
50
be
3d
b5
26
f2
84
d9
c4
5d
db
de
06
7c
69
19
37
b3
0c
2d
ae
57
08
ea
41
8f
cd
98
c6
71
26
43
94
cd
97
ed
95
ad
57
fe
70
0b
af
60
6b
a6
82
53
85
c3
25
62
bf
17
ff
a3
2c
9c
da
0b
d5
34
19
12
66
88
a1
b8
ad
7a
bf
67
cc
c1
7a
ed
54
16
d9
9c
69
ac
62
fb
c2
7c
02
53
1e
bb
55
d2
43
1a
3c
5b
1b
6a
01
00
cf
05
b8
5a
09
0a
2e
7f
c6
6f
4f
90
07
c5
8b
ed
3d
14
a9
bb
01
b9
26
e4
c1
c9
2b
ea
ac
63
23
3b
32
d0
37
fd
ff
0e
27
b6
dd
20
c8
1a
fc
f6
6a
43
62
f2
07
c5
23
2a
24
1c
c1
1e
06
ee
0b
10
b9
a4
ff
ce
13
67
82
0f
43
ef
7f
96
3d
17
26
d7
26
26
bf
0a
5c
8d
65
f6
69
08
e6
b1
a4
fa
ea
e9
a9
0f
fc
02
30
2e
02
76
ee
0c
fd
f4
e6
d5
2e
3a
f2
eb
7d
4b
13
22
ba
ea
31
0c
77
8b
11
04
8a
1e
26
b0
dd
58
d0
ce
37
06
0c
ad
5d
3e
44
ec
b2
62
b8
1a
f9
a9
25
e3
56
81
d3
a2
4f
37
01
43
86
84
b6
e6
e5
5b
f9
e7
f1
92
d4
ac
7e
4c
0c
eb
3e
da
d0
28
0c
44
b1
06
f2
83
97
28
e6
09
ba
11
64
8d
43
8a
d1
56
d5
33
56
bc
71
6a
d4
8e
92
7b
68
d7
db
72
99
49
d5
e5
3c
27
96
ff
dc
fd
95
9e
ae
db
47
d3
ae
ab
fa
82
ca
85
01
74
01
1b
23
1d
a6
2a
10
07
e1
d7
d1
05
7b
8b
95
c7
77
ff
da
f2
e0
8a
b7
a3
40
07
9d
d3
ac
d1
d7
4d
d4
5f
f5
40
55
9c
f4
bd
11
85
3c
2f
b5
b2
cb
81
ed
1e
a7
c3
6c
ab
f8
b7
fa
0a
9c
06
47
f5
6b
17
4a
64
95
c7
b6
9f
04
01
7a
f5
f2
74
92
96
d7
bc
e6
ff
fa
60
23
98
ed
a3
29
68
9b
a2
e3
c0
97
88
f5
4f
15
02
b8
11
0e
d1
69
de
0b
f8
ce
1e
dd
08
a4
5f
7a
5d
ea
72
03
ca
4d
7e
8b
ae
e5
80
73
e2
13
fd
fe
d3
f4
0e
0c
07
bf
bd
11
1d
77
b0
c2
ff
ef
8f
53
43
b6
bf
44
47
c5
52
75
32
80
55
e2
2b
da
cd
0d
83
27
b9
da
c1
64
b0
e7
88
c6
1e
0b
3b
91
93
3c
ea
61
54
51
44
d9
84
43
14
a2
9c
ab
c8
0b
7f
35
f8
bc
17
a4
0a
a2
ec
11
34
d8
0c
20
26
ba
b9
03
c7
30
2e
a3
32
45
d8
d4
3d
dd
8d
ff
a0
c8
41
2a
f7
a9
29
00
ff
b0
1e
d8
ee
a9
50
cb
dd
81
c7
bc
44
85
9c
ce
8c
6f
99
5e
19
ed
94
bf
0c
f6
f8
29
fe
c8
33
0e
d2
16
4e
fe
27
d8
af
43
9c
11
88
8c
27
03
25
01
0f
a9
1a
76
44
c7
4e
47
18
91
a0
12
f1
b6
1b
23
16
a6
5f
db
40
28
fa
08
03
c5
cc
34
58
51
9e
d0
e2
bb
22
48
01
a6
46
34
1a
fd
66
96
51
66
d9
2a
1b
b8
12
d8
c9
ad
a0
0a
87
48
8a
c1
ff
0a
29
d2
ce
a7
7b
92
c3
93
b1
60
1b
d7
3a
91
d7
78
27
c4
78
27
ab
20
41
2d
9e
e1
12
e0
b5
53
8b
97
83
a0
8e
6d
52
47
3d
d3
d4
c1
3c
19
58
df
cb
45
78
92
75
5b
90
3b
60
77
de
0f
e9
d5
c4
b6
99
6d
8c
16
77
ce
6d
f0
eb
3a
06
e0
8b
75
07
db
65
38
fb
10
f6
fd
f2
fa
0b
91
4e
d9
61
02
33
7a
41
3a
59
81
3f
79
b8
ad
65
9f
01
d5
9c
0c
b9
0f
ac
60
d5
20
6f
05
13
fd
b3
8d
ff
a1
bf
aa
4c
ae
50
81
a2
7f
dc
ea
b0
34
35
10
4b
a0
78
58
02
f1
04
8d
79
8f
b0
9f
cd
fc
e6
38
5e
c2
ad
87
c8
cc
11
aa
be
cc
52
14
de
4e
fa
2e
64
49
a8
de
f3
63
81
07
42
12
de
3b
51
29
44
fd
83
58
2b
75
f7
fc
a8
09
89
7b
2d
47
c1
5b
e0
41
1c
99
59
80
e9
3e
f7
94
46
59
78
09
3c
b0
23
ed
28
35
5a
0c
be
60
b7
25
e6
67
79
a5
6f
3f
e1
f8
bf
be
ec
d7
1c
6d
e6
6e
22
10
ce
1c
16
01
0e
aa
cf
f4
ea
be
cf
67
56
78
57
bf
91
ff
1b
f3
28
81
58
6a
11
59
4f
8f
24
da
8b
2f
b2
59
11
64
cf
7f
15
3e
f4
49
f2
bf
83
1a
c3
e4
20
3f
c8
d6
ba
19
12
8e
5f
05
c2
80
8b
05
c1
e4
1b
a7
f9
1f
4b
73
91
73
0c
13
9e
ef
ff
2c
25
a7
cf
1c
91
04
d6
90
0b
7d
ff
7c
fb
18
80
00
82
15
f0
ff
0d
ea
63
6b
4a
95
fa
b0
e7
0d
0b
d1
ea
3e
1e
5e
a7
86
b4
c7
f5
3b
ea
3b
24
12
82
9f
56
cb
ed
94
93
6f
3d
99
2a
3b
dc
b2
3d
f3
7d
d4
fd
d5
2c
db
27
25
1e
11
0c
1d
66
2c
4f
e5
ae
e6
f3
6f
e3
d4
5d
63
6f
79
39
68
ef
25
08
c5
05
7a
4b
fa
c4
e8
e8
66
2f
c6
ae
c8
d0
fd
6e
01
36
1c
9a
2a
6c
f7
eb
b1
49
5b
4d
17
1f
8a
57
25
bd
91
48
02
79
13
05
d5
1c
6c
c5
1b
1f
6d
31
5b
57
fd
9a
97
49
f7
04
53
70
db
e2
91
4f
63
e5
cc
a9
e9
34
ff
dc
04
1f
18
ce
cc
5d
cc
e4
44
1b
1c
d8
35
08
0b
4e
c5
c1
eb
94
04
d1
3f
48
ad
99
bd
01
76
28
08
48
6a
e6
ea
75
70
01
87
77
f1
fd
43
96
59
5c
dc
72
6a
6e
2c
64
fd
45
79
f3
11
16
1c
52
61
f3
f6
02
22
bf
f8
fe
04
13
2b
b0
17
df
aa
fb
c3
0b
3a
0a
61
5d
d5
0b
b3
88
1e
06
8d
e6
1c
c7
3b
bc
ba
52
34
dd
c6
a2
4f
14
c5
20
69
17
5c
2d
7e
e0
3c
ac
e5
14
dc
2c
e9
66
a3
1a
63
4d
8b
ff
14
da
2a
d7
5e
a3
69
13
18
e5
10
7c
6a
d4
09
b3
fa
ab
2b
c4
5b
7d
14
24
da
81
2d
f5
da
ae
b0
19
84
b1
bd
a3
17
9e
3e
59
af
ba
47
ad
fb
dd
9f
78
60
dc
7e
17
4d
bb
a3
0a
17
db
12
0d
43
5f
8c
b0
79
4e
35
6a
0b
7d
c0
40
5e
18
ff
f8
18
3b
eb
49
22
f9
ff
a3
aa
af
6f
f6
74
b9
22
bb
a1
d4
30
a4
99
a3
f7
01
50
8a
c1
23
0a
f5
31
ac
89
60
97
fb
20
32
65
fc
e5
83
e0
e9
cd
d9
5c
9e
9c
13
df
b2
19
71
38
37
74
a1
d4
2e
3c
35
c7
ff
9d
71
94
a2
e8
fb
db
2b
49
d3
23
37
88
aa
f4
9f
d8
e8
d2
9b
4f
7c
89
96
cd
bb
13
e7
ff
ff
1f
38
22
fc
fc
d9
18
97
7f
f5
d2
dc
ec
c1
e4
ac
2a
cb
e5
c7
a9
18
01
b8
8d
d5
95
32
62
6c
ee
1c
9a
0d
51
78
ec
f7
e1
a6
27
be
24
de
a4
5f
df
d8
fe
cd
8c
a7
f2
01
1d
ff
9e
fd
e9
a0
fb
3c
15
6c
4b
ea
c0
75
e0
b9
1a
97
66
13
60
3c
c1
21
e9
e4
81
a0
90
87
3e
35
23
7d
0d
a1
67
b7
44
f8
33
70
52
43
a2
62
a7
15
60
28
44
04
5c
7a
10
65
2a
b3
5b
9e
e6
f2
bc
01
03
6a
ca
02
6e
cc
ef
1c
af
0c
df
b6
7e
e8
e9
97
c3
4d
f9
be
45
ba
b6
9e
be
5f
4f
04
9d
40
b1
55
e6
b6
2c
88
1c
cf
9d
e4
ca
82
5c
c4
df
d2
2f
3d
c5
c5
3c
09
ea
84
e8
d2
c3
dc
cd
01
79
4b
00
c8
f8
ed
f6
4b
d6
08
08
d2
7a
c1
6f
7b
af
a5
8a
49
6c
31
fa
f7
64
4b
9e
6f
5f
26
09
4a
c0
f7
83
eb
37
f8
ea
bc
c9
bc
af
e4
cb
e1
44
2e
54
59
1d
39
18
d2
b9
69
16
9a
c6
15
47
af
33
c1
29
35
29
97
aa
13
47
be
0b
ff
df
02
e6
f6
b2
27
cf
1e
cb
9f
b6
87
a7
c2
22
9a
74
c3
82
3d
c7
27
a4
69
41
e6
e2
72
b8
ee
bb
c6
4e
26
20
52
5d
72
b4
9f
b7
31
14
1c
fa
c3
da
18
a2
61
43
eb
90
c9
46
e4
0f
83
74
83
0b
00
93
13
5d
b4
5e
cf
64
ff
5f
06
62
c0
65
fd
e5
ca
34
f6
62
8d
e9
10
3f
e6
a4
aa
cc
7d
ac
e6
8d
e7
ae
4e
c2
13
b7
81
32
fb
71
31
2c
0f
71
f6
1c
de
1d
35
22
f1
bd
fc
1c
01
26
cb
14
2f
17
1d
b2
84
8c
6d
a0
55
d7
47
77
58
05
cc
ce
c0
c3
ae
48
7b
09
dc
fd
c2
e9
5c
f1
68
76
2e
a4
f1
89
83
57
66
d6
16
72
3d
a2
8b
f1
98
e7
89
82
26
e0
ba
58
8f
9b
60
a4
86
9f
7e
81
3d
d3
a4
ac
cd
89
b4
df
0c
fb
55
2a
80
25
16
56
84
ca
33
e3
94
cc
3a
9a
80
fc
2b
37
fd
3c
e7
f6
78
21
e6
55
41
5c
e8
cc
22
78
fd
9c
d8
57
ae
4c
e2
a9
fc
80
ff
c6
35
b0
5e
e1
0c
b9
2e
a3
01
38
1e
34
99
07
ed
fd
90
2c
44
22
62
f8
54
e1
43
33
c1
db
bb
8d
11
dc
6d
f7
a3
4f
33
1e
f4
6b
bd
f0
3a
42
3f
70
18
1a
99
bd
b2
7a
3f
43
0b
1d
c5
2a
cf
00
a8
10
3a
fe
14
0d
77
fa
72
e2
f5
d3
52
e8
23
81
8e
ae
6c
f9
53
4b
6f
2a
d3
cd
f7
bc
d4
74
4b
53
4b
74
db
14
2a
b8
c6
c5
ef
cc
54
6a
85
f4
8b
2e
57
58
d5
4a
0a
37
fd
07
8a
05
ce
26
01
24
3a
80
cb
dc
94
98
d0
d8
fc
c0
c2
ff
ef
82
00
c9
2c
1f
d3
f0
11
96
24
74
42
af
9b
33
08
ff
b0
75
fe
ef
5f
39
e7
f6
f7
f0
db
cf
4a
81
07
ac
d6
c8
c9
67
7d
ed
7d
14
41
b4
07
54
3a
63
12
ce
e9
27
b7
e2
85
87
4e
a7
18
b0
e1
ad
4b
88
c7
c6
f0
de
04
85
ed
01
df
01
05
5d
c7
ff
6a
a2
ee
09
2c
19
68
e2
34
f5
82
d7
32
56
eb
18
61
88
1f
97
f8
12
ea
3b
17
3b
e4
21
11
a6
23
1d
fa
b6
de
ef
08
45
5a
17
f5
c0
34
eb
4c
fe
ce
cd
97
86
24
