83
30
bb
57
85
7e
b9
2a
2d
f8
45
28
64
fd
34
b2
49
98
ae
38
b4
4a
1c
01
a0
1b
ce
a2
ac
0b
de
74
d8
fa
3d
2c
a3
bf
2f
fb
2b
81
a3
98
f8
51
27
be
f9
40
8a
c5
82
ff
ca
08
46
83
c9
91
d7
f6
77
0e
b5
e4
22
c9
fb
22
e5
04
c5
63
aa
d0
ca
e2
60
7e
4f
e0
5c
e5
1a
3f
23
ed
da
fb
10
b4
17
33
49
c6
c9
e0
9a
7c
c0
5f
c0
3c
b5
96
e0
96
08
3e
f3
ea
44
8e
cb
30
58
01
dd
9d
e1
5c
85
5e
ab
c1
51
e8
3e
2d
95
01
d1
56
a5
75
d3
19
b4
6d
ca
e8
b5
d5
64
25
cb
09
f1
35
28
a9
8c
93
0f
ec
76
d0
36
ae
a4
7e
f1
d7
d0
cb
24
9c
8a
ce
93
e0
e3
eb
98
ff
ba
ad
7c
c3
44
f6
cc
8e
e3
94
ff
c4
54
12
6f
ca
32
12
13
9c
f9
cd
82
27
06
0b
0c
e4
2a
68
6b
38
82
ba
2a
49
59
fb
8d
6f
a9
8c
56
ca
be
43
f1
b5
ac
34
22
8b
08
7c
82
cb
1f
01
ee
07
6b
f5
ad
3c
45
8e
c9
6c
44
97
ed
16
58
e4
ba
72
03
f8
66
96
b4
aa
36
c0
2c
71
4f
7a
63
24
2e
22
39
9e
3a
01
0e
e6
a0
dc
cd
5a
9d
28
65
1e
aa
49
30
d6
bb
bf
0a
55
75
53
1e
2b
49
05
ca
a6
f7
8c
c9
69
48
c7
b8
2d
c4
1a
a4
3d
e1
3d
e7
6f
4f
7f
71
32
a5
93
d0
7d
75
d6
53
23
d9
57
63
18
c8
aa
98
79
12
05
81
15
d0
1e
01
b5
e4
83
84
f9
bb
57
c6
dc
4e
b1
e3
ec
9c
e1
eb
b2
9d
fa
2d
a5
a3
d6
89
29
cc
88
ff
89
4f
a8
de
7d
32
46
2a
8e
bf
a2
20
26
88
f0
c8
ff
c7
4d
5c
e6
77
02
1a
c8
e1
c3
4c
01
b9
65
78
ff
a6
d5
69
42
54
d1
91
fa
4e
12
7a
72
b1
d2
20
6a
3b
c0
0b
39
4b
65
1b
9f
d9
06
3a
48
bd
a7
98
58
9e
0b
96
4a
81
a6
a7
5f
10
a5
98
e0
67
86
c6
92
6c
80
5e
18
69
87
2b
06
0f
bf
4f
89
82
01
c1
a0
4d
37
55
10
4a
70
6e
b2
d1
fe
2e
1f
40
81
b3
ee
e9
0c
0e
38
55
56
d0
1f
e4
01
07
7f
db
d2
e9
d2
c4
2a
26
ed
19
b4
10
4b
0b
3a
0f
f4
64
ca
2c
4d
2c
fd
a9
34
71
ef
20
c1
eb
37
07
e6
75
6a
dc
af
95
5f
d1
47
3f
13
04
5d
c4
0c
e4
f1
cc
02
57
d6
5a
93
ad
1b
99
cb
53
7b
d2
ba
78
a8
d8
d4
17
74
ca
95
ff
31
da
a1
21
55
61
07
df
bb
18
2d
40
a7
67
88
fd
2a
fb
30
f2
fa
e3
30
92
f8
29
8c
c8
f1
11
d6
0f
2e
3e
16
13
5a
35
07
90
1f
34
f7
d5
25
6e
d2
18
3d
c4
ff
7c
94
79
0d
13
d5
f3
68
16
c3
29
54
cb
c6
32
b1
13
4a
e0
31
e8
f4
fe
32
ef
46
ce
c2
80
c4
cb
a8
d0
39
bf
a0
32
b2
dd
fd
59
47
82
26
b4
07
1a
f5
fd
1e
09
c5
4f
ad
15
7c
ce
51
79
12
11
01
8e
1c
a0
29
dc
84
b7
d0
83
d9
21
f0
8f
ea
a5
d2
29
92
dd
bb
36
f9
e0
0e
31
68
c5
e7
3b
11
50
95
da
2c
1b
e5
75
65
da
47
0f
90
09
dc
c3
ca
4f
6c
d6
85
ff
1e
12
5d
7f
73
62
16
bb
e8
38
c2
b7
0d
37
98
35
ef
f4
e9
54
df
3e
0a
ea
18
c8
9e
7b
21
ca
fb
35
75
a6
34
c2
32
b8
25
e1
5c
ff
13
18
67
b3
e2
1a
99
ad
81
43
65
f4
85
0a
ee
09
96
d6
6f
36
d3
e3
e4
47
b2
1b
bb
eb
b1
0e
02
d8
84
4f
a7
42
ee
2b
67
f9
34
43
f4
ec
b5
6d
c0
b3
93
3a
e8
58
14
d1
d4
21
f7
5c
74
79
65
8c
8e
ac
7b
8c
22
81
b3
43
63
67
0c
73
e0
f6
d2
c1
71
6d
54
63
4f
d6
dd
1f
76
35
3f
2e
a7
ad
0f
1f
8a
b4
c6
fc
13
46
01
52
68
85
0b
83
f7
53
fe
8a
47
27
d4
c5
4f
b1
6a
52
18
17
be
47
42
44
64
d8
66
e8
e3
2f
3a
67
58
e2
05
4a
cf
1d
10
4f
6c
76
d6
53
88
dc
40
01
44
d2
44
8b
14
da
10
f4
73
62
c2
b7
f4
ae
e2
d8
fe
9b
86
05
4c
a5
5c
26
3b
14
5e
2a
17
3e
24
00
4d
ff
21
d6
1c
42
dd
2c
41
d3
96
6e
75
39
ca
4e
97
54
f6
0e
ad
53
e5
72
01
0e
24
20
fe
07
ea
c0
2e
56
8b
dc
2b
6d
56
c9
dc
fd
11
91
23
02
28
2b
53
7c
53
87
b5
3a
53
aa
ba
05
31
bc
a5
fb
b6
25
7a
fb
41
12
31
16
d8
a9
c8
06
74
45
41
00
cf
a9
40
c9
4b
4d
41
8b
11
00
ef
67
17
bd
72
d0
e6
ff
fc
ed
36
d9
30
91
f1
7d
2c
f1
d8
eb
21
11
f6
7d
d7
b6
d3
af
e6
e6
bd
cf
89
ba
b4
4b
17
91
0a
46
bd
f5
69
0c
1c
1a
25
e3
4d
97
03
00
99
8e
30
49
00
7c
1a
8a
6e
0a
44
b3
da
1e
d5
4d
3e
7f
fa
85
d9
88
91
e4
ff
a7
d8
4c
4f
3a
92
f9
61
11
4a
4b
7f
2e
be
ad
14
33
76
d1
2d
fa
e3
8e
7d
9c
e0
30
5b
99
56
54
f9
43
48
73
a0
d6
46
84
7f
38
b3
01
1f
af
f7
01
6e
16
94
89
75
f3
67
35
b6
c7
8a
78
bc
c1
14
48
24
b6
7d
ae
a4
34
2f
eb
97
09
6b
51
cc
d1
b8
6d
bb
cd
4a
62
0e
94
65
b3
e8
0a
4e
cb
e9
80
d9
8b
ed
96
7f
4e
17
ed
c5
72
17
5c
39
89
c7
89
3d
87
bd
2f
6e
01
93
56
6f
04
f6
9e
91
5b
c7
50
55
9f
59
d2
a8
6a
66
dc
ce
2c
6f
08
10
10
e8
e4
c0
7c
d6
65
7a
05
4d
92
ae
90
a1
da
f4
b8
67
49
6b
6f
fa
0b
69
50
13
4f
ff
03
03
1e
33
9b
d0
d4
75
d9
64
8d
4d
c5
cb
ca
8f
13
e9
13
80
f4
dd
28
61
a6
98
bc
13
78
0c
a6
08
cf
29
d8
67
f4
5a
be
1f
21
c2
d6
1b
88
a9
a6
5c
46
c1
01
1f
2d
aa
fa
24
ee
eb
0a
c2
9c
04
2b
7e
8a
25
d4
79
ea
0f
3b
8b
7f
01
c0
07
bb
66
1b
43
69
60
b0
f0
35
bf
b4
43
28
80
5e
b0
13
9c
72
4b
fe
09
fd
0f
4a
8a
ca
90
18
57
13
a0
76
35
c4
be
f8
db
1c
ed
24
85
a2
a8
f1
14
d2
da
55
da
fa
31
ef
ec
45
48
72
28
23
e9
64
97
d8
e2
9b
ce
c0
e4
a2
54
8a
03
e9
21
6a
e9
5e
02
ca
6a
46
c5
bf
4a
12
9d
13
1f
c2
4f
e8
52
58
2c
05
47
91
55
2d
af
e4
f8
01
6a
35
ef
0f
6b
4e
43
91
0f
dc
d2
79
9b
b6
65
73
1a
c6
a7
13
c2
e6
c7
3f
bc
ae
18
9b
99
a6
49
01
2f
39
49
0e
cb
8c
15
f9
55
e0
40
d5
df
5f
71
59
59
6c
f9
45
20
ed
ce
eb
ee
90
47
98
b3
d2
0f
3e
04
31
13
49
1b
3d
ce
03
e6
19
68
75
47
66
00
66
ea
44
d1
68
ff
93
02
31
79
e3
8e
81
df
34
39
cd
62
70
99
4b
ec
61
f7
d5
47
77
f8
8d
f5
0b
e2
e2
0e
4b
5d
28
1b
56
01
49
b6
4c
c0
6d
82
52
ff
10
90
aa
a7
cf
91
c3
ac
25
12
19
23
29
e8
80
2b
9f
65
ae
9d
4a
17
6f
75
4b
4d
dd
5f
c9
d1
88
3f
50
c5
05
1f
6d
a0
ef
0a
ff
42
e0
df
5d
47
86
12
b9
1c
39
f3
4e
78
00
d1
5d
68
ee
b6
8d
85
d3
ad
fb
0a
ec
fd
7a
ea
68
78
bc
fe
75
d2
c6
c8
b8
f7
44
c2
cf
e3
84
92
5f
c7
33
f3
db
b4
06
96
e5
b6
cb
90
99
21
91
4e
9f
19
f3
7d
17
92
f4
74
ee
2c
16
ea
f0
00
e0
ed
2e
89
3a
25
e2
02
80
2e
28
78
ff
65
b9
60
18
3b
e6
01
51
b8
6c
9d
31
21
01
8b
1b
d0
88
fa
b9
04
b6
49
53
d7
82
79
48
02
92
1c
6d
b7
c1
83
cb
3e
1c
94
63
ca
93
e5
fc
5f
de
75
3c
65
aa
87
79
1f
4e
f0
5a
b7
fe
e7
ca
49
2b
e4
88
04
23
92
ad
91
13
bb
23
a9
4b
b3
fb
f2
33
0b
01
9c
aa
22
05
aa
f7
0c
60
fe
06
d7
01
6e
e6
e9
a0
fe
20
09
33
ca
85
d5
a7
32
fe
51
05
d7
ec
20
f1
a0
25
14
bb
fd
da
64
00
bb
e3
dd
e1
f6
54
06
39
de
76
bc
69
b8
a5
91
02
1d
e2
0d
74
de
b9
63
0d
e7
7a
17
81
7a
f0
e6
73
4a
74
ba
30
46
48
d6
52
38
d7
b2
9a
5b
ae
3a
e1
c9
be
25
ee
43
38
9c
7f
9d
a3
2e
5c
1d
3b
57
2b
09
01
71
f9
9e
43
dc
bc
36
bc
33
96
db
5e
c9
05
e3
fc
8f
4f
f9
01
5b
64
b3
2c
64
69
86
a1
97
c1
66
3f
a2
85
b2
8b
38
69
fd
be
06
b5
c6
1b
ae
7b
17
47
61
e6
88
14
45
54
f1
e6
0e
da
d7
a3
35
62
0f
a6
1c
2c
ad
7a
b1
01
27
fc
05
0f
1c
4a
ae
d6
51
6a
70
e4
91
3d
fd
5f
4f
8a
a7
24
dc
51
7c
0d
5a
1d
b1
3e
ff
da
3a
2f
e2
08
02
ea
94
ed
96
f1
da
16
35
80
27
2d
85
7a
52
4e
0b
bd
4b
ad
24
09
8e
2f
90
43
3d
3f
9f
a4
0c
c0
b4
56
ec
86
a2
e1
24
7a
5d
b8
99
7d
1c
f1
a7
ed
9e
47
51
b9
f2
01
a3
23
8a
a3
47
5a
67
ce
48
b7
8c
01
2c
82
a5
70
1e
f6
0f
3e
c1
e9
76
d7
cf
0e
20
22
5d
fa
87
ce
56
fc
0d
7a
53
6f
16
d7
55
e3
1b
b1
6f
c5
fa
d4
20
70
d7
e4
34
6a
9a
80
d9
80
d3
53
e1
27
e6
92
67
54
5d
6e
c5
4d
9f
9e
fb
09
87
89
9c
17
f0
46
53
2d
3a
51
a4
20
f2
35
63
06
32
e5
d1
2c
ea
63
22
67
3c
19
33
7c
c5
57
69
a4
c9
ed
ff
30
bb
c9
0d
80
22
bb
77
94
38
47
ce
f1
b0
de
b1
a4
f6
e4
9b
3b
03
8c
a9
51
62
59
36
ce
b2
ce
fd
84
0a
2e
d6
05
bd
f9
c1
65
ce
36
f5
f7
eb
a6
75
d8
5d
3a
28
d7
58
ca
95
c9
40
ad
53
d7
44
02
ca
b3
f9
cf
b4
01
bd
ce
b7
76
aa
7b
1c
e1
11
d8
c5
e3
53
77
4c
c9
cc
ba
8f
da
6d
a2
7e
56
18
c6
be
83
85
32
60
c3
91
9b
ed
a7
a6
e5
7e
b4
67
66
41
6f
ff
52
d5
73
9c
ca
34
89
4e
7d
2f
b2
79
fe
7f
6a
a5
f6
fb
ee
2d
ac
0b
80
fb
4b
20
4d
82
16
49
e6
ac
a5
03
10
ff
8d
22
98
2a
ae
cc
d6
a5
5a
90
0c
9d
dc
3b
ab
36
e6
84
2c
cf
38
5a
19
43
3a
af
64
f9
76
5e
73
1e
0f
47
1e
1d
70
5e
6c
0e
10
9e
4b
d0
f7
12
93
12
e8
5b
1a
18
36
29
45
dc
45
1d
2c
87
a4
4e
49
7b
1f
a0
36
c4
00
e5
e1
c5
5b
e4
52
f4
8d
ec
e5
89
6b
1f
1f
82
ab
01
ad
f5
f2
6c
3c
ce
1d
3a
d4
99
c1
ee
7a
07
5b
01
3f
d4
82
24
5b
ec
83
b8
fa
eb
3e
4b
d4
6a
66
a2
27
d9
a8
ea
c5
b1
eb
6f
16
69
1e
0c
b1
03
4c
0e
18
83
1c
ed
f0
1a
7c
0b
6f
99
73
41
ae
de
05
52
be
bf
76
b5
4a
cb
19
65
e4
4a
b3
a5
71
0e
a5
01
1a
72
e3
4a
32
f5
cb
f4
5e
74
cd
ff
ac
19
2f
bc
d4
22
23
5a
dd
03
7e
6f
d7
51
e5
db
1d
e5
44
36
fd
39
23
24
e8
a9
e5
0a
e0
b0
4f
6e
06
18
e2
6c
d3
51
4a
e6
3c
8f
15
f2
e3
ff
9e
1d
0d
5c
28
05
b8
73
2b
bb
e9
b4
d3
49
9e
72
25
7b
42
6b
f2
b3
11
55
7a
00
61
e4
90
e3
d8
28
fd
52
2c
3e
f5
3a
f4
e3
c5
c7
fa
e3
76
bc
2c
c1
d3
f6
47
b8
07
da
e6
15
f8
ff
92
2e
e6
58
22
05
1f
1d
96
e8
6e
e6
95
ea
d0
14
68
9c
0f
00
80
c3
53
17
cf
43
d3
a4
42
86
70
99
b1
93
87
7c
e5
1e
f8
0f
7e
f8
3e
b4
be
91
5d
10
39
13
79
ff
e5
7d
ce
ee
d3
d6
28
98
e3
c0
12
e5
b3
27
e5
24
80
e3
3e
b3
b1
f5
fb
d3
af
e5
97
01
e2
51
23
0f
95
a4
1a
94
47
1d
fd
67
cb
e6
58
cd
1e
eb
76
d7
41
de
30
e2
f8
b9
21
b2
06
fd
3a
ed
f6
5c
54
07
5d
60
f2
d2
ea
4a
da
05
fa
da
7e
46
31
78
d0
02
52
cd
d8
88
45
96
7a
ff
72
1e
48
b9
84
eb
ea
c0
bb
f4
87
cd
8f
8a
eb
5f
2b
40
d3
06
c3
0f
e9
3a
b1
bd
d5
29
a3
b4
83
50
ed
e0
ae
86
e5
e6
26
2b
57
6a
5a
91
48
ae
23
91
b6
37
e8
ad
48
58
03
f1
83
10
1b
e5
dd
f6
e9
60
c5
1b
14
01
cf
0b
36
bb
33
80
c7
82
76
b7
79
c5
20
6f
1f
d4
9a
01
cd
b3
06
13
5a
4f
f0
6c
3e
69
ab
bb
8f
5e
fe
80
e3
d4
e5
24
8a
44
bd
42
5c
03
9e
4f
ff
cc
ef
71
5e
2d
8e
8b
d2
b5
58
47
7b
f5
9d
1d
af
a1
e8
19
cd
c0
71
f1
a2
ff
a5
4a
ed
78
d0
2f
5f
0e
fa
6a
d4
8f
6e
87
f9
01
45
e9
ec
b4
c4
70
d2
02
c9
6e
37
ce
de
e2
3b
74
b0
1f
6f
26
ad
69
e4
1c
6b
e3
0a
75
56
d5
7e
d9
81
49
f8
d1
87
4f
cd
bc
3e
9f
1b
e7
ea
4c
33
66
8b
b2
52
58
50
04
d1
33
89
b6
fb
21
b0
e1
f0
37
8b
fa
03
d5
2c
13
d8
d4
ee
81
d1
55
27
bf
90
35
d8
c9
2e
23
49
dd
e9
db
43
2f
e7
f2
e7
32
4b
a4
f1
61
2b
75
78
8b
fc
ff
0a
2e
63
0d
b4
4e
a6
f9
d6
5d
d0
e4
c7
08
13
25
0b
5a
e8
c1
b0
97
d6
30
1e
d4
f0
25
0b
e7
ac
5c
ca
d6
f5
d2
3e
d7
fd
3e
3a
ec
ae
44
d4
ba
54
bd
32
e1
e1
a5
82
ec
aa
2a
31
08
d5
92
5d
25
df
a3
d2
ff
d0
f2
a0
73
78
5c
0f
74
d6
43
18
d1
05
e6
f5
8d
23
ad
4c
f2
1b
7a
a2
18
cf
da
80
47
f8
a5
bd
4a
48
25
44
b4
05
01
ae
b7
02
61
e8
3f
e7
54
83
ab
e9
5c
7d
3d
91
1f
f2
39
70
e7
4e
1c
75
ff
51
84
51
3a
c9
f8
d1
ba
dc
b4
37
b6
c0
08
6f
01
a3
f7
39
bb
f5
d0
16
88
b3
c2
98
19
85
0f
ec
eb
b1
ec
e5
7c
32
6f
f7
f6
37
2a
c3
d2
00
22
9e
79
dc
ac
7f
0e
bb
de
b9
4b
84
aa
55
9d
26
ab
03
eb
e8
c9
9d
a8
8f
e9
10
7f
86
2e
4f
0c
7a
f6
c5
d9
f5
f2
80
99
b3
4f
c7
c4
1a
37
83
22
25
18
81
6c
ea
c6
12
27
3b
86
db
b3
e3
4b
09
65
cf
02
8c
be
6e
1e
d1
d4
f7
d8
be
9c
81
d4
36
81
8e
00
aa
ff
dd
7c
15
e8
10
fc
12
2d
7e
78
00
2b
ea
f7
a0
c1
73
bf
28
f7
48
db
40
3e
b2
bd
71
72
49
88
47
e2
69
00
4e
c8
db
0c
34
af
c6
52
83
a8
54
64
ed
41
dd
51
ee
1e
cb
c8
85
ff
04
23
5e
f2
ad
60
11
a7
0f
a9
2c
c2
28
59
cc
e8
5c
70
54
32
f5
7e
99
32
cf
59
5c
da
9f
cd
e0
8c
d1
52
2d
4e
d1
67
01
62
ed
98
59
f7
10
65
a2
40
dc
9f
f6
d6
82
35
49
ea
d4
2d
7e
2e
a6
77
62
ac
d5
47
fa
48
e3
e2
95
ad
c0
ce
60
f3
93
ca
b5
93
4a
d4
84
8e
78
8d
20
79
ba
4a
f1
ab
6f
64
a9
bc
20
00
f0
f4
2a
b2
ff
1a
a3
81
82
ec
0b
3d
1e
8e
9b
31
a7
24
07
2d
2f
79
20
4b
7d
3a
d9
64
bb
ed
16
b9
df
bd
a7
32
7e
d2
df
ba
d2
32
0c
24
f4
bb
7e
a5
f2
2b
9b
63
2a
e1
c4
bd
63
92
1c
20
8b
cd
a6
bd
8c
49
9d
f9
bc
29
ba
dd
8f
05
12
ba
dd
db
dc
7c
cd
b7
1a
35
67
01
91
f8
45
78
63
f9
03
d7
61
d9
a3
79
d3
f5
c4
3f
82
06
24
fe
7a
f0
b3
fe
44
ff
10
36
d4
30
46
9c
d1
10
b3
50
8c
5c
4a
68
c8
46
68
22
3a
c5
ff
0c
6d
49
3d
58
27
c3
e6
6f
36
fd
40
36
e4
c0
05
0b
07
71
af
cd
c0
81
59
35
44
89
60
0b
47
8e
2e
ca
a9
97
c3
e8
5e
45
f2
ca
ff
d1
5b
e2
be
3d
99
b3
27
34
bc
93
4c
16
42
4e
d7
ec
7a
bd
0c
c6
81
af
11
59
e4
5c
f4
dc
d4
a2
98
4c
16
05
5b
c8
1b
32
a3
fd
99
2f
15
ec
0f
b5
8b
05
2f
af
af
2e
b4
ae
dc
84
65
a0
2e
e4
d4
ec
f5
38
b2
0c
7f
f9
a4
f2
d5
44
35
75
29
74
8d
bb
82
10
83
20
af
b2
83
21
bb
9d
03
0e
a5
5b
15
6a
b0
08
b9
cf
42
3e
c2
57
64
cf
e0
f3
7e
90
c7
6b
14
50
92
ba
e6
d9
e4
72
b2
f4
0e
0a
ff
3a
cc
ed
93
79
e7
0a
b2
88
4c
56
08
86
46
0c
02
33
0f
ef
42
97
8d
f9
ee
e6
5b
0f
43
1e
a6
d5
50
79
bb
8c
a2
7d
bb
18
92
57
1f
28
a1
17
18
52
60
37
38
ff
33
50
af
41
d1
fb
16
57
9c
d2
6a
4a
5d
ba
f2
17
b8
46
ce
ca
2e
e1
ec
94
e3
2e
42
64
d3
12
9e
c1
0e
2e
8c
c8
e3
1c
c6
11
45
09
67
1c
f8
a8
da
b2
bb
0b
b9
1c
e1
4a
f8
d4
20
3e
3e
f9
b8
fb
c8
19
91
be
a6
1f
ff
ce
29
8b
f7
68
ab
f6
52
60
d9
24
0f
81
c6
4b
57
18
87
e2
41
d0
85
67
cf
75
96
c6
a1
9b
73
fd
00
e9
2f
93
27
ef
f4
70
32
75
01
3a
e4
3c
07
66
ec
f9
b2
64
1b
0e
b9
07
b5
4d
ec
c0
dc
b0
01
46
f1
a1
d6
9d
6e
0c
fd
0e
15
43
ea
44
e2
28
99
4f
d6
3a
0d
98
18
e3
53
8c
1e
78
62
3f
00
7e
02
2d
ab
f4
01
25
ec
9d
18
23
80
95
b3
1d
71
cc
b8
a4
0a
db
df
4c
50
1d
b9
ee
fe
db
bb
c7
f9
40
9f
4b
23
8f
7a
ae
76
b8
ea
e7
9a
f3
65
76
63
91
44
78
2f
b4
b1
75
3d
24
c5
db
2d
e3
dd
fd
c0
c4
be
fb
53
59
ba
dd
4a
57
b6
d7
d0
c0
08
5c
94
3e
6c
e1
3d
1b
33
a2
c6
3f
40
e2
77
85
d6
e8
20
f1
63
a6
01
52
1a
e1
d9
39
14
fe
01
9e
2d
81
e3
d9
6d
c8
5e
d3
58
3e
c9
d1
53
ea
d2
5a
65
f4
de
f8
d6
83
1f
d1
2b
93
c0
ef
32
7c
01
9a
98
bf
f1
bc
31
02
8d
04
ff
90
e4
d0
31
6d
f0
2f
f1
a6
7b
a3
a9
b8
5d
d9
01
25
37
a2
a8
b3
5f
f6
