ba
2c
57
41
0e
83
b9
fa
dc
f7
b5
87
ba
ff
e8
e3
e3
6a
23
a2
31
2a
51
ed
1a
d4
ff
ad
00
06
2b
3e
90
a5
d1
ce
a0
ba
11
f9
39
96
4a
13
0a
a8
c3
b5
87
28
37
7d
73
86
42
e4
ba
45
f7
23
c1
82
5d
2d
e5
75
57
08
fa
8b
09
d9
29
54
4f
c2
c1
bc
e0
c1
bb
d1
2b
e9
cb
e9
51
f8
6d
c1
70
8a
09
df
33
df
c3
17
76
44
e6
d6
08
ba
ce
ff
7d
01
17
4f
bd
f3
0d
9b
e5
3e
02
e0
59
49
0e
11
36
61
c8
af
4d
28
63
70
fe
57
ba
34
74
ac
48
cc
9a
e8
d5
23
86
54
fa
1c
30
ff
fd
d6
9a
6d
df
3c
fa
8d
2f
31
f8
26
cd
83
66
00
16
15
71
c1
ad
c8
d0
ee
8b
59
52
9b
45
36
8b
b7
fd
2d
f3
42
e7
76
ab
e1
9b
c0
96
df
f3
99
63
30
ba
8b
52
2e
da
f6
91
ba
03
1d
a7
cc
bd
ab
f7
01
4d
55
34
2b
a3
f3
6b
43
c5
d2
7f
c0
83
83
b9
8c
73
6e
87
e8
49
2f
bf
08
9e
a9
83
da
36
e9
b1
c7
8e
d6
0d
ff
61
d7
0f
8c
7c
dd
32
48
d5
76
8b
c1
c5
9d
2c
f2
29
fe
e4
57
c4
56
1d
11
82
36
ac
71
25
9f
ed
81
05
83
ff
6f
88
61
55
b2
07
ae
01
df
f3
b3
19
47
5f
da
b0
c9
35
23
d6
bd
40
88
c5
44
7d
0e
50
8a
ed
7b
da
95
3c
d8
db
7c
e6
0f
0d
56
04
a0
08
4d
3d
6d
40
bc
a5
d4
58
97
08
a2
db
d3
3d
26
da
8d
0c
6d
ee
4f
b7
c2
d6
11
b2
91
88
c7
bf
22
2c
e3
1f
9d
b3
ee
d0
b8
3b
f3
27
f4
c7
47
12
01
1f
d8
78
69
4a
db
a1
48
bd
3f
9e
fc
b0
21
a7
d7
3e
e9
76
d9
76
88
e4
a2
d1
35
c4
f2
6f
55
06
73
1a
9d
97
ed
81
01
c0
fe
e1
81
6a
8c
c3
fa
09
ac
fe
30
9f
24
8d
38
6c
c8
66
93
71
16
b7
4b
33
3e
ad
55
6b
77
d9
af
a7
df
a2
9a
e1
d3
dc
6e
9e
7a
29
0a
17
c7
b7
58
ce
c3
19
c2
ce
04
82
d5
68
9c
01
3a
d0
02
99
d1
52
a1
2e
3e
2c
b2
e1
94
f5
5b
21
22
3b
bf
f1
92
b7
23
28
c4
96
68
f9
89
fb
b5
c4
d6
f0
a4
e9
4b
38
80
14
74
96
3d
97
f6
4a
0e
a5
ea
39
14
0d
6b
d6
c3
6b
49
f0
c5
54
62
aa
9a
7b
5c
97
11
ff
6f
7f
ce
15
39
3a
dc
c3
82
65
65
e1
35
2b
f6
6d
c2
4e
29
48
87
a6
c7
77
eb
67
ef
0e
ca
64
20
3e
3e
c8
49
19
52
ea
22
6c
c3
2c
6f
c9
d4
e1
f7
32
b7
b1
bd
39
ef
dc
b5
6b
47
98
3a
cc
1a
74
01
bf
f7
c7
18
a2
9c
59
36
68
33
75
19
b6
30
96
70
dd
90
d3
d4
95
3c
77
7f
ef
84
4b
3a
fa
73
61
3c
a9
7b
7f
0f
54
63
15
e8
17
ff
ba
fa
ac
52
b5
24
53
21
f4
05
c6
72
18
d8
f1
30
ff
9a
68
62
5a
27
02
00
6e
fb
0d
0a
e6
5e
0d
5e
3a
16
30
52
d0
16
0d
d4
eb
d0
4f
0b
2b
24
e5
27
47
bf
af
05
40
fd
a1
28
da
c2
44
b9
32
0e
46
8b
3b
f9
3a
20
33
e7
09
a4
f7
93
4e
91
aa
42
bc
7c
88
b7
41
94
33
55
5f
a7
12
dc
48
98
76
e3
f0
a5
33
32
bf
b7
66
f8
a8
a4
9f
ef
b0
e9
0b
0f
e2
8a
de
6f
ff
43
bf
dd
4a
14
6c
6a
c8
65
70
a2
f9
b7
a1
2f
11
33
0f
67
d1
c2
2f
ab
3f
20
ff
45
aa
52
48
a7
61
ba
65
04
11
ae
31
27
3b
e4
99
87
10
9a
c5
8d
92
2a
8b
19
24
9d
65
10
2f
a1
01
55
f4
72
03
4c
c1
7d
ae
90
d4
7c
01
ba
89
9c
ca
39
87
fb
90
30
fb
28
39
e4
45
92
e8
2f
2e
cf
b9
ff
b3
cd
a6
c3
43
da
3b
d2
07
b8
24
22
57
df
ca
2b
68
f4
8b
10
8c
ee
fa
55
08
42
3b
64
3b
5f
74
b8
cb
c0
e4
d3
87
3b
2a
1f
0f
96
60
ff
07
0e
fb
d6
ec
f7
a9
39
d6
07
7e
d3
36
fe
00
29
fb
a1
b4
25
c0
cf
8e
75
b3
2e
8c
4a
e5
87
5e
28
cf
01
ee
10
6d
c1
aa
55
f0
77
43
bd
c6
39
de
c2
e0
d1
52
2d
99
9a
a1
93
6c
44
e5
74
c1
fc
d0
f9
3c
fd
51
14
61
0c
cb
5e
c2
21
ff
8a
e1
c8
f1
c1
f3
90
cd
3d
25
0d
d0
4b
83
f5
cc
31
00
9f
e1
08
6c
21
9b
8a
28
36
ef
8e
19
08
44
ad
9b
c0
91
67
37
2f
b6
76
a3
77
ed
c7
11
cb
a9
91
e3
b2
d3
a6
8e
f2
dd
98
c6
25
db
6d
07
2b
68
a1
82
4e
35
de
24
c2
e8
89
ff
49
32
f1
27
a8
a9
a8
fd
c3
a2
df
21
12
73
70
77
7d
b0
f0
32
fc
99
7c
38
62
8c
36
5c
b5
e0
17
eb
58
b4
69
0d
17
7a
4e
d1
61
96
e0
a9
59
c5
bd
d6
4a
5d
79
e2
ca
10
90
aa
b2
b7
c2
aa
ce
53
60
1e
aa
bd
95
78
2a
5e
e6
f9
7d
3b
89
b7
7c
c5
3e
f3
13
87
08
b0
bc
2c
bc
cc
05
01
27
4a
c3
4d
80
0b
0d
69
bb
6d
fa
15
26
38
5c
f5
f7
b5
d5
ee
58
f8
7b
b0
22
c2
d8
65
55
93
6b
95
2c
75
6b
4e
69
f3
5f
0c
a6
9c
53
11
f0
78
d7
b9
ff
a0
91
f6
99
8b
7b
aa
96
67
52
fb
3f
2d
98
6f
b0
fc
65
5e
94
a9
d3
e7
ca
fa
b3
b7
32
4d
02
e5
1f
97
a7
73
dd
75
5f
4e
3f
07
36
d2
df
69
8c
be
45
97
dd
ad
ba
37
bd
10
db
53
f5
4f
ff
39
a5
87
e0
57
2c
31
53
3f
2d
fd
1c
4b
74
70
ef
8a
29
d0
89
24
5d
e1
02
7f
99
dd
be
30
cc
ff
ac
19
37
00
0f
46
0b
15
ff
55
23
0c
25
08
fb
01
ab
e6
35
00
51
97
9f
43
06
43
75
80
6f
a6
cc
5e
2d
33
ab
49
5b
bb
1f
d9
49
25
f8
f2
44
08
1d
35
5a
01
ad
9a
83
d2
65
41
37
70
c0
d0
9e
4e
d0
19
b1
68
95
76
92
de
fd
56
32
89
4f
ee
0a
93
d5
53
3b
07
e9
f5
cf
72
b0
b8
cc
cb
30
79
eb
d6
89
0c
1c
31
25
17
01
e1
2e
5f
50
dd
5b
83
72
f8
b2
4f
f9
72
e1
31
83
0f
b8
69
a4
a6
06
43
0b
41
8c
76
dd
49
a2
93
94
bd
54
3e
7c
29
62
a3
32
ca
1a
56
2c
2c
32
2a
b8
f6
cb
c6
65
dc
01
de
68
a3
b8
80
9b
66
56
73
42
18
c5
89
e1
c6
3f
14
c5
c1
a7
76
1a
1d
13
a3
a4
51
88
d9
69
65
51
e8
b3
7f
bc
19
04
23
00
83
05
26
df
89
27
ec
61
f2
80
9e
7d
b0
3f
64
b9
9f
b5
d4
12
44
46
46
ec
03
7f
15
5f
90
41
27
e7
bc
60
93
f5
28
1f
a1
d6
6f
bc
c5
bb
56
04
00
78
ff
9e
73
41
85
e9
20
7e
13
aa
a6
33
41
8d
29
46
91
3d
45
a7
95
c0
fe
14
e6
47
44
7f
85
c2
ad
0d
94
2d
55
a9
98
20
3e
92
20
1e
8a
91
e1
5d
99
82
d3
7e
bd
e8
dc
0d
e3
29
3e
9c
11
64
de
59
b6
ad
ff
49
96
4a
60
2f
b6
6a
f2
25
71
36
9c
20
67
30
1e
b1
c9
cd
74
81
9e
f8
e9
f1
e7
9b
95
07
53
f7
db
6a
59
e1
77
e9
d2
62
ff
25
5b
dc
cb
05
45
11
39
a6
6f
d7
0d
c1
d1
d5
c8
08
d9
7f
b7
79
fc
e3
b0
0c
f5
e6
54
59
17
66
a0
7e
53
3b
dc
2a
12
4f
70
ab
98
6d
43
9c
69
ba
a4
73
38
a8
ed
cc
1d
25
f3
d5
b4
7c
79
a7
22
f3
e0
19
2b
f7
91
c5
ff
2b
8b
d9
75
19
85
2f
b8
b9
ed
bc
33
0a
ea
c7
2f
fb
66
92
ba
49
1b
c6
49
01
0c
64
81
81
ff
02
b4
62
74
bb
64
ef
09
d8
47
b7
5e
0f
b9
22
93
cc
af
55
35
27
f3
9b
f3
ff
58
60
ad
a7
17
6f
a8
d1
c8
9b
04
65
0a
2d
8b
10
83
e7
c0
f6
7d
7e
8e
3d
83
74
34
88
79
e2
70
93
e3
db
4e
90
4b
11
32
19
ae
bc
19
88
6d
e7
76
f7
86
65
ff
58
09
cc
a5
6d
37
9e
75
cd
88
54
5d
e6
2f
d8
86
f6
b0
e1
19
fd
93
a0
43
0c
7d
9b
3c
97
31
91
d3
53
9a
0b
6c
93
e5
21
d1
9c
e2
50
30
f4
c6
3b
c4
89
3a
3b
d5
72
37
fc
41
d4
61
68
ef
17
a5
e4
e0
5c
c9
53
82
0b
b1
e7
6d
36
44
fa
59
f7
4d
07
c4
75
ca
57
a7
48
1e
01
25
a2
9e
e1
9a
cf
d8
8a
2c
04
90
59
86
8c
48
3d
bd
da
74
46
18
6c
66
82
6e
6a
21
d5
29
5a
9e
b5
f0
91
61
d1
40
7f
01
db
32
31
38
8c
38
04
d2
b4
ea
ab
66
b2
33
70
aa
2a
94
a8
29
c1
15
e4
59
73
ef
01
58
1f
2d
83
41
25
e1
1b
16
15
03
0e
10
48
8d
5b
2e
69
ba
61
93
72
f2
99
4d
a2
e4
3e
08
45
54
62
68
71
f6
02
ee
b3
87
09
38
cb
67
ea
8e
c0
1b
c1
07
26
df
69
60
1f
8a
21
dd
da
e0
aa
10
67
1d
2f
61
48
ac
e5
85
16
c1
61
66
f1
a7
38
f1
3f
1c
c1
fa
e4
bb
b3
b5
f1
19
68
3c
ac
6d
97
37
85
01
b5
8d
f6
49
db
41
66
2d
94
1d
e5
55
e1
de
bd
05
11
49
cf
ff
65
e1
9a
13
41
c9
b1
76
f7
f0
13
18
9c
40
f4
62
09
f6
bd
41
4e
e8
ef
67
61
ff
be
5d
fe
f4
d7
91
c4
93
f8
77
e9
34
20
ad
3e
2d
31
60
29
34
5f
87
b8
50
6c
9d
4a
c6
05
b2
54
93
8e
4e
78
48
18
f1
37
35
3d
84
d7
07
1a
df
67
de
ba
e3
cb
4c
70
50
ab
6f
d9
51
3d
af
22
8a
69
d9
74
01
bb
77
85
82
48
24
d8
4e
e2
da
72
9d
d6
07
01
3e
8e
0e
8c
72
73
e6
96
01
33
8e
3b
7e
6b
1d
fd
d3
64
62
86
15
22
fe
28
0d
e0
95
88
48
de
a5
49
e3
c6
eb
90
31
39
7b
0a
3a
c6
ef
a5
06
cc
d2
30
54
24
d9
1a
16
da
2f
31
22
52
b6
3b
6d
4a
13
f2
c7
9e
01
52
33
de
48
d8
92
40
c6
37
36
e3
d6
01
01
3a
fb
45
a6
84
0a
dd
13
06
e3
1d
ac
22
11
23
94
3c
61
60
20
5d
ea
0e
60
7a
4d
e6
6a
76
87
bb
97
cb
9f
51
b6
d4
34
3f
da
12
6b
e7
ea
7f
a3
a3
60
16
8d
47
89
33
71
73
c3
b4
0c
a3
08
16
91
d6
e0
7a
b6
15
bd
04
ec
ff
a8
42
a4
e6
c6
5f
30
a5
94
62
c1
14
62
1e
27
2b
d9
d0
1f
d9
e4
a1
12
59
44
3d
78
a8
f5
b1
1b
1b
11
ba
06
89
6b
28
17
bc
69
ba
65
cb
e5
e8
f7
8b
b9
c5
f3
5c
0c
28
dc
e3
e9
0f
ab
c7
53
df
65
ce
94
ff
eb
53
4e
5c
b7
84
69
a2
10
94
ec
5c
7c
0b
85
c5
a4
2b
3d
15
e9
9c
6e
83
8f
0f
38
7b
b5
15
b0
7e
7c
4a
82
03
22
0f
56
31
85
b1
38
27
2b
e2
59
26
1c
48
87
37
f0
d8
da
db
e6
92
df
e2
8d
66
14
d4
6b
1f
35
ff
8e
da
47
01
15
96
33
d5
50
c3
da
61
d1
ce
57
d8
4b
dc
df
06
e9
98
de
93
1f
58
e7
09
18
f1
e6
3a
77
28
42
c9
44
5a
b4
6d
2a
76
70
aa
a7
13
7e
97
ab
ae
cc
f0
98
b3
9c
3e
42
fa
14
d1
fe
fa
42
93
c2
6e
bc
cf
a2
5d
ba
30
77
f0
5c
5a
3f
dd
e8
b7
7e
2e
ec
83
0c
8c
ae
d5
68
aa
29
01
6e
78
30
12
4a
38
a0
18
3f
77
b9
6b
04
46
5c
4f
bf
20
b3
5a
ad
88
a6
a2
44
64
b4
b3
7f
d2
a6
66
6f
c2
af
72
c0
13
75
27
05
68
e1
2b
d3
18
f9
18
31
4c
ff
96
7a
bf
6f
14
e9
67
0e
01
76
d0
01
a0
64
12
53
e7
f6
a6
4d
e3
a2
d3
f2
71
f2
f4
fe
77
e2
19
d6
f3
f0
03
e7
e9
39
e3
cd
c1
7a
26
ba
44
01
19
da
56
15
1d
02
1f
ce
31
7a
18
32
93
db
25
2e
b6
7b
a8
75
66
68
5f
4c
f6
fd
9f
1e
db
3f
83
1c
18
77
c7
f4
61
33
ab
9b
66
1b
15
a9
0f
01
e4
ab
1c
b8
6a
3f
85
b6
13
3f
e8
e4
ce
09
de
9f
91
b1
f5
cb
31
c7
ff
e3
64
89
98
28
38
64
85
f6
b6
dc
f9
fa
1e
1c
05
f3
bf
f1
33
20
07
bf
2f
03
fc
c7
b5
f0
11
02
dc
cc
bd
97
9e
b2
e7
15
e4
c4
b4
2c
8b
80
a7
6d
8c
a8
4f
bd
b2
a5
d8
2e
a9
27
4f
01
22
73
4b
b6
d1
61
f2
86
85
4c
4b
70
93
22
0c
d7
3c
94
7d
b8
10
e3
e8
eb
5c
2f
f1
a8
f6
32
2f
95
2e
77
69
49
45
b4
a5
8a
da
6b
ac
68
13
34
5d
14
62
5a
92
49
99
11
e3
7f
82
94
78
bf
8e
15
81
fc
d1
e5
34
34
18
c6
cb
44
16
3d
63
53
01
34
f4
ca
6c
e2
46
b7
71
8b
1e
e1
f3
ac
32
28
30
20
01
82
47
7a
18
4a
85
7b
ca
a8
21
db
b9
7e
59
22
13
42
08
b5
b5
87
68
eb
4a
a8
71
66
d7
a8
8b
68
62
91
39
88
30
26
ce
01
c4
45
3e
63
72
fe
59
a2
19
2f
92
8a
f6
2b
16
c9
da
e7
87
6c
5c
5b
e1
51
22
ad
e2
cb
b6
11
0e
b8
54
4b
c1
e0
c2
98
f3
06
67
22
2f
bb
84
f7
03
17
c1
4d
c0
92
70
2f
76
01
cf
6b
9f
7e
88
69
3c
8c
e9
2b
43
0e
d4
76
b5
9c
72
bf
3a
c1
95
40
d2
27
e4
cd
a0
4b
b3
60
3a
4c
94
ee
6c
f6
ec
cf
67
a9
5b
aa
33
d2
e0
bb
5d
65
a5
6a
67
18
ff
56
c2
15
68
3f
67
66
14
46
f8
4d
b9
31
1e
0d
eb
67
13
8f
1b
24
36
1e
ef
22
7b
e2
0b
38
ba
4c
cc
67
73
4e
96
66
1d
e1
eb
a0
4d
8b
44
0c
fb
05
7f
eb
63
61
48
ac
58
9c
62
a1
d8
a5
db
ff
60
e7
6d
a6
b6
0b
3a
c5
88
12
32
d9
5c
2e
0f
25
3d
07
ed
ef
fe
85
23
e2
01
df
70
65
f9
b1
ed
be
16
83
3a
b0
9d
14
a2
c3
39
1e
6f
10
22
d0
5b
25
3d
67
e5
ed
42
e8
a0
de
f7
a7
72
cc
b3
ad
6c
20
9e
28
9f
a2
79
0c
a0
25
4d
5e
0d
a8
a6
42
c7
e9
9f
d5
c1
00
93
ec
40
73
f3
1b
ff
09
4e
d6
a7
58
cb
9b
2c
aa
5a
0b
c1
5a
b8
bb
4e
e6
9c
ec
47
5b
b7
a9
1f
47
16
60
35
ad
69
2a
2b
8f
7d
21
46
31
e6
9a
11
a6
14
d6
8e
78
05
d3
4f
70
1a
84
e9
0c
6f
e5
85
7e
32
ee
a7
5c
c4
b6
82
30
0b
de
5c
2c
85
a3
60
fa
a1
4c
ff
a1
c6
03
7e
96
65
40
96
81
a4
98
58
e0
a9
c2
18
f9
1c
41
5a
d3
e7
e4
0c
5a
b4
52
c4
41
ce
e3
39
72
2f
3f
c4
f8
fe
fb
66
07
0b
90
01
59
40
dd
a4
1c
c1
6a
a1
7c
58
5d
9b
aa
47
38
40
7d
e6
66
b0
24
4a
7e
1f
06
c1
ca
8b
a9
75
5e
30
34
54
8b
0a
71
5c
47
de
67
fd
9e
38
0f
9e
ff
23
22
3f
0d
83
44
99
ea
dc
c9
75
9a
c9
a6
a9
60
ec
89
3a
88
93
f0
79
95
38
a5
b3
e1
b9
82
64
a2
b3
98
0b
15
64
b8
29
ea
91
87
46
36
a5
8f
3a
55
a7
33
45
55
ff
07
7b
3b
be
5e
db
70
f9
cb
f0
e0
04
70
26
ed
62
02
f4
13
04
40
ec
b6
a9
08
3e
b5
56
c7
ab
c2
e8
42
a2
62
68
5e
03
4c
37
bb
f8
20
a6
8e
a9
98
bf
c1
01
8b
a8
60
50
86
e8
cb
f4
67
54
f6
db
29
de
68
6d
61
4d
78
7c
5d
4d
d5
fe
91
17
04
69
c5
b9
ff
13
87
fb
3b
3a
cd
2c
fd
08
f7
a2
cb
2d
c9
f5
b0
49
ba
26
7c
d6
9a
ae
d6
84
82
06
8d
42
af
f3
76
0d
ca
b8
fc
28
fa
92
be
49
40
7f
4e
e8
7a
e7
a1
4c
a8
fc
23
31
6a
dd
fc
04
19
72
c2
02
fa
8a
6c
c2
5b
8c
18
e6
35
15
b7
09
ef
bc
b0
6d
f3
79
17
00
8e
b8
b7
17
83
ef
f6
5f
76
ba
b2
d7
f0
2d
b3
cc
72
b3
40
44
e2
01
8d
a6
8f
11
7d
c4
4e
23
e9
2d
0f
38
32
5a
fa
39
35
08
18
75
50
1e
a0
8a
3b
a6
36
9a
f6
28
d3
01
ea
a6
90
96
7b
cc
6a
99
36
e4
56
e2
9f
4c
e5
1f
fc
a7
66
34
fc
ad
83
01
f9
df
73
10
5b
53
94
9d
43
32
d1
57
52
01
1b
4c
f1
40
3e
ca
45
cc
05
3a
86
fa
8a
63
f1
ff
1b
3f
ff
0a
b1
e7
37
45
2a
57
97
e2
6b
98
8e
66
fd
45
ef
26
ad
48
33
f8
50
63
26
37
8c
9f
cc
74
a7
9b
53
5d
4d
3e
ac
f3
66
32
2a
54
37
c6
4d
2e
74
bd
ff
30
d7
0f
41
27
49
32
1c
05
7e
f1
39
77
b4
72
a0
ca
7d
e6
7a
f2
ff
43
b9
e3
0c
fe
08
2e
e5
97
27
9f
59
14
ae
84
ce
fb
69
2f
8e
9c
50
08
fc
be
2e
2c
5e
2f
d6
f1
43
7f
18
fe
4d
a7
e4
ee
e4
cb
88
39
9b
6d
91
92
8d
20
35
03
c5
2f
4c
3e
17
9a
ff
18
57
03
d2
4d
fb
f0
b9
9e
1a
35
43
e3
37
f7
f6
cb
d7
36
65
ee
86
8b
15
b2
e2
4a
23
0f
3c
54
77
2d
c0
af
ad
2e
17
e7
5d
cc
12
9e
46
c8
b7
7f
84
c2
b4
95
7a
b5
d1
2f
d6
4f
76
cf
f5
fb
28
58
95
2e
02
9d
37
7b
4e
39
4a
b8
50
47
e4
3d
fe
02
9b
5b
71
29
a6
e5
e5
52
48
1e
f7
b8
6f
3b
0d
22
55
e1
ce
01
59
d9
ff
68
a0
aa
50
7a
e9
f5
d3
25
10
b4
1f
6a
cd
9c
f6
97
0b
81
21
07
40
6d
1c
27
74
1d
34
6e
7f
e1
44
01
6b
d9
56
60
f4
f1
d4
c3
d2
9d
7a
76
cc
f4
a7
fb
81
6e
55
b7
73
5d
57
2b
26
29
37
a6
20
2b
7d
40
df
58
d2
04
8e
87
71
48
36
40
79
cb
56
09
0c
13
29
f8
97
4a
99
74
dc
f7
00
83
15
d7
ae
01
ed
e9
ba
c6
d9
60
6f
d5
4c
1d
35
69
54
59
16
3c
5f
ff
45
87
79
75
c0
6e
7a
85
9e
6a
96
4d
47
58
22
3b
a5
c1
e7
c6
49
ff
06
2d
95
32
a5
70
9e
cc
21
30
07
b0
fd
0a
1b
27
e3
aa
9b
0d
14
c2
bb
06
01
2d
4c
67
d7
c0
36
28
ca
08
ad
df
a0
14
90
fe
4a
9e
dc
2b
55
b1
ac
af
75
15
f3
a8
e1
15
30
40
e5
03
62
8a
b1
13
5f
2c
5a
95
52
95
