e4
00
0f
bc
00
10
07
c7
ac
44
d9
0f
f7
15
19
09
f6
f5
c3
d2
21
5f
fb
4f
5c
3b
cc
b2
f7
09
69
1f
b5
1a
30
0e
b7
e1
9e
24
e1
3e
11
ff
00
2e
f8
0a
06
17
0f
db
e2
e0
47
eb
f5
5f
fd
21
81
3e
2c
3d
0e
f4
fb
d1
02
08
0b
15
05
e4
64
cc
04
92
fc
20
26
fd
2d
18
41
12
e1
c9
2c
6a
08
0a
26
23
a8
6b
ed
f9
d3
9c
0b
26
ab
f7
b9
12
17
30
ac
13
81
27
b7
aa
e4
0f
fb
e4
19
fa
ff
d0
c6
0c
03
ec
2a
cb
f1
11
ba
ed
03
fc
e4
2c
17
4a
ec
1d
c0
3c
d8
9f
3b
39
1c
db
a2
06
06
3f
0d
d2
15
ff
c8
08
ef
bf
7f
e5
0c
45
2d
f1
70
ac
4c
3e
0f
d8
1b
bf
00
13
45
3a
15
ef
c1
f3
03
3b
25
1e
2a
f0
07
48
09
e5
d2
de
f9
cb
79
16
f8
7d
e6
75
12
ba
ee
fc
f9
8a
90
7a
d7
e4
ec
8e
19
1a
04
54
d4
34
cf
0c
49
e8
d7
11
08
b9
3b
f4
32
cb
2f
f5
10
35
16
71
9b
b4
db
2f
11
92
d6
3d
1d
e9
e3
19
11
a1
c7
72
95
81
37
16
59
25
eb
0b
4c
02
18
d4
06
ad
18
c9
dc
52
e9
15
1a
14
e6
0b
de
92
fa
46
09
03
7f
fe
1f
53
bb
f9
2b
f6
f2
f8
a3
6c
cf
9d
dc
02
da
f0
ff
f2
bc
94
ed
eb
37
ff
d0
c8
cd
d4
cd
1d
f0
d6
2c
eb
1c
3b
1d
3e
1a
cc
e3
7c
e4
34
ed
fd
e1
fa
ff
e9
b1
4c
ce
b4
33
fd
a4
0f
fe
f4
f4
17
15
d3
70
a3
f7
e0
ce
ad
32
19
c3
13
c4
81
46
cb
5a
d4
f1
e4
d0
ad
e5
25
df
49
7a
44
fd
5a
df
62
da
07
e6
40
ae
03
50
47
c1
4e
76
d5
2f
9a
a5
b7
67
eb
91
5e
27
af
ea
48
c9
ed
f2
84
19
32
0f
01
51
df
a8
1f
e4
06
18
2e
0b
49
a0
68
1c
a6
ed
fe
e5
4d
9e
ce
da
fd
2d
9e
29
52
bf
99
99
d4
81
6c
be
ef
dc
1a
37
18
44
09
c0
1b
13
1f
e6
db
10
fc
0c
fa
20
47
08
ab
10
7f
e3
dd
0a
ff
fd
f5
f6
2e
24
27
34
54
8d
2d
de
ea
a4
d7
ee
5b
9a
ee
16
d1
f8
07
eb
fe
cc
d9
01
16
01
52
0e
de
e3
f1
bd
c9
f0
d6
cf
2f
0b
2f
ee
10
09
60
0a
f1
fe
3f
c0
e8
f7
48
25
40
29
93
ab
06
7c
e4
03
b9
e2
2b
12
5a
db
1e
be
50
5f
e3
1b
fe
61
c6
08
d5
47
03
de
57
16
a7
ee
2c
02
e1
f2
2e
06
2d
fd
03
7f
18
c3
09
48
ba
01
db
b4
f9
ae
b8
7f
f4
e6
24
e3
38
66
06
f3
11
fd
b0
10
0b
11
ed
f0
ef
f9
3e
30
b2
08
2a
c2
06
d0
da
24
2b
13
34
3b
ed
2b
9a
10
73
ce
fc
43
ee
1b
e4
49
fd
fc
23
d1
cd
55
43
19
5b
5d
0c
f8
25
c2
bb
f2
1f
c1
20
39
da
d2
84
a5
d8
e3
23
28
fb
81
f7
bb
00
37
1c
a8
43
18
aa
f6
0a
e2
01
00
48
d4
ca
c3
3e
39
fe
20
29
42
05
11
02
c6
f5
55
e2
ff
22
1b
d6
1f
e7
c6
1f
9b
1a
24
1a
17
d8
9e
b5
1f
26
1e
f4
07
e7
ea
0a
3f
cc
da
f9
0f
17
e9
18
f1
01
0c
40
fc
04
ef
20
d8
d7
1d
44
01
05
12
02
55
1e
a8
f7
e4
0f
f1
1a
09
1b
db
92
1b
f5
d3
ef
cb
c7
22
52
f8
1e
3e
2d
db
f4
f1
c5
f9
eb
f2
f9
0e
7f
10
25
0f
1b
07
e6
0d
e4
12
d3
4e
c7
dd
00
0a
ee
f4
da
ce
c9
7f
f6
1e
c2
03
ea
09
35
03
f0
f6
d7
b5
0a
11
cc
12
05
30
e8
3e
32
e7
08
c8
ee
f8
e8
1d
21
5f
de
da
f3
14
ad
09
07
fb
18
dc
2a
fd
a2
b7
f7
21
e9
e4
eb
0f
ec
54
50
f0
26
1d
0c
0d
ec
2f
8e
22
10
03
fa
d9
3c
c2
2c
cd
dd
a9
31
41
a7
0f
eb
42
03
18
17
43
b9
34
08
29
c2
51
36
eb
c9
49
7f
ab
0b
2f
af
f8
e2
20
66
d4
3e
13
0e
f1
49
d7
c2
13
01
01
3b
e2
4c
1f
fd
a2
c6
02
c3
fa
df
e7
2a
2b
10
c6
27
d6
12
fd
1f
0c
d1
23
90
2f
05
e8
1c
3f
f7
10
d8
11
c3
11
f8
dd
17
b3
3f
32
19
fe
df
59
0c
7f
fa
24
19
4c
27
0b
fc
1a
2a
f3
1a
30
0a
4b
2f
ee
13
2e
03
cb
b0
ec
c7
41
e5
05
32
e1
d8
e1
40
19
0a
f1
81
d4
20
f3
f6
40
04
ff
46
a7
24
02
f8
d8
fc
ad
68
c0
b2
09
2c
cc
f6
0b
e5
bf
c2
d7
04
36
0c
bb
ab
eb
d7
a5
09
d3
d9
06
0e
7f
f2
d2
08
e7
10
06
b0
c3
fc
1b
07
b2
32
10
f3
5b
11
50
be
94
05
d1
f1
01
f1
16
2d
fc
e7
f0
e4
29
da
11
d8
4b
3b
0c
d2
20
32
98
d4
18
f9
e0
26
c4
1d
29
39
03
47
aa
29
1c
fe
10
22
74
bf
44
9b
e7
e4
7f
36
bb
fa
3c
f1
33
a0
2f
00
6b
e1
09
09
19
2c
ee
39
b7
09
1c
9c
34
14
b8
09
05
d9
e5
e4
b9
8d
ef
fa
1b
5e
dd
2d
13
c6
a9
03
ac
5d
11
35
ef
ed
bd
0e
09
2b
ff
e2
38
25
cf
fb
23
45
e2
13
1c
ff
c8
22
60
35
b2
e1
e7
cf
17
ac
23
a7
fb
00
fe
51
ee
08
d9
0e
24
1c
0e
f0
d7
48
11
c8
2d
e6
ff
fe
27
f2
6f
12
8a
11
d8
0d
e2
fd
dc
17
32
06
14
fe
c9
bf
cb
b7
0f
ec
02
e9
27
0c
f9
7f
ec
fd
08
00
0d
ea
f5
16
20
94
20
c3
e9
e0
47
1b
ed
1d
e4
18
f7
10
c2
01
d6
fb
1e
e4
a9
12
fd
f6
ce
18
e0
d6
fb
0a
ed
0f
d5
34
db
e7
db
2e
dc
3a
32
f5
03
22
33
f1
ec
7f
eb
dc
04
07
d0
d6
e3
fc
e9
05
0c
e3
fc
22
0d
22
5f
f2
0f
27
dd
5e
06
f8
f0
b4
0c
7f
f1
9f
15
d8
22
ff
cf
04
18
fa
a7
e1
eb
59
2a
19
f0
0b
ef
ea
10
0d
0f
39
b6
36
21
e3
a8
da
01
24
59
2b
33
30
82
42
28
ed
b6
14
1f
66
52
21
19
0d
2f
de
df
6a
30
44
31
e1
11
b2
ff
e4
07
d3
65
f3
d1
fd
79
01
0e
30
13
fc
b0
49
fe
d5
dd
e8
18
ba
f2
2d
fd
10
cd
df
11
fa
04
16
29
09
ce
f8
ed
0b
f6
3c
75
7f
cd
0a
34
2e
d4
26
07
e3
c8
c4
e6
2c
29
e5
e8
20
dc
df
26
e9
f3
d9
3d
fd
fc
15
2c
15
f8
c2
10
18
13
47
e4
36
cc
3d
00
04
11
49
4f
f1
09
f8
13
d1
37
a6
26
e6
16
cd
0e
48
ea
2a
fe
35
2b
58
37
42
cf
17
7f
c4
07
24
23
1f
0a
f6
f5
25
70
36
e2
b2
31
14
16
d8
fb
c9
c8
1e
c6
c6
06
f9
2d
c2
8c
f6
38
cf
0f
2d
0a
eb
ee
fc
05
e0
e5
fe
f2
3f
29
11
d5
0e
13
00
05
99
08
ed
eb
be
10
33
5e
fe
d3
cf
d4
ca
d3
f2
fe
ff
03
3b
81
61
e9
e4
e0
4e
00
e5
09
1c
fd
11
01
05
1c
15
f9
1b
e3
01
3d
06
d2
f3
0e
01
eb
e8
02
c9
09
f3
1d
e4
2a
1d
3f
ef
0a
09
fb
de
ff
23
17
14
06
e0
7f
0b
fc
cc
07
0c
18
f5
0f
ea
e3
d2
e3
32
fe
04
f1
10
f6
13
a9
10
fb
15
3a
18
09
3d
6b
f1
ab
11
00
c7
d3
89
d1
3e
1c
bc
d9
4c
25
d2
e1
d0
fb
0a
fd
e4
f0
12
43
de
de
08
35
c7
02
48
13
eb
0c
df
e7
c8
18
05
f2
16
c6
c7
7f
6b
2d
58
6b
cd
c7
34
15
fe
02
1d
2f
fc
df
e4
f8
ea
db
f2
4d
f3
fd
35
de
f5
d8
6f
ff
fb
c6
e8
0a
fe
fc
10
c0
19
21
b2
3a
ea
29
15
eb
d9
e5
fc
0a
59
0a
2d
dc
09
f3
26
e5
dd
0a
c9
23
d3
05
7f
b2
ec
f1
09
f7
b9
14
8c
d3
df
fb
cb
c3
1b
2f
ba
dd
11
da
37
b2
5b
e3
f3
50
c4
16
e4
c7
fd
d4
26
fe
25
bd
f5
08
a2
f6
e6
f2
f6
3b
15
ef
08
ed
e4
7f
f7
f9
13
ba
0d
d5
25
fa
0d
50
40
06
00
fd
bc
ef
07
19
ae
ed
e6
38
de
45
9a
0a
35
c3
16
cb
82
6b
c1
02
0a
09
ef
1b
d6
2c
be
44
bf
29
4f
f2
eb
7f
24
06
b1
4d
10
f7
88
b7
17
f4
14
e6
1f
c2
ed
00
47
01
1b
f2
b1
ef
c7
cc
ff
52
0d
fa
09
07
2f
14
04
14
11
f5
d3
e1
a4
eb
48
fa
25
cd
c3
e5
32
c1
cf
2d
ea
c2
7f
53
10
f4
d1
0c
1c
de
19
c6
ed
38
db
b7
da
9a
3a
21
86
d9
5b
f2
41
d4
34
e4
ef
5b
fd
2c
38
02
12
c2
e6
01
3e
ec
cd
32
d0
6f
20
8e
18
24
d0
da
21
1b
d0
e8
12
fc
37
ef
d0
0c
3e
27
d4
13
da
ad
54
37
83
2c
63
26
e9
e1
e5
f3
2f
92
27
bb
1e
13
0d
21
26
cf
3b
12
0e
3f
d5
6b
b1
c8
81
0d
df
05
df
ed
3b
c5
bf
eb
d0
05
0b
c5
b1
5b
7b
5f
c5
01
01
05
21
fd
c6
ff
16
7f
52
d2
79
fe
2a
3c
cb
09
d8
09
f6
16
2e
0f
e5
07
1d
ed
c2
22
36
08
d1
aa
2b
1f
d5
9f
f1
13
ca
1e
2f
ca
83
fa
d5
dc
ef
f7
24
33
0a
bc
bf
c8
0b
1b
f7
10
4c
f1
df
2e
f9
aa
17
01
b9
09
02
e6
14
de
36
01
b9
ec
fd
08
fc
fa
17
17
e4
50
cc
b9
ae
02
b1
0e
ff
10
21
d1
35
4e
dd
0d
fb
18
a0
04
0e
25
16
cb
11
cc
f4
fc
03
29
dd
5f
8a
ed
fa
0b
4d
a6
43
e6
c8
15
7f
01
0f
11
d8
24
16
42
09
20
35
58
33
c5
1c
23
08
d0
e8
18
c7
f3
f4
10
7f
c0
be
4c
20
e2
dd
f7
8d
a8
63
0e
f5
67
33
54
24
c2
42
09
af
c3
01
ab
5d
99
aa
05
ea
86
17
05
d1
d3
f9
d6
08
36
37
c4
0f
85
e7
d9
e7
e2
cd
49
31
e0
46
2c
dc
65
fb
2a
e2
b5
0b
14
dd
ec
ec
9e
1a
84
3f
17
2b
46
08
7f
a4
18
bb
12
cd
d5
e1
05
0f
f4
f1
2d
af
16
f7
f7
e6
3d
d9
37
f4
f5
18
bc
fe
da
b0
28
f7
3e
37
c2
35
b6
05
36
ee
36
6d
0f
d9
d7
e5
e2
e1
d8
e5
d8
0b
24
7f
e1
e6
f9
c9
d1
e2
ea
38
c2
ce
d2
f8
1d
38
07
c5
02
f8
c6
fe
17
c6
3c
d8
fb
21
1a
16
29
92
12
31
19
f9
e5
0a
40
29
27
31
eb
fa
ca
f7
49
1e
47
2e
68
2b
16
3a
3d
a9
09
de
ca
07
fc
b7
e7
16
e3
50
49
fa
a6
f8
22
05
e0
e7
eb
3a
0a
d8
0a
75
fd
da
d7
c3
e6
ff
4c
de
28
f8
fb
06
b3
e7
7f
bf
10
02
28
d8
4c
cf
13
2f
3f
2d
da
f7
10
10
30
e5
45
2e
47
a8
d2
fb
d8
07
27
13
01
65
fe
43
ec
f4
d1
06
c4
4e
f5
04
ed
27
94
2a
81
f8
a4
09
39
65
0c
f6
ca
3e
ed
2f
5e
d5
18
13
e8
23
19
f6
d2
17
0e
4a
33
1e
d0
ee
57
07
cb
8f
21
fb
b4
32
3d
09
e2
66
1a
f7
df
d3
d0
d9
e3
1b
3d
f6
28
40
fb
70
28
27
de
ff
f6
33
01
c0
95
a8
1c
ea
7f
b5
35
c1
cc
0c
11
1a
16
1f
55
c6
d3
d6
cf
ef
23
19
17
1d
00
4a
f7
24
fa
30
c4
c0
ab
14
e1
eb
f8
1e
18
f0
fc
62
f9
e5
e6
4d
c7
d8
19
36
3d
10
ac
f7
38
07
06
cd
fb
a9
3e
cc
f6
3f
f1
24
09
f0
f5
38
da
d2
b9
63
d5
c3
44
21
02
6e
dd
26
0c
d7
cc
e1
b5
3e
bd
e8
22
00
ba
1a
f8
fb
b2
81
02
02
32
e3
96
d9
bd
ca
cc
e2
cf
d4
5d
cd
f9
dc
d1
04
03
f4
e8
d2
cf
15
0b
46
c3
58
26
b4
f3
f1
2a
10
02
0c
d2
39
29
10
eb
b1
dd
0d
7f
d3
23
e1
f6
f5
31
1f
1e
ce
34
27
cf
d3
a3
1f
44
6d
43
49
23
ca
b3
0e
e8
24
34
cb
1e
c9
20
db
44
d6
b8
02
dd
ff
48
0a
d4
1b
fe
1b
52
fc
fa
1a
03
8a
13
1b
24
be
01
e3
fa
5f
39
d3
e4
f0
ad
f9
d5
dc
30
16
0d
22
03
10
5c
ab
34
44
f3
09
45
fe
e6
d9
2c
7f
3c
0c
c6
bd
3c
60
1c
34
3c
1e
2c
0c
f3
f7
32
c3
1e
30
cd
16
34
98
11
06
27
a8
ed
25
46
f0
67
ec
cc
db
ef
e1
cc
35
fd
33
f5
e4
3a
00
20
1e
81
15
cd
59
e6
d4
d1
fa
ef
aa
18
a4
17
b6
03
e1
b6
2a
26
f9
d1
39
50
dd
15
1b
e2
2f
6d
d1
b3
fe
ff
c7
b4
d3
3b
c3
a2
02
27
66
0c
15
a0
17
06
c8
6f
1d
3a
ee
ff
0f
e9
7f
0f
b4
03
ec
ac
1a
d0
dd
eb
c6
06
0b
39
d3
58
af
2b
19
b5
f0
fc
eb
d7
4e
53
3c
31
fa
c6
df
17
36
01
06
6a
e6
0d
3c
2d
fe
26
d1
c0
40
f2
07
08
f0
5f
07
ff
be
17
1f
f8
08
bb
56
d8
ca
0c
2d
dc
03
fa
f1
27
36
ca
10
e2
f8
a1
c3
0e
67
ee
0c
25
44
09
2f
e5
f9
e9
d7
13
db
29
59
01
f5
b2
ef
f7
da
f0
c0
05
f1
a9
81
e4
25
5a
17
7f
4a
af
13
02
a7
f2
c3
e8
75
ee
e0
19
57
05
4e
ff
15
3a
14
58
ad
99
37
e2
e7
42
22
39
05
df
ce
c3
fc
a4
22
f9
49
f6
c5
c6
f1
f8
0a
04
00
c7
04
ec
28
1b
11
09
c1
ba
9a
df
2b
13
0b
1c
12
1e
f6
64
fc
15
0d
05
1e
ea
62
2c
c4
1b
1c
47
26
b0
d0
18
30
7f
1a
a8
ec
e9
a0
cb
81
39
b7
f4
b3
0d
a3
fc
22
f0
13
c3
33
b8
b4
42
10
4c
3d
5f
ca
a1
1e
f1
ac
d0
e8
67
3a
12
44
ef
0e
26
c1
e4
1a
33
18
2b
2e
e9
c4
1e
2d
07
d0
05
81
4a
c2
ea
04
db
ff
ea
0c
07
33
18
cb
05
d5
dc
2c
35
11
0c
2f
ad
e5
09
a9
e9
b6
87
25
c0
f6
18
0e
98
49
f4
d8
b7
d0
f2
1b
11
09
8b
a6
d8
11
bc
f4
1b
e5
19
f2
f4
09
14
ee
18
17
17
10
f8
07
38
03
19
28
df
27
c7
16
40
07
d8
ef
06
81
1f
1d
2b
da
04
0d
1f
33
19
10
27
1f
03
3f
02
2c
0f
bf
f4
c4
e0
d1
e7
c9
02
c8
39
e5
e5
0f
25
b0
c8
c7
f2
18
2f
ba
e8
0c
f2
ca
57
0d
05
22
1b
01
e1
12
15
e7
17
f0
32
3c
19
04
11
3f
00
ad
e2
f9
19
00
e9
34
0d
fd
3a
39
3b
22
e9
e3
2e
0b
19
31
1a
22
07
04
7f
cb
b3
e1
ef
c7
11
3d
0c
40
d3
d5
26
02
cd
f0
f0
ff
17
04
f1
f3
38
dc
0a
09
af
3a
f0
42
0b
42
81
2e
27
00
87
4c
f2
c0
3f
e4
c6
3a
d0
f7
d4
f6
15
e0
00
c8
2d
17
32
9d
47
23
34
cc
6a
4f
fe
1d
02
0b
5c
53
49
94
10
d0
3b
e6
4d
5e
d9
09
ef
19
f1
31
f8
ea
0c
ee
f0
f3
2a
e8
18
0e
5f
d5
db
03
fc
e6
02
16
04
f7
f1
e8
a6
20
e9
c9
dc
f5
d8
60
f5
23
ed
d5
c9
03
a1
fe
e7
3c
54
0f
1d
f3
cc
d7
f2
a0
18
1f
03
10
08
13
17
55
b8
e7
ee
d5
ee
e4
15
81
25
01
f1
d4
00
bc
ec
ed
b9
60
30
72
4e
e0
da
cc
04
ae
34
e2
54
d8
4f
05
eb
6a
44
c5
f5
db
d3
08
24
e5
1c
d4
58
2c
2a
0f
38
82
36
7f
2f
ec
5b
37
ff
08
3f
68
f0
4e
a7
b2
56
44
49
70
52
cf
16
1e
05
fd
37
05
73
f6
d7
2d
2e
2c
eb
f0
28
cc
3f
e0
04
0c
f0
1f
07
35
30
da
00
c9
fa
d5
d9
3d
53
98
d1
e2
a9
fa
e9
e5
ba
03
d8
61
ef
95
30
12
20
1f
16
ec
bc
c3
0d
e7
19
ea
d5
b5
c9
f0
81
13
56
ba
bb
16
b6
5f
61
f7
d8
46
08
5e
09
ef
bf
cc
03
8d
52
59
21
a1
b4
b1
42
0e
fa
14
35
0d
f6
f6
37
2f
68
f3
19
be
0d
c1
cd
07
a0
02
e5
fe
61
db
5b
ec
f3
a1
90
fd
fc
7f
53
c1
7c
6b
3d
e0
e2
15
de
74
fb
fa
41
69
f2
d7
06
e9
dd
f0
e9
ba
c9
3b
20
2b
f6
e3
f9
fd
f7
9a
dd
fa
44
82
d2
3d
ed
24
f0
09
c3
f2
7f
ea
f3
ce
e5
3f
f0
00
4a
e6
fe
0f
b2
d2
04
0f
10
e2
e1
06
48
f0
b8
2d
33
98
d2
29
11
2b
14
f0
ff
f2
1b
55
f8
ef
12
fa
43
4c
ff
f4
de
01
f6
ec
f7
24
1d
f3
0d
0a
00
18
7f
b9
0c
d5
10
30
e4
1d
fb
0d
05
1a
fa
e0
f1
08
1f
2f
f6
18
15
e0
bc
d2
e6
f6
01
ed
fa
06
ff
c6
03
50
f1
0e
99
46
d3
01
e0
ff
d9
08
08
27
13
1c
0a
00
fb
16
0a
f0
e7
08
7f
d7
13
ff
1c
e7
fd
3c
0d
fe
04
dd
fd
09
e3
12
1c
da
07
03
23
16
2f
cd
fd
0c
c4
11
18
2c
e7
10
1c
0c
0e
2c
0b
fb
f0
f4
24
e6
04
2a
44
4e
22
fc
fa
4c
3c
e4
1c
19
20
ba
fc
dc
b9
fa
27
06
db
18
01
15
06
0a
f9
a8
39
81
cb
11
ff
54
03
f5
cf
5c
d2
1f
ac
ea
dd
33
17
12
1a
21
f5
2b
cc
f9
c1
ef
cd
f6
34
a0
24
38
dc
ed
f0
e3
f7
1d
60
b0
fe
56
15
0c
00
e4
e4
07
30
0f
e3
3d
0b
37
02
e5
30
e0
d4
f1
3d
11
ce
da
cf
09
94
0f
cf
1d
08
dd
ec
8e
1f
13
01
3c
1d
2c
81
05
46
9d
02
09
06
f9
0d
0d
ea
13
1d
c3
22
ff
2f
21
f0
5f
20
cc
20
61
cf
e9
ba
36
41
1e
25
20
45
ce
2b
1b
a9
01
02
2e
b5
b9
b4
37
11
f7
b1
0b
2c
8d
05
0b
23
5c
08
46
dc
fe
df
06
10
17
7c
4e
d4
d9
ec
ec
27
c6
0a
25
41
2d
a1
8c
0a
dd
d9
b4
d9
1b
39
1d
21
1e
db
52
81
bc
c8
d1
cd
c6
01
dd
d1
39
00
68
e4
1e
a1
0a
11
e5
68
04
e9
c1
30
f7
0a
5d
7f
84
e3
e4
be
33
c6
d1
14
0d
ab
25
44
97
17
d5
32
47
14
f8
2c
c4
bc
e6
57
7d
39
2e
09
f6
45
00
23
f8
4d
e6
3f
27
b4
cd
52
ff
6d
37
95
f7
cc
02
e1
c7
d3
c4
42
d0
fd
34
f3
db
39
40
08
24
f9
05
06
33
d4
f2
4a
6d
0a
66
84
f8
f6
c1
ad
fe
b5
2a
c6
81
00
0e
b7
06
ff
e2
db
c7
e9
36
1d
e7
c0
d2
05
8b
c4
db
35
bf
f5
2d
01
e4
1d
f3
f6
14
07
03
0b
e1
2f
ef
54
da
dd
37
3d
bc
0e
0c
0e
2d
d7
f2
f0
cb
04
08
29
bb
aa
21
81
24
00
26
d7
ad
e7
4b
0c
1a
05
c7
f9
1b
f5
e5
18
12
0b
15
39
22
1c
f8
f7
0c
f7
1e
e5
41
f3
cb
