de
e4
ed
be
72
e9
fe
b0
fa
f8
18
d8
50
7f
ec
07
e2
ee
49
2c
ac
13
65
18
2f
b6
28
51
1d
18
fe
97
03
f9
af
13
f7
0a
b1
d0
0b
f5
d3
14
f9
e1
ff
5b
57
ae
38
e5
8d
fa
0b
b5
b3
c7
a3
d4
2f
e5
f0
65
d8
e9
44
fb
ff
e3
09
4c
ee
cc
27
d2
ef
eb
12
79
04
e9
04
26
d3
fa
ef
f9
dc
45
04
ee
be
fa
1d
16
df
37
29
f4
51
81
f3
26
17
c6
0b
fd
db
f6
12
fe
29
25
69
fc
00
ed
bd
65
0f
c6
11
e8
10
37
0b
2b
8e
ce
d7
12
f5
dc
3a
ee
30
a0
28
b8
af
9e
bf
f0
57
d4
4c
13
0a
2d
7e
52
13
b8
0c
03
91
f6
61
e9
08
17
16
b1
48
d9
09
fa
bd
af
3d
1a
d1
03
bd
d5
27
35
fc
f7
83
9b
0c
37
2e
f9
00
3a
7f
3f
20
25
cb
e4
16
e0
c4
12
0b
ef
f2
03
0b
e4
f5
fd
f9
0e
31
af
e6
d7
da
f9
e2
e8
26
cd
b1
07
e6
01
c8
01
c8
e8
f4
f7
38
a8
08
d2
03
29
52
0c
c8
ed
eb
ee
f3
08
41
06
fd
d0
46
37
3f
ed
30
ed
12
7f
38
f0
0f
20
d9
21
f7
0f
d3
07
5f
3b
df
c4
ff
25
d4
2d
a9
3f
f9
0e
eb
e3
fc
26
ee
04
28
17
1e
ea
e6
aa
29
ea
e0
14
cd
7f
27
08
2c
97
a1
2a
f4
01
de
08
17
b8
f0
eb
22
5f
de
81
b4
19
09
ff
06
ba
ef
1e
7e
37
d7
49
ee
e4
0b
1d
ce
37
11
ef
94
e2
42
3e
1b
10
e7
2d
60
23
e3
3f
02
0c
f3
bc
35
6b
32
66
17
47
0c
90
d9
16
18
44
d0
f8
1d
11
5e
a4
cd
19
c0
d8
e4
f0
0b
90
d8
f9
41
df
df
be
92
fd
7f
d6
03
e8
56
e4
f3
0f
10
10
15
ec
fc
ec
0a
15
3b
3e
00
38
e9
e0
e9
1e
e5
06
c9
d0
23
d7
b6
f2
ed
17
f7
b7
d6
12
0d
c8
0b
3b
0a
f0
ea
e5
2a
2c
9b
cf
f2
64
24
e0
07
7f
14
2f
0e
f9
ed
f9
02
cf
fb
de
ca
42
d0
f4
ae
a4
d8
35
df
ff
8e
16
e5
26
a7
52
49
d6
24
3c
95
21
b0
d9
18
40
06
f6
f2
48
00
a0
3a
a4
df
5a
a5
cc
f5
5f
35
1f
7f
d7
0d
e4
f5
11
20
43
02
a3
5d
21
5c
1a
a1
18
e4
31
0d
02
fd
12
56
22
f8
2f
cf
04
3f
2a
c3
d9
21
c1
cb
9d
0b
e6
ec
f4
1b
34
b3
f6
f4
d4
ff
dd
08
fb
94
ff
38
34
ab
d4
20
ef
36
81
25
d9
ed
40
54
f6
10
f6
91
30
04
60
46
50
a8
89
49
54
39
d4
52
f2
eb
15
0f
a9
fe
e8
a7
e1
53
f4
04
41
2a
12
de
66
11
b2
fc
00
32
d7
ca
03
e4
42
f5
02
1d
c9
0f
31
10
1a
05
26
fb
eb
c9
e5
63
8a
f6
81
d5
01
f0
06
e5
cd
31
d0
48
26
56
44
c1
98
f5
33
9c
ca
14
f0
e6
19
61
df
f6
af
1a
ae
f5
15
ff
de
15
13
e7
e5
4b
0b
05
16
24
13
f0
c1
86
33
d9
0e
12
e7
bd
06
e4
d3
21
da
fe
f3
e6
2c
25
0f
01
e7
33
7f
24
d1
f8
41
2b
ed
13
16
43
a6
ea
fe
ec
f6
ce
b5
ce
de
07
d4
d6
e2
fd
9e
b3
b9
29
6b
ee
00
0b
89
b4
b9
2b
75
e6
1a
a5
f0
1f
2c
94
b6
0e
b6
49
00
17
1b
23
09
1a
08
fc
cc
8e
4a
e0
10
1a
d1
e4
16
8c
e6
04
06
03
5e
52
d3
46
38
cf
ea
18
81
06
24
05
04
2a
b2
1d
c3
bd
e4
d5
21
46
f8
3b
0a
f2
cb
0b
be
59
1f
cc
ee
27
41
0a
b0
ea
14
18
01
1c
b1
3b
46
e6
f7
ad
b9
1f
35
0b
0d
d3
1b
a4
2d
fe
e5
11
30
c5
62
2f
0e
f1
9f
3d
b0
3a
36
ce
88
dc
ed
e7
f1
35
00
81
34
fc
6b
ce
2b
dd
0a
0e
17
d0
06
2b
07
dc
e8
f2
2d
06
d9
17
d5
16
24
f0
e7
f2
2f
f7
d2
29
0d
ec
ff
05
23
62
ed
18
ce
f6
11
11
26
15
d0
29
eb
29
ce
c6
19
d0
d0
59
d1
55
18
e6
27
e5
2b
f3
7f
10
09
02
26
0b
f0
ea
51
e0
12
24
dd
25
2b
e9
09
0b
39
19
04
38
fc
b4
db
07
fc
3d
c6
c4
fa
12
f1
00
3f
e2
ec
4f
27
c1
ff
0b
db
4b
08
ca
c1
a6
63
f1
9f
81
1f
25
f8
3f
40
f4
f7
e4
54
f1
1c
10
eb
25
e9
26
ee
d9
43
29
e5
67
f3
05
2f
1a
e8
ab
f2
b0
a3
bc
bf
1a
2c
df
06
cf
4c
e5
be
17
aa
f5
a3
1a
04
0d
eb
0d
e4
e5
28
16
af
81
14
f5
d2
49
10
00
16
ea
6a
13
f6
45
08
fc
f2
1d
16
20
75
b6
33
6c
4c
01
fa
c0
09
13
c7
c9
f1
45
5a
02
cb
fc
2d
de
55
b1
7f
2f
1a
a5
40
01
3f
be
c3
7a
02
2a
f5
fe
9c
52
f9
c4
21
b0
5d
fe
55
1d
e5
f3
26
34
07
fc
28
46
d3
03
b6
0f
6a
c8
9a
8e
f6
b9
fc
da
b8
ea
3b
f4
d4
46
4a
df
10
58
c7
3a
ed
ec
34
da
d2
1c
cc
0e
aa
c5
22
7f
05
1e
e7
40
c1
3f
fd
d6
49
1d
33
b5
ee
ce
b0
4e
ed
9f
e6
08
12
04
3d
cb
15
d8
dc
f1
69
c9
3b
9b
b3
1d
00
55
ff
27
31
2a
e4
2c
12
09
11
4f
e7
ef
ef
15
3e
ca
14
3d
34
b0
cc
67
21
38
cc
0b
f6
15
11
de
f6
ff
02
19
b9
d0
38
2d
2e
d4
4d
31
d8
08
d8
0d
10
2d
68
5f
ec
10
ee
0a
23
aa
0e
07
1c
08
ba
01
63
61
e5
fa
01
eb
7f
07
e9
12
7b
22
9b
25
1b
ff
0e
17
1d
e4
db
eb
0b
7b
7f
99
0c
d5
ae
d0
2f
1f
4d
f7
f3
0f
9b
01
01
d2
14
04
17
24
c0
f4
09
0d
da
66
d3
01
ee
dd
61
fd
17
e8
ed
27
bb
0e
41
25
28
1e
4f
ee
d9
23
d0
e5
fa
37
f1
2a
24
c8
ff
f2
5d
ed
f8
1b
1c
e4
f6
4e
41
0c
21
c5
f9
1f
fe
ed
c8
c5
32
40
ef
ec
f8
00
7f
a4
1e
0a
22
11
d5
14
68
1f
db
2d
07
2f
d1
ec
f8
ed
30
fa
ef
2e
32
db
59
ff
fa
23
00
b2
27
f9
d4
26
96
1c
4c
81
e7
62
2c
16
8c
3a
fc
a6
9c
18
b1
2e
dd
eb
0d
23
d7
f7
92
e4
d6
03
03
fe
08
03
75
a9
ee
f9
ed
3d
b7
62
f9
d8
fb
00
27
dc
e9
b1
fe
f3
0a
c2
62
ef
c2
2f
f3
23
ff
25
42
04
5e
21
98
62
e6
02
e2
10
13
d1
c4
52
df
17
27
34
e9
e5
66
08
57
0d
fd
9c
24
2f
e2
c6
01
6b
cb
c7
f4
a6
c3
33
e4
d9
1f
ad
1d
21
e6
15
d5
81
11
4c
ea
fa
0a
4c
c2
14
db
10
69
cc
fc
b6
f9
b2
f0
fc
c7
27
0a
fb
df
fd
41
17
12
f2
f4
3b
d0
18
f1
e6
e1
fc
c2
d2
17
ff
f3
23
dd
21
0a
0a
fe
09
04
fe
fc
02
17
25
ee
fe
10
e1
5f
27
1a
00
dc
81
32
f8
fc
e8
0e
f1
c2
e8
1c
3b
3b
d0
b6
0b
2a
14
09
e9
e9
02
f1
d3
e1
3d
e4
ac
36
23
1e
df
f3
4f
fb
d8
c0
13
14
0c
f9
0f
f4
2a
e1
cc
d5
1c
09
b3
27
b5
0d
f1
54
c0
e4
31
cc
40
81
3a
e1
fa
3e
15
f8
12
35
a3
d0
cb
6c
0d
4d
d6
dc
31
6c
62
f1
2e
ec
d6
32
1a
a5
e9
2e
ae
b2
3e
36
e5
c4
01
09
f3
0f
51
26
e8
1e
fb
52
b7
e5
cd
1e
ef
14
25
07
e7
54
5e
fa
ed
ae
4d
34
cc
15
f0
51
ba
03
0f
e4
ea
1e
f7
0c
27
12
2e
ad
d0
d4
00
54
fa
95
81
33
b8
fe
21
db
d3
23
39
46
41
b7
d4
5d
dc
3b
f7
2d
e5
d7
37
40
37
7f
d7
66
07
0e
b3
28
fc
3a
f6
3e
c1
be
fc
c5
ef
ee
54
14
07
f5
cd
04
de
2e
3f
fc
05
c6
1a
15
fb
bf
ab
27
3a
9c
09
5e
1d
39
f0
3f
98
2d
0f
d6
eb
1f
33
c6
d7
3d
42
fd
23
d6
c5
f9
11
b5
10
fe
d2
99
cd
ed
33
d6
13
ab
26
01
33
b3
0a
3d
f2
f2
63
13
db
bd
81
28
31
3e
21
b7
ba
1d
f5
21
0b
bb
c0
2f
f1
61
21
2d
d3
e0
01
f1
5f
0e
2a
fd
22
fc
09
d0
97
07
f3
b9
fc
fc
27
35
e5
da
0f
f2
d8
fe
00
22
66
81
f7
d6
c9
09
56
11
0b
b3
c5
f5
99
33
ee
f6
0b
05
fd
e1
39
a7
eb
c6
0f
40
0c
0c
c0
08
ed
01
f1
17
4c
e3
31
f3
fa
53
01
b1
29
0a
3c
31
2a
fc
18
e3
fa
f9
1a
03
4c
f5
6c
f1
26
eb
0a
12
8f
ca
fc
fe
f4
27
7f
8d
47
f2
f6
d9
18
4a
46
f2
fd
22
df
1f
18
c1
b1
62
ea
e9
fc
bb
9b
fc
e8
36
df
e3
c0
c2
ea
60
e0
fa
ef
9f
e3
22
14
4a
2e
d3
c7
16
ec
0d
b5
f6
2a
24
68
be
00
af
f7
23
40
1e
c8
ea
aa
ed
21
18
63
e3
ea
7f
04
88
67
0c
04
db
ed
4f
3a
1d
12
af
1f
11
02
ae
d5
dc
c1
15
cd
db
30
ab
ec
cd
0e
1c
f4
1a
a6
ed
ff
17
d8
f1
4a
dc
fb
a4
fd
db
16
32
13
f4
4d
f5
21
21
31
0d
31
d0
de
db
f9
38
e6
f3
37
01
18
11
09
dd
1b
1a
7f
be
cf
07
07
2a
fd
c2
f8
4a
db
18
e9
dc
1e
ed
05
50
13
d6
13
fe
e7
ef
e7
f1
d6
c8
ca
0d
e1
f3
da
0b
09
fd
c9
ec
15
ca
20
1f
05
81
06
0c
e0
f9
15
21
d0
11
1e
16
fa
e3
c6
32
02
eb
22
be
00
2b
04
e3
dd
df
d3
e8
da
1d
06
dd
f2
d2
08
25
10
14
d2
46
ee
1d
10
dd
2c
18
cc
c5
f8
f6
09
fa
07
fa
23
0a
ef
19
16
fc
ec
3d
41
2f
37
13
0f
ec
17
3b
a5
ea
18
ff
f9
23
e2
e7
18
00
0f
f4
eb
d8
e5
d9
29
4d
1d
1c
1f
d2
52
a3
44
01
09
ef
dc
d6
ee
e5
d3
02
3c
e9
f1
30
1b
72
98
ca
c2
45
1e
1c
1e
e1
f4
7f
38
ed
00
a0
3b
f9
fa
e4
2b
50
2a
ef
2a
81
bd
db
47
f7
e0
1f
c0
0c
ef
2b
32
37
dc
bc
fe
f4
be
b6
08
dc
0f
f9
92
b5
10
3c
af
34
e8
d5
50
0b
4c
2c
d6
20
1a
2c
26
24
ed
00
d2
f3
44
d6
25
d2
0a
ee
e7
e6
f8
04
18
cf
2b
ff
af
1a
20
e2
e2
d7
fd
47
3d
10
23
da
18
d9
d9
f1
2b
2c
3e
51
d4
ef
fd
36
09
95
13
0f
61
d1
0b
39
f4
ef
4b
c5
26
30
bf
f7
7f
ee
0d
cc
06
f8
eb
cd
e7
ea
d7
da
02
ef
20
1e
c1
78
e5
6a
b7
cb
13
4b
fe
db
12
e4
fb
05
0d
18
37
5a
17
28
e3
12
f4
f3
3a
17
10
17
cb
f5
34
f3
d3
15
72
29
1a
ff
e0
25
d3
d9
53
bc
bc
ce
95
25
40
aa
d6
e9
f4
f2
7f
45
e6
ee
00
1c
02
05
20
e3
e7
0a
32
2a
07
d9
b3
bf
f8
40
ac
4d
27
02
f5
b8
7f
1a
55
07
b1
f2
10
24
0b
05
e9
2f
a6
ba
e7
f7
37
2f
b8
36
35
c7
3e
f0
18
f4
2c
59
68
ec
bb
16
f8
fa
dc
58
05
d5
14
f5
46
46
2a
f9
2b
f6
35
5b
26
0c
f3
e5
31
04
b6
2c
cc
fd
81
e9
e3
1f
e9
49
11
1f
37
cc
da
f5
b6
25
cc
a3
ac
38
a7
04
ee
0c
1f
0f
14
86
b6
43
f9
e8
30
f6
27
75
c8
aa
e1
fa
1f
15
04
e5
0d
16
5b
0d
eb
27
47
a8
e3
c4
25
10
36
a3
81
d7
30
37
fb
d5
e0
1f
c4
40
37
ea
f9
30
16
cb
f4
ed
ef
ff
11
f0
fa
b6
26
fc
f4
36
09
21
0f
fa
ab
40
fa
3c
c5
c9
53
1e
12
2e
f4
f3
03
50
02
cb
b7
c1
0b
28
e3
07
e9
02
4f
ed
32
06
f5
4b
d6
37
d4
ee
9e
25
5a
e3
07
f3
41
0c
d5
15
7f
0a
a2
28
22
23
14
da
eb
fc
d8
03
fe
d2
e6
fb
34
f5
16
c5
4f
fa
db
1f
ff
01
a8
07
09
39
d7
ab
c0
12
5f
cb
19
ee
0b
f5
f0
4c
ee
9f
ac
f4
02
f1
f2
f8
eb
31
2a
81
21
eb
01
13
09
1f
33
03
f4
da
1a
0d
27
cf
b2
0d
17
13
b3
c8
12
e6
33
c1
07
45
ea
ee
0a
39
fc
0c
bb
42
fc
e9
08
bf
21
44
f7
01
ea
05
e3
2f
4b
33
51
29
8f
e5
1d
fa
07
16
1c
c1
11
0c
eb
f1
5c
e0
47
58
e2
24
d2
f1
d7
f5
cb
f5
45
f6
e4
ee
10
29
02
dd
cf
0a
a0
ec
23
de
de
c2
ec
b9
ff
6c
bd
cd
2e
38
e2
89
f9
1d
08
7f
3e
e4
4b
56
d1
e0
b7
30
ee
33
3a
da
f2
2e
28
0e
34
06
94
f8
c9
07
2c
f9
d7
3f
ff
20
2a
9a
02
d5
0d
00
d6
d6
81
96
0b
c2
14
29
5f
ec
73
06
3c
08
e5
09
10
8b
0d
dd
00
1e
10
f0
00
7c
fa
f3
c1
ce
df
0c
ec
e2
23
12
22
d6
f7
04
30
c2
07
8c
02
08
0b
6a
fe
e6
19
38
a9
18
47
07
f2
f3
e1
06
ef
ff
dd
6d
cc
eb
2f
fa
cd
aa
da
d3
e2
e6
1f
27
09
2d
d4
da
82
51
2b
06
d7
f3
a9
ed
08
a0
32
ea
0c
43
ea
01
32
e4
07
23
08
1d
dd
1d
03
cf
ed
7f
46
ed
25
ea
00
14
59
2e
0a
0a
c2
dc
23
e0
d2
14
aa
11
02
f7
e1
d6
de
d5
50
bc
0a
5d
f6
1b
f3
ac
1a
d4
e3
08
d5
f7
dd
31
cb
08
09
ef
fb
96
e8
bc
8e
33
74
d3
04
02
e4
63
21
fe
e9
39
3e
8c
18
1f
1a
81
26
30
b4
0f
64
c8
fd
e0
48
ab
e4
ff
d3
6a
19
d9
0b
06
f8
e4
15
65
47
f7
d6
06
c3
cf
36
08
ff
c0
9c
15
99
db
f6
2c
0c
50
23
08
04
a4
27
cb
0e
f1
04
15
b7
32
1b
fb
07
21
46
24
4f
12
81
14
19
c7
42
cb
3a
cc
2f
b0
8e
3e
d1
4a
f1
f1
20
cc
20
ec
0e
f5
c3
d0
b2
81
fa
aa
18
fa
3c
9d
0b
3b
02
e6
b3
1f
0b
4c
ea
ce
4e
f8
46
cf
0b
e3
09
88
c1
01
17
39
dc
07
fa
f2
b9
f8
84
40
f8
88
40
3d
3b
3e
3c
07
49
55
e8
e2
37
2d
c9
f6
57
16
d7
10
fd
38
df
08
df
09
12
98
ca
f5
18
e3
bd
2c
20
d3
36
90
dd
3c
fc
d5
b4
2a
fa
b6
0a
57
09
3e
3a
0a
03
2a
fa
04
04
fd
51
0c
02
cf
25
01
13
d8
dc
c5
01
2c
7f
32
e9
24
13
55
6b
1b
fb
1a
05
32
dd
84
43
f0
e5
bc
e3
f5
c3
c7
a7
2b
4e
ba
1e
13
22
1d
f9
15
2a
ee
1d
8e
9e
dc
43
0f
10
10
9c
6c
f1
dd
f2
cd
1c
e7
62
f9
c7
19
ba
11
15
dd
f2
29
13
be
dd
7f
b6
25
ea
c4
ba
fe
c7
dc
07
d8
1d
03
40
81
26
f8
d8
26
3e
08
dc
dd
26
1b
09
09
ce
e1
45
0a
ea
fd
f4
43
d7
0f
d1
b1
04
15
90
04
12
4b
1b
a5
82
1c
f5
39
da
fb
fd
32
45
ac
cb
0e
b0
08
f5
f6
c9
e2
1c
cd
55
f3
3a
2a
02
14
1c
bf
ed
e3
d7
25
bf
d4
1c
20
f7
07
34
e3
29
12
ea
2a
f8
25
09
25
0a
29
81
f9
97
11
e3
e3
15
e4
f6
fc
22
f0
2f
04
05
e2
1c
3e
00
e9
ce
f6
13
ea
16
01
fa
b8
18
59
3a
e1
19
0c
53
29
ff
fe
33
1c
bc
06
f5
54
fd
dd
11
fe
54
f4
23
c1
00
fd
2b
81
1a
9b
07
19
01
dc
da
0b
f1
33
51
00
05
78
ed
f3
48
c8
3b
f9
de
58
8f
fd
1d
ee
40
66
f5
b1
db
cc
ff
4e
4c
9b
e5
35
5f
d6
31
ea
42
fd
ec
fe
24
dc
06
1c
fc
47
4a
fc
2b
1a
24
d3
15
0f
2d
27
c5
7f
26
2b
f5
e6
e6
28
13
05
07
10
ff
bc
fe
29
fd
3c
25
ce
fb
61
02
f6
13
d7
a4
25
de
23
d2
d6
ff
dc
2f
1f
db
49
af
f8
f5
70
e5
d5
10
ff
11
c3
c2
13
24
dd
ca
f8
16
3b
ac
4f
0f
01
b5
c9
27
00
f8
c0
e5
fa
2d
fe
d3
fd
02
23
d5
09
c7
36
31
1b
94
ef
14
ad
2e
d2
0b
e7
ee
22
7f
03
1e
e3
da
28
f6
02
03
ec
04
8b
31
45
48
f1
08
e5
e1
46
10
f6
10
0a
db
e9
39
db
dc
ea
21
1d
e0
c3
14
2b
e8
47
20
2a
22
0b
dd
22
31
10
17
18
71
ff
44
fc
e8
a0
55
14
1c
0f
d9
40
f1
39
26
e4
01
02
d8
04
37
25
3d
81
42
fd
dd
f9
ee
a5
d8
ed
f5
ef
0c
de
bd
44
e6
0c
c6
ec
33
1d
fa
eb
3e
fe
1f
0b
1e
0e
e5
f1
c9
51
e9
dc
1f
df
0f
24
f1
e6
3a
fd
1b
f5
08
f7
50
24
00
f3
c8
7f
fe
12
f1
82
b9
19
ff
11
22
0b
1c
8d
11
e3
33
51
c1
ab
d3
f9
e3
11
0c
ad
e2
05
19
13
52
fd
13
c0
11
1e
91
d9
f4
3b
d0
0b
45
1c
41
ea
fd
23
27
b5
f8
cd
37
05
f8
f6
cb
fc
3b
3d
ea
22
f6
e5
de
02
f0
25
19
41
51
c0
cc
f7
39
00
81
0e
d9
ed
e3
a4
08
00
6c
d2
38
27
00
15
d5
1f
29
e3
20
50
1e
1a
e3
fb
e7
1c
13
28
fc
09
35
c4
2c
03
ce
f4
76
08
45
f5
2b
2b
e5
fb
08
03
e4
11
c8
41
22
2d
26
13
7f
1f
fd
e7
dc
28
04
d3
44
c8
e8
2d
16
24
e3
fd
34
6f
42
0b
38
dd
a4
2f
37
e6
50
24
c1
0a
e8
9a
0a
ca
f4
c7
26
a2
25
fc
d7
fe
98
4d
ec
02
3a
dd
4e
03
0e
f1
ed
69
4d
0b
d4
54
09
7f
4a
19
e2
d5
0c
11
d5
9d
05
19
28
ab
ec
ab
63
27
c7
17
1a
0e
0b
8b
a9
19
e9
1a
1b
37
3c
02
a9
26
91
20
ed
e2
ea
e3
95
0a
20
dc
ce
36
e3
f8
0f
81
28
2b
cd
25
ce
9f
28
27
f7
1f
d9
48
13
c1
d5
29
1e
49
dc
61
12
28
de
0a
98
31
3d
c8
2a
46
1d
b0
ce
bd
36
0e
16
f6
c3
10
f2
fa
ec
12
22
d6
0a
a1
74
2d
b6
24
bf
cd
f7
1f
ff
cc
67
43
09
ab
c7
1d
b6
bd
12
cb
e4
fd
13
02
81
6b
49
ed
32
f5
ac
de
e8
1c
30
2d
c5
25
f6
05
37
0f
fc
e3
ef
1e
0f
3f
f9
c8
df
23
12
15
1b
ee
cc
e7
f7
e5
c5
0f
17
7f
eb
c3
01
09
3e
e1
d0
21
cf
1e
d3
45
0d
53
de
f3
e2
fe
d0
29
40
3c
0e
ce
34
10
10
33
b3
e9
48
2d
29
ee
05
1b
c7
f9
0a
d7
cb
2c
e7
da
e5
f3
1f
b8
e6
c6
05
4c
b4
bd
c4
4d
fb
c7
0f
ce
f6
39
f8
f0
1a
12
d9
f0
50
d8
d9
dd
13
22
00
44
fd
e4
d0
8d
3d
30
2b
f0
01
30
38
0e
f1
c4
19
f3
20
e5
3b
f4
89
81
11
3f
18
10
ca
33
f5
d0
f2
90
56
f9
0c
dd
18
db
f4
e5
4a
e9
fc
9f
e9
6c
f6
0d
21
ff
