d6
41
df
f0
f8
d1
1c
ae
e7
ea
1f
cc
3e
2d
c8
35
2d
be
81
da
9c
cb
01
02
17
38
f4
32
e8
32
21
31
10
54
d7
9c
d2
e6
f7
e7
05
03
df
eb
d7
dc
08
1a
00
ca
17
f9
1c
f9
16
13
47
03
2c
73
11
b8
71
34
1f
23
26
1f
e0
0e
00
06
f2
1f
ff
f8
04
03
06
02
07
08
cc
10
81
e0
da
30
84
2e
f0
34
df
cd
de
c8
18
e4
cc
f1
cd
cc
0d
f5
fb
04
e3
1f
0e
21
1a
0e
0e
f3
52
e9
b4
f7
fb
08
01
3c
f7
d0
da
e7
0b
c8
01
de
00
f7
05
08
ea
e9
fa
fb
fa
09
fd
0d
fc
27
dd
08
ee
f6
1b
0f
f2
1b
ec
7f
db
08
00
fa
f8
29
0c
06
fa
15
0f
21
07
10
0f
e1
05
2c
f4
1a
e3
fa
02
1a
09
28
01
ea
dd
00
f9
01
0e
ff
1f
f8
e2
fb
e7
e4
1f
f2
15
d5
f8
f3
23
e0
18
ed
2a
01
d0
da
dc
c7
04
ed
f2
db
d8
21
06
5c
7f
bb
ff
0c
e4
11
0e
11
f7
25
04
2a
fe
0e
1f
0e
03
18
17
0c
f8
e3
f1
db
31
fa
d4
23
1a
ea
d1
0c
03
21
06
09
23
f2
03
b9
f2
e6
3d
d4
e3
2a
7a
f2
fb
11
ae
aa
f8
ad
e6
d8
5c
cf
07
fc
f8
39
e5
25
41
c5
bc
7f
98
5d
bd
cc
e5
04
2f
b8
c5
fb
36
27
0d
1b
dd
10
eb
21
c1
0d
d1
25
68
e2
f0
e8
b6
fb
16
00
20
ed
13
ca
e1
5d
ff
24
eb
f5
e2
f8
a3
35
e2
06
3d
2d
01
2e
81
da
7a
33
53
a1
e0
e6
01
da
0a
29
9d
ba
4e
12
33
0e
d7
fe
1d
3b
03
ff
d4
fb
8e
af
f1
0e
2a
11
f7
18
ec
43
39
8f
00
a4
43
af
93
58
ee
d0
35
21
f6
ca
0c
05
35
d5
dd
18
20
e0
e4
f8
d3
ff
00
ca
22
fb
6d
e3
1c
0a
f0
28
34
47
ad
05
81
cb
26
6d
0e
20
0f
11
1b
f9
e8
e0
ad
1e
00
f0
0e
b3
d5
0e
e7
c8
bd
15
de
f5
da
cc
09
10
01
12
ff
f7
1b
26
04
e5
e9
e3
e5
4f
3d
f2
e9
08
d4
f1
19
0d
18
30
06
0d
ec
45
ff
3b
7f
43
1a
2a
03
ed
df
1d
1c
4f
e6
eb
2d
33
1a
10
f9
40
30
01
08
f3
13
8b
06
3a
76
45
76
67
db
2c
c7
00
4a
d7
75
ce
2e
ee
ed
fc
01
1a
fe
e7
0d
e8
01
ef
0a
e8
d9
ef
12
25
36
e1
15
0a
12
39
10
13
e6
7f
ae
26
71
e5
b1
35
94
02
d8
26
e2
2a
e7
1e
51
34
4f
f9
e1
b6
1e
fe
f5
3a
46
32
51
ea
3d
c9
d7
e0
12
1c
e9
43
51
23
eb
a1
f5
c8
1e
f2
2e
f6
22
26
36
fa
f9
03
fa
ed
02
00
f0
38
7f
3a
1e
40
d9
40
36
87
cc
0e
06
ce
ed
6a
2b
14
fb
cf
1e
2e
d7
10
f3
38
19
ff
ce
1b
c1
24
6b
b6
d6
1d
3c
0a
cf
1a
2f
ef
f4
f7
0a
47
f6
f5
fb
08
f6
fa
f1
04
f9
0a
08
06
f7
f2
01
f7
ec
0b
04
0e
20
e3
f0
02
e3
20
32
ee
0d
5b
1e
39
5b
81
d4
fd
20
e1
fd
1f
05
b7
01
ef
03
f6
05
11
f8
21
2a
0b
0c
d2
a7
21
17
01
fc
e2
05
e7
38
e6
ff
30
ef
c7
02
13
3f
ef
ff
12
4d
e2
29
38
dd
08
1f
b2
1a
d1
2b
46
9e
7f
31
0c
c9
2c
cc
1a
f4
3e
2e
1e
33
e3
3f
4f
f8
b6
37
13
01
38
1e
22
15
25
07
57
be
14
1f
e0
21
f1
dd
03
b8
32
53
39
fc
d0
23
27
ef
e5
d6
f6
09
e3
d9
ea
31
f3
ea
0a
00
c4
2b
e5
b8
ef
94
fe
d8
7f
f1
02
e5
fd
07
34
31
50
d5
09
2d
ff
0d
d0
fa
00
f1
06
17
36
fa
cf
19
ee
18
19
da
03
e9
a0
a0
c1
37
11
9c
98
1c
20
13
22
c1
11
11
4b
12
e9
fc
15
08
ec
c0
03
10
0a
27
0d
e6
28
22
54
03
02
f0
7f
3a
1c
14
f3
ea
e8
0b
de
c5
19
fe
ec
cc
02
ed
05
0b
e2
f2
fd
12
ea
13
0d
e7
26
ee
a3
dc
1c
25
62
d3
f0
54
14
e1
fc
d9
b3
44
38
38
df
e7
ac
0e
15
d0
dd
19
12
21
1a
2c
0b
e8
e8
c9
2a
c2
9f
2b
7a
f9
ea
8a
8f
f3
9c
4c
5a
81
d9
1c
b9
c7
43
33
1e
07
f1
15
f8
49
c4
08
15
0e
14
19
cc
d5
e9
28
6f
05
40
98
33
0b
28
0f
fc
d6
19
f1
2c
ed
ff
fb
27
07
f5
be
2d
ca
cc
ee
08
e7
04
16
44
a9
35
49
53
81
fb
61
fa
eb
dd
da
d7
fd
2a
2e
e8
fb
27
f7
16
21
ef
0c
0c
f9
e4
b3
31
e8
2d
60
fa
41
2b
c9
d3
dd
25
23
e4
1b
fd
01
14
f6
b7
fe
da
d3
f9
10
ef
08
2c
1b
f7
fe
ee
f0
01
0a
b2
e6
06
1a
cd
e8
ea
93
30
cc
c7
d6
5f
ef
81
a5
05
e6
ea
e8
32
27
fd
16
2e
f2
01
4b
0a
bf
e5
f7
2a
f6
f2
54
ff
fc
0e
09
02
be
ff
02
da
0c
12
38
de
ed
ca
fc
17
05
0f
07
11
eb
f4
ba
bf
fb
07
0b
08
e8
31
4d
10
7f
e3
fd
58
0a
2e
ee
26
b1
c8
1e
c0
da
29
f0
f0
ec
16
3d
1a
d1
05
c8
ff
06
c3
d3
f8
c2
0a
3b
e5
c8
bf
09
cd
f5
01
05
5b
f9
51
d1
14
f5
23
2e
fc
ef
26
1c
e9
00
03
f2
f0
1e
11
f0
10
c3
06
fd
34
f6
08
6f
0e
81
35
eb
d6
3d
2c
02
fa
f8
51
d4
f3
23
0a
f1
da
fc
e6
42
0b
03
0d
1d
fe
24
16
31
04
24
31
fe
36
ef
0b
e8
10
10
a7
00
f6
fe
07
1d
02
ac
f4
04
e5
ac
20
ef
c0
2b
1e
2f
26
2b
e0
da
e7
5d
81
aa
30
82
8f
fd
df
fa
75
f4
8b
fe
fb
29
fe
e8
09
ba
23
d3
db
24
16
f6
0e
3e
ec
39
2a
54
e6
4a
2a
e9
2e
22
4d
f2
d0
ec
14
f2
30
ed
ac
1a
fc
07
f7
d1
f4
43
b7
f4
3c
d9
bd
0d
d0
7f
15
b9
37
60
22
1b
f3
81
ec
e6
f6
f1
f1
2e
fd
d5
b0
fb
07
1b
d2
cc
05
0d
a4
38
e7
e1
d8
c4
34
dd
46
03
28
44
c0
c6
f0
f5
03
21
f3
05
1a
0d
3a
06
d0
10
f5
2c
fa
1d
12
67
be
fb
e5
e0
e0
f0
d9
fe
39
01
2a
12
a1
ce
05
8b
30
0e
18
49
f4
47
81
16
00
de
0a
fb
e9
0a
d9
fa
00
25
37
1f
cd
e9
04
24
d7
08
ee
e1
c0
f1
37
cc
55
1d
e7
0f
fe
1b
4a
23
ef
dd
2d
05
f5
c8
20
32
da
16
f2
e6
0c
05
f4
48
9a
3b
c4
3b
e4
e9
e3
6f
3c
90
5f
6b
f6
16
82
06
06
19
15
ea
e1
0e
81
d4
ff
f6
f6
e3
b4
f0
1b
0e
be
43
3b
1f
f4
0c
a6
1e
fe
13
dc
43
05
6b
4b
5e
f7
10
da
03
0e
0f
1e
53
fa
e9
e7
8e
f3
22
d7
b9
3f
e6
c7
d6
a3
27
0a
de
42
bc
31
85
68
ad
99
df
33
de
6a
27
0d
20
f3
bf
10
a7
eb
7f
30
61
2d
ef
b9
2a
af
dc
2a
9d
a2
0e
3d
1f
b0
73
36
19
e4
f2
2e
08
0a
f0
0c
da
26
eb
0d
eb
04
24
08
02
1b
db
e2
1a
c2
ea
12
c4
7f
03
0a
fb
20
68
0f
d3
0f
ff
2f
ec
f6
12
28
0d
00
12
23
f5
db
f3
f8
ee
e4
02
f1
0c
06
e3
d8
13
cb
cf
da
dd
04
dc
f6
3a
1c
1b
29
f5
1f
e3
35
1b
cf
c0
49
ec
10
2a
ea
01
11
ee
f7
7f
df
03
16
f3
31
37
62
35
28
60
52
0f
f4
38
d9
f4
07
e5
f1
f7
47
25
c2
54
24
ff
15
f7
c4
50
14
36
16
ad
fb
ee
d8
f2
03
d7
05
08
df
e7
d9
f8
b2
f3
e7
33
13
06
cd
5a
cb
dc
e2
f9
35
c4
df
b9
0f
e7
05
5a
45
27
4d
2e
9b
1e
2c
cd
db
63
dd
37
de
2c
15
dd
a1
e9
e7
44
00
3e
02
f5
13
d4
81
6b
52
19
14
3c
d3
b9
44
14
ef
5c
99
0a
35
fa
f5
ee
ee
f7
07
ef
14
f4
f5
0a
f8
09
fe
ef
04
f6
df
b5
0d
e1
ae
1a
c3
d6
d0
cb
12
c8
37
c6
91
7f
d0
f0
0b
28
dd
ff
fe
40
00
30
0a
f2
28
dd
01
f7
de
11
e9
fe
f2
2a
f7
58
f6
d5
f7
fb
1f
23
0a
f6
a4
dc
19
ef
f5
11
1d
f3
e5
f3
f9
1a
f9
fe
02
07
e6
7f
53
fc
b9
19
22
23
14
d6
1c
91
fc
46
ec
07
f0
fa
ea
09
f2
2e
0c
2b
17
26
c8
0b
12
16
f1
c6
1f
ea
e7
9a
f8
0a
f1
14
29
ca
10
c0
05
bf
fd
cf
1b
22
fe
1f
f1
00
16
e7
07
fb
f1
08
db
da
f5
03
eb
4b
7f
98
15
06
03
b7
cc
0e
7e
58
b0
31
4a
45
28
dd
e1
04
2f
57
b4
30
fc
01
f0
09
2c
35
fe
fb
0f
eb
e5
cb
1a
ef
67
f0
cd
07
16
fa
b2
c4
e3
af
de
f9
08
06
e8
07
0b
06
06
f0
00
02
e1
05
0b
0e
0d
ac
27
e7
d1
1a
06
2c
fb
02
ef
46
7f
1f
eb
37
33
11
fb
f6
04
16
04
17
05
0e
0d
ff
fb
0e
e0
f4
11
08
e4
1b
f8
e1
2f
ef
0b
f1
ee
07
eb
07
e7
39
e7
f3
ea
16
11
06
03
f6
fe
e1
09
f0
dc
0c
07
0e
12
f1
14
71
c8
37
0f
7f
0f
ad
46
00
16
16
9c
b4
d3
21
21
01
23
21
0f
15
01
fc
f4
30
09
f6
13
17
e1
35
4b
fa
de
ef
f8
41
01
e1
df
b6
41
bf
f2
12
ce
23
11
0f
f7
0a
d2
f0
0a
03
05
0c
1d
06
f5
1c
ee
05
0d
0f
48
5b
ae
10
bf
20
0d
7f
35
48
f2
c6
1c
17
26
f7
27
f6
ca
07
15
ca
eb
94
ea
1c
10
07
06
9b
37
6b
db
ee
dc
cd
e6
0a
10
28
d4
23
03
20
fd
0d
da
d6
eb
2b
f9
de
01
34
1a
ed
0b
ef
f3
c5
e4
f4
e3
a3
c8
0f
e4
ee
ef
c9
7f
26
0e
c8
e1
03
02
09
eb
34
f7
10
ed
11
20
1d
24
4c
d3
e8
f4
cb
e1
ea
e8
f6
5b
22
f8
30
f1
d2
27
ea
18
f6
de
fe
fe
fc
ec
f8
fa
00
06
07
eb
09
2c
f3
13
19
f5
e3
ec
ea
f3
ec
69
fd
66
09
ee
32
c3
12
15
81
28
0b
34
e1
c5
b4
f6
16
db
f4
20
16
41
c0
00
19
fc
e7
ba
07
0e
f4
1c
2d
11
e1
2a
46
d5
b2
39
0b
3e
d4
88
dd
2f
e6
0e
db
03
15
d6
d9
f2
15
f2
46
fc
fb
25
38
19
f1
e8
05
f6
27
81
9b
41
04
10
d7
3e
16
fb
1f
f1
2a
e7
cf
f5
e3
e3
26
ee
18
fd
ef
fe
0d
e4
dc
37
21
13
e4
c6
01
10
25
f4
f6
1b
e4
c4
41
0d
15
b4
d7
f1
31
1c
0a
24
2d
0b
f7
fd
d6
ef
2c
dc
a9
da
97
7f
7a
21
4d
10
01
11
ce
aa
45
a7
db
b3
d5
f5
1f
4e
0a
e6
ef
ff
9f
0d
fb
11
1a
f3
d2
29
f7
c9
82
c1
f6
fd
e7
4e
f1
ec
da
cf
34
fa
08
3b
eb
f1
13
f7
07
f5
fb
ef
e3
f4
3c
ed
09
03
e4
17
d8
00
b2
01
cf
21
0e
81
fe
d8
13
d6
f1
ac
ff
c9
ed
fb
16
2b
c3
1b
dc
d8
ff
11
07
01
f3
22
fd
e6
02
92
d3
af
a4
66
f6
38
14
e8
0b
d0
eb
ec
ff
1d
d3
0c
2c
ea
e0
ce
36
aa
d2
0f
28
07
03
3b
06
25
e7
22
14
08
1e
9e
74
18
81
e3
c7
b3
38
fc
fc
39
20
0a
ce
f6
fd
fe
2d
95
1b
0d
bd
13
45
57
d8
18
34
fe
ed
68
f8
3d
d0
cb
65
13
d7
c8
54
c0
ee
58
e2
d8
18
df
0c
0f
17
e7
13
f5
0b
ef
07
18
f2
e5
1e
49
5c
24
02
e8
f4
eb
32
d7
4d
f3
02
d3
ba
d9
1c
dc
39
11
3f
0c
e7
20
f2
06
7f
e1
dd
c4
d4
e9
12
fc
e7
fa
da
1e
d6
2c
56
47
41
f9
ee
ce
3a
26
f8
33
06
fd
e5
15
f7
0d
f7
26
04
f7
2f
f9
09
13
a1
12
f4
0c
ff
bc
7f
4c
f4
15
24
d8
f5
fc
1e
df
fc
f5
d7
17
21
eb
d2
ef
fa
0e
20
29
0d
0c
fd
f6
fd
2e
d8
e9
07
fe
1c
17
f1
0a
e7
f7
03
c5
19
16
f5
e5
07
16
2e
00
f8
28
32
07
b9
1a
e5
fc
17
f3
00
20
dd
f3
1f
ac
15
ee
3f
35
1f
81
8f
d0
18
ad
f6
2d
ee
37
48
13
0a
cf
3a
ff
24
05
00
df
fd
29
ea
f0
dc
f2
00
fb
14
2e
de
d4
cc
23
cf
fd
fe
0f
f7
d2
b5
e1
0d
fb
01
1c
d4
fb
ee
29
ef
ca
24
0a
44
72
7f
30
b0
9f
72
33
b4
4f
de
39
fe
40
38
0b
e7
db
54
d1
c8
ee
16
31
cf
97
0b
dc
bd
de
26
d4
e3
7d
3d
b2
01
11
e3
1a
30
fb
0e
df
30
0c
07
06
22
b3
07
28
d7
fc
ff
fd
20
00
16
29
f5
16
13
c7
e3
f9
2a
c5
fb
89
da
c8
03
94
08
d0
45
19
cc
7f
37
d4
26
f3
ee
21
f9
f7
f9
14
35
59
ee
19
9f
fa
24
2e
44
8c
9f
2f
fc
ed
2b
3e
30
f7
16
5d
17
d0
e5
93
13
cc
35
09
18
c8
4a
dc
42
0f
03
ec
b0
10
d9
c3
1f
02
e6
1e
19
10
22
81
17
51
24
fa
25
23
23
e5
18
06
e1
fc
dd
1c
5b
f1
0c
ed
bb
1e
cd
d9
4f
c2
ef
5d
20
3a
c5
f1
11
68
f1
f1
11
26
e1
19
0f
f2
19
12
05
f2
d3
31
28
f0
e0
ee
fe
e2
2d
e0
21
28
ef
f3
40
44
34
d1
ba
ca
7f
78
82
11
a7
89
d9
78
d9
20
f2
f0
e8
0d
d8
ec
e7
07
46
eb
be
f1
c8
f3
05
06
0e
c3
ea
45
e6
dc
c7
6f
5e
2b
21
18
0b
00
c8
25
11
d1
f6
f6
50
23
0b
2b
ec
e1
fd
c7
cd
bf
3d
ed
46
1d
de
cb
ef
de
fe
cb
e5
36
7f
1a
ec
c0
0f
32
cd
f1
0d
40
04
1c
30
3b
0a
d0
fa
00
dc
05
d8
1a
50
00
ff
15
b3
b7
dc
40
f9
01
d7
15
23
0a
27
04
06
ff
09
13
f8
ed
11
f9
fa
18
f5
ff
ea
9f
f5
24
00
19
81
e9
2e
0a
1f
40
e6
f4
ff
03
17
e8
ff
1d
4a
c6
fa
f0
19
f4
df
f5
f9
fa
e0
30
0f
e1
16
2f
07
dc
d4
d7
f1
45
30
05
f6
de
2c
cc
f9
03
e9
de
fd
e5
2c
f6
ff
dd
08
04
e9
1a
07
ed
32
c0
11
ff
af
17
fc
cf
c7
3b
d3
2a
e0
11
81
4b
16
fd
d7
0f
1a
e8
f8
f6
e7
09
05
e2
e8
07
f4
e0
c2
ea
2f
09
30
22
ec
dc
f9
18
28
45
e0
36
15
fb
f0
e8
fd
eb
08
e5
0b
0c
0d
cf
18
ef
f8
fc
e2
15
45
11
13
dc
c2
1a
d0
b9
f8
7f
f2
19
14
15
19
e3
19
e8
ea
d9
cb
20
d6
db
1d
d1
db
e7
0b
fe
08
bd
e9
d9
01
41
f3
2e
08
f4
e5
3e
ea
15
cc
09
f1
02
e4
f7
e6
ec
3b
20
ff
1c
3c
e6
b8
e1
f7
36
e4
eb
0a
17
79
09
1b
70
90
e4
a5
06
33
e9
cc
be
1c
09
99
42
d0
2e
11
17
2a
03
fe
3e
09
f7
11
32
03
0e
3b
b6
24
33
4a
2a
7a
14
a6
12
ad
36
f7
81
b6
2f
17
5f
f6
d8
c5
13
0e
f5
bc
03
f8
ea
1c
fe
02
22
37
e6
7f
a9
16
7d
d9
d8
36
fe
79
e3
95
1e
19
b8
eb
47
06
ca
94
09
dd
0f
d6
da
ea
12
05
18
05
3a
c7
24
95
e6
0a
e6
74
18
f2
f6
c6
06
1a
97
19
e6
2d
eb
ff
1a
f2
ad
1d
e7
11
b5
5d
6e
07
f5
0c
0a
f3
00
e9
09
10
b9
9f
c8
d5
fd
fe
73
6e
05
07
03
0a
81
fb
06
dc
d5
47
01
f0
29
c9
fa
95
d1
44
cc
16
1a
c8
e1
ae
00
1e
94
10
29
6b
ab
da
de
1e
2e
09
b2
34
f8
16
18
f3
ef
1e
08
11
e2
ec
ea
da
f3
fe
64
b0
df
81
0a
e0
52
6a
49
09
17
08
3e
04
01
06
12
f7
17
39
c8
0f
04
01
e8
12
40
1b
1d
ea
1b
3f
d0
0b
1c
49
49
ea
06
38
77
31
1f
07
ca
b3
a3
09
60
1f
fb
bf
20
fd
f3
ac
56
03
e4
2e
16
04
36
fb
17
b9
35
de
36
0b
03
f6
04
7f
3f
13
97
f5
ac
f0
20
d1
c4
be
37
cd
0a
16
d0
c5
f5
1f
0a
ed
11
fe
14
17
20
db
de
10
1e
3b
46
b8
39
03
1b
07
c7
2c
f4
fa
12
03
00
ec
ec
1a
e7
23
00
e6
01
07
0c
fc
e8
d1
ad
c0
e6
3d
9b
11
a7
79
c2
36
da
e0
36
26
ba
25
bc
c4
0f
48
17
06
0f
0f
ea
4a
7f
07
ca
e4
88
37
0a
1c
4d
29
00
5a
3d
78
f0
ea
d7
14
ed
ec
17
2e
d2
ca
f8
1a
0a
06
12
ed
28
e9
13
ef
23
11
81
ac
7c
e4
3d
91
0f
08
c1
e2
31
18
26
6d
1a
fb
50
f9
eb
09
dc
e1
f7
08
51
d2
33
08
f6
2d
19
ef
08
fb
00
42
0d
fc
e6
b9
02
20
15
d9
9b
0d
1a
d9
48
1c
fc
ff
1a
ef
21
01
3b
cc
cb
0c
1b
df
1f
98
2a
5d
42
ff
7f
a0
f8
b7
43
bd
0a
e1
2a
3d
1f
f5
4c
ca
05
00
2a
0b
11
20
e9
09
0c
eb
ee
f0
14
52
fd
63
f4
f3
bd
cc
2c
a0
07
06
e6
a3
c2
b3
f5
06
6c
1e
2e
c1
18
1a
1b
c3
00
ff
0a
13
fe
13
0d
05
6b
ba
34
5c
11
a5
32
a6
dd
e5
49
8f
ff
18
25
f4
29
f1
55
25
e2
05
04
ff
08
b2
df
52
c7
ba
e3
ec
7f
18
f1
cb
c5
2a
17
21
e9
0c
04
a1
29
27
19
f2
f5
17
0d
05
0f
f6
d4
ea
1c
08
d6
1f
05
d3
14
cf
36
28
c0
9f
07
b4
e7
55
ec
cd
f0
81
51
cf
4f
f4
fa
ec
09
e7
75
24
fb
ef
28
e1
ef
16
dc
fe
03
19
ca
63
f7
98
68
0e
f9
6a
0d
37
22
ef
e9
fc
f9
09
26
ff
0b
c5
19
fb
1f
0e
09
f4
13
f9
14
1e
03
4f
22
3a
e2
c2
01
cb
f3
99
0d
6f
d2
09
f6
7f
4e
ec
1b
fc
16
1d
2f
0d
df
b0
ea
01
2c
2e
f9
fb
fd
e2
e4
f8
f6
e1
00
3a
35
0e
fd
19
e1
fd
ed
f9
3c
fa
de
23
07
1d
f3
d5
09
32
f8
f6
05
d2
00
0f
de
b8
25
c6
c1
11
65
02
17
08
ca
ef
fe
df
33
df
fc
f7
0c
12
7f
27
07
d0
e2
0f
06
11
1d
2a
07
b4
20
05
ff
03
2d
a3
11
f1
0e
fe
cc
ea
0f
29
20
13
ce
14
f1
fa
00
12
c9
2b
0a
dd
f6
1c
f9
fa
d5
f7
05
83
c8
47
dc
db
1b
a6
d2
ab
2e
c0
f2
02
18
c4
e4
00
e0
01
a2
be
f5
f1
f1
d6
fd
de
cd
1c
3e
2e
0e
33
13
09
81
01
e3
d0
51
04
23
19
01
18
0e
b9
d2
ff
d8
f8
00
1c
ee
e9
23
3e
1c
19
ee
fd
d6
f8
e5
89
d3
24
0c
b4
7f
13
11
c3
7c
53
de
d6
e6
59
e0
0e
a7
20
25
3b
11
bc
09
3e
40
20
65
f0
22
04
dd
e5
df
2b
1f
ea
4f
fe
36
e6
0b
e0
c9
1f
1c
e5
dd
