02
fb
c7
b4
67
71
5f
94
bb
14
b6
0e
fd
30
25
5d
50
05
9d
e3
27
34
38
c8
e7
11
1a
4f
c0
32
ce
0d
fd
69
a5
9c
df
9c
38
dd
ef
2a
02
00
f0
06
07
4e
23
d0
40
69
8b
b4
ee
e6
bf
4f
9c
16
ce
d0
a1
a1
c5
de
72
f5
ca
d0
32
ca
37
28
27
b2
36
3b
f5
98
f5
84
b9
7e
ab
fe
d6
a7
57
3a
bd
f9
6b
aa
0a
e4
61
d5
24
06
42
24
13
94
fc
8b
d4
35
d9
af
c6
c5
4f
23
05
5e
fd
1b
0e
c3
77
ad
93
c4
6c
a0
81
e6
fe
46
1c
3d
c5
1e
cc
fc
dd
1d
06
dc
2a
10
49
8f
1a
fa
5b
bf
3d
42
d9
3c
0d
9c
e9
d6
0c
98
10
20
0b
91
a2
93
75
37
93
d9
7e
fc
fe
46
75
fe
0a
16
a9
83
6b
0e
66
d9
34
2b
ae
1e
21
8d
8f
3a
fd
3d
c2
1c
ad
0f
ce
34
64
a0
0c
82
1e
35
08
db
41
d6
83
51
e2
c7
1a
d0
85
0c
26
b2
96
24
0d
39
a4
d8
ec
54
d1
20
1e
71
ec
29
1c
f3
b4
7e
e9
5b
ad
09
c8
5d
a1
9b
a2
d1
b9
8e
e5
40
a8
8f
bd
de
cd
01
04
0c
bf
b7
39
10
f4
7f
f3
05
1b
be
0b
d6
e0
d1
d7
54
1d
be
f7
a8
b4
f7
95
30
6e
4b
5b
bf
50
db
8e
11
2d
b6
5e
2d
c4
08
07
ca
81
99
d8
d9
a6
1e
ad
df
de
7e
4b
51
30
08
fc
52
df
f9
1c
74
da
5c
a1
08
ec
fa
53
c5
d9
93
04
ec
41
b4
00
12
e7
54
d6
b9
29
18
69
da
2e
45
4e
1e
f6
39
ca
4c
23
b9
54
75
a2
f4
d3
0e
29
cd
04
0c
5b
e8
4b
10
45
30
33
4d
33
b1
44
16
26
97
7c
77
95
79
d5
ae
07
f9
c3
58
0a
2c
cf
88
3b
78
68
1b
82
91
5f
3a
e8
a9
73
59
40
fd
79
71
29
96
af
e5
07
3e
46
9c
4d
e7
dc
44
2d
46
eb
29
18
d7
f3
8c
b0
ce
7c
10
8b
f5
0e
f1
5e
8d
fb
aa
9d
3c
49
e9
0b
6c
ed
d1
7f
4b
41
e1
08
45
2b
08
2e
7e
74
d5
4d
a9
0f
9a
ac
81
ee
d6
df
32
94
09
6e
3b
05
bb
45
a6
e2
4d
e2
5f
3d
c3
a0
cc
cc
22
d2
b7
d3
60
e9
5f
f0
a2
26
36
eb
94
e3
9d
f9
11
f1
9f
0d
e3
b3
6e
8b
f9
a2
01
0c
ff
d2
fe
e9
28
60
c1
31
96
38
cb
ec
f1
da
c3
f8
3d
b9
c1
72
19
1b
88
6c
7f
0f
25
29
81
9e
2c
df
1d
bc
de
53
af
65
a1
3a
64
72
d0
82
d2
f1
43
fb
d4
35
99
a9
cc
16
85
0a
96
ca
21
ed
4b
9d
48
75
42
bb
f5
3b
56
6a
0c
d6
83
47
00
ed
b5
2e
01
15
30
22
33
74
21
f4
2d
0e
80
28
0b
9c
7f
be
5d
0a
ab
84
ae
6a
13
f7
04
a2
31
b6
ed
59
d5
f3
d0
0f
a8
85
32
5a
07
31
f3
fd
c3
cd
db
e3
8f
7e
c4
10
e0
78
f8
13
2c
3a
5d
19
01
54
30
33
63
91
fd
06
4b
95
f4
14
58
3c
d3
f1
7f
e0
01
89
bb
49
ad
4f
21
37
45
39
00
2a
84
3a
bb
4f
44
00
ad
a2
07
d3
eb
82
18
e0
d2
86
8c
2b
29
48
b4
8a
87
9f
b4
e1
6a
20
29
09
ba
2c
81
be
fc
43
4d
df
44
47
f9
0d
0a
eb
e7
5c
fb
1e
e8
e8
c0
b1
83
d0
11
a6
a6
b6
c5
22
d0
fa
85
4e
e8
6f
61
e4
73
40
61
29
ee
e2
73
1c
eb
74
dc
d0
5e
51
79
eb
f5
e8
af
f6
b6
e5
f9
13
c2
58
ed
30
82
0a
47
ad
c2
df
6e
62
fe
ed
a8
3c
28
f8
f8
23
01
20
8d
0d
01
b6
f9
40
f0
29
2e
27
00
ca
fc
c3
b3
ef
02
b4
2b
c7
f1
17
bc
fc
ed
6b
66
b0
0f
42
6d
cd
2e
ec
11
e2
d6
2d
fd
18
a3
e7
04
cc
db
4c
8b
54
0b
7e
f7
77
e9
82
cf
1d
6f
c5
79
51
5d
c2
e8
02
bb
e1
85
87
b4
a7
ed
09
3e
ac
ef
58
c2
d4
8f
43
9f
97
a4
e4
28
34
2a
d5
8f
b9
fc
1f
1e
f3
85
fa
cc
14
3b
24
30
2a
5e
6a
a5
05
c4
a5
f4
06
ba
39
ad
70
29
9b
dd
83
df
1b
d9
8b
59
1d
07
de
62
f5
be
61
c5
11
38
e4
3b
44
a7
6b
99
34
c7
71
d8
23
02
bb
49
b8
12
2b
d0
38
c6
d0
26
5e
11
cc
e4
8c
79
c3
1c
47
0f
5b
10
c3
c6
e6
2d
e3
dd
36
f4
c8
09
43
8b
ed
cd
e0
64
dd
0f
e1
45
23
36
e7
27
32
4d
b3
56
13
c0
24
2e
a1
37
5e
f5
4b
91
f8
ec
ab
3d
1b
1d
3a
b4
dd
ed
0b
3f
34
3c
01
93
77
f7
c4
2f
e7
98
fb
31
2f
f3
35
ee
b1
f3
0e
68
bc
e4
c8
71
15
5a
7f
ab
51
ff
2c
a1
7f
65
be
e1
05
1c
3b
ef
3f
82
5d
6d
36
7b
cc
29
7a
9d
af
c9
d4
00
08
5e
19
9b
61
17
96
70
21
52
5f
03
8d
9a
56
60
fc
4e
41
bd
1b
67
7a
c3
2e
4d
1d
00
a5
ae
22
8e
ef
fe
d2
dc
a4
fd
5e
1e
23
d7
05
7b
48
b8
b8
99
cc
d9
78
f1
0e
e8
1b
51
55
77
9f
a0
a8
5e
6b
9e
f7
2f
66
b2
f8
1b
5d
92
b8
ab
50
0d
5d
f5
d1
e3
e3
9d
62
2c
b1
8f
19
e8
7b
ab
01
68
2d
37
14
01
ca
97
86
28
9f
75
53
7d
00
e7
59
31
89
51
be
16
07
7f
26
53
a4
cf
d9
18
68
2f
29
42
fd
a4
92
25
4c
46
93
63
68
9e
04
39
e6
f7
8b
ab
54
37
3d
4c
c0
57
fd
bf
bc
05
05
82
c5
b4
7f
45
f1
aa
fe
c6
8b
b5
84
09
e4
6d
6f
b8
e2
4c
05
e7
42
0d
94
5e
4e
19
f1
ee
f0
5a
d1
9d
a5
d6
20
49
55
86
8f
ad
fc
00
b2
10
27
2c
c0
31
a6
f8
55
b0
d5
b2
ab
6e
12
ed
e4
71
83
58
9d
5b
a7
43
e8
c0
16
d6
fe
3c
f6
dd
d7
00
ab
c3
49
40
b4
2c
df
01
1a
e1
e5
d7
0f
d8
57
c3
bf
0c
f9
fb
bf
23
e0
64
bc
e3
1f
42
19
c9
92
d9
11
c4
16
25
77
a8
e4
d8
7f
b8
ea
38
b7
d4
8d
e5
4c
3d
9e
41
93
9d
26
11
c6
fd
39
62
ea
15
de
3d
84
26
6b
f3
2a
75
36
16
9e
ba
3b
0f
41
ba
04
21
7b
9e
38
7d
d7
05
c3
33
39
13
48
c9
bc
e7
25
f3
0d
ca
da
24
d2
94
61
00
e8
b7
60
5b
f4
e4
8b
9b
3c
10
02
b6
c3
b5
40
3c
13
df
f3
0d
1c
fa
91
ee
7a
5a
bd
fb
69
fd
fa
c4
1a
0e
14
55
a8
ae
f6
fd
16
c9
f9
e8
66
c1
01
e1
e3
07
bf
ff
7b
b5
d9
df
f6
75
c4
fe
4f
05
0c
31
b2
20
54
dd
f0
23
a9
1a
f7
bc
d4
b0
2c
d5
b3
f0
5b
92
ca
4e
56
37
c3
a3
11
1e
8e
e2
eb
b4
9d
48
da
47
ae
1f
18
40
97
eb
62
18
1e
7b
e8
9b
8c
dc
db
12
f1
12
e6
b6
2a
72
1d
d8
20
20
cb
9c
2a
b1
72
83
33
eb
04
45
b7
63
07
66
09
3c
5e
f8
b9
3d
fd
1a
78
04
5c
c1
c7
23
1a
f0
e5
80
c1
36
ea
2c
40
06
db
d3
b9
d2
0b
a9
ff
c9
51
2d
07
f7
d1
70
c5
41
5c
c8
d1
1d
17
2f
82
df
12
d3
f8
8f
fe
e2
ff
70
ce
02
11
b9
0b
ff
79
b7
c5
35
51
60
e1
2e
af
d2
ef
46
fe
da
c5
e7
f2
a8
21
f3
58
d0
aa
4d
84
b2
08
47
56
74
fb
92
c9
72
a8
95
4b
bf
02
38
1d
27
04
4e
e9
c4
8a
40
aa
d6
5a
15
c9
f5
ea
cb
b1
4e
6c
d5
b7
04
c6
3b
e1
b0
bf
23
0c
b2
3c
57
a1
ec
eb
d3
c9
cf
d5
03
e6
db
0b
bb
6d
23
dc
28
96
0c
d6
7a
30
a0
45
2a
f7
c9
83
1b
ff
4a
7d
d2
eb
dc
10
db
09
cf
64
c6
a1
16
52
0a
77
01
53
f7
7f
c8
b6
d0
07
6e
c7
d0
0b
7d
e6
20
bc
46
71
d5
01
f1
fe
3c
02
2e
8b
7a
ff
34
02
e3
e4
62
ce
41
2f
26
f0
e0
39
0d
e7
a7
ff
fb
ce
17
09
ca
ef
f3
cb
3e
c9
53
fa
f8
a6
c6
d1
d1
6b
92
13
e6
f4
5c
8b
0f
2a
b3
e2
aa
02
08
d6
f1
03
9c
33
96
a9
ec
69
3d
ba
23
2a
d9
fd
10
b2
1d
ca
6b
b5
81
32
ef
06
be
98
e6
91
d2
a6
92
41
04
b9
6f
d0
13
8b
30
41
d3
da
e0
b6
d3
de
d5
6b
5a
a1
17
7a
05
e7
5a
c7
57
74
5d
c2
cd
9a
22
70
fd
e3
df
16
cc
d6
c1
a1
2d
97
c9
5b
8e
20
c6
51
12
3c
e6
1a
9f
07
b4
4d
cf
5a
8c
b9
45
0a
e2
61
6f
b2
ed
3b
92
70
cd
08
56
0d
63
07
e0
70
01
ec
5f
58
47
7f
63
7e
85
f7
6d
e7
aa
5a
d0
e2
02
80
4d
19
0c
ef
8b
6d
23
c6
dd
d5
40
29
3a
1e
cf
89
10
8c
a4
f1
1b
51
3a
3c
52
db
05
7b
26
f3
aa
79
fb
a2
02
17
a0
50
de
e2
ee
23
a2
1e
4b
23
5b
07
8f
51
91
4d
09
8f
9c
51
ff
d3
c4
ac
4d
34
a2
a8
cd
b0
29
4e
9c
46
b5
93
44
ef
52
03
8f
85
87
27
18
a8
80
1d
4b
ff
4e
46
77
77
b6
ff
c1
cd
eb
fc
e9
b4
1a
ba
96
06
1d
48
b3
f8
f1
ee
52
cd
a3
11
ed
85
46
fc
ee
57
4e
26
54
b1
07
b8
95
de
70
4b
44
ad
f4
2b
57
09
f3
1b
06
cd
13
d2
91
4d
57
9a
16
fe
ba
cd
8a
68
cf
5b
8f
09
e4
87
55
ab
a2
7d
c9
01
14
c4
4e
c9
c7
4e
ad
0c
30
3c
a7
23
8b
34
2d
58
c3
f8
ae
e9
1a
41
f2
ef
09
aa
e9
5d
6b
89
08
6e
c4
04
b3
e7
54
ab
16
6b
53
e6
dc
a3
f0
a1
ff
00
43
75
f0
4c
c9
46
38
63
06
3b
02
c8
db
9b
5f
ff
f1
1d
7e
cb
29
4d
e7
55
af
52
2d
1e
0e
2f
36
8e
66
ef
03
42
1d
75
6f
c7
2b
29
45
f6
95
f9
0e
53
01
4a
1e
ef
52
23
64
36
1f
91
70
7d
b9
fa
cd
0d
e5
01
20
95
04
db
e7
10
ed
a4
9f
e6
23
f0
62
3c
11
1b
37
f8
e4
5a
ad
3b
0a
41
ab
e4
ac
3e
c7
a8
75
7f
6e
1f
46
a2
af
46
0a
8d
10
d7
90
d8
bd
b4
1e
60
52
b5
40
29
d4
c8
30
d7
32
ca
2a
ee
31
10
f1
38
2e
ee
b1
c1
ef
cb
e4
61
54
d1
fd
1c
38
c0
02
00
93
8d
fb
ec
95
15
08
29
ab
37
45
06
8e
26
0f
1a
52
80
1a
15
9c
76
26
85
d6
e9
ef
2b
2f
ad
2d
ef
9d
27
07
c2
b1
f6
24
f6
bf
51
c0
b4
b7
83
fb
cc
d9
af
bf
05
c7
2c
65
f7
4a
cb
1f
24
fe
43
d8
e3
58
bf
33
0a
8d
61
32
92
8f
17
bb
a5
d9
83
a2
0f
99
11
a0
73
e7
6e
3c
32
f4
55
01
a0
6c
76
e2
ec
60
e8
c9
aa
a6
6a
e8
7f
7c
2c
d4
ee
33
72
6a
3d
c7
2b
15
d0
7b
dc
1a
62
58
2d
eb
a1
24
fc
a1
b1
4c
39
ae
2f
18
c3
bd
47
5e
95
7a
16
0b
eb
04
d4
53
c0
17
31
56
e1
d7
d1
62
d5
e4
37
d9
f7
df
6a
7a
41
59
23
11
35
24
91
28
a5
d1
f6
92
84
27
a4
52
f4
28
e7
fb
2c
7b
a2
6b
36
d2
82
12
d5
12
ab
32
0a
92
48
15
c5
7c
87
5c
e9
71
ee
b1
e7
4c
90
ff
20
0b
12
db
9e
08
56
e1
4f
72
c7
87
90
0c
d0
9f
0c
7b
66
f8
71
31
ed
ad
28
95
19
8a
4a
27
b5
bb
83
c9
14
12
2c
5b
1e
c5
f2
b6
43
24
0f
ca
b1
dd
13
33
a5
88
56
36
86
31
32
be
47
c5
88
08
26
9d
84
30
1a
1a
d4
18
c9
a9
1e
46
ce
fd
5b
0d
34
91
29
f4
fb
96
de
14
04
ee
4d
36
72
a5
10
ea
cd
85
c7
21
a6
84
20
ef
9c
ac
2e
45
31
6d
f8
21
bc
1f
41
74
f4
35
1c
10
3d
35
e9
c2
f0
b4
52
a1
56
3d
3c
70
2f
41
c3
51
47
a0
0c
e0
26
63
87
79
05
0a
c2
18
f3
1a
46
ce
18
82
37
69
6b
4a
bb
80
c8
cd
1c
03
93
95
1c
bb
d6
17
3a
3e
83
c7
82
65
60
75
04
27
10
ca
be
e5
2c
dc
03
c0
b6
5c
b0
f4
df
ed
ef
37
08
a7
5f
3b
66
fb
29
f4
92
db
1f
da
01
67
53
e3
95
f5
d4
98
04
f4
40
d5
9f
47
e3
bd
d4
39
9c
26
23
5c
5b
b7
68
6b
75
06
33
50
8f
f3
00
fb
da
f8
c0
47
f8
23
e9
94
d0
5c
d0
74
2c
21
e8
1e
ed
fa
41
b7
ea
75
60
cd
09
ad
56
93
cf
07
f5
05
79
41
36
1a
74
36
21
76
3e
e2
df
88
b2
a8
08
7e
80
97
5a
92
06
f4
f4
ee
e5
96
db
c4
5f
ef
2d
20
49
8f
2a
51
cd
c6
d2
4e
41
98
71
a0
e8
04
24
e1
5d
90
04
00
18
db
eb
bf
ae
2a
f7
77
19
38
a1
44
1e
fc
d4
f1
5c
b6
08
41
13
ff
76
aa
bf
21
6d
5c
31
33
4e
08
aa
5b
01
de
12
3f
92
b3
19
d3
99
a9
c4
4c
60
65
46
ca
d4
4a
48
94
7e
da
77
21
ba
ba
14
39
2b
82
25
27
33
03
16
b3
01
05
49
cb
ed
9b
46
5d
6b
a5
bb
a5
cc
f5
67
56
dc
a7
e2
eb
8c
95
39
2f
06
2f
03
68
d3
97
15
19
11
30
9f
40
fa
4e
85
61
8b
28
02
62
a2
55
c3
55
35
2e
4b
08
c0
46
cf
65
d2
3e
44
e3
1e
d7
c5
74
37
f0
c8
48
7f
a2
e3
ae
83
ff
3f
e5
b2
72
e6
5f
75
f0
8f
f3
ff
b5
70
0d
02
06
b2
10
ec
4f
f5
10
d2
33
0e
34
3a
6e
83
ae
c3
5d
d1
af
ea
f5
0d
35
f7
04
5e
fd
e9
e8
ad
2c
ba
6a
e1
05
f6
d0
8b
ec
d9
9a
ee
d8
90
09
67
6c
cb
6b
be
37
fa
ff
d9
37
55
df
27
e5
a2
e5
0c
33
e4
3a
1b
e8
ed
1d
bb
d5
7d
57
a6
2e
b0
3b
23
c3
af
e1
b7
fe
11
a0
54
51
aa
3d
91
64
b7
a4
cf
cd
d8
ca
e9
4c
03
0f
ac
1f
fa
df
21
8b
97
07
75
e3
e6
5f
2c
df
88
fa
05
2e
b4
2c
f1
cd
c9
f0
30
2c
77
c0
17
23
6e
b4
78
e9
03
18
ee
a4
19
37
8d
4c
d1
d9
95
da
1b
af
61
10
6d
66
cb
52
36
44
25
9f
ff
c5
94
09
70
45
cf
03
0e
38
91
41
11
c1
0d
6c
8d
23
83
78
ff
c3
7a
5b
52
f8
7d
bd
96
fe
54
2f
45
c6
3f
c8
f8
e1
53
b3
0c
50
69
f1
bf
32
5f
78
f1
14
fc
fc
f1
eb
d0
9e
b9
29
fd
1e
5a
c8
e3
8f
5f
ec
29
3d
35
fb
d0
73
d8
72
51
fc
a5
6d
8c
1d
5c
7b
1e
41
23
bf
eb
8c
54
d7
13
b5
71
41
4f
7d
e4
b5
2a
aa
40
5c
0b
b9
58
62
b2
1b
bf
67
40
04
f5
15
d4
b2
13
08
8e
a0
25
35
cb
34
da
e2
19
a4
ce
d7
01
b7
a3
6f
a4
28
97
de
20
06
f9
50
ad
40
30
fe
d9
62
e6
e2
1e
a3
7b
d9
77
19
3b
bd
11
bc
d8
df
de
fb
45
c9
91
db
55
a2
b7
1c
c5
05
c8
1d
0b
01
d9
eb
19
64
13
a0
43
08
8d
40
4f
51
26
39
5b
38
fc
10
65
c8
aa
1d
1a
e4
a9
c5
ce
cf
0d
15
c1
91
37
1c
9b
3b
d2
39
2e
22
34
30
16
07
93
c2
33
c9
68
d4
9b
99
53
c9
fc
5b
a4
5b
07
4a
f5
9d
e2
0d
31
18
0f
9e
1d
d2
0b
07
5d
a7
a6
f3
3d
08
1f
98
f8
d7
31
d8
b3
22
3a
68
4d
35
aa
c3
52
65
a0
20
8e
1a
e3
f4
b9
de
58
33
cc
d2
62
3e
4d
02
35
e2
fc
81
66
11
22
d5
3e
85
37
f9
4d
77
b6
14
a3
5a
ef
24
e5
ef
e1
9d
46
40
2a
1f
fe
d3
bf
82
83
ba
13
a6
07
16
42
97
ac
3a
02
6e
b3
f3
ec
e3
26
f7
0b
4d
e5
17
83
43
d4
e5
2c
42
39
ae
f4
c8
3b
6f
5c
8e
5e
54
19
9c
69
be
f9
73
18
d2
f2
a9
23
1e
e1
87
49
28
2d
48
e0
76
e6
74
15
f0
22
e1
04
a0
ff
95
f2
f7
06
16
d2
8d
17
1d
fa
55
0e
28
31
fc
10
3b
74
da
84
e3
5c
21
b5
00
04
1e
51
a2
a8
32
ee
5e
5d
fb
ae
d4
0d
fa
be
d5
22
16
d4
25
e4
00
ad
3e
83
e6
d5
06
50
45
b6
73
02
4a
91
19
82
2d
9a
a5
a5
6c
10
f5
b9
7c
0a
3b
c4
b9
00
9f
9e
24
db
38
13
1e
1d
5d
14
c6
cd
26
f3
52
07
01
35
1b
26
44
56
04
f1
b5
ce
a6
ad
3c
01
2b
fb
4a
b8
a3
18
f1
e3
c8
51
e9
f5
db
ff
20
11
37
fc
e5
6d
04
41
fa
fa
2e
b5
c9
b3
30
b4
ee
a2
4f
fc
18
98
df
fa
9f
73
37
1e
3e
f9
dc
40
88
1c
fe
aa
b4
ef
de
5d
e6
e4
1a
7c
ff
51
38
3f
1e
cd
03
0a
0d
7e
f8
e4
37
28
dd
f6
9d
de
28
fd
f3
0a
b7
2e
7a
99
1c
2f
4b
1e
06
d0
e4
25
6a
e2
b3
4d
52
18
ae
ff
c3
f7
12
28
05
36
5a
de
f4
20
ff
15
b3
82
e1
cd
d0
07
11
76
2e
21
44
55
2a
b6
89
b6
db
f2
da
cf
9a
1e
b7
c2
b5
3a
ff
f8
09
28
1b
ae
fa
d0
f2
59
2c
29
20
35
c5
e6
46
f6
b8
8d
c3
09
e6
bf
d1
cf
f4
71
2b
c4
81
47
d6
e1
cf
b2
32
ba
2a
bd
e9
2b
1a
f1
c1
c4
ee
c6
37
b2
74
e0
13
2a
46
7d
eb
2c
f4
da
e7
c0
38
b5
bb
38
49
04
4e
07
24
44
d4
0a
5b
f2
0d
58
fc
ae
06
1a
e4
8c
c6
19
2b
c9
4c
4a
fc
43
fa
72
bb
18
ea
4a
39
f2
07
74
25
db
0d
e0
c5
01
4a
b4
c9
e1
d5
23
72
e0
45
98
d3
c9
9b
52
1b
2b
55
59
67
32
2a
43
29
a2
1f
23
e7
b7
23
60
48
c6
e3
82
3c
71
67
a8
78
37
33
78
38
b5
36
60
b6
ec
47
6a
4e
28
a0
0e
fb
a4
a4
00
ae
4f
db
f8
f3
1c
1d
db
1a
9a
6d
3c
e5
fc
37
04
38
cc
0d
36
da
6e
48
d3
1a
a1
e1
b8
65
92
0c
c9
54
18
ab
7d
8a
32
30
c1
3a
53
50
fe
79
ed
fe
2b
fd
1a
fd
e3
18
4d
fd
45
44
0e
61
ef
19
35
dd
e5
d1
96
ba
c6
11
9f
38
b0
0b
f9
b0
27
0e
d2
4d
10
9a
88
2a
43
ea
fa
46
08
84
fe
ca
f2
79
4f
ae
a9
1d
f3
8d
30
07
5d
e9
05
c4
5b
14
ef
52
cd
e4
11
a6
2a
14
08
02
52
b5
da
a9
39
28
4f
39
b3
b7
81
2f
fd
df
92
cf
73
1c
6e
bf
fb
c3
f1
f4
00
dd
7d
df
4a
73
2d
01
4f
bd
b5
0c
2f
cb
27
01
d4
b5
1a
17
fa
93
ba
45
85
ba
69
e9
dd
b3
ed
6b
04
55
2a
f9
9f
77
62
e5
13
05
da
51
29
36
07
f1
96
71
67
df
49
89
df
68
ff
34
f3
bc
09
fa
32
d9
3c
fb
5e
fd
4b
55
bb
4e
29
06
b1
28
b5
a2
34
cb
d9
e4
dd
ee
8d
5f
1e
1a
25
03
e3
11
4e
1c
47
2b
28
18
91
19
f6
86
cd
7f
11
42
35
40
cb
1c
f7
04
69
12
3d
68
f3
ee
e0
01
4c
aa
c4
92
f8
25
f5
d9
18
be
19
dc
2d
29
9a
0e
b1
03
c9
32
c0
23
ec
24
74
6f
df
02
78
63
02
f9
b0
5a
0e
fb
60
2a
26
6c
a7
87
76
5c
a7
24
33
23
f7
c6
9e
af
1c
aa
ae
be
63
0e
ab
b2
17
b1
21
e2
2a
67
84
45
21
d9
01
2b
1c
0e
41
5c
3b
44
df
a9
5e
47
64
23
8d
85
6d
25
a1
0f
ff
36
38
73
58
79
2e
29
d2
31
cd
ca
31
8d
e7
4e
d3
1f
e9
09
05
2f
91
1a
ac
00
b3
c4
1b
f0
d7
ea
cd
aa
c7
bd
8e
ec
5f
cb
00
41
4b
3a
e3
ed
82
63
e7
cb
42
ac
57
c6
52
65
d5
2c
12
24
fe
ae
ae
4a
70
90
2c
29
42
41
f1
64
d7
c8
d8
0a
95
2a
dc
9a
44
1f
fa
fa
f5
48
d6
32
e7
09
02
cb
d7
53
17
11
54
21
23
54
d9
ba
ca
03
ee
13
24
07
e1
d9
1f
33
c2
04
27
a4
25
33
b9
b5
e4
26
c0
0c
29
05
c8
be
e0
bb
0a
e6
77
13
a9
1d
62
22
32
1e
04
ef
6b
16
d3
15
0f
24
ce
1f
d4
5a
15
eb
97
2c
0e
c2
1e
26
f1
f1
0c
fe
03
0a
05
17
03
04
d5
c0
41
16
39
d5
26
35
91
db
3e
9f
1b
06
b1
37
c4
84
f9
9b
e6
05
14
13
ef
fb
ee
81
e0
05
d0
de
bf
f8
03
1d
f8
e7
ec
13
c6
02
cd
08
42
af
ff
b4
14
bc
1b
08
f8
fe
47
f8
23
b8
09
c4
11
c0
ff
e3
0d
d8
07
07
10
fa
10
19
a6
35
75
ca
d4
a2
d7
24
f7
9f
ed
d4
42
ea
11
3c
06
e2
36
cd
08
e4
de
4f
2e
92
00
28
fc
d1
f2
f5
48
54
df
fa
39
d3
05
ec
26
bf
d1
0a
ff
99
97
be
ff
e0
26
f2
be
ca
68
19
15
ac
12
df
99
f6
dc
7f
3c
fc
55
19
de
0f
e8
40
17
39
14
14
96
d9
cc
bc
c2
a7
d2
17
31
e7
32
25
9d
0f
f4
3d
14
d8
9b
a0
53
26
44
ee
18
c1
34
eb
f4
1c
ec
00
4c
a6
c4
bb
06
93
28
f4
27
1c
e0
0e
b3
28
fd
03
fd
4a
03
ee
f4
c2
f7
cb
04
46
49
1b
14
da
e8
dc
ff
14
f9
20
db
fa
c7
fb
8e
f2
c5
3c
1e
cc
2a
dd
33
ff
de
4e
c7
0f
d6
c2
0a
32
a1
43
1d
fb
e1
2b
1b
4e
42
f0
d8
e2
43
63
6d
40
f1
24
26
18
f4
f9
a2
d5
08
5a
50
ce
84
f8
e4
7d
36
2d
86
c2
ea
0f
f5
1b
88
f9
1e
22
ef
4a
23
58
eb
ca
09
35
c4
0e
b8
e7
0b
2a
24
c4
01
c7
4e
c5
19
28
4d
33
cc
05
be
36
39
34
fa
d1
e8
ea
15
28
0a
da
df
04
b5
1c
d0
d0
22
0d
f3
fc
9a
09
d8
23
07
e5
d8
c2
12
40
52
d3
dd
75
89
0f
15
10
2c
0b
ef
de
aa
24
c0
e4
d9
02
2a
d6
56
03
11
3c
50
c8
11
ff
2e
0d
b3
fc
d4
f6
0f
16
d9
af
0f
f7
ff
af
36
75
f5
6a
92
90
22
0f
fd
c9
63
27
f3
19
bc
13
19
23
40
c9
f7
f2
7b
e2
12
cc
27
07
b4
23
10
5c
dd
25
d5
16
ce
26
63
14
0b
78
c7
f1
33
76
8a
10
15
96
72
c6
ed
da
1d
cb
ca
bb
93
d8
3c
09
8e
b8
58
ab
4a
89
29
0e
27
24
da
c1
0e
ff
a7
89
db
86
f1
51
d5
ff
f1
7b
e5
ef
e3
1a
14
36
fd
8e
49
e8
c2
72
a6
79
3a
d6
01
fc
12
3f
13
23
a2
ef
52
10
8f
9b
15
1f
df
d5
3b
db
1e
d2
40
78
82
eb
df
3d
6f
13
25
a7
d1
7b
d5
64
ab
b7
3d
fa
4b
ff
1e
38
2b
f5
de
cf
22
13
72
c4
c7
fc
70
6f
65
13
02
b4
ab
23
6c
7d
af
53
01
82
ba
f9
3a
80
68
53
59
37
93
ac
f4
aa
05
b9
3a
4a
b8
4c
b8
94
14
c8
49
02
bc
d7
52
af
5e
cc
2c
81
69
62
be
69
a6
8f
3f
ba
63
f9
d9
5a
36
0f
6c
e9
0c
53
ef
c6
82
de
18
49
78
d1
96
b9
63
a2
a9
89
fb
28
14
e6
11
f5
78
2c
11
dd
3b
c6
da
de
57
ad
52
c2
cb
ed
96
88
66
63
03
d4
de
ca
03
5d
ac
e1
da
b0
9c
e1
2f
f8
48
8d
ed
c1
c9
f6
50
0b
c9
da
4e
f7
1b
86
85
5a
c2
84
dd
23
2f
1b
0e
d0
68
e9
90
45
06
2c
10
19
ab
be
fb
e7
1e
bb
73
d2
ec
2e
0c
b8
1d
01
33
da
d1
d6
30
3c
1f
db
f8
14
e1
f7
af
22
18
ea
1b
05
31
4b
a5
ad
ae
f1
94
02
d7
32
8b
e8
9c
24
a6
33
7d
f7
c1
49
0f
d9
dc
28
36
4e
61
0f
18
0c
fa
04
00
d9
eb
22
61
2d
15
d8
7a
d8
36
7b
4e
57
33
29
d6
fe
32
c9
a9
2f
c4
c5
db
8a
cc
14
e3
17
0f
fe
3d
f5
e7
ff
a4
21
24
16
3a
ab
fc
41
12
60
01
e1
ad
f3
72
a9
5d
54
0e
3b
df
e0
ec
ae
18
f7
2c
26
d7
74
fd
07
01
d1
b5
22
2d
18
83
1a
02
20
e1
bb
b0
05
55
8e
9d
b8
82
94
c2
dc
01
40
d4
d7
02
49
2a
a9
e7
98
02
35
73
7f
84
30
9e
58
e9
eb
d7
30
1b
ac
31
7c
12
09
01
9c
40
6f
56
24
eb
7e
36
eb
13
cd
ef
96
fe
ba
68
0a
a3
c6
fe
a9
f2
21
38
3d
d0
37
26
cd
22
23
11
4e
17
f8
a5
08
6f
96
c0
eb
30
f5
c9
1a
23
05
f3
14
e0
30
50
e6
13
16
74
ee
22
07
e7
36
fe
1a
41
48
f9
80
9b
8a
cd
b5
dd
37
f6
e8
a4
cc
26
c8
b8
05
6c
e5
cd
d8
3f
52
55
d4
7e
8b
83
68
fb
96
ab
a0
98
e6
5b
47
25
cf
18
19
da
6b
27
19
4a
55
0e
54
00
59
23
c9
1e
5c
7c
b0
f3
18
10
f1
cd
c0
c8
d5
22
a6
dc
e9
04
e3
b6
4d
39
0d
80
47
c1
66
2f
74
44
03
af
c6
86
06
3e
87
16
cb
a3
53
21
c8
be
63
ef
3b
84
82
6f
ed
2c
5e
39
60
49
8e
94
1c
f9
5b
c5
80
e7
27
36
f3
0d
07
34
d9
6a
e7
f1
08
5a
fb
1c
b3
79
14
ff
02
eb
4f
1c
d0
b0
b5
84
49
6c
18
b3
07
60
63
50
35
5c
2b
d1
10
27
cf
ed
65
2b
30
15
a9
0b
88
41
53
64
e2
ff
77
6c
ca
86
b8
32
51
75
e6
2d
fd
c7
f1
5c
03
34
c2
f1
a3
ee
9b
9c
29
46
fa
ea
36
a6
75
f4
f0
dc
2a
f4
ea
ad
c8
0f
cc
bf
b1
d2
ed
38
b7
4e
d6
f4
65
96
f4
83
0b
d0
93
be
cd
e4
2c
52
54
73
30
4d
ef
84
b5
24
ae
50
d1
26
47
b2
02
7c
30
41
0a
e1
36
5e
6c
33
a7
ad
3f
2a
6e
68
61
78
1f
25
0d
52
89
52
05
28
45
8b
b1
21
0b
e4
0a
db
3f
be
fd
e0
34
47
1d
26
5f
53
de
44
22
33
14
75
aa
cf
33
fc
05
0f
64
1d
2e
2e
12
db
4d
b5
be
1e
9b
31
20
8f
e5
cf
eb
df
9f
42
16
f5
15
09
27
6c
fe
04
81
f4
36
c0
b2
1f
f7
7c
d2
06
e7
c4
4c
69
ed
4e
9c
a4
19
9c
bb
aa
1f
40
0c
8a
bd
3e
d1
b4
63
2d
c1
5b
3f
40
04
a2
94
88
c4
5e
62
a0
62
24
92
41
df
99
c3
65
5e
a2
e0
70
46
14
a5
07
0d
1c
0b
05
58
17
36
94
4a
30
3b
fb
f2
57
3f
5c
f1
80
c5
2f
45
24
2c
56
de
b4
78
3c
b5
37
cb
31
9a
d5
b8
6f
ef
b4
8f
1f
3e
64
f4
15
12
73
ec
5c
5f
be
5e
18
bd
62
d8
55
e6
8c
e4
f8
ea
ee
e7
d3
2d
89
06
02
b6
df
36
e2
17
9d
bd
9e
03
b3
0e
6d
38
31
66
1e
e0
65
ed
1a
21
3d
16
c1
95
96
ff
05
95
3a
de
f5
a6
d1
e5
ed
f5
a5
ae
fe
3e
27
29
42
c3
35
89
da
de
2d
a3
d2
19
c7
bf
62
e7
0d
ce
d2
46
ab
39
4c
e1
4a
02
b7
03
fe
e1
b3
3e
ee
c6
2d
ee
a0
ec
cf
b3
76
49
2e
d6
c3
46
05
60
ea
17
a9
fe
02
25
18
ae
76
e9
13
8c
10
fb
a4
35
8d
cc
d8
3e
f6
5c
62
fa
6c
8b
f7
89
b5
5d
32
ab
a0
eb
ba
60
da
e1
b9
e4
fc
e5
98
26
e3
00
14
6a
14
07
24
d2
84
cb
ae
c5
07
32
5c
a2
b4
10
b1
af
a1
d2
33
dc
a8
99
68
f9
68
e6
62
2c
6d
87
97
23
96
d6
ef
de
fc
44
a0
54
f8
e3
7e
54
b2
ed
69
5b
ff
a9
98
cf
d9
b0
9d
17
4f
06
3e
cd
e9
40
28
df
d9
94
6b
c8
d2
f0
b5
20
92
a5
35
c7
b8
ff
c6
91
13
e1
fd
fa
fe
f5
e5
12
16
42
6f
72
60
0c
f7
ff
c4
0e
df
6e
fc
46
fc
eb
c1
28
c1
c7
13
fc
1d
dc
80
1f
2a
9a
68
0d
47
cf
cd
c2
47
c6
e2
48
9a
eb
e5
a4
b9
e6
1f
1e
1b
87
04
e1
25
c9
e5
27
83
3b
d8
fa
47
26
b0
f0
e1
d8
09
cd
1f
5d
df
4d
1b
ad
e4
fa
6a
71
df
7c
e3
28
01
d4
12
cc
f3
5d
18
3d
7b
e4
43
b4
78
55
f2
aa
e7
84
e8
39
45
b0
28
28
d5
da
ef
04
2c
d0
e9
6d
b2
18
23
30
45
fd
4a
8b
be
29
d4
47
b5
ee
f6
35
f3
a5
62
09
3d
55
04
71
f9
ef
39
18
14
59
26
b8
e8
2c
b2
6a
b4
33
1d
da
17
5b
10
e3
dd
d1
e7
3c
e8
f2
95
84
c2
b0
80
6d
15
e6
3b
4a
3f
27
24
e7
c4
3e
00
5e
a3
03
37
b4
07
3b
42
09
80
35
27
74
52
36
45
6c
e9
2c
fd
25
d1
11
ec
0b
d4
90
28
d8
a6
3d
14
30
3e
36
63
ff
04
3a
d8
df
d4
19
3a
b1
a2
3d
54
fd
94
40
da
be
b7
e0
44
e4
39
3d
2d
e5
9c
62
83
12
e8
d3
b2
ff
b9
14
33
eb
0c
00
13
76
59
4e
b1
ca
ec
22
b9
13
66
c5
3d
0c
ff
d3
6a
77
6b
e8
9e
20
1b
0c
e8
9c
cb
11
e2
9d
22
b8
0d
19
15
33
ed
30
48
14
61
23
03
ac
c3
32
bc
94
02
38
1f
cd
11
3b
83
b4
06
77
f1
cb
10
6f
ee
14
64
93
37
f1
41
c6
e3
20
17
22
e1
e8
2d
d3
50
cf
b7
d1
09
02
88
29
8c
09
05
9b
0a
02
f0
cc
91
ae
9c
4e
07
09
f0
f5
d8
4e
b2
1f
e5
45
f9
2c
ea
b6
48
7e
5f
06
0f
0b
d8
89
cd
13
a2
a9
ee
f4
50
96
77
3d
67
12
c1
42
7a
c0
23
cc
05
e1
b3
f0
67
a0
3e
34
a9
12
e0
4b
3f
23
0e
d6
0c
f4
19
d2
44
3f
a8
cf
81
92
0a
c9
f3
05
24
3c
b3
6e
34
5d
d9
6f
cb
41
34
0a
e9
32
f4
0a
2a
6f
13
88
1f
dd
ac
c8
e9
ca
19
9b
6b
f0
87
f4
97
54
f1
13
c9
3f
f4
1b
22
3b
d8
71
44
f5
03
09
e2
bd
2f
7c
62
32
ae
39
31
93
62
52
43
02
1d
f0
66
28
7e
72
3f
d7
ae
4c
b9
21
14
4b
df
51
5b
b8
cb
2a
5f
04
ca
06
cc
3d
8a
2a
be
01
e3
1d
ff
35
b8
2d
c3
20
88
b0
4c
1a
24
42
35
78
df
15
6e
13
e6
de
e7
94
4a
14
ef
d7
69
c2
cc
fe
02
ff
3f
50
33
9d
50
08
07
17
be
5c
19
92
e1
a0
3b
f3
27
63
0a
df
aa
00
9b
c2
4f
b3
8b
4a
31
39
2b
e0
46
10
78
fd
e4
1b
3b
61
b0
f1
d3
cd
26
9e
d0
d6
90
37
cb
3c
f2
01
27
c0
5a
29
46
d9
5a
7d
f5
69
be
dd
2c
c8
f8
90
33
b9
eb
38
ed
26
17
b7
2e
3c
c6
c4
49
b4
b2
09
36
e7
0f
3f
b1
24
90
1c
d5
1c
8b
e7
a1
64
3c
c8
3f
da
3a
f3
bb
1f
8e
05
f4
9c
81
d8
9c
3d
e0
33
d2
28
13
8d
19
5c
b1
2f
2c
c5
10
f5
e8
a7
a1
ee
af
06
0a
1b
1b
80
e6
e7
9c
44
b5
5c
94
45
36
66
df
00
ff
00
02
15
17
3e
5f
1c
26
57
5d
11
5f
07
db
15
35
65
41
b3
5b
cc
dd
8e
2c
8f
eb
ad
df
c2
78
8b
64
1d
aa
99
2c
a0
3b
27
04
fb
eb
33
a5
41
6c
41
01
c5
16
c7
0e
d5
12
9a
7a
ed
84
e4
43
44
26
1d
d0
1e
cf
72
e3
7f
50
6a
7c
5b
af
e5
07
87
68
d9
3c
25
32
3b
66
26
87
e4
21
67
38
c3
3d
f5
f5
30
75
47
22
4c
04
fe
17
f1
b8
30
4d
62
de
a2
00
19
14
45
08
62
03
e3
4c
e3
9e
cb
6c
8a
3b
da
a8
34
2e
12
68
7b
3b
99
d5
e2
fb
6a
66
52
02
47
f4
1d
33
47
fe
b6
5d
48
77
ff
0a
12
d5
38
07
b8
27
a7
16
92
d5
9a
b7
b6
21
7c
09
40
29
f5
41
10
2e
79
e6
4b
28
3b
32
13
f8
fb
98
fa
d3
ac
b0
90
3b
29
14
17
3c
e4
0e
be
57
f6
a7
d5
1a
f2
e4
2a
db
5b
7e
e8
e9
18
4f
29
23
59
16
33
f4
ac
66
4f
81
0e
24
f6
cc
4c
1c
1b
cb
03
58
f6
21
4f
1c
e2
ef
21
44
22
d7
2b
0b
26
13
b7
d0
bd
37
36
3e
92
e9
f7
f5
da
29
64
cb
01
a2
cd
f4
da
c3
2b
a4
ff
73
8f
cb
13
d7
f6
51
35
05
36
d3
c8
d2
95
f2
42
52
ef
5c
f1
17
ef
eb
5b
dd
27
c0
27
f6
ef
7b
03
bb
17
13
08
2a
4f
c3
ba
76
ea
09
3b
e1
f4
1c
39
02
c6
e1
cb
1f
ea
15
df
3c
2e
76
fa
ac
e9
27
37
0a
8c
45
eb
08
45
d1
ed
f8
41
97
9b
5b
4c
ef
0d
b7
68
fa
f5
0c
d2
3e
24
43
27
22
3b
37
03
18
e3
c2
ce
85
ac
18
ef
0a
ea
14
d8
c5
12
02
e6
b4
29
3e
d8
16
ca
01
27
30
91
32
31
28
f6
f3
e5
e6
a4
cd
f5
e9
2f
f1
dd
cd
f6
10
d3
5f
0a
2d
db
f0
7e
f6
28
f5
f4
e5
3c
39
bf
ee
11
00
98
60
cf
ab
93
83
b5
5e
0f
bf
29
6d
f4
c7
7d
a9
cb
de
35
34
e5
2e
2f
d1
8d
ca
7c
10
ad
05
ba
dc
de
a1
19
d0
68
14
9c
60
98
d3
da
c2
c3
f1
e6
0f
b6
f5
b2
8d
ea
4b
ff
b2
bd
dc
0e
b1
da
15
b6
81
43
df
4e
61
39
31
c8
82
5a
b6
13
bd
f5
6b
62
a6
e3
9c
52
08
ac
c1
d2
1a
fd
2a
57
dd
61
45
7b
49
bb
ec
ce
79
1c
e7
5a
f2
06
26
3e
27
e3
26
0c
32
ce
eb
e9
ed
f3
3d
27
b5
f9
32
d2
e0
33
b1
4c
2d
b4
2b
72
62
7d
b5
e1
d8
1b
d7
09
15
f8
e0
9a
37
69
b5
da
33
e5
d3
79
f8
04
da
0d
66
3b
d9
b8
9b
ec
14
2c
35
ba
0f
cf
02
7b
0b
e1
bd
54
0e
bc
5a
2e
75
59
43
00
e7
2c
28
55
f7
50
f2
98
da
62
24
d2
90
ee
02
3d
87
d4
f9
d1
0c
34
e0
af
a1
01
ef
3d
b8
9f
39
f0
3a
6e
4b
6f
14
3f
c3
9b
3b
29
e3
28
40
06
49
73
75
76
b9
82
37
fd
c0
c9
80
04
3e
e4
ad
3b
09
d1
0a
19
f1
5d
19
8a
55
28
05
df
68
ab
df
79
ff
29
00
51
8d
30
26
1e
bf
02
00
4e
94
80
3a
c1
f1
40
88
2f
f4
06
bc
71
c8
a4
a4
0d
d6
f6
91
83
b5
e1
2e
2b
f3
a3
d0
f7
f5
0b
2e
1a
63
c6
7f
94
8d
13
ca
ca
0d
0f
11
ea
d4
8e
68
ed
ce
cb
de
e9
4f
00
83
cb
4e
2f
9d
cd
dc
7e
62
83
2f
09
d8
fc
14
16
e5
17
6b
20
76
2f
78
00
0c
10
c0
0b
18
fa
c5
db
51
ca
ed
f0
ef
ee
f7
75
7a
4c
2b
f5
dd
df
5d
2d
9d
bb
cf
b4
0b
de
26
9a
6e
f5
77
2c
f0
9d
c0
2f
8b
39
3d
d9
56
98
6b
04
89
f4
9b
08
3a
e5
11
9b
8d
4b
d6
f9
e3
88
9a
af
0b
c8
51
3e
ec
55
af
21
14
bf
c9
30
1f
fc
c3
bb
ee
b6
fc
9d
ac
33
d2
94
46
89
63
fb
aa
3a
67
d5
dd
d3
c0
f4
33
6c
be
1e
bf
8a
77
b0
1d
cf
65
25
cc
66
ba
f3
fb
ef
2f
cb
20
30
c6
05
2d
10
40
ca
cf
b7
f2
60
95
6a
83
4e
f4
d9
62
d2
5a
09
5a
e0
ba
67
ff
3f
02
63
b5
b5
3e
2b
2b
fc
0c
e7
09
5a
23
1d
89
d7
53
90
31
ee
f2
e8
c2
cf
1c
c1
f9
3d
f5
e2
b1
d5
29
f7
0b
60
e5
1d
08
75
83
ca
fb
15
42
07
20
4f
89
44
aa
cc
30
d1
66
f3
e9
6f
78
9d
07
e9
5d
43
29
8f
81
f3
2e
a5
fb
b1
fc
fe
0d
5f
ca
06
12
0d
0e
1d
49
da
77
7c
1d
cf
ee
1f
67
61
7b
f5
e4
cf
b8
41
91
fb
09
1c
66
e7
da
fc
f9
58
ac
f9
18
0b
f7
3a
03
03
41
df
ef
f1
6b
39
17
32
f4
2b
06
ba
c7
48
24
6a
e6
02
73
2e
a3
65
46
7d
3d
04
0f
ff
89
cb
1a
bd
0d
b8
85
0b
10
43
b0
c9
72
a0
13
0f
33
31
d5
f4
45
76
d0
e4
f8
d9
fd
85
f5
e1
62
df
26
df
8d
e6
43
34
2a
fe
83
77
62
07
eb
77
c0
7e
bb
d0
31
d0
be
f5
2e
f2
ce
02
7d
d5
79
1a
86
0a
27
aa
f8
b6
57
33
3c
f4
d3
df
cc
b2
65
10
33
ee
ee
6c
de
38
09
21
7a
ee
8a
6a
eb
69
02
0d
99
24
dd
f2
af
f7
f7
4f
3d
d5
7e
47
fa
f6
43
7e
08
16
78
20
f1
f9
45
1f
6f
79
27
fc
d0
fb
39
15
fd
1a
68
e6
94
19
5b
0f
c9
bb
e9
3e
35
d0
c4
8b
df
03
60
b6
8f
27
36
36
7b
eb
31
b4
fe
9c
db
24
e3
b7
f5
34
43
1c
48
74
29
73
af
0c
90
34
dc
00
fe
0b
3f
7c
05
5b
37
f8
7b
25
e7
b5
54
a6
cd
46
e0
34
cf
63
d0
f1
4e
d6
fa
db
05
e9
0c
79
87
c5
e3
46
06
05
a8
a3
aa
f1
d6
cc
1b
78
b5
94
f5
9d
99
d4
b2
04
d5
31
1e
bb
cb
13
ed
d0
d2
3d
a8
74
d1
88
83
ff
c8
d2
f9
53
e3
98
19
15
e0
99
7c
ac
4c
5a
48
1b
2f
6b
26
de
2a
26
3b
10
db
df
fc
20
b9
68
39
3f
12
fd
bd
74
b0
0d
48
8b
df
9b
6b
dd
17
aa
e6
af
13
ae
be
c1
0d
2f
1f
c0
2d
40
fc
b3
b3
fd
34
9c
e6
43
dd
8f
27
77
08
5b
e3
f5
19
0f
02
57
4a
ed
26
eb
0c
07
fa
58
26
08
70
2b
d3
36
62
6c
0d
d6
1e
65
c9
3f
60
20
16
4f
3e
0b
08
11
f0
7b
11
8b
e2
ca
ec
0f
1e
1d
07
a1
0e
e5
ac
7c
7e
28
0a
e2
b5
0f
2d
ce
29
22
cf
12
95
00
cb
58
0d
16
f9
ea
c8
aa
0e
93
37
76
12
90
f2
b2
04
c7
0f
e2
64
65
d6
38
fe
09
91
6e
59
3a
0b
14
ed
5f
e8
e1
be
16
99
cd
8b
1f
1f
39
55
17
0e
4c
7d
87
82
dc
b9
18
70
00
7f
dd
02
aa
53
d2
79
e2
09
71
c6
e7
bf
5d
8d
0a
22
43
d9
f4
27
c7
f0
dc
1e
f4
f0
ac
44
77
4f
fc
32
bf
19
e5
10
04
6b
af
1e
4e
e6
2d
6f
e0
59
18
06
a1
21
8f
e8
b2
4d
96
2c
46
10
ab
fc
01
e4
dd
1c
a3
c3
62
aa
fe
32
4f
c3
d9
07
3f
29
95
3b
42
ed
1b
70
19
b4
aa
29
0e
48
d7
4c
69
b4
9e
30
ce
02
f3
04
23
c8
ee
ba
67
0a
16
c9
7f
e2
0e
60
64
0c
1f
c7
1f
b6
04
a1
8c
ec
54
75
bf
fb
b1
fb
7e
80
67
00
16
64
9b
39
b2
92
1e
b2
0e
29
37
96
ab
74
f9
e9
e3
39
1f
05
ea
e6
28
cf
48
bc
0e
33
37
49
e6
61
f2
e8
61
1c
32
6d
4d
fd
1a
fd
f2
32
e3
15
d6
0e
7c
30
0e
50
e0
e7
66
d6
db
db
f5
dd
97
0d
84
0c
c4
c9
cf
c3
ff
a8
ed
51
31
ce
e8
68
e4
ee
44
b0
f8
15
55
f0
47
d1
d9
67
e2
64
09
70
21
89
44
bc
b4
7f
af
e9
85
f5
d7
05
aa
54
fb
99
b0
4e
19
55
68
f8
f2
92
1a
43
05
65
88
79
23
cc
5f
86
6e
4d
04
8c
42
33
05
5d
d7
55
e7
5a
61
8f
00
76
08
7c
59
cd
85
90
54
e6
23
23
b1
4d
60
67
8f
0c
75
01
6f
fa
86
aa
8e
49
8e
a9
a7
73
55
ee
55
06
90
12
aa
5a
40
1c
5b
1a
5c
b7
65
6f
de
1b
59
ce
f3
bc
69
f9
23
1e
ff
9e
2a
86
38
d9
08
31
ac
ad
07
77
cc
03
16
e3
d0
c4
d8
f7
ae
fb
4d
1f
7c
e3
17
69
20
f4
eb
36
8f
fc
45
0b
1e
ed
6e
30
d1
d0
b2
88
46
37
fe
08
56
12
ca
08
fa
c0
b3
f4
23
8a
02
a3
22
d6
47
2a
cd
86
ef
39
10
a6
41
84
cc
95
d2
16
f7
4b
fb
38
94
fe
3a
b4
f1
1e
02
1a
dc
58
98
fa
1a
56
36
23
82
1c
aa
d6
3b
3a
52
aa
5b
08
41
7b
0a
d1
73
35
d3
00
38
06
21
6a
b8
d3
28
d0
9e
2c
ac
fe
fd
94
c9
2e
1d
ff
0d
c3
f9
fd
b3
ba
42
2e
e2
ea
a7
e8
a8
04
15
74
c7
1c
3d
1e
3a
20
e2
9c
bf
97
a5
ef
f5
a4
37
09
f8
8d
91
aa
47
a9
24
bc
f8
50
38
73
ae
76
61
98
3a
9b
59
e0
0f
11
ea
84
bb
5d
bc
d1
bf
42
ae
4f
b9
92
11
fa
1b
7a
47
c4
f2
c6
c8
be
3a
ba
12
4b
bd
a2
87
26
be
92
65
6f
8c
95
10
b8
c3
c0
5f
02
41
87
84
83
1c
79
13
d0
ab
b9
0e
ed
09
3d
6d
31
cc
9f
80
ac
9e
07
52
75
6e
01
23
f7
71
8b
f2
1f
6f
ec
83
02
c6
d9
7a
04
ab
d4
a3
e4
1c
4a
dc
7e
e5
d0
6b
19
53
94
90
d7
6c
24
91
7b
97
2b
e3
bf
01
3e
b1
d4
00
f8
27
ba
f1
ee
d8
3e
0b
4d
3a
96
09
bb
58
6b
a2
2f
77
8d
13
c4
ee
f2
be
cb
20
87
60
81
06
1b
98
d4
4b
6f
c8
17
ad
0e
4e
cf
be
c9
dd
4f
7c
65
40
8f
02
47
1e
5d
70
6c
37
1e
0f
b6
e8
f1
55
14
c6
75
c9
cc
c9
1c
d2
35
0d
08
be
f9
3d
f6
b0
1c
01
3b
f1
55
a0
b1
28
b7
75
2b
50
db
20
26
cb
dd
8d
01
96
2d
58
97
48
ab
f2
b5
25
10
0c
80
23
9c
f1
7d
bd
5e
4e
53
85
09
15
2f
be
4d
f9
86
d3
1e
0b
47
7a
49
70
42
11
92
93
4f
4d
2c
94
82
82
8c
a5
34
bd
f8
aa
17
1e
e7
15
dc
1d
b9
ca
56
9e
b3
c9
19
37
2d
18
89
0f
2b
8d
6e
9f
3a
45
45
bb
a4
48
de
c1
2c
db
b3
28
4e
aa
24
09
8c
3a
eb
18
6f
e5
2f
88
5b
fb
f5
a2
ce
e6
b5
9a
14
f0
c0
ff
81
9d
ca
e9
ff
43
11
e7
07
b0
3a
e0
29
68
e7
dc
1d
94
38
0a
f9
08
0e
9b
dc
f0
e1
35
23
cd
cf
84
78
74
ee
38
35
1a
1b
f1
77
f4
25
1c
4f
12
27
07
da
df
0e
98
14
54
00
55
42
5d
2d
3b
49
0c
85
83
bb
4d
6e
4e
10
1b
69
3e
3c
21
8d
58
e6
ee
b7
c0
f3
a2
08
23
60
42
01
47
9d
23
a0
49
f7
6b
d5
61
e7
50
6e
52
94
b4
1f
47
d3
11
40
2a
7a
ac
36
9b
1f
d6
a8
2b
e5
fc
03
d6
1d
79
73
8e
79
e6
12
cb
1b
de
68
99
e8
9c
12
ad
d5
e7
93
2c
df
c1
d0
e0
fe
0c
22
80
02
c2
e2
42
bb
d7
c7
f4
6b
01
1d
7b
55
43
4c
5d
65
19
fd
68
c2
47
12
c3
3a
25
b1
05
69
04
22
65
3a
55
28
dd
0c
d4
4f
d3
23
35
a1
0e
d6
6e
1c
f3
3a
15
26
80
5f
25
16
74
4b
e1
ad
99
00
cf
c6
05
22
cb
29
21
1d
6a
b6
47
ec
fa
fd
a1
d3
d7
30
22
2f
24
b8
b5
36
37
fd
ed
88
24
3b
27
c5
13
c5
f3
34
30
f5
17
e4
da
f3
29
c8
fa
63
2f
57
a6
47
f9
66
01
c6
0e
5a
1e
58
3a
a7
0f
6d
0e
fa
17
d5
fe
a4
6e
7a
bb
6d
58
ac
ce
17
d4
d7
9a
4d
1a
0e
3e
b3
3e
db
dc
fc
a3
fe
21
95
61
5f
09
5c
91
c5
35
dd
ea
ab
fb
d1
e5
f9
0e
96
3e
10
e7
e6
dd
a9
e6
4e
45
6d
2c
90
16
40
90
31
12
b8
f7
0e
b3
c9
96
7e
03
d7
39
48
e9
c7
5d
03
2a
9a
f1
e8
d0
43
30
60
fb
2d
5d
08
09
04
30
f3
c1
11
22
e7
4d
04
e6
e9
6f
2c
b7
ef
d4
12
7f
67
c8
13
42
e3
be
ff
be
d6
b6
9d
90
2d
59
98
0e
61
b7
05
3c
75
b7
43
00
bf
42
0c
7b
01
2d
49
55
6d
06
2a
4e
6b
3c
a3
aa
d3
24
c2
16
47
af
f2
b3
7e
4b
f9
55
ef
0f
0e
9d
21
14
14
9b
6a
54
11
e9
51
1f
ad
35
b9
c2
e8
ce
19
a2
2d
e5
15
4a
ec
e1
9b
6a
15
cd
62
75
43
97
d3
d4
4d
b1
2a
3c
97
89
6e
30
d3
c1
f0
e6
9c
24
d4
92
18
55
d1
d9
6a
cd
ce
8e
33
1c
3a
dd
72
6d
0d
39
1f
1e
bc
41
01
1f
e2
fa
6d
e3
93
d7
71
e3
91
10
26
b4
88
fb
0b
1b
7d
88
8e
26
0b
f2
c5
ff
e2
f1
eb
a9
1f
99
7c
d9
a3
01
8a
25
ad
30
68
94
a4
d4
cf
21
e6
a2
6b
06
f6
dc
2f
21
1a
60
12
3d
6e
5f
17
3e
1d
a8
28
f7
9f
57
26
00
27
89
71
c6
db
f5
b4
df
ba
4b
9b
fa
4d
4e
b5
09
df
00
22
a3
02
41
2b
c7
8a
f3
6d
27
11
a1
0c
2b
4a
6b
50
44
6c
79
31
94
1b
e2
dc
d1
fe
d1
a3
4a
5d
3f
40
3e
03
35
7d
1a
a7
a8
56
d3
ea
b4
01
31
7b
fc
0f
6f
2d
e9
3d
3f
a1
31
a7
b9
36
ca
35
04
34
10
bd
13
8a
8a
e0
e7
96
11
b9
bc
bf
3e
a4
e3
fe
a2
ad
9c
3a
93
40
ed
5c
45
18
db
fe
5a
d6
02
ae
1c
4d
db
d7
03
88
d2
cf
10
4f
60
da
2b
13
1c
17
14
c6
23
00
ff
bc
d1
16
4c
a6
bf
ad
63
de
4d
a1
fe
51
99
01
e2
42
29
c6
97
c3
b9
9d
01
0d
eb
cd
9f
e1
2a
2c
d9
1e
3c
16
7b
b7
4a
be
94
aa
2d
21
98
b8
01
9a
94
7d
73
03
6c
cc
a2
66
77
ba
61
3e
f5
8e
fa
13
1c
6b
2f
b3
bc
d6
77
56
f8
25
7f
30
ee
5c
45
14
01
8f
44
a4
01
a3
0c
2a
77
85
f0
78
2d
8f
94
80
b7
c6
cd
59
53
b1
23
4c
15
a4
e8
65
e2
c0
fc
68
a4
e5
e1
77
1b
35
6a
a6
03
eb
27
dd
e4
59
b5
6e
9a
4d
3a
15
f5
2d
d1
c7
9a
00
de
5d
d3
f7
fe
ec
eb
23
d5
35
e5
8d
a7
4b
60
f4
b9
19
42
58
24
82
49
28
f2
71
31
dc
1c
10
44
20
cc
2b
88
97
c5
23
51
29
9b
ba
49
5a
a5
04
dd
ed
3e
33
28
07
4c
63
f9
20
50
4f
68
05
cc
db
c6
42
cf
11
57
fb
e1
35
b3
0e
5d
83
53
e3
1a
76
8d
f3
c5
b0
bd
29
53
2b
f0
fe
e7
5c
bd
d6
e6
43
92
4e
be
4a
c5
20
0f
6f
ae
61
cb
ed
c6
39
6c
3d
16
e8
ff
61
6f
e7
a4
25
0f
1f
9a
0f
bb
78
d1
b5
fe
ae
ea
53
73
18
b5
1f
98
5f
f8
1a
33
37
3a
0b
05
3c
12
7b
72
e4
71
8c
0f
c3
8d
54
83
36
ec
cc
5a
16
93
2b
c2
7f
eb
cb
0d
b3
3c
f2
6b
79
ab
c8
f6
7d
e2
7e
6a
d1
31
27
35
05
bb
4d
29
95
4b
70
f8
77
d8
b3
db
f6
43
40
e1
ca
1b
d9
6f
bb
34
50
dc
b4
09
98
18
8f
f0
a6
9e
8d
bb
40
12
6c
0e
64
a4
bf
f5
c5
d1
0b
f2
d4
76
8d
cb
86
df
10
69
0e
a8
13
9a
57
e9
97
2e
58
5c
db
13
76
c4
15
b0
cb
4f
2c
d7
51
d0
ff
0c
28
2e
6d
1d
fa
f6
08
84
af
98
02
c8
5d
c7
b9
d9
a1
04
16
8d
ba
02
d4
cb
9d
28
96
20
ee
3d
e7
96
04
71
9c
18
15
46
f2
56
bb
d2
e1
db
10
7d
cc
14
ca
56
a7
02
ff
b1
fc
2e
14
64
21
c1
e6
7b
02
62
a6
fe
90
2a
06
81
29
a9
e1
6a
bb
2c
38
81
fc
3d
51
a1
58
d5
80
19
66
f6
94
c5
0f
d9
b1
7f
06
cb
c7
60
42
51
39
00
6c
de
f3
39
8f
f3
1f
cf
6b
4e
30
e0
93
7f
02
9b
ac
dc
04
82
25
5d
b7
ec
56
70
aa
58
d5
16
32
9b
09
6c
89
e5
20
c5
81
1b
f2
21
bf
b1
ae
d7
f6
5a
06
a8
30
bb
fc
a8
19
79
5d
ee
c2
63
67
db
18
34
29
1d
e2
fa
8f
ff
cc
21
4e
39
b7
3a
cd
53
9b
b5
5f
24
80
e1
9f
01
e8
c2
27
92
dc
38
e6
9f
25
81
cf
06
91
48
de
fa
6a
d6
3a
9b
2a
8e
20
86
3a
47
27
43
15
63
af
b8
a9
35
f2
d5
f5
9d
68
30
1d
f6
5a
de
de
d1
fd
61
2b
ec
7e
29
fc
7c
d5
52
f5
d1
2d
e2
36
d3
6a
53
21
08
96
20
01
aa
2a
78
ae
6a
85
4d
7a
ae
7b
3b
fa
54
3f
b7
e1
1c
ae
3a
fb
da
da
9d
e5
91
06
85
f2
e4
c7
e2
43
d1
da
bb
ed
ee
85
92
31
17
c0
4d
54
6e
ff
4f
4c
20
f6
ed
d0
47
1f
e8
b3
d2
6a
2f
73
47
e0
fa
35
dd
e5
a5
1a
e0
58
71
48
7f
2b
52
58
e6
21
a6
e8
d9
ff
ab
21
dc
1f
62
c1
1d
42
2e
4f
22
bd
23
35
03
b2
15
9b
00
ec
48
cb
09
ef
54
b0
fb
0f
7a
d0
c5
de
16
db
48
19
be
a8
e9
e5
3b
9c
10
48
27
0a
d3
0d
30
2d
a4
4a
0b
6c
10
3a
ef
83
f5
fd
dd
ed
8c
c1
a3
b1
63
df
40
d1
91
bb
93
32
b6
bb
c6
e9
fd
d9
aa
ed
b2
88
c8
e1
aa
dc
8e
2e
dd
ee
04
b9
bd
3d
4e
35
55
f0
28
fe
d6
42
16
32
8f
5b
11
9c
ce
ee
5d
ca
07
7f
ee
3a
03
18
13
1f
e2
3a
4c
3d
21
05
35
01
ea
0d
15
9a
13
08
66
c1
07
c2
b5
19
f9
b6
62
ba
5c
ba
2e
3e
c9
f1
85
14
1b
22
db
21
2b
b3
e3
df
9c
3d
a5
3d
52
44
b4
d6
36
60
f5
c1
bd
91
cb
3f
8f
97
cf
e2
09
ae
64
8b
2a
ad
5a
ba
60
d0
b5
8d
02
72
1e
e3
40
02
0a
cc
d0
c4
ff
1d
d7
05
4a
d2
20
e0
3f
30
4a
d8
1b
ca
32
26
bb
fd
dc
88
31
28
aa
0e
99
0c
aa
26
03
4b
de
e0
2f
09
13
7d
ea
3b
ae
31
d5
a1
80
4e
48
4b
66
11
57
28
a9
e4
4a
98
d5
f3
80
e2
18
3e
7a
06
ed
a3
32
fe
42
e6
d1
10
9d
f4
56
ca
af
2a
60
53
d2
b3
be
0f
4f
f9
e2
a9
ec
16
5a
13
08
89
75
6d
4b
1d
08
40
1c
3a
d8
62
06
52
e8
a7
45
15
6c
ad
69
43
66
a5
52
b1
63
12
fe
47
60
08
50
ed
45
85
b1
35
aa
ad
20
c8
26
c5
c0
bc
f8
b6
33
41
c4
47
e0
4a
aa
43
0a
90
0d
d5
9a
a3
8a
e1
06
ab
e0
40
d6
07
4f
a5
a3
00
cf
70
c4
bd
39
45
59
df
ca
ef
cc
dc
c7
01
f9
40
cc
68
8b
5d
15
18
02
9d
cd
a9
53
83
47
9e
74
cd
a2
ef
33
b0
92
b1
c2
35
8d
cf
98
b8
80
d4
2f
11
9b
13
8f
93
5a
21
1f
c3
b7
0f
cd
b9
32
82
32
fd
e8
b7
6e
f1
5f
ad
bd
fe
7b
37
28
08
45
ff
49
0d
8b
cb
56
86
52
57
b9
d5
a6
c8
6e
3c
86
be
fe
d7
aa
75
59
30
55
89
87
33
7f
00
cd
a1
17
4a
0a
4c
52
fc
09
6f
70
ae
b7
e1
0d
41
31
4b
88
6b
2d
0b
77
20
b7
19
30
37
d5
63
16
88
20
fa
75
1c
03
13
ca
5e
b1
c8
e3
a7
64
a4
e5
6c
75
0e
d6
1e
3c
e0
43
2e
61
d0
c0
fa
8e
85
7b
c3
01
c8
a7
98
28
9d
cf
d9
b5
0a
01
3d
0b
db
c5
2a
f5
53
eb
5e
3d
38
ea
05
c2
8a
70
71
f7
9b
2b
8a
b8
05
a2
77
15
e3
69
5f
62
2b
b3
c0
b9
2c
2e
02
42
3f
cc
74
21
ec
a8
79
c2
ce
29
de
ab
65
19
70
d0
7d
46
0b
87
78
a9
ec
69
57
61
ec
f0
e2
ae
56
01
3a
d4
62
44
0b
2d
40
70
1f
11
71
3b
e5
ef
08
15
ef
ce
9a
05
7f
57
dc
cb
1a
45
6f
2c
02
4e
9f
f6
ab
44
ee
01
13
43
fd
23
19
37
55
40
1f
31
8e
6e
ec
ae
86
ee
5c
53
c7
d4
8b
08
f6
db
f7
d9
91
09
1b
5f
fa
a2
c3
ee
46
ac
b4
f0
32
07
47
ff
7d
21
37
36
06
2d
01
fe
67
57
02
8a
90
66
a4
e5
17
85
dd
49
ab
37
e4
94
48
da
0d
b6
6e
84
e3
2f
23
9b
b7
7f
97
ff
11
a2
d9
1a
2d
e1
91
35
16
63
aa
4a
98
e8
9f
e3
56
96
06
09
fd
29
ea
f2
47
b4
a6
d9
76
02
18
4b
e1
d6
15
c6
16
43
a9
f4
4e
ed
9a
66
dd
45
9e
eb
95
31
6a
ba
22
22
ad
85
53
43
b3
f7
98
b1
ff
0f
ef
14
1c
e1
75
14
df
18
17
a7
ff
eb
e8
67
61
cd
c2
1e
3c
0c
22
df
72
38
ce
24
87
fe
8a
1d
08
1a
50
c8
d3
2f
e5
9a
f3
42
a7
ea
60
b2
9f
af
47
f0
a3
a0
91
56
b4
52
c0
08
05
11
d4
5b
8b
f1
31
de
c7
f6
c0
23
0f
a5
30
99
6a
a9
41
1b
eb
6c
3a
fb
23
68
ec
fc
a9
b1
26
11
09
09
db
e4
e4
ed
25
00
21
bb
f9
72
a7
82
23
4d
13
3d
64
93
1f
06
92
f0
64
08
07
fe
d0
ef
7a
44
92
63
09
94
99
2b
06
e2
f3
e2
a2
c7
14
ea
e0
ec
74
10
bc
3b
23
69
a1
25
0a
ca
e6
51
32
96
a0
4f
2b
36
c2
cc
7f
f9
da
56
d0
8c
a6
ec
44
35
7e
f7
e3
a2
54
da
75
cf
f0
1f
39
0b
9f
75
ee
89
fd
fa
1f
52
ac
6d
3f
c0
40
b3
f1
34
9a
ee
05
31
4d
c3
0a
d0
19
39
25
d0
ea
c3
25
a4
1a
68
d9
26
d2
04
ef
f5
07
e7
da
60
ff
38
36
be
01
02
2f
20
5b
64
0a
b3
39
c9
c7
bb
25
1d
3d
3e
09
4f
0c
60
c7
68
9e
17
49
18
e3
03
3a
f8
03
d1
a1
3f
6e
33
e7
b3
f7
bf
eb
42
c9
36
36
0c
3d
c3
bd
f0
1a
c0
fc
3b
2f
d9
f3
90
26
0c
11
9a
7a
d0
5d
bd
cb
e7
65
b7
e3
a2
9a
26
48
34
ee
cb
48
f4
bb
24
dc
10
fc
2b
fb
6b
24
17
eb
06
9f
d6
18
d4
29
3e
18
6a
d9
41
7b
e6
32
2d
f9
21
1c
28
0d
bb
d1
0f
6c
f1
a6
df
e2
3e
11
54
1b
b7
18
69
13
74
e2
70
2f
d4
ef
b1
5c
e1
1e
b2
bb
7b
81
15
1c
d7
8c
84
e1
1d
05
cd
b4
81
52
54
03
c0
dc
39
21
ce
cc
7e
2d
a6
ff
fd
e7
57
d7
11
ae
35
ec
67
07
0d
0b
24
65
6f
18
c4
d0
32
fe
21
ce
d0
11
2d
da
a4
09
a0
14
d7
f7
ba
4a
cc
bb
c0
d0
cd
08
eb
c3
ed
dd
67
9c
a7
d4
e7
d9
0c
36
ff
0b
e2
20
61
e5
fd
75
1a
c3
b5
70
d5
49
c7
fc
57
0b
5f
12
68
8a
88
13
d6
fc
87
5a
db
5c
6d
60
57
39
9e
c8
91
17
cf
7f
4e
3e
11
ca
05
b0
a3
f7
0b
0e
f7
07
d4
26
12
f8
8b
13
44
3f
2a
8f
fa
31
dd
61
2c
9d
95
9f
ac
c3
ea
d0
93
0a
0f
c2
7c
b5
07
a7
4a
b9
3c
5a
79
b1
4f
cf
c4
cb
3a
3b
02
1c
dc
ee
02
c6
0d
80
e1
03
45
6d
1a
2e
58
83
88
54
79
b9
cf
b6
f5
f6
87
f3
e7
3c
2f
cd
19
32
4a
e3
be
6c
92
10
aa
00
12
9c
19
af
1a
52
44
19
d1
cf
09
f9
73
74
b5
46
08
bb
69
af
1b
35
f0
ff
0b
d4
1e
ed
7c
0d
93
f8
83
1b
d4
1f
32
76
0b
2c
eb
b8
45
5a
d1
0d
ef
9f
ee
3e
4e
d7
32
0b
77
c0
2a
6d
f7
e1
3e
74
22
45
67
1d
d8
1c
f8
0f
23
55
ce
ca
ff
22
d5
aa
30
e5
2a
a2
51
d0
5b
d9
f1
61
bd
da
ff
1d
d4
9e
f8
39
eb
d6
a5
c6
1c
ad
57
27
12
e1
b9
e6
f3
c6
ac
9e
1e
2b
d4
38
17
70
bc
0b
b3
15
12
f3
2e
17
de
21
e7
02
06
22
d1
bb
1f
20
75
70
a8
18
fb
63
03
0d
f2
ab
c9
ff
27
fa
f0
16
c9
0c
89
e2
1f
a5
26
8d
9b
09
54
e4
49
f8
e0
ed
de
ec
0b
eb
4c
19
b8
ee
e6
c0
38
a6
18
17
a3
d9
47
97
a2
29
0b
f2
24
e3
f8
68
05
02
44
ca
a8
c1
d3
e9
10
3e
09
41
03
fe
34
f2
1f
09
e4
be
22
13
6f
13
e6
11
49
10
b3
09
32
04
6b
f0
50
ed
90
ec
f7
13
cc
49
19
1b
29
ec
31
fc
8f
31
ff
13
1b
c4
f5
42
32
ce
ed
d5
fc
cd
30
24
71
b7
1b
fc
0e
29
f8
14
f4
87
08
b7
fc
39
37
50
ff
01
fb
ec
54
f3
20
fe
f9
74
29
c2
07
8a
e9
b5
f5
d8
32
1c
09
fb
f8
13
d9
a4
45
07
05
26
e4
08
71
c9
b9
0c
4d
0a
13
ff
c3
4a
d4
62
79
ec
ff
04
11
22
f9
67
f4
c3
f0
af
dc
10
f9
e7
3a
3a
b1
e9
20
42
03
28
3f
ee
52
9c
ab
01
db
84
e9
21
25
7c
0b
de
92
4c
46
df
f5
f4
0d
fd
f0
e2
b1
54
2e
26
13
08
bf
86
e6
0b
31
27
e2
0a
51
09
88
cc
5b
9d
4d
fd
19
71
87
ba
ea
f7
9e
16
59
c8
21
d9
c0
f9
1b
04
03
fe
c3
5b
38
58
92
19
24
5e
91
48
a6
62
6b
b6
a5
4f
4b
a2
7d
67
2b
55
95
35
3d
bd
18
14
92
b6
7a
ca
0e
68
f2
08
ae
17
66
ec
f2
d0
f3
ec
f3
d3
48
40
dc
ad
fd
61
82
fb
0d
3a
6a
e7
0c
3e
d2
09
24
cc
03
b8
fc
0f
23
d7
02
b1
16
4f
01
a5
4f
f1
37
65
03
23
03
7d
a7
fa
f2
cf
ed
fd
59
2a
ec
9b
6a
a1
c3
0c
f4
cf
6d
e5
46
4a
0a
6d
54
c4
df
0c
26
d5
86
78
53
1c
05
0b
94
4c
6a
2b
07
da
38
01
e1
54
7f
6e
c4
47
1d
9a
d2
35
66
08
f6
45
9f
7c
5b
e2
a0
69
c3
ae
85
9f
2d
0e
6a
3e
32
66
a7
61
c0
19
34
45
38
27
24
09
32
c3
da
ff
ef
7c
e5
0c
89
97
eb
4a
3f
0d
be
9f
33
e1
44
23
23
11
6e
c8
ce
c2
a2
a3
05
32
b8
6a
50
4b
01
bf
3c
0f
22
f9
09
cc
d4
bc
bc
89
0c
fa
1d
03
35
3c
c1
07
08
f6
85
3a
2c
0c
b9
d2
68
f0
03
0a
f0
73
4c
1e
cd
c7
25
1c
09
ca
91
20
f6
df
73
67
a6
46
57
1d
c1
17
23
55
fa
ed
38
2b
6f
cd
cf
fa
ff
36
18
46
0e
a3
97
f8
07
5c
4e
d6
d5
28
cd
5d
e1
a1
ed
32
18
00
a5
fd
42
64
2a
9a
ea
5f
c1
6d
28
d4
89
2d
88
fd
38
21
18
0c
44
1b
06
e1
77
03
45
13
b9
f1
f3
03
42
47
f3
92
53
83
49
ed
d2
33
1e
68
6d
7c
94
02
3c
55
e6
1e
ef
8a
d3
bd
dd
f2
6a
16
28
69
1f
70
6d
20
6b
0f
a5
2a
2b
f0
da
df
ff
cd
b1
cf
8e
27
b0
4b
5b
00
c7
b0
4b
7c
42
65
d9
8a
ed
6b
29
3d
37
96
a1
14
50
11
7f
01
c3
80
b4
e5
68
55
02
7c
a4
87
2f
51
68
35
5b
11
98
50
24
a4
08
d5
94
d4
7b
3b
34
c2
8f
f7
1e
26
02
17
37
6a
e5
ba
91
66
40
ed
d9
db
2b
71
7b
9f
af
d4
15
19
48
76
94
a1
da
2f
b1
75
32
09
62
b4
c3
1e
8f
4c
11
be
9b
b2
da
44
15
27
1e
e7
f3
ab
fd
01
ed
ef
ab
c8
22
1d
23
d6
39
d7
0b
de
eb
26
e2
f5
94
0b
bc
83
5c
1a
ea
cd
ab
38
04
e5
f8
9d
1c
18
92
97
ab
84
5f
b5
a4
fb
80
a6
29
d2
02
84
e4
e1
02
54
88
8c
f6
81
c4
53
38
0d
63
a9
01
de
47
ef
18
8f
50
2b
ad
e0
f0
1c
99
03
2c
38
28
0b
4b
33
fd
a9
31
f2
33
76
49
36
13
34
99
1e
2b
f7
71
d4
ae
c8
f8
2b
11
85
a0
b1
fc
64
8d
21
ab
30
07
16
05
06
71
3c
e0
32
50
00
6e
4b
23
2f
f6
be
36
15
56
e6
0a
8f
9f
c9
80
f9
58
e1
e8
c1
48
c1
9a
e6
46
91
e1
b2
4c
73
76
6c
69
21
21
51
8a
95
48
e5
5e
56
e0
ac
c5
a4
c6
d5
29
10
e9
ba
be
1a
bd
a7
30
9d
5f
9a
67
10
3a
e2
00
ba
f4
60
12
46
99
c5
43
12
0f
71
03
58
39
36
0b
ec
31
6e
2f
43
30
10
1f
7e
d8
fd
07
dd
14
2b
31
b2
5a
93
59
8d
d0
37
c7
ee
01
f0
2d
96
aa
d8
83
38
83
66
a3
ab
b9
e9
78
c2
4c
88
2f
f8
11
3e
ef
f8
ff
97
f0
98
97
3c
e0
01
3c
10
e3
4d
0e
3d
f2
a4
f8
e1
73
44
45
ff
28
2d
2a
e4
b4
e6
70
3c
2f
1c
9a
5b
64
a5
06
bb
fa
ce
15
59
5b
b2
ff
2d
1b
63
7f
d1
eb
19
0e
44
14
03
8c
59
ca
f5
e9
b7
61
60
40
e6
cd
11
1b
14
88
5d
18
18
08
79
dc
70
08
d0
0a
42
e3
6d
17
4f
10
47
33
9c
2a
cc
cf
fa
7b
fd
7b
76
52
2b
e5
73
54
0a
e4
f2
11
b2
11
00
d3
2f
65
52
cb
42
bb
28
d2
30
9f
c5
3b
63
e7
31
36
1e
42
ed
0e
1e
e2
ab
19
89
2c
2f
89
dd
78
2e
0e
aa
20
b1
e4
85
a0
1b
20
0f
e5
fe
3c
c2
9a
88
14
31
ef
1e
e9
1f
98
c2
da
be
70
58
d4
e9
b0
ca
1a
29
a7
cd
e8
21
f2
11
8d
40
01
4c
eb
36
6e
a1
6c
41
e5
a4
53
20
5b
ef
25
b8
c9
5e
34
54
e9
38
92
4e
31
54
cd
d0
c1
2e
ef
14
85
d4
32
d1
08
d1
41
39
cf
ac
96
9e
eb
ca
75
e8
27
46
b5
96
75
3a
87
18
b8
8b
b8
6c
3e
be
9a
87
65
1e
2b
36
0b
f0
f9
9d
e4
77
ef
ff
37
ae
b2
02
52
ee
28
ed
36
06
fc
4b
23
76
66
12
57
e6
39
de
9e
24
d1
96
11
fb
16
bc
31
c6
d5
f8
0b
bd
80
cb
3a
f8
d8
3b
3b
a8
5c
d9
71
4a
0f
d5
cf
fc
6e
51
cb
69
72
f8
f4
f1
55
3e
0c
2c
c3
98
1a
e3
cb
b1
e0
01
b1
90
2a
e2
3e
ef
a3
ae
39
f9
9d
89
e1
1b
46
17
02
21
1d
a6
de
bd
07
9d
2b
12
ce
68
1c
63
a2
18
77
02
1f
b6
b6
22
e3
d8
22
d7
fc
ce
c5
5f
72
95
39
25
91
f0
cd
a4
ed
46
5d
70
11
43
92
9e
ea
ad
ca
41
9f
0f
6b
7c
b6
c8
16
f9
85
cd
e3
34
a4
86
54
3b
20
13
48
e7
d4
0c
31
47
eb
be
af
0b
2b
c9
33
29
a2
e8
11
0c
fc
37
c1
c5
d9
f9
d9
34
ea
28
73
fd
e8
55
e9
1e
86
75
58
12
dc
33
4f
01
a1
01
dc
4b
72
2a
de
ef
15
c3
0b
d4
3a
2b
d7
a4
0f
be
37
ae
ef
a4
f4
14
f2
16
1e
f0
cd
c6
09
b7
52
46
6f
dd
7e
c7
e3
10
f9
e9
b9
80
f9
6e
09
20
c2
2b
6c
d4
f5
53
98
16
26
e5
49
a1
bf
7a
97
bc
aa
e3
0d
91
7b
f3
e1
09
95
00
08
0e
c2
e7
f0
16
e2
0e
5c
35
e2
ec
4a
e3
e3
c8
96
26
00
1f
8b
e7
d1
b4
57
f2
39
b3
ff
f8
13
9f
49
53
46
c7
12
ed
f7
12
ed
34
9b
23
11
25
04
c9
09
b4
0d
33
0d
d4
5f
15
67
02
fe
d8
d5
8c
eb
44
3e
bd
43
17
bc
b3
f6
24
19
48
6d
3d
0d
c1
af
fe
24
d6
10
b4
fa
21
1d
96
6b
d2
36
7a
00
f4
fe
05
14
1c
f0
f0
f9
3c
2b
2c
25
08
3b
ee
58
1b
21
fd
b1
02
fa
15
0e
49
d4
f3
db
a4
a5
c8
0a
35
01
c1
d4
c1
be
40
e0
c4
a2
f9
06
b4
b9
12
2f
cd
ee
08
22
17
28
e5
fe
32
aa
60
99
bb
47
ed
a8
e1
bf
11
e0
40
09
4f
a2
cc
d4
f4
35
13
c7
16
0d
cb
f0
f5
fd
2b
d8
b2
ff
59
42
51
8e
be
e4
49
ea
fe
f2
e0
ef
00
62
7c
eb
ad
1b
04
19
19
aa
da
f3
94
be
02
2e
dc
0b
d9
41
d6
12
e6
21
8d
ff
f4
15
dd
29
ef
ad
93
fe
ed
59
27
c5
57
24
eb
56
e7
e2
b3
f2
fd
43
bf
19
43
fa
ff
8a
21
ec
fd
98
14
01
dc
16
2c
60
4b
44
a3
3a
5c
60
a1
86
58
1b
d3
22
78
97
5c
6b
30
f5
00
a3
b7
f4
45
62
10
d4
04
77
1b
31
2d
50
db
34
3c
d5
80
f0
b7
a8
0a
d8
54
c4
73
55
a3
9e
c6
f4
5a
6c
fc
ae
9b
74
56
9b
5e
21
0b
42
eb
81
4d
6d
4c
d2
a1
8a
5d
3a
9e
88
cd
db
4f
fa
93
42
b1
c8
cb
29
3e
7e
c6
43
5f
11
59
ac
6e
21
df
8b
46
7f
1b
28
71
41
58
ec
90
d3
d0
a2
d2
27
df
ef
be
aa
22
f0
07
ee
cd
f0
96
e7
92
13
8a
00
e7
c9
8e
4c
97
89
5c
7d
d0
79
3c
db
71
0a
a9
b5
ca
73
76
67
3c
25
ed
53
aa
4e
90
32
5c
2b
57
4d
a2
21
8b
c6
6e
7e
a3
9c
e7
4f
ff
3b
04
99
3d
83
ff
f4
cc
2d
c4
14
7c
9a
f1
fa
f5
b6
8e
95
dd
b3
a5
c4
64
35
5a
42
eb
7b
bd
f1
f4
7a
2f
36
2a
bc
7a
1c
74
1a
da
60
21
2e
8c
b5
c7
6a
c7
c3
78
b5
bd
ad
73
c6
e8
82
84
b4
08
3d
1a
ce
e5
bc
b5
2e
08
41
ad
b4
fd
a5
9b
ce
8b
49
c4
12
59
5e
74
9c
50
e4
db
45
c7
08
b0
af
be
3f
d1
85
66
ed
95
2b
5f
8b
ec
60
ff
46
e7
5f
15
c5
be
f9
ff
31
f9
51
67
1f
f5
cf
66
34
5c
b8
13
b7
a2
df
91
0f
33
78
0c
00
97
10
6e
13
49
a4
59
8e
e2
4d
13
a6
13
d9
49
0b
f8
11
bc
cf
f5
38
e3
02
73
b2
f7
5c
d7
ad
e6
08
b1
e5
05
3d
8e
c1
c0
09
86
26
3b
0a
d9
ba
aa
7b
cc
ef
79
ff
e8
83
2a
10
9e
f6
ed
00
ed
d5
60
39
18
75
8f
e0
03
42
86
f9
ee
f0
33
fe
25
d2
59
e3
93
c3
7a
c4
8c
fe
41
0c
dd
44
aa
94
52
a6
47
60
bc
d2
8a
61
ef
ca
a9
f7
4e
5b
fd
a8
80
bc
27
f3
83
3c
2c
05
e9
af
90
c1
92
76
2d
c1
29
d3
df
37
a6
e8
a4
29
fa
a4
2c
02
62
58
4a
f9
14
49
2a
3f
5a
a5
fa
b7
00
39
23
9a
fe
ef
06
d3
60
49
18
55
af
37
7e
01
ab
fe
f6
df
32
e1
1b
ee
20
1c
fb
6c
1b
2f
7b
21
09
b7
36
39
59
6c
27
7a
a4
9d
52
40
92
73
5c
62
0c
15
24
e6
23
5f
9e
46
a5
fe
3e
86
c1
0a
d2
eb
f8
fb
81
d3
55
dd
db
35
b2
37
41
33
18
c3
1a
32
f9
8f
77
19
39
3d
8c
41
56
1b
3c
92
eb
c6
d8
d2
58
f9
27
cb
10
5f
7f
04
1c
d3
fc
d6
fa
a2
f6
ca
40
3f
45
9e
53
2a
44
97
14
99
01
64
26
cf
44
2a
f5
98
bf
b5
ce
f9
5f
d2
b0
5a
40
96
a1
b4
0e
b4
02
e0
5a
bc
4f
dc
6d
a6
13
1d
78
0e
e0
dd
88
1e
07
17
12
16
8b
d1
9f
82
e6
3f
bf
dc
87
23
fd
fe
d6
9f
d8
6f
29
30
e5
72
07
f0
1b
2a
c4
30
8a
69
6f
d5
5d
d6
f9
15
4c
c2
e3
72
0e
75
65
67
9b
54
4e
fb
31
f0
5b
1a
e4
4d
00
0b
bb
01
fd
15
b1
98
3a
6a
61
5f
4c
09
23
b3
5c
44
41
05
fa
bf
12
55
0a
21
8b
ce
03
de
36
c2
da
47
01
31
5c
96
c5
e0
f2
69
be
42
e5
1c
52
e1
2f
bc
d5
3c
68
20
54
84
99
bd
90
4d
8b
f6
2b
dd
93
f0
eb
fd
f1
68
48
a8
c9
f9
ab
ff
02
54
22
ee
d2
e9
59
88
1d
ce
de
df
cc
66
f7
7e
1a
8b
46
bd
17
e5
0c
6e
36
46
51
d6
67
56
66
e7
6b
9f
69
57
d9
ab
43
4b
74
1e
1a
12
d6
1c
d1
cb
13
2d
81
b5
24
59
4c
7d
25
c9
de
61
c7
b8
36
2a
9c
3d
d5
2f
1e
41
b6
fe
17
0e
df
b6
bd
60
86
22
26
d3
ec
2a
00
c1
10
d0
b8
29
3b
82
8d
c7
ed
3a
9c
39
aa
0b
93
36
22
e5
13
3a
21
47
86
1e
30
01
ba
15
fc
ed
89
7d
0e
f5
cc
b7
b2
b2
20
11
d2
f5
bf
db
68
6e
d5
2f
d7
4c
7a
4a
1e
b5
13
5b
e0
96
98
e4
28
ca
a2
d1
5a
e5
c7
dd
57
f7
e8
c1
29
6c
18
17
a9
d9
f5
4b
cd
a6
08
a9
8a
69
2a
d7
8d
b3
ad
26
e8
70
35
dc
3d
bd
72
32
eb
5a
c8
7f
f3
af
20
98
ec
b8
22
ee
59
75
90
b7
fd
99
42
07
01
f4
d3
af
3b
70
b5
4e
47
49
0d
cc
3e
8a
de
89
a7
d5
d6
db
64
f5
ea
f5
2c
c0
73
7c
f1
7e
57
81
2e
64
e0
37
fc
c5
06
9c
b0
4d
4c
12
f3
2b
d0
75
b3
81
8a
6a
ee
c4
18
7a
a6
5a
f3
a3
57
26
a3
53
c1
68
c0
e9
bb
9e
77
90
a0
5b
23
c0
45
aa
d7
fc
20
38
9d
d1
21
e6
98
e9
bb
bf
55
09
22
2d
28
e4
5f
e4
35
08
bc
e4
57
fd
cb
09
56
18
fb
c7
4c
f6
8b
28
ed
c7
f5
27
ee
db
d7
0f
ed
c9
ae
be
04
1f
bd
ed
cf
29
30
16
5d
40
e3
e2
10
f0
0f
47
ac
db
ac
aa
9e
cb
ef
b2
1b
76
e1
63
de
19
35
3d
81
1a
fd
ed
95
f7
e3
ee
11
8c
e2
d4
eb
f8
c9
c7
06
ee
4c
1e
e8
e4
f5
dc
45
d5
6b
d4
7e
0a
f2
0f
06
b6
e5
de
4c
35
2f
ca
e6
ff
e7
4e
98
2e
0e
3b
03
96
2b
04
f0
aa
79
df
c6
21
02
2a
1b
0d
e3
1e
38
dc
ed
09
66
df
e6
bb
57
b0
01
a5
2d
ac
a7
ad
31
94
20
98
21
60
31
ea
12
0f
3e
b6
65
2c
1b
a6
05
59
5e
e1
12
15
c0
02
d1
2f
ba
ca
b4
ed
96
fa
15
3c
d6
58
d7
15
f6
18
9b
4f
fa
dd
0a
ea
d4
d9
d0
08
f4
c4
17
d0
74
ba
2e
5b
db
c0
04
9c
ed
d9
ae
97
05
44
3d
ef
71
fc
54
e1
d5
ae
16
19
11
c3
73
83
13
14
1c
ce
3c
d6
d4
f9
68
f7
15
3d
34
33
0e
75
a4
f2
e1
f1
fb
d9
10
28
ed
ba
f9
35
25
3b
ae
16
ee
59
ee
0e
98
98
3d
a6
c8
91
fe
f4
c0
26
26
d2
0c
1a
07
24
e2
47
4d
d5
72
08
19
d4
10
00
97
23
e6
30
2b
25
c4
1b
fe
35
33
9a
ac
18
e5
0d
98
b5
17
16
ec
15
3d
70
0f
d1
76
0d
10
ed
e9
89
b6
e0
8e
a0
6f
bc
66
41
d9
29
5a
1b
74
18
17
0a
35
3a
e3
dc
0c
11
ed
13
4b
2f
c5
58
81
cb
d3
00
09
ba
f8
1c
0e
04
7e
d2
ca
01
65
d0
0a
f2
d0
55
ad
ca
c6
6e
44
a3
57
33
cf
ce
a4
2d
36
62
f0
65
93
5c
49
2a
ae
e4
ca
c6
28
26
24
4b
30
31
2e
89
56
fb
14
d1
13
b1
09
d1
f0
01
28
3b
09
72
19
cd
e4
8d
03
a7
1e
28
d3
de
43
bd
a2
77
99
fc
fa
6b
11
43
5e
16
52
05
f0
2a
24
cd
fc
bd
dd
c7
e0
96
02
7b
e0
f2
f1
92
d4
5b
2c
e8
cb
86
f2
1b
5a
69
3a
73
03
e1
2f
97
f1
4e
2e
b2
e4
c1
d1
fd
4d
16
61
fb
ee
fc
f2
53
4a
3f
08
b3
7a
f2
26
d8
17
ae
fb
1e
d4
f5
df
d4
16
95
12
e2
f8
0b
13
cf
33
14
30
36
50
9d
91
ec
05
cd
a1
7f
e5
e3
d0
6a
5f
d8
f5
6e
de
9e
1e
68
a5
b8
f8
be
be
43
49
a9
cd
6d
62
16
d0
cf
30
df
09
e9
74
21
21
dd
d9
db
ef
14
26
c6
76
07
80
5a
1f
27
1d
ec
61
22
90
2d
75
11
29
2e
30
c1
97
48
fc
13
13
a4
26
46
31
e3
16
0e
b6
f3
c3
e1
21
91
1d
aa
26
04
20
2e
eb
bf
cc
04
2d
c5
1c
fc
80
87
17
06
fa
ae
1e
be
3c
d1
2f
22
db
40
33
5e
66
f2
78
fc
36
da
41
a6
3b
6e
26
10
4f
8a
28
26
38
27
1d
8d
3b
39
3d
d0
fa
03
cd
1b
b5
16
1e
e2
af
03
1c
1c
0d
80
8d
79
b7
f5
2d
53
92
45
90
b7
74
1e
7c
f2
cc
02
f1
dc
c7
c9
08
eb
1e
25
b9
10
cd
04
01
ef
c3
85
1e
9b
6f
c3
e6
3a
bc
12
f7
b6
14
35
c1
4a
f4
f0
a6
27
40
dd
42
dc
27
01
9c
e8
e1
c0
2e
33
c3
bf
15
1b
41
9f
0d
ec
f8
cc
f2
32
fd
7c
64
f8
47
28
aa
06
5c
0f
38
83
91
14
16
97
b5
2e
9b
08
db
06
5d
3c
a9
47
92
4e
3d
c3
e9
31
e7
55
d0
64
6e
74
aa
6f
54
41
21
1e
24
1c
63
a8
58
99
7b
51
83
4f
da
e2
ed
ff
74
fa
81
4a
62
1c
53
33
cb
05
4a
1f
91
e6
3c
8e
fd
7a
8f
71
70
dd
92
ce
9b
96
0e
e2
d6
aa
ab
1d
ed
43
69
2e
b6
c3
57
5c
0f
76
41
c3
89
d7
07
a9
be
e0
6b
ae
6a
de
aa
33
f0
38
06
35
d9
5d
96
07
06
b8
45
e4
d7
4a
4c
1a
f4
9b
18
73
78
00
d3
be
6f
04
de
72
80
b1
8b
74
10
ea
1f
aa
ef
19
64
0d
96
2b
55
36
6d
33
e6
cf
88
4e
be
f4
dd
3b
fd
db
da
0a
6c
e6
e6
16
e4
25
11
1e
b6
71
98
4b
79
db
c3
b0
09
d3
0d
72
cb
52
a7
b5
83
50
2c
9b
05
0b
b7
6d
3b
05
8e
39
b9
bd
b9
43
17
3f
c6
ed
06
bf
05
ed
08
6c
a6
46
e1
29
f0
98
80
60
af
84
45
5c
36
ef
3b
8c
99
4b
b1
3a
70
cf
13
09
08
c7
b0
b1
12
98
73
69
75
5c
4c
ba
8f
b4
2b
2f
30
f9
b6
e7
4b
c5
ef
77
d5
65
5c
31
bf
08
01
14
50
a8
1e
ad
5b
f5
21
df
87
89
52
ac
bc
c0
7e
c8
25
ac
fd
4b
e4
3c
b5
6c
41
3d
e7
9a
ac
b7
a1
5e
06
ff
4d
49
0f
2d
2e
5b
e3
98
30
63
b9
4b
08
e4
16
63
23
a6
1c
00
58
f1
37
df
c8
2a
75
d7
c5
db
c3
22
74
be
9d
f6
f4
47
ec
2c
b1
8b
37
d1
20
c0
41
9b
1e
17
39
7a
a4
cb
ee
19
e6
db
c9
38
42
87
fb
2f
8e
2f
6b
43
6d
a7
3a
58
ef
32
90
c3
1f
01
20
d9
71
bd
ad
56
01
fd
e5
4c
1c
e3
10
89
99
d5
43
20
f3
1e
8c
f8
40
cb
e8
f1
4b
ba
48
ba
7b
b9
cd
37
94
8a
12
3d
4a
48
15
9b
f0
64
eb
b5
ca
a6
42
f2
94
d4
29
df
4f
ac
24
02
04
2e
c0
db
df
b7
03
3b
e7
c9
ed
63
b8
fd
23
33
c6
0b
89
b6
21
34
7d
4a
f7
0b
20
07
49
04
b5
72
3d
88
cd
01
d2
15
ca
1b
2f
63
be
57
ab
f3
de
fa
23
a5
35
da
ff
dc
2a
2d
45
06
ab
45
3f
1f
21
46
c0
07
70
d1
e3
af
47
db
71
57
b0
7b
13
2a
72
19
a8
e6
5d
61
00
80
2b
2a
18
c6
75
c9
19
1b
ff
06
e3
b6
da
a4
ea
db
3e
40
b2
95
da
8b
17
97
d3
46
0f
a0
c6
28
fb
20
2b
d4
cd
c7
59
00
0c
58
74
46
10
bb
d8
88
13
b2
11
27
df
70
4d
64
da
b9
df
1f
08
0c
1f
35
35
e8
36
1f
fa
5b
52
ec
87
0c
a1
7e
07
be
36
45
1a
e5
55
d8
c1
e0
23
ab
10
90
30
94
6d
dd
53
8c
c2
5e
01
86
61
36
f4
12
c9
40
68
cb
fa
5a
e6
eb
19
5e
06
b4
2d
fa
3f
05
44
e3
15
c4
8a
91
a2
7f
d1
6e
6e
95
e9
fc
7c
d9
77
97
56
c4
48
4e
e0
64
34
b0
83
05
c2
3d
27
c5
a8
1b
d8
21
c3
6c
40
27
07
62
78
89
63
e5
15
54
f1
f0
8f
c9
3c
76
1f
c3
d6
f2
3d
e6
ca
e3
aa
3b
10
37
9f
29
ff
8a
2d
3e
06
3c
17
54
33
ec
7e
9f
ea
59
96
27
15
76
1a
21
d5
d1
4e
7c
2d
fb
bb
19
20
b6
13
cd
b5
e9
db
37
2b
45
b1
ba
13
e4
d0
9d
02
f4
c5
d9
82
78
e5
3a
2c
ff
4d
85
