dd
16
ac
20
07
c2
dd
fd
ee
fc
db
43
dd
7f
f4
f1
f2
35
11
d1
99
15
a9
f7
0d
6a
ff
d7
00
03
16
1f
c8
d3
e9
e7
d0
dd
09
fc
1c
4b
25
09
05
d4
e2
5a
43
14
9c
bf
39
c3
21
72
dd
22
fb
92
e1
41
2e
16
72
3a
2b
04
fd
c6
04
ec
15
2a
28
e1
e1
de
70
e1
dd
e9
15
f5
e6
f5
28
fc
b7
e1
38
c5
05
f0
19
f0
61
0b
bb
22
72
eb
04
dd
67
ff
bf
81
0b
27
df
fa
06
ce
f3
1f
01
f0
2c
a5
87
08
1b
30
64
d7
26
14
31
b8
ff
2c
dd
1a
ba
d6
24
e6
4d
f4
ea
12
c3
2a
fd
0e
18
7f
fe
eb
cd
36
f0
1e
fd
46
98
18
fc
13
e7
41
33
00
0b
0a
38
e0
d7
e4
e8
f7
c6
2c
29
cd
22
1b
45
dc
fe
97
fa
21
f3
bb
d5
f0
ce
e0
cb
f0
f9
4c
31
99
5d
c6
29
17
ed
fb
c9
dd
02
0e
53
e6
5e
d6
fc
81
a7
2a
1a
15
51
fa
b6
a2
e3
e9
3f
e0
41
c2
dd
c6
39
b7
c4
f4
24
17
e0
04
4f
d5
c2
ed
1b
f5
d9
e3
c7
6b
07
ff
b1
6b
07
46
3e
ef
19
24
eb
3b
c6
e0
e3
cf
16
f9
14
ff
f2
2b
e2
2b
0f
08
41
1b
d6
b9
12
4f
f6
40
02
41
7f
b8
44
b1
ab
d9
04
d7
01
ef
f9
da
0d
23
2f
ed
58
e5
1a
11
eb
5e
20
c4
e3
a3
3e
07
28
c5
f7
3d
ed
cb
1e
6c
ed
3e
73
88
06
2b
02
d0
04
a7
1f
b7
20
de
d3
ea
ac
4b
04
d1
6d
69
9f
13
ed
46
06
36
f7
27
db
e1
eb
08
d9
48
44
e4
e0
11
16
f2
10
cf
da
f7
e8
5c
1d
f9
14
fa
63
a4
09
81
0f
6c
bc
b5
25
ee
d1
24
df
20
cf
fe
d8
11
d4
ec
1f
f5
bb
ed
bb
44
f2
51
e9
1a
e2
f9
37
2a
03
39
0d
4e
cc
f6
c1
81
e0
ff
f0
c1
b5
c6
e2
fd
04
d6
ff
18
d0
12
46
1c
36
e4
33
49
38
0b
dc
a6
1a
1f
d7
2a
35
3b
ed
d8
d4
ef
51
cd
f1
ea
ee
37
cf
3d
95
05
0c
63
5b
2c
e7
e1
0c
e1
e7
02
41
6a
34
ce
81
1d
e8
01
cd
68
29
50
97
1f
16
59
f0
4a
fa
2d
10
11
9e
e0
f8
c9
dc
11
14
e2
cb
34
fd
44
fd
db
e2
eb
f8
d2
f5
26
9c
c0
0a
ba
cb
1e
4b
fb
25
07
d3
f5
1c
0a
06
b6
eb
e1
35
24
78
e2
2a
31
55
cd
be
2e
cc
08
7f
b8
c0
67
0a
1d
1d
ee
e1
41
32
32
f0
1b
16
fb
b7
e1
27
14
24
c4
d3
e4
3b
f5
33
f7
07
e5
b2
10
1f
1f
e4
24
0c
29
f5
11
36
e1
16
b8
e4
ea
f0
fc
19
dc
d8
de
1d
f8
ee
5a
35
23
cc
1d
e6
0d
ba
81
5f
7b
63
0c
d1
4e
2c
1b
b4
19
3a
0d
db
18
4b
b8
ef
c8
e9
ea
4a
1e
bc
c0
f8
42
25
1d
fd
ba
b1
1e
d5
3d
c0
08
2a
b2
0a
f4
0b
00
dd
fd
d6
29
db
12
29
10
fa
02
e3
39
0c
ec
f8
18
7f
cd
b4
31
ae
13
01
00
b7
7d
07
05
f3
2f
06
2f
1d
0b
18
29
e8
0b
07
ea
f5
e8
27
05
15
12
f2
13
23
df
d8
03
20
fe
d1
14
ed
e1
22
dc
19
07
23
c6
1d
fc
1d
10
19
f3
05
d2
fc
ca
27
c9
55
21
de
be
c4
dc
21
ca
1a
ab
b0
d4
09
ee
24
cc
3b
f2
f8
d2
19
19
e0
dc
33
fc
d4
d2
d0
f8
d8
f5
05
08
f1
45
ef
b8
7f
21
e0
ee
25
0a
36
35
e4
32
b8
d1
fc
dc
50
17
09
1a
07
b4
e9
e1
17
d6
a0
10
7f
22
d5
29
24
d4
30
5c
32
02
08
d7
19
13
1d
f2
cd
c4
08
cd
e2
46
c9
15
c6
0c
12
4e
b3
08
17
d1
00
2b
fa
39
02
26
e1
3e
57
c8
ea
3e
01
5d
c5
ce
e5
1c
c4
fd
c8
18
fd
14
1c
f2
a3
49
f4
17
17
e8
5c
00
da
e7
d3
e2
21
ed
1e
e9
04
dc
12
11
2b
ef
e5
96
34
fa
c6
08
c6
f7
fd
2a
04
21
1d
b2
9e
2f
3a
5c
e6
e0
f2
ea
43
1d
15
10
07
cb
30
7f
04
07
fe
eb
f6
fc
d5
1d
eb
03
3f
ea
1b
ff
00
14
fd
d0
59
12
e0
e7
c7
bb
da
17
46
25
f3
43
2f
94
e8
81
f7
08
36
e1
d5
2a
f8
bc
21
de
e3
1d
ef
e1
f0
e9
29
17
4c
cd
d1
ca
36
22
f3
3a
e0
fe
e8
fd
9e
fe
28
0a
30
06
e5
2f
e1
10
7f
45
70
e4
f9
e1
fa
c8
e6
1f
12
07
e8
26
41
fb
e6
19
00
d0
f1
04
36
10
4d
45
14
1b
f8
47
0d
04
22
d7
ce
e0
c8
33
1b
98
db
bb
51
3b
f6
e4
09
e6
d5
c9
f1
59
ea
d3
c7
f9
ef
cc
e3
13
ee
36
04
15
34
d1
41
27
1b
ef
93
e1
f4
c5
7f
24
19
f8
14
d4
d5
d4
fe
e2
51
f0
11
09
ba
38
3b
3e
d8
78
19
fe
cd
be
1c
31
c6
1b
2e
db
f0
0b
75
2c
da
34
87
0b
3d
a8
e9
30
cb
f0
d5
ad
e3
de
eb
25
2f
3c
f1
e5
08
c8
54
d9
dc
e1
d5
67
aa
30
0f
54
5e
ca
bc
15
2f
72
7c
3e
9e
44
dc
3e
e3
1f
fa
09
c4
04
58
5d
16
de
e6
02
81
13
25
e2
26
40
05
07
34
de
b7
fd
0a
93
9c
2e
fb
fc
db
eb
f7
2c
fc
3d
d8
11
e1
ec
b3
2b
ca
35
cb
16
3a
35
a7
34
f9
30
06
d3
ce
29
89
f8
3c
eb
dd
7f
d0
48
fb
cd
c6
3d
d5
cb
33
29
fd
1f
16
cc
37
d8
fe
32
2f
4a
d5
ea
73
64
fd
da
db
19
26
01
f3
0f
4b
d4
ba
ee
bb
2f
a7
1f
03
1b
e9
f0
b5
46
df
23
cc
ef
d7
dd
1b
df
08
ed
29
7a
27
00
1c
d3
c4
f0
ac
16
99
aa
1f
16
fe
0e
25
3a
b8
f8
45
15
e8
c5
12
2e
f1
01
c0
cd
ef
5e
98
e6
7f
d6
0c
1c
00
07
23
86
0b
00
2b
11
06
93
04
fd
81
d6
f3
1a
00
29
4b
4f
21
03
21
3a
40
b8
d3
e6
b0
17
1a
d6
a5
2d
dd
10
ec
24
93
fc
f9
a2
04
0e
1a
2d
00
d7
4d
c2
e9
32
20
1c
b8
e0
67
cf
27
e8
0c
58
34
cb
3b
c9
6f
fe
2b
19
44
27
f7
05
ca
eb
29
1d
03
f5
fa
e7
39
d8
dc
e6
e6
18
3c
f5
eb
c5
86
0e
19
12
0b
81
70
17
2f
28
ee
2d
41
b9
fc
d9
28
fd
b9
f0
19
41
07
dc
34
d2
53
03
21
05
20
c6
bb
ef
24
d1
49
ca
df
2a
1f
3e
14
31
d2
19
e5
0d
2b
16
16
19
15
dc
fb
e5
e3
32
ee
81
ef
34
51
dc
c0
4d
33
2b
ba
21
0c
e3
44
f1
e3
1f
0a
e3
e1
53
3b
0d
0e
09
d2
d2
29
c4
ed
34
32
28
f4
da
3f
de
0d
02
11
00
c2
03
13
6f
44
13
f6
b1
f9
c0
cf
bf
d8
20
b2
dd
d0
5a
6a
09
22
a4
23
f6
82
c0
0b
2f
c8
a1
14
f3
de
b0
49
fb
14
0f
d1
eb
37
de
e3
dd
2b
02
00
bc
7f
cf
ba
21
42
f5
10
bf
09
d5
53
9a
a1
46
15
a3
48
1f
23
d4
4a
e0
ff
0a
f3
a4
22
c0
c3
e1
d7
06
ca
16
2b
54
cc
10
1f
49
10
0f
45
48
f0
2e
cd
c1
ea
3f
df
f4
ee
06
f1
15
1f
ce
09
32
ef
2d
db
d7
7f
24
cb
25
30
17
db
b5
f9
93
38
1b
ce
10
b4
99
0f
d9
64
66
3a
c1
cf
fc
f4
f8
f3
ce
4a
03
2a
fc
ed
35
2c
f1
3b
f4
e9
b1
7f
13
2d
ee
65
02
a3
08
9d
d3
37
ec
06
60
e9
ea
e4
04
ed
c0
5b
bd
fe
f1
d8
06
fb
f3
2a
ad
0c
b3
d0
bf
29
1d
ee
15
09
27
38
d6
cc
b7
22
ce
b5
dd
d2
ba
1c
d4
f6
e6
0f
13
fa
6a
da
3e
bd
d4
11
fa
f0
0d
16
fc
c9
e3
00
96
c6
ed
3a
8d
c3
18
dc
dd
f6
de
19
05
f5
e4
17
fe
33
49
5d
24
0e
e3
25
81
06
b2
40
40
00
01
da
b1
ba
de
32
f8
05
ec
24
db
2f
08
dd
11
ca
e6
d8
2a
9b
13
fa
4d
fa
7f
2c
30
56
d4
8c
37
d4
68
e4
4d
82
32
05
97
c6
08
c2
f4
e0
fb
3e
3f
c7
1e
c2
3a
1a
c4
bd
f1
38
49
f2
ee
27
c8
25
09
19
0c
d7
de
0c
44
36
f3
bb
fc
43
b3
7f
ac
05
e6
d3
b7
9c
cf
3b
e7
44
2a
2e
73
17
ec
43
fb
58
f0
0d
fe
ca
50
22
87
3e
ce
1e
cc
18
c9
ea
29
cd
06
36
49
f3
10
68
ce
f1
28
18
fa
e3
1d
e2
44
1d
1d
ea
39
1b
fe
21
ea
31
34
f8
0c
d3
f2
f0
ae
64
29
c1
86
d9
f3
b7
1b
22
fd
2c
fc
26
84
e2
bb
e5
ac
53
24
0f
81
12
d1
4f
f1
cd
e8
ec
c5
16
02
48
ad
43
46
24
1e
5e
ed
ba
23
0c
b6
b3
c1
b7
35
10
eb
14
2d
4f
db
f8
c9
31
e9
20
3f
01
ed
99
18
1c
46
9c
02
e9
5a
f5
55
33
d9
9a
b8
d5
15
4a
54
14
e1
0a
71
ad
ba
f8
81
2c
90
16
c2
a1
12
f0
8e
0b
0a
02
07
08
24
46
ae
17
34
dd
30
ca
b9
f9
4c
26
d1
f2
1f
04
a3
2a
b1
34
b9
fb
81
f7
59
43
04
1c
e6
33
f5
47
e0
0e
e1
84
13
f0
b5
30
0f
45
10
ef
ed
f0
d5
08
33
8f
17
b1
24
d6
72
42
0b
e1
30
33
f8
d4
9c
f9
1f
8e
60
7d
f2
de
da
5a
f8
0c
b5
9f
55
36
cb
1c
42
81
db
c7
fb
24
ee
20
b3
16
ca
0f
f3
2b
f0
ef
df
03
08
24
e8
7f
32
f1
cd
09
20
64
d9
bb
fc
f8
0a
0c
ce
20
fa
31
04
fb
de
21
27
f4
f7
33
b1
ff
df
2e
ff
fa
ec
c9
e2
49
fc
bc
f5
1a
10
d7
1f
17
18
30
14
1a
2f
c4
dc
a9
36
cf
25
e3
02
d9
2a
c9
47
27
3c
a4
0c
f9
1b
1a
1e
c2
ec
03
0d
f0
33
ef
dd
f2
e6
26
38
a8
d5
37
ec
a9
1e
d8
11
c5
34
6c
3a
01
de
3b
42
41
24
12
ec
27
f1
ed
39
4e
eb
04
81
a0
47
07
c6
39
39
f3
4a
81
1a
c7
1d
3f
35
0e
fe
ea
32
31
c3
8b
11
ff
14
06
f0
cb
c4
24
ef
d2
24
f1
e3
f5
c8
18
1c
3d
05
1d
e3
f8
d3
03
e6
e9
98
2a
12
ed
0d
0b
ed
17
99
11
a9
5b
1e
b7
25
09
f9
e4
cf
01
29
19
ef
24
ec
49
20
e3
1b
1b
f2
6b
81
01
9d
fe
22
d3
42
05
ef
09
84
f2
0f
d6
11
08
12
ca
1e
30
b0
10
2e
f5
07
30
3d
26
f3
35
bb
c4
de
cc
65
cf
a9
db
ea
1a
1f
ed
8a
36
f4
f5
c0
d2
51
30
0b
c7
23
44
9a
b9
39
e2
da
06
d2
04
0b
c9
6a
f0
3d
db
0a
de
02
f6
7f
d4
21
d2
f3
e3
b0
18
d3
ca
b1
e1
0a
b1
0f
13
15
ed
e8
0f
ed
f2
d1
09
2c
22
1f
3c
53
fa
d9
0d
8e
09
dd
03
44
35
14
0c
de
b5
dd
32
e6
f3
74
fb
c6
dd
e3
f9
2e
06
14
ee
f1
f4
08
55
e4
29
ef
32
e7
ca
7f
f6
aa
27
ae
db
c2
b5
51
08
ca
75
ae
be
05
c3
e3
d2
16
1e
0b
f5
ce
37
c2
c8
07
1c
3d
db
0b
d8
3f
3e
a5
c1
01
11
07
2b
18
42
58
1c
13
15
f1
2c
13
0e
24
43
1b
f8
ec
ed
ed
f3
c9
ef
71
c7
b3
8a
ea
35
90
1b
ff
47
ed
23
81
0a
cb
19
eb
28
e2
ed
30
e9
e7
2b
ec
26
ee
f0
03
f4
cc
ef
ca
0f
2c
f3
04
0c
f8
f3
1d
3b
14
21
64
a3
2d
5a
36
15
3b
b8
d5
d4
09
3f
4b
55
d7
e6
f8
4c
da
ce
1f
21
fd
0a
e9
ff
fd
21
49
61
37
de
e8
d1
2e
5c
18
bc
f8
2e
ae
1f
ee
74
dc
bf
97
f6
41
06
c6
d7
eb
34
d5
15
81
37
bc
99
09
25
1c
50
0c
1f
3b
5c
35
02
23
ae
27
df
10
59
2d
56
c4
d3
d1
22
b3
da
da
3f
e9
53
b3
37
e1
57
39
60
09
3a
13
02
b5
70
15
ea
0c
fd
0c
18
26
7f
cb
bd
e0
b8
0a
f5
b4
88
00
3b
e8
01
d0
32
09
aa
f3
fb
53
26
f2
d1
69
f9
b9
f9
fa
ff
3b
f1
0d
eb
f9
f8
02
f4
f4
9d
f2
e7
e1
bd
13
dd
22
81
0c
ed
2b
0a
0f
01
0f
e7
18
bd
0c
19
49
ee
13
17
db
be
d4
3a
33
b4
30
26
fb
ff
d0
0f
ee
1f
41
8f
0c
3b
e4
fa
31
9a
d6
cd
b3
0d
0a
d5
07
81
f2
d6
0e
dc
35
1f
42
db
09
20
f4
f2
e7
05
ef
4f
c9
d9
fb
e6
18
e3
ff
f1
32
c5
4c
14
1c
b2
42
fb
db
ee
fd
fd
0f
0e
02
fa
e0
f9
19
10
03
e0
18
01
fe
e4
db
f8
08
01
ee
e6
df
4b
cf
d9
f3
8b
f2
e2
da
16
c6
c0
d4
36
46
d4
27
de
59
d3
ec
17
d4
13
28
81
11
ba
25
5a
e8
30
f9
c3
42
a6
25
b8
c9
11
06
6b
1e
ca
3e
5c
08
f1
f4
f6
2e
17
f8
d4
fb
19
98
cb
17
3b
34
a5
a3
da
52
45
ed
35
d6
34
09
1a
af
0a
b1
ad
c9
24
cc
09
f2
3f
41
ca
bc
e0
47
0b
40
fe
68
f3
9b
9b
0c
e3
e6
22
0b
1e
32
aa
01
1a
fa
e5
b6
f1
23
dc
b9
45
0f
f0
f9
56
19
14
18
10
81
41
23
be
0c
25
c3
3d
e5
54
11
ee
dc
bf
2c
11
09
21
04
db
db
c4
34
f6
25
d4
38
b3
6b
54
45
34
31
c9
1c
44
18
13
e7
81
e2
a3
1f
b2
b9
ff
2d
d1
0d
17
49
c5
fb
15
0b
e5
ed
f3
43
36
2e
ae
f1
28
11
d7
f1
65
db
08
07
dc
2a
25
e0
f0
e1
cc
fa
03
33
11
18
5d
c2
fb
02
0c
e1
a7
e0
49
38
18
bb
81
e8
35
d0
3f
44
b5
1e
46
f4
16
21
07
ea
3b
db
ce
39
e0
1d
e1
cb
20
69
94
f2
e7
d0
25
d9
30
1d
a6
ca
f7
36
7b
f6
e8
33
d5
2d
d5
19
e9
6f
de
2e
b3
52
b5
33
0c
7f
2b
61
0b
34
1f
b4
b4
0a
a3
fc
27
dd
18
8f
07
f6
33
09
47
0d
12
1b
0f
f8
11
3d
f1
06
1c
dd
26
66
33
39
27
cb
b3
0e
f1
f6
d0
26
45
22
06
fe
03
3f
f6
b2
30
24
d6
2c
ce
31
d1
ec
d3
6d
ff
30
f4
36
d3
5b
06
1d
e3
c4
09
19
ec
ae
17
08
12
9f
04
f7
f8
ff
42
11
f1
81
f0
b8
32
fd
d9
f6
df
0b
c2
1d
58
4e
0a
d1
e2
1c
0f
37
08
11
e8
2d
12
1e
33
f2
f7
a1
f4
50
ef
fc
53
b9
66
d9
56
b6
10
cf
14
d0
51
bd
06
d0
13
26
af
06
d4
d3
21
e3
f4
d0
eb
e1
00
49
f6
a1
39
fa
0e
7f
05
a7
6b
d4
2c
e5
4d
96
d5
ad
05
60
2d
dc
de
a7
73
ce
f6
a4
2d
dc
d5
0f
24
0b
30
9b
d7
34
15
96
c8
3e
91
23
18
f3
4c
08
53
0a
eb
c7
bc
02
ea
27
38
0d
42
f4
06
37
f3
c3
3f
19
f7
53
2e
62
db
41
18
05
ef
2e
16
42
d2
b0
fd
d1
a7
7f
50
e3
02
bf
4b
32
20
cb
c1
52
4c
ac
f0
54
e1
0c
fd
0e
a1
ad
e9
f3
72
06
2d
da
a9
e2
a1
e7
f1
1d
b9
17
1f
e2
fc
ff
fd
33
04
05
48
81
ad
20
ef
d2
0e
e1
b5
d1
3e
2c
af
4d
d5
a4
9c
20
3e
73
33
d8
12
25
3f
0f
03
e0
e5
45
d5
3a
2f
18
1a
aa
c6
05
b9
ae
23
ef
33
fe
4f
1c
08
cf
7f
11
11
a0
07
c2
22
cd
75
ee
e5
bb
cd
e5
53
d5
30
f6
c5
1d
44
ca
78
bd
4a
1c
52
da
f1
5c
c1
b2
51
da
cc
06
0a
32
dc
95
f5
c9
43
23
9b
d3
47
1d
ab
d4
1a
22
2a
ff
84
3d
1d
df
2f
ee
38
fd
e6
f8
70
02
38
94
f6
b1
01
fa
09
02
20
f6
db
d5
04
1f
5a
2b
e4
55
e1
f4
21
50
31
34
2f
01
26
1b
dd
fc
10
d3
c7
d5
cc
5f
e0
81
c5
d4
30
28
c3
f4
e6
fa
b4
aa
fb
6d
15
ef
b4
36
30
27
3c
be
2f
a7
eb
ff
c8
0c
02
b5
e3
dd
7f
0a
43
fd
1d
1d
e7
16
fe
04
fc
d1
e6
16
e5
fa
d8
24
5d
13
be
eb
4d
d7
eb
c2
41
03
c7
a1
57
f9
bb
07
e5
dc
fe
14
fd
c9
5e
a5
a0
3f
27
f4
3d
f3
50
26
53
fe
12
18
b5
ef
fe
02
0c
39
61
01
fd
c5
36
e1
2e
c6
0c
f3
1a
0b
dc
04
f8
de
d8
b7
fa
bd
0c
00
47
5c
dc
0b
41
f7
fb
b0
3b
dd
d9
ec
f8
17
da
e6
b9
da
20
22
f1
81
46
d3
c8
09
3e
e2
27
12
f5
16
07
1c
19
2d
fd
1c
1a
04
0c
3a
28
0f
d0
c5
1d
d3
1b
4c
fb
14
ea
81
f5
d3
c8
cb
3d
e6
35
cd
9c
71
2b
f1
d0
26
f2
0f
fe
d4
33
1a
fe
d7
c2
01
fc
ef
ba
08
2d
29
4a
cf
22
19
e9
2b
29
01
0d
26
f9
20
1f
65
23
e6
02
9d
c3
fd
c5
31
f8
ff
0d
20
7f
05
d8
f4
1b
22
15
2b
cc
70
b6
4c
c7
33
fe
23
f8
13
56
24
9a
fc
28
b2
13
1c
46
4f
e6
ba
53
ce
aa
2e
26
1f
d6
fa
33
19
15
ab
9c
63
26
17
3a
df
7f
18
ec
08
a1
14
a5
19
0e
02
bf
f9
1c
3b
da
39
d0
e5
bf
f3
3d
f9
7f
21
dd
f2
06
ff
04
98
f3
4b
13
4f
ad
0a
d7
41
e7
fd
34
17
c7
ce
28
04
fe
df
17
16
2f
17
eb
f8
21
3f
8c
ff
27
d4
f2
f7
f2
e6
44
9d
4d
36
48
c9
46
91
1b
01
e3
18
26
9f
0b
cd
7f
0c
2b
01
68
26
fd
f8
dd
4f
0d
1a
21
f2
1b
fb
fb
e6
6b
1b
b3
f7
43
c6
0b
d9
70
25
92
88
1e
2a
bc
16
e0
d8
d6
17
0b
f4
2f
e6
89
4f
23
64
5b
c0
42
61
da
cb
bd
db
e9
17
eb
27
3b
e8
fa
fe
14
2c
cb
17
01
4e
1b
be
27
1c
25
dc
28
24
f2
1e
ff
01
ce
2d
b9
14
52
f3
f3
29
24
0f
fc
dc
37
1e
07
11
2a
f1
e7
81
2c
ed
00
34
d0
55
28
bd
f4
fa
ea
13
08
da
0f
b5
e6
4e
fb
cc
05
c1
11
03
20
36
0e
13
3a
0e
9b
b7
c0
f1
a2
81
b6
ed
2b
b1
fa
f9
ea
e1
e9
4e
bd
3b
e6
fa
d4
fe
40
b7
2a
db
ba
af
2b
15
13
15
1c
d3
10
96
3e
20
f0
2c
e9
02
46
43
38
a5
1b
a0
3c
e6
2b
04
06
09
15
fc
4b
25
4c
ba
ee
fc
00
c2
0b
eb
d7
01
f6
f5
dd
e3
ec
30
37
eb
26
0e
1a
b5
2a
2c
0b
1e
2f
ff
23
c4
3c
bb
e0
b7
bd
42
4f
b5
cb
a7
23
2c
11
1d
d2
e1
f3
e3
24
7f
03
97
cb
19
52
38
4f
e6
10
18
03
d8
fe
05
0d
13
f1
d5
4d
06
0a
e1
dd
03
81
17
26
b4
ec
60
1b
14
e5
04
d7
ef
4f
0a
c8
ff
25
cf
ee
15
2a
d9
d6
d8
3a
0b
f9
d4
f1
0b
18
20
f2
02
31
c5
d9
09
30
16
2d
cb
29
4a
