4c
07
dc
5f
4d
6a
18
19
50
6e
5b
3a
9d
f6
41
1e
78
eb
0a
c0
a1
49
c6
bb
36
e2
c2
c0
77
5e
90
b1
2b
ea
ac
fa
96
13
0c
43
10
56
d5
11
58
95
cb
34
45
aa
30
49
05
8e
12
01
fc
d8
8f
4f
9e
2a
0b
39
a9
59
03
b5
c5
77
34
f2
a7
ad
bb
4b
94
95
84
cd
24
a0
f5
4b
fb
1c
92
96
91
72
6d
fa
21
40
97
9c
44
3b
c0
d7
c9
4f
b5
6f
c7
5f
f4
ff
fd
6a
b0
d0
7b
9a
9d
48
19
c2
b6
88
01
0b
ed
1c
02
88
64
57
5a
7d
15
4f
57
b0
e9
73
36
a3
1c
cd
95
2e
bb
cf
90
cc
ff
19
96
cf
dc
d7
b3
c7
38
ff
f8
66
f2
1e
fb
7d
bc
47
c5
db
63
95
c7
f8
25
a8
08
e6
a2
14
0e
d1
41
2f
e8
fc
0e
87
9b
09
3c
e3
b8
d4
cd
b9
22
a1
6e
44
5d
0c
fb
5f
00
35
e1
5f
7f
4f
26
e4
6f
98
8d
32
ce
f9
dc
82
27
0f
59
59
4d
03
77
ff
2d
eb
22
85
f9
d0
6e
54
54
37
f8
af
25
6c
b8
be
1b
31
b3
74
ca
59
8c
01
d9
2e
09
72
0d
b0
b0
bf
a0
78
3d
01
68
22
bb
0c
7b
82
5d
1d
97
b8
a2
21
40
c5
16
aa
1e
1d
59
5f
8a
63
1a
71
e1
79
e7
24
0a
98
1e
09
00
08
21
38
3b
ec
01
61
0e
b8
e6
a4
c9
97
58
76
92
06
6a
ac
09
70
f0
47
43
c7
e3
23
ac
73
48
22
44
27
be
13
1b
64
58
a8
b7
74
d3
0a
65
a1
fe
b9
67
5f
ea
0a
70
20
f3
50
b7
4b
9d
88
33
f5
b4
24
1c
d2
32
28
06
83
0f
cb
e3
f1
ff
0d
20
4f
1b
cf
cb
53
be
4e
88
05
aa
01
29
5c
58
6c
dc
db
19
94
e7
4e
c4
f2
1f
45
ae
d9
b9
10
ff
38
59
76
79
35
df
00
4a
95
5c
d0
07
9a
ed
9e
95
16
c6
88
76
d2
2e
c5
e4
21
23
79
3a
bb
53
e5
3b
a2
96
1c
36
f9
fd
33
1e
48
09
2c
88
62
ad
7b
35
13
f1
2f
ec
56
27
8f
3d
a5
13
45
d8
f3
10
47
ca
73
fa
01
05
25
ce
67
b1
19
0a
12
d2
f4
3c
49
2f
d1
45
bc
cb
30
95
92
9a
13
55
ed
90
e1
1f
83
70
8b
46
bc
aa
bb
8c
36
6c
96
cc
33
6c
17
18
10
20
91
7f
5b
7c
a0
bc
5d
13
7a
b8
c1
ed
ab
14
bc
e5
08
7a
45
92
56
10
23
91
b5
84
58
4c
dc
49
d4
18
61
0b
fd
a6
bf
1e
4d
a3
e0
21
df
18
85
1d
73
40
89
3e
d2
c9
21
27
b5
c5
88
01
cc
38
d4
b5
91
a3
ad
af
07
0b
92
fd
3d
cd
9a
9e
01
f7
d8
42
f4
aa
18
e8
f8
c9
f0
b9
63
c5
0c
db
f6
24
37
01
a5
c2
8c
f9
e0
f5
95
d8
50
22
5d
2b
13
b6
e6
04
7b
e8
09
13
78
50
01
6d
96
11
d0
a6
3c
f2
3d
47
7f
08
20
77
12
99
a6
58
2b
b9
22
a1
ef
d0
ff
0f
bc
04
8c
9a
74
c7
6e
f6
2e
bb
bc
ee
dc
0c
47
9f
29
15
09
55
a0
5c
01
5d
31
85
9c
cd
c2
b9
b7
93
19
66
7e
50
bd
f1
08
8f
68
18
23
2a
5f
10
f1
cd
55
9b
30
be
a0
c8
ad
83
63
fa
b4
b8
da
22
53
08
6a
ee
b4
82
6e
17
45
d7
98
08
c9
e4
79
d7
a5
d5
f7
73
27
01
74
d7
cb
04
91
c5
54
31
5f
0b
92
0f
66
78
8f
4d
81
c4
3b
41
0c
64
9e
0f
43
a9
ae
ed
36
89
b7
b0
fa
7f
d2
78
bf
01
54
56
d8
22
02
d0
66
57
6f
20
81
50
06
cf
45
ba
b8
f9
03
fe
7c
2e
ed
a5
cc
0c
d7
f0
d4
65
81
b6
4f
49
e3
ef
16
93
14
7b
ee
2d
af
65
01
fb
79
b3
73
53
c0
d2
0e
41
c5
84
77
f9
60
6e
3c
9f
dd
fd
f2
f1
99
33
6e
c3
1c
b6
b5
bc
df
da
68
c5
61
ed
72
f4
fa
d6
84
bb
0c
33
57
80
ba
77
2f
29
ec
40
4b
7c
d6
01
04
31
53
09
6c
b9
9e
c5
d6
53
24
4b
e0
e1
6b
cb
7d
c8
fb
05
d6
de
0a
05
b4
f1
da
65
b7
01
c0
2f
2e
bb
1d
e1
80
81
91
26
26
14
18
37
b2
c7
aa
dd
ab
32
04
94
a2
2d
01
31
31
3d
28
c5
1a
10
59
10
ff
ec
0d
d5
3d
2a
16
49
33
4b
07
06
60
38
a7
7e
98
4b
e4
7f
b1
c2
f1
28
c5
0e
b6
e6
ac
b5
92
21
39
a5
53
4c
4d
22
22
cf
b7
96
15
13
f1
a7
ab
2f
88
41
ef
1c
5f
a8
1d
f4
0f
e3
d8
38
46
df
7d
3b
ba
f1
0d
61
af
aa
87
0e
ff
4a
d7
56
15
13
c9
8d
1c
14
55
3f
b9
f4
9f
e3
1d
0c
d1
64
40
47
38
8a
3e
b2
cb
9b
a0
e6
83
15
56
00
ae
1d
ff
aa
3d
b9
64
fe
a5
07
47
c1
6b
7f
08
b7
5d
14
ac
fb
25
dc
1f
05
7c
ae
bb
2e
8e
9f
d1
29
e7
21
59
35
1b
7d
08
77
be
26
85
b4
c5
82
ff
2f
9e
ec
90
ba
ef
08
cd
27
f7
10
51
aa
f0
ed
cb
78
a3
99
ae
e0
fb
fd
03
93
89
2a
72
2a
81
33
2c
23
98
b0
6d
01
2a
01
e0
35
5e
83
a3
8b
3c
96
03
39
a6
60
77
0d
b0
d3
31
87
5c
df
aa
ff
8f
43
be
e5
82
cc
90
fe
06
9d
d4
eb
8a
1a
c4
39
5b
a4
c5
da
09
91
af
f6
36
1e
97
36
92
d9
f5
43
6c
18
f1
eb
a6
f9
f8
20
6e
cd
03
f5
bd
43
61
85
ed
0b
b6
eb
0f
d4
e9
52
e9
af
07
08
7c
ca
97
b7
2d
7c
95
f4
25
13
01
01
fb
42
37
39
53
a0
75
b7
47
95
20
94
36
e3
0f
dc
bb
5a
d4
aa
63
51
80
07
46
7f
62
9b
5f
ed
f8
71
0c
6a
48
4f
19
92
b0
3f
7c
a5
1e
e5
72
88
f8
5b
6b
09
d7
e2
16
88
0b
71
75
a2
54
d2
bf
8b
fa
f9
0d
27
fc
89
40
38
1b
e1
76
8d
6d
aa
01
79
ab
c8
1e
1f
12
cc
65
fb
46
22
ff
f9
8c
97
d6
9f
20
a2
f0
cc
53
8d
db
5f
1c
7e
1f
33
c9
07
7d
39
9e
4f
3e
4e
63
52
f0
9a
7b
a2
3a
77
06
76
f4
50
30
42
c3
cb
56
d3
0c
7e
09
e0
4a
d6
f4
44
03
79
ee
eb
c2
31
bb
2b
9c
d5
06
8f
ef
8a
40
03
3a
e6
ba
c0
23
22
c2
ff
9b
07
1a
58
c5
1d
9e
7c
98
76
3d
33
12
ba
35
44
a7
46
33
b3
e6
84
c1
3c
d9
1e
a4
97
92
b8
7e
6b
24
1e
9c
a3
6d
ff
05
e7
54
e5
07
07
64
e1
ef
be
f4
01
db
34
04
b8
3d
94
84
d4
f5
bf
83
57
fd
b7
20
b4
f9
f0
f7
99
37
cd
30
af
9a
73
e5
f0
8c
0d
a7
ad
c6
c9
ea
44
cb
0f
af
f8
86
22
04
5c
43
d5
1c
f9
3a
39
33
01
48
30
4c
c4
81
1c
19
c3
ab
2b
e4
1f
47
43
1e
24
b3
d0
fa
03
41
29
0d
ff
26
d6
63
cc
f3
ea
06
62
7d
4b
72
55
d7
d4
69
91
2e
56
36
54
a0
2a
06
ff
eb
09
6a
98
1f
39
32
7b
fa
5f
71
07
f0
1c
3f
45
3b
a6
ce
f5
79
b5
af
21
d2
9b
04
b1
6d
4d
e8
3d
67
22
ec
0b
5a
13
45
ff
aa
1c
0c
36
a5
ff
91
fc
60
14
28
2a
6a
19
58
39
4c
3a
c4
4d
c3
95
ed
4c
23
35
76
fc
50
17
19
10
c9
af
d1
00
95
92
e0
95
c4
57
76
ba
be
75
0f
ac
96
57
2f
64
c2
aa
4e
93
e1
2e
6c
d0
98
08
31
d9
20
f1
2d
6b
0a
2e
b7
99
ff
83
1e
a5
7c
c0
91
8d
82
df
62
b8
d3
e7
30
96
e7
14
b1
cd
3b
0f
1d
97
31
63
ff
de
cd
a9
5a
f0
23
5f
53
1e
98
ba
64
b9
f5
31
cf
2f
cb
eb
68
f5
76
24
0f
59
40
e7
ef
cb
7c
0f
b5
2e
cc
08
7d
04
70
17
3b
6c
fa
a7
1b
3d
c2
1c
ce
85
36
d1
14
20
fb
6b
97
47
ca
99
23
da
40
90
8e
e3
83
b1
61
fa
e2
b6
1e
71
ef
a4
3f
b0
0f
81
50
22
de
60
26
66
34
12
a8
fe
ce
f9
fd
a3
f5
dc
4a
b0
4b
e9
39
24
01
97
10
b0
b0
ef
47
de
55
3a
fa
5f
c5
e0
d2
92
e5
43
f1
a3
8a
ef
a2
03
5b
64
96
f7
4d
27
23
bb
d0
d2
2f
e9
c0
d5
cd
4e
b5
ab
93
27
f8
2f
8b
08
2a
18
93
53
2b
24
8d
f7
e2
9a
e2
7b
db
1e
51
f8
5e
e7
11
55
09
fe
ef
f2
70
2d
c9
f1
01
57
c2
d9
69
a4
68
09
ca
2a
86
fb
8b
db
d7
37
59
73
94
26
87
dc
d8
b8
84
c4
3c
4a
da
01
77
6b
b9
11
a2
e8
b7
14
83
d9
43
e8
c6
0d
b5
e9
b2
cd
06
a6
53
10
25
47
eb
92
3c
a5
56
4b
1e
b9
7e
9c
7b
58
ee
b6
d3
f4
6d
a6
2d
d2
38
93
26
62
ca
75
fa
42
40
a0
84
bd
82
55
f6
fc
5e
88
25
16
9d
35
b3
6a
47
92
7b
6d
df
7d
62
98
86
d1
31
af
3f
af
4a
c5
69
80
96
ab
c5
19
78
46
96
01
15
3a
fa
b4
9d
e4
8f
2b
71
e8
5b
2e
03
e8
93
f2
9b
57
33
46
82
98
29
e8
08
46
4b
71
99
2d
3c
a9
b1
24
72
84
3a
d4
93
6f
4b
3c
b3
6d
39
ea
e9
eb
94
56
55
0c
ef
78
ff
d7
73
b5
43
b8
0e
c5
cd
52
57
31
27
46
e1
af
ab
56
70
ff
d2
6d
0b
1c
3f
d0
f4
b5
74
0a
df
f8
c6
ac
58
4d
e5
aa
34
e1
e0
c4
50
cb
11
05
eb
a8
86
fd
c5
5f
21
d6
1a
b4
ad
df
c5
5c
c0
ea
a9
db
85
07
67
00
4a
b9
f4
69
11
83
9e
33
ca
53
34
c7
50
05
e0
9e
48
57
7e
bb
e4
53
65
7d
3f
b7
f5
21
b1
95
57
4f
32
02
5c
15
59
75
81
b5
f2
4a
c5
0a
f9
e7
46
9f
1a
19
fd
11
c4
df
92
50
63
79
40
ee
f0
18
72
3d
ea
c4
ae
f1
9e
01
a9
7d
a6
be
a4
e9
23
20
05
2a
a5
3b
06
a7
d0
6d
d7
62
d0
07
d6
39
00
a4
1f
cb
1f
f1
c7
e1
f1
04
ce
15
1d
1f
79
dc
17
03
a0
49
bf
1d
f6
a0
48
3c
ef
cd
05
3d
f1
1b
10
1f
fb
13
a8
cd
05
ae
01
1a
ab
e8
21
14
9d
67
ec
ae
2c
eb
3f
23
b9
82
8a
71
1a
41
ce
16
ef
ee
f3
8c
8f
dc
f1
a4
d3
11
e2
37
e2
f8
93
34
85
3d
59
cf
2c
47
25
07
5a
b4
00
8d
45
9b
1d
aa
78
f8
b9
97
09
d4
88
3d
bf
39
6c
01
ba
72
a4
e4
ce
27
ff
8b
e3
8e
06
c3
29
d7
f8
55
c1
d1
8a
08
08
78
67
e1
e1
b4
16
09
d1
08
05
e4
43
4d
2e
c1
af
2c
7d
3c
75
53
27
b1
4a
72
53
ce
f7
3b
cb
0d
16
ab
48
28
77
e4
30
28
18
13
01
a4
58
ba
01
c9
45
7f
01
6b
1e
9d
91
c9
aa
46
98
c5
56
76
8a
f0
d6
cd
e5
ec
4b
57
0f
13
da
9b
21
f2
6a
3b
cc
c5
43
4b
42
1f
d7
2a
5b
01
8e
dc
95
4a
93
40
6f
b7
77
25
91
8c
ae
3c
0a
f7
23
75
26
07
6a
75
70
a5
2b
7d
ce
07
f4
3b
de
0b
5a
e1
4f
1e
36
39
d7
e9
ba
d6
98
30
a1
d9
76
82
77
cd
4e
bd
4e
b8
a5
24
ed
61
2b
73
22
01
00
0a
0e
0e
47
c6
e6
76
13
4f
6b
98
1e
e9
9a
56
6e
25
08
24
9f
9f
d7
de
37
2d
84
49
2d
ed
7f
9d
ad
8b
71
c5
dc
a0
76
8b
07
28
dc
bc
51
13
fd
35
62
ea
0f
74
5e
8e
bc
cd
94
66
03
c6
6c
7a
55
b3
45
37
60
9e
a0
a2
1c
3e
b5
d7
75
85
57
0f
1a
13
52
ff
fe
8f
87
7f
94
34
07
cd
ba
1a
3c
a2
79
38
94
64
1b
cf
d7
5a
f4
1a
3b
55
0f
26
0f
91
35
20
98
e3
17
ff
1f
e9
15
b8
0e
08
89
0c
7e
01
c9
66
55
9c
ee
75
8f
6a
73
2b
e1
78
f5
be
59
b5
46
ca
6f
22
30
43
df
8a
85
73
68
65
2a
74
dd
bc
09
58
b2
19
d8
ad
ae
16
4b
f3
df
5b
27
9c
c2
d3
17
26
93
66
89
94
6e
4e
23
cb
1c
9f
f7
51
05
b6
52
4f
f9
82
b3
b6
af
2f
e6
5b
95
ad
32
e4
75
1b
2c
03
35
08
c3
dd
01
18
1c
d1
a4
f0
55
4d
bd
26
b5
b2
7b
a8
00
b6
20
da
04
15
70
bc
c3
93
19
06
f0
e8
21
7e
a7
5f
ac
f1
fa
73
6d
a7
b5
2f
d6
c2
61
96
10
bd
0c
42
d9
74
cd
cc
f6
de
cd
0a
b1
47
ac
05
d8
cb
92
f5
b3
f8
66
ab
01
91
2c
68
0c
34
d2
69
c7
fb
68
d1
fa
77
94
52
c5
a7
0d
a3
2b
ce
90
6c
0f
7a
f5
f0
fd
b2
26
97
09
ad
e4
87
c7
92
69
9c
1b
b2
04
05
ca
d5
03
d9
04
a5
86
fe
1d
0c
aa
36
ec
34
b3
1a
67
71
5c
76
01
61
de
d7
42
32
fa
2a
fc
c2
c5
71
6c
1b
2f
d2
10
2d
f4
67
0c
0d
82
c1
f4
da
08
fa
40
77
2d
42
c5
2e
16
89
3e
37
83
b0
d5
13
8e
d9
1c
c1
eb
24
93
07
ed
d9
b3
36
43
b3
01
67
73
98
ad
18
60
19
89
ac
c8
7d
8d
8c
00
1f
41
c8
aa
b6
1e
12
56
55
b3
02
c7
6d
89
29
7c
74
e8
6a
5a
9e
69
be
90
0e
c4
39
b0
91
ff
26
bb
31
d2
a1
bc
13
e6
a3
f8
5f
e5
2f
aa
42
40
7b
6d
a9
b6
9d
b8
65
4a
ac
db
0f
cd
aa
92
be
5d
d9
f3
d0
98
a0
93
75
c1
40
c4
20
5f
98
bc
ca
6f
0c
30
55
16
37
e0
43
02
06
4b
9b
1a
fd
85
ff
57
d7
f4
84
76
61
ac
39
95
85
cc
37
8d
c5
68
12
bf
4e
18
29
9a
79
e4
02
f9
a3
0a
dc
d5
40
52
dd
74
4b
26
07
38
ee
b8
14
82
9f
f7
b7
8b
13
07
a4
7e
89
97
ab
ec
17
42
8e
2f
e8
d2
42
d7
ff
42
cd
4d
f8
09
0c
43
42
53
3c
d9
c2
0a
49
f5
e1
5c
ba
7a
04
50
f3
36
2c
c5
45
c7
d4
0e
72
bc
35
f7
dc
db
d8
25
47
fa
23
c5
bc
e2
20
21
0a
4c
cc
9c
4f
97
ed
e9
7c
92
34
01
87
3c
38
d9
8c
ea
18
37
72
8e
84
34
20
3f
62
77
53
f2
5a
12
da
fa
af
ac
c2
e3
5e
e8
d9
eb
e3
8a
b8
b8
98
c7
ca
16
ef
9b
17
d8
8a
c5
ff
f9
e6
18
be
cf
b9
d5
68
99
5b
57
2a
3f
40
2e
e7
c9
41
b0
b8
71
95
84
c4
93
17
6d
f3
af
ea
ba
9c
77
79
42
60
53
cc
24
25
ae
ae
7b
8f
8a
38
e5
bc
27
f4
98
c8
d0
96
f9
f3
4a
ee
f5
45
05
2b
20
97
d8
68
d3
11
4d
c8
b4
c6
c8
9d
e0
1d
f8
58
d7
04
0a
0e
ea
0c
8e
ff
0f
35
a3
68
33
8f
25
08
99
d1
b5
9f
48
0e
ca
c0
4e
2e
f2
b5
57
f7
f0
f2
55
f0
06
aa
38
af
6e
a4
db
e2
14
7b
07
cd
12
03
11
38
d4
9b
25
dd
de
58
02
24
25
23
46
1d
f8
3b
c6
eb
9b
31
ce
e5
09
97
f1
22
01
bb
06
a5
0d
72
18
20
23
cc
f3
21
5a
4c
14
e2
43
ff
eb
0c
db
e8
dd
0b
86
10
76
c4
9b
0c
09
f9
4d
b2
5b
77
e8
16
29
9b
a2
e2
ec
0e
29
c4
05
6b
be
20
29
7a
e5
ee
d5
e2
2d
f1
d8
dd
67
9b
ec
82
95
00
d0
b8
26
57
f9
75
39
1b
26
66
50
39
4c
a3
e3
ff
06
ab
62
b5
e5
0e
9c
fe
d9
b4
3c
0b
e1
7e
b6
17
8b
13
2c
22
e8
b1
e5
6d
c5
3d
f5
b0
fb
3d
13
ab
b3
9d
0f
e2
06
fd
02
df
a6
d8
18
64
e1
ae
0e
2f
0b
58
a7
8f
22
b9
d1
07
f2
8f
8f
f0
e5
16
9a
01
b7
38
0d
32
75
df
75
cb
16
36
70
07
76
32
15
17
ce
5f
0d
b1
9e
42
3a
15
2e
80
23
fa
d4
64
89
57
3e
cf
c2
41
a3
31
ec
79
fd
9d
c4
c8
7b
f8
7a
ea
ff
12
1f
04
00
a9
20
9d
87
96
4c
f2
2f
ae
bb
b2
e1
f9
2c
9d
57
c9
be
4d
33
fa
fb
91
30
e3
a7
c0
c8
c1
34
eb
69
2b
f4
53
25
8b
d4
6a
0f
ac
4c
63
1c
5e
fa
60
8b
a2
bc
80
09
8c
32
af
7a
27
6d
5a
2c
a1
01
c3
4f
dc
fd
d5
b9
06
6c
82
60
4e
1a
21
a0
b0
71
4c
63
11
59
f8
e4
59
64
25
a5
bc
ea
21
0c
5b
a7
07
20
d2
24
25
fc
12
fa
d0
48
01
86
7e
5f
9a
09
cd
36
42
fd
93
8f
cb
0c
63
1a
b6
2b
0d
1b
b4
b3
64
69
18
2d
71
d5
61
a6
dc
d9
34
25
01
57
74
5d
8a
c7
f3
8a
1b
97
69
ad
e7
a5
a9
88
30
95
65
08
46
c0
82
fc
f7
01
51
78
3b
a5
86
3c
be
3d
de
c9
4a
89
8c
15
55
33
3c
86
44
b2
58
ba
75
e0
36
fc
08
cb
31
e2
a4
3a
52
6b
de
bc
2c
4b
34
67
22
75
23
e4
55
cd
3f
7f
6a
56
85
d7
27
e4
5a
3b
1e
ee
5d
4a
19
f5
02
35
35
c6
63
9c
d0
bc
26
95
c4
52
ef
70
e3
f4
ae
33
f3
a4
b8
70
0b
41
6e
39
f8
c1
7e
e9
1a
3a
ff
f8
b1
6a
79
87
42
ff
2e
a4
e3
6b
03
51
2c
30
b2
5f
c6
ce
0d
6d
9a
ca
c1
a2
cb
da
c3
dd
1c
b1
6f
a4
30
48
12
a6
33
76
0e
f2
8d
f0
02
a2
84
2d
9e
d4
30
3e
a8
86
e8
ef
7c
9a
e1
1c
54
3e
5b
d3
03
10
59
31
2a
28
ea
58
ff
b1
dc
cb
ab
0e
77
3b
c4
45
6b
81
57
c7
a8
fe
56
9a
64
dc
ec
70
e4
68
5b
74
61
d3
5f
d4
fe
32
aa
3d
c2
83
86
b8
ff
96
06
2f
6d
16
0d
c4
31
94
6b
13
53
b7
ef
6d
10
83
13
2b
f9
83
cc
91
fa
ea
e5
d2
2c
2c
9c
7a
76
7f
e7
c6
79
63
f0
24
d4
1f
01
d0
2a
e6
0e
d7
7a
89
dd
35
dc
df
0b
d7
13
1a
a2
cd
24
d2
77
7f
60
82
0f
6f
ee
b4
7c
8d
00
9d
86
36
ec
1b
03
46
e2
f8
98
e4
fe
2e
c9
6c
00
5e
ae
9e
92
ff
3c
71
a2
23
01
a9
29
5e
bb
ed
3c
24
bd
93
df
1b
5b
fd
20
ff
24
85
aa
56
60
ce
15
46
ff
1b
16
88
a2
c0
d2
b8
e0
70
8a
3a
93
a0
40
1a
9c
c5
ed
c3
d2
7a
f5
e4
db
70
c6
8f
41
5a
74
7f
92
0d
52
05
af
7d
e8
5b
e1
39
c2
87
94
c8
9f
31
5f
af
3f
5f
1c
e6
b0
4b
28
3f
6a
aa
b7
1c
ff
44
db
f3
63
fb
08
5e
0d
ec
64
83
0b
01
e2
26
25
00
f4
2c
63
98
dc
0c
c7
ed
69
af
b9
c4
8e
c6
f3
17
01
0b
30
27
d3
43
6c
12
03
4a
39
84
c8
10
0c
fb
3f
c4
