c7
01
1e
77
ff
21
0d
8e
57
89
b2
1d
ef
2b
33
13
ec
ea
85
a4
43
bf
f6
9f
b9
77
97
64
ee
12
d3
3e
69
34
60
1c
6e
c2
3b
49
c2
7d
22
ff
01
5d
f0
14
0d
2d
1f
b6
c4
bf
8e
d6
e9
be
fb
41
01
7d
58
7a
1b
e9
f6
a2
05
0f
17
2a
09
c7
c9
97
08
22
f7
40
4d
fa
5a
30
82
23
c1
92
58
d4
11
15
4c
47
4f
d7
db
f1
a7
38
17
4b
55
ed
72
23
2e
60
58
27
01
4e
6d
54
c8
1f
f5
c8
33
f5
fe
a0
8b
19
06
d8
54
95
e2
23
74
da
06
f7
c7
59
2e
94
d8
3b
80
78
af
3e
76
73
38
b6
43
0d
0d
7f
1a
a3
2a
ff
8f
11
dd
7e
ff
c9
19
8a
59
e2
e0
58
98
7d
1f
b0
37
7d
ff
26
8b
74
29
dd
81
e6
05
77
4a
3c
55
e1
0e
90
11
ca
a3
bb
f3
95
f2
2b
f1
fc
cc
eb
25
73
dc
f8
f2
13
1f
f4
af
c8
d7
1a
32
34
07
a8
a7
69
9d
18
93
d0
ad
22
10
70
76
e9
65
97
5e
ea
20
69
2b
e2
35
68
b6
5f
21
23
ac
7a
3a
d1
c5
33
22
40
8d
e4
2a
01
6e
2c
b3
4a
d6
16
99
03
30
a8
0c
5a
31
92
b8
a5
d1
2a
35
27
cb
15
bb
24
f5
8d
12
05
ff
fb
3e
a6
76
f3
57
ed
e4
ef
45
d9
9e
3a
b7
04
b4
df
fe
e5
77
26
d9
d7
6f
fe
a0
90
99
a8
99
3a
e0
ab
58
d5
37
76
3a
7c
34
97
c5
f9
c7
68
d9
fa
c1
f4
fd
d2
61
9a
9c
67
66
f9
47
1e
fc
e9
e7
2e
2a
a5
e1
45
ed
c0
9b
59
65
32
85
27
88
01
8d
95
b4
a8
e2
c8
a0
5a
c9
4a
bd
92
f5
89
fb
b5
bd
c5
b3
0f
cd
80
5c
07
a0
90
81
9c
ed
ab
5f
33
49
6d
cf
d6
21
bd
4f
5d
d4
90
93
db
e4
08
33
65
1e
03
a3
be
50
3e
c7
0d
30
5c
15
93
3f
d1
39
4a
d9
fd
ca
9b
3b
9c
b3
fa
5b
3b
53
a5
7d
31
30
a8
01
da
7b
dd
b9
35
6f
31
88
12
7f
36
26
3d
cd
b5
20
f8
18
f3
40
8f
11
54
1f
ff
c5
ba
15
fd
fa
ea
eb
5d
48
4e
69
a8
19
5b
bb
d3
47
ae
dc
b6
34
dc
2b
a2
f0
0e
d5
fc
97
b2
02
2d
02
a5
1d
bc
c6
e2
7a
92
e1
ab
9f
5f
16
5f
dc
21
12
c2
15
e2
fc
7f
80
d0
ef
91
4a
81
53
25
55
0c
f8
c7
07
71
c3
56
23
b5
b6
3c
7b
a1
bf
c6
36
fc
c2
8b
10
a9
8e
05
bd
ae
2d
4e
db
59
04
c2
e4
5d
0b
5b
f9
07
ff
30
86
12
91
74
02
b6
68
f2
5b
70
ff
e9
cb
48
c5
70
cc
0d
e7
22
f9
5e
21
16
21
da
e0
dd
f2
7c
61
63
10
54
83
0c
a0
b4
49
56
25
69
76
da
57
34
20
e7
9b
f9
86
dc
36
c8
93
fa
f8
47
a2
9a
aa
86
32
b7
ba
19
f0
4a
83
75
e4
3e
81
3f
72
b4
a4
07
4a
af
c6
47
51
f5
01
ef
76
ff
6e
39
50
86
30
53
ec
13
c4
01
ff
91
a8
93
85
7c
72
fd
41
51
85
0b
22
05
8c
ea
ab
c4
fe
44
36
ab
3f
cf
8b
3d
35
35
48
34
2d
b0
3c
69
3d
4b
3c
e8
0f
cf
d3
15
7e
97
b4
f3
1e
2e
d3
30
e2
02
19
80
f9
08
de
40
b0
af
3a
88
01
09
24
03
ab
3c
50
ee
c8
1f
e1
34
12
35
b5
23
36
ea
a6
dd
95
8e
44
a5
f0
3d
7c
5b
b5
e7
e2
8a
f1
d7
e3
f2
1b
ff
20
4a
1e
36
0e
cc
1b
c9
24
a5
9e
8d
b9
00
13
db
e8
b3
9c
92
ff
ec
3c
84
05
d3
13
6a
06
e0
ed
ae
69
14
22
97
23
09
60
cf
7c
65
ce
10
90
db
ef
cf
3a
43
c0
bc
b4
e7
29
59
11
0d
f6
30
b9
55
fb
44
6e
ed
42
d1
c8
d7
1f
d7
a8
a1
e0
4d
39
17
1a
d7
5f
1c
44
21
06
f4
b1
78
84
59
9a
ba
52
62
83
4c
1e
d5
84
07
2f
2e
86
72
69
10
52
83
a2
6d
d6
91
92
ff
56
15
5e
5d
ef
c4
40
ce
a7
7c
26
1b
e2
92
af
83
26
03
01
77
c3
99
3f
fa
44
8b
03
86
f4
be
cd
54
57
21
8b
4e
ab
23
fb
3e
18
a2
45
1e
5f
0b
cf
39
7e
ef
20
b0
22
86
23
f0
ba
2d
65
7d
64
32
fc
be
b4
19
ff
f4
48
33
98
4f
17
f8
35
54
e7
34
60
15
96
5f
dc
26
5c
06
95
5f
d8
8f
82
c9
0a
65
c3
b0
c2
80
32
14
e2
01
a7
40
e5
ec
81
09
fe
8c
4e
48
05
f1
b0
f8
59
d1
7f
63
11
59
97
eb
16
ca
7d
83
ae
08
6c
18
75
56
d6
ae
49
11
a5
b3
0c
1c
ff
e4
a4
11
cf
20
0d
5f
85
f8
36
0e
64
65
20
e6
b8
23
a1
7b
26
0a
a1
e2
02
e2
2d
5a
f7
ce
e0
c7
52
b5
23
b0
97
77
18
a4
40
64
30
a7
2f
f3
c0
4d
88
3a
52
72
07
8f
53
52
38
fb
20
43
e8
7e
89
34
cd
c7
ff
6b
75
f3
78
e3
66
3e
5f
ff
d8
c2
11
12
33
58
dc
72
6e
12
38
36
68
27
6f
13
0a
b2
c9
c9
72
19
dd
f3
36
bd
b9
5b
27
8c
51
05
57
bb
22
6a
dd
d9
79
1c
13
57
fe
c4
71
4b
9f
f6
46
8a
c3
26
38
fe
91
44
c1
6b
64
c2
cf
9d
2d
57
46
4d
f5
01
fc
a3
dc
0f
b1
1d
49
37
1d
e1
ae
91
22
90
5a
cb
fd
fc
4f
e3
df
25
12
22
b1
1a
c4
fa
b8
2d
65
0b
29
fc
91
7e
95
6e
1d
d9
03
d1
4f
18
f1
ff
d8
fa
10
ff
1b
d3
ea
2d
41
27
40
85
d1
bf
8f
35
da
3b
c7
30
ee
20
84
03
ad
f7
3c
c8
51
24
f9
ec
9c
31
c1
ad
f6
15
db
1e
a9
68
b5
cd
b6
5c
b7
74
64
ea
06
45
66
e3
d7
ff
d6
b8
08
0f
9f
ac
c5
f8
d2
0a
18
c5
f9
44
1b
44
be
e3
1f
4e
ba
bc
0c
ef
df
68
18
ff
e2
3e
2b
af
44
fe
9e
08
2f
f5
4e
c1
d7
b3
55
33
e0
17
de
d3
1f
1b
1e
72
6b
6d
41
c6
4f
b4
02
48
b2
56
67
61
03
85
51
da
6b
28
3e
cc
a5
43
32
1a
5f
bc
be
d5
60
88
62
c2
22
62
fe
c8
0e
a5
cb
e6
a2
fa
f3
02
1b
60
26
f8
5f
93
fb
aa
b9
cf
2f
74
e4
5a
fa
20
9b
be
23
f5
08
2d
53
13
9c
f0
d9
17
ed
79
ea
ff
9a
15
69
5c
a8
4c
0e
c5
90
89
cc
58
52
ca
cf
3f
b8
bd
4c
d2
e7
b1
7a
fa
f7
2a
58
2a
f0
83
20
2f
26
8f
c7
6c
99
7b
01
09
21
92
9e
e2
13
f1
26
a1
6f
4b
4d
cd
2c
99
1c
90
d4
54
fc
6a
56
b1
6e
84
9f
2e
ff
87
0f
48
46
3e
14
eb
ea
4b
e1
6d
c4
64
62
27
2c
b0
f6
92
90
3d
8c
8b
0c
f1
5a
83
17
eb
71
9d
1e
5b
14
d6
db
f8
0a
c0
cb
fd
e4
7f
52
23
a9
1c
26
00
0a
32
0f
da
d7
7b
20
67
be
fd
a6
9d
a9
93
a5
e3
fc
fd
06
77
01
c2
d1
c9
c1
9d
01
ca
11
38
fa
22
02
09
39
2a
f3
36
c5
02
7b
0b
a4
e5
1d
01
d6
d1
05
92
12
e5
3a
c7
55
3b
7e
de
13
12
f6
bc
ff
47
2e
29
0d
c0
ff
17
f8
97
0e
18
30
ea
1f
d3
c6
a5
c6
63
fd
09
e2
21
eb
26
51
20
f5
2b
74
2f
11
7b
d7
e2
56
22
00
8e
a7
11
a1
7d
39
78
b2
98
4b
a3
c1
9f
f6
14
fb
c7
e1
25
87
bc
bc
10
6b
8e
03
92
25
d6
18
be
ce
8f
2f
09
e4
2c
8b
8d
ff
d7
5b
b1
d7
9a
8d
68
29
fb
05
3a
5e
f8
bf
c7
f0
d4
b5
e5
9b
e5
f9
6b
bc
ea
af
de
fd
f6
8c
cf
14
fc
f8
20
80
32
43
63
74
d3
52
2a
d6
b1
ca
f8
13
b3
13
5a
b7
12
e5
4b
ca
ba
14
91
46
a6
0a
ff
64
d8
e3
13
ed
72
29
18
a7
bd
f7
95
85
36
5e
73
b9
22
b4
6e
64
b6
c5
e5
a0
88
2c
c7
8e
f9
a8
4c
fc
4b
7a
e9
11
44
ec
cc
e5
ed
77
2a
de
0f
da
c8
ff
ed
f2
26
73
19
aa
4a
f5
1a
a1
81
0c
ff
fa
77
dd
0d
32
5c
d9
cd
71
bc
8b
33
14
6b
86
2d
97
03
d7
82
04
14
11
dd
37
ab
58
7b
88
7e
52
9f
e4
d6
ff
48
0c
62
9b
21
ed
0f
6e
2d
e8
29
cb
3f
84
d9
ff
8f
01
36
e3
62
dd
8d
97
fe
a4
19
f5
12
0d
5e
28
08
28
22
eb
a6
c1
48
d5
90
f3
4b
9a
86
cb
64
82
9e
5a
d4
84
ff
a7
20
e8
a2
18
37
bb
32
8b
da
70
b6
6d
b3
32
75
43
0b
b3
b7
e5
83
a8
68
c8
de
b7
fa
58
70
05
25
83
cc
02
7c
d8
99
64
a0
df
40
1b
30
47
a0
b4
42
35
a0
d1
23
f9
6f
de
a0
18
7c
4e
a7
26
b3
59
a8
6e
05
58
c6
4c
d3
c1
ca
e5
5e
24
4e
76
3d
26
1b
42
4c
9e
77
25
1c
7f
aa
d7
60
90
01
1b
be
0b
bd
da
76
89
7e
d5
a0
0a
16
8a
62
b6
f8
be
89
02
01
0a
41
f9
8c
ff
2c
ff
a5
a4
f2
fc
54
78
96
13
af
12
eb
2c
5d
1d
ca
0e
3a
d9
83
44
6c
11
a2
53
57
3e
a9
3e
e2
27
94
3b
5e
93
05
f3
aa
b9
dd
ee
48
66
15
77
7e
90
16
37
ee
20
99
e2
be
5d
f2
53
2f
02
72
13
05
cc
29
bc
6d
02
72
d7
fb
11
f9
f4
2e
2e
c8
a0
97
72
5c
03
62
1c
ff
21
42
a1
6b
9d
b9
19
f6
30
3f
07
1b
4b
2c
96
23
98
e7
f9
07
52
ba
c0
13
d9
f3
16
9a
4b
86
cc
8f
2b
ff
02
1e
22
b0
48
2b
85
12
40
6b
b1
66
89
39
47
11
9f
d0
30
8d
e5
e7
20
ff
80
7b
99
41
c3
ba
ef
19
4f
c7
1c
e9
cf
66
a9
49
83
84
12
5d
86
02
56
bb
32
53
0a
d4
0c
2e
0a
a2
a6
f1
ac
11
6c
6e
87
1d
09
ce
b2
ce
c3
99
92
63
c0
8c
59
b7
cb
f6
55
c4
69
17
27
ba
d7
d7
3c
35
06
7e
2f
56
8d
11
ff
48
30
75
24
9a
aa
c1
09
1f
e8
e3
5b
5d
2c
ee
ed
cc
7a
b2
6e
e9
e9
30
78
fb
b3
5e
4f
ee
7c
6f
83
6a
6b
0b
6d
dd
6c
da
1f
b2
ae
cb
c4
c1
af
c9
b0
16
48
ff
c3
cd
f2
93
a1
c3
d3
71
84
9b
a3
ef
3b
70
0e
89
03
f1
8b
fb
2f
8c
79
af
f6
43
35
2c
52
23
24
62
33
f2
ca
14
80
53
4f
62
d7
f4
93
ee
92
3c
8f
5c
d2
57
2c
74
7a
52
13
bc
94
0e
f9
6d
cd
2d
c6
a1
92
f5
4c
f0
44
0a
c0
cf
d7
74
13
b0
15
ea
fb
b3
ae
86
cb
fd
98
bc
50
ef
f5
0d
66
ce
ff
7e
20
04
51
b1
99
9d
26
5e
7f
5a
b3
ef
21
21
60
c9
8a
5c
8f
50
a4
f5
b1
0f
4e
26
01
ca
fb
87
d9
e8
a3
0b
87
9c
ea
08
db
4f
28
54
01
f0
48
13
72
ca
18
eb
93
7d
d9
5e
be
aa
31
26
d1
45
31
eb
a3
2e
1c
94
65
3c
a0
db
af
0e
96
1d
42
f7
67
65
7a
12
c3
cd
34
ed
bf
a6
a0
b2
c5
36
7b
eb
50
80
f6
e0
51
4e
bc
fe
ed
67
02
80
28
4f
38
d4
ff
69
6a
82
98
19
23
34
2c
3f
ab
8c
a6
ab
9e
de
47
32
2d
3b
ff
94
ed
49
f4
5f
88
80
55
29
c3
d5
ef
3c
2f
e0
f8
c4
f2
c9
cc
9a
8e
b0
33
6c
7a
20
57
ef
70
0e
0d
9a
f6
52
7c
97
ed
7f
e1
47
12
e1
eb
71
b4
a4
71
c6
a9
85
89
43
03
dd
ba
4c
18
af
98
c2
6a
7c
79
cf
44
01
73
34
ef
f7
64
01
04
05
65
c7
2b
b3
79
94
97
c4
9e
a8
ba
9a
f3
b8
a2
08
07
e9
d0
a5
9d
2b
15
8c
86
b0
4d
67
e5
e2
54
20
04
17
a4
73
53
20
d6
61
ba
1a
ff
a6
46
c2
ed
ea
63
3e
3d
9c
69
4e
9e
a6
45
3e
88
da
86
94
46
93
65
1c
cf
48
68
96
3c
91
41
b6
89
ac
6f
04
b9
ff
91
14
a7
36
fc
36
a4
f8
f4
33
06
14
25
36
48
7c
01
c7
f4
be
72
a5
c8
e0
5a
f3
aa
b7
60
2c
1b
43
06
20
b8
55
69
88
e5
13
8b
fc
cc
b1
58
ff
78
18
8b
7a
78
c2
39
68
79
3d
58
17
e7
ee
64
85
3c
61
99
2d
69
2e
23
0c
4f
4f
d9
4a
8d
e1
cf
d8
98
b6
de
c1
98
6b
fa
66
e9
c8
74
ff
40
3d
01
2a
9a
b2
cc
a8
a2
f3
de
53
2f
47
2f
6c
05
c2
6b
54
4d
f1
a2
73
a1
b9
2a
36
c4
5e
da
a2
66
fb
fe
8e
68
a6
75
85
43
05
4e
ce
18
2a
40
2e
0c
91
df
3a
74
db
ff
1e
d2
ff
1e
67
05
d8
57
34
9f
b9
d7
8c
0b
15
73
a6
b1
5e
56
32
69
e1
f9
d5
ad
9d
a6
78
62
f5
8c
bd
2e
6c
02
0b
d4
cc
1a
78
5a
fc
4c
a1
80
80
e3
0d
0f
e1
bf
0e
fd
7b
2d
3e
f0
10
76
ac
b0
93
18
5a
b7
06
f4
e2
4f
6d
94
1f
c3
ef
42
85
1c
ce
dc
17
4b
88
12
5e
c9
f2
d3
ae
26
b7
52
b3
02
eb
64
df
ed
b4
e0
80
0b
e3
52
01
c8
4b
b4
2f
ff
95
5e
27
04
4c
e3
85
cf
eb
db
c0
33
ae
09
9d
fd
2b
75
28
b1
59
31
6f
c4
ce
84
45
73
0a
be
9b
86
f8
47
44
f3
93
ed
89
8b
e1
f1
14
08
00
8d
09
d8
51
36
22
12
81
73
33
bd
55
26
17
39
24
3c
ec
c9
f8
29
1a
0a
3c
d4
c5
59
87
36
37
8e
4d
5e
a0
30
60
fe
34
50
d8
d3
3f
95
01
73
6e
e9
65
19
46
f8
44
e1
26
86
67
70
67
84
20
98
7b
bf
94
40
3d
e2
58
a0
d0
ce
75
23
88
de
1b
4d
81
c7
33
66
31
56
5c
d1
88
3c
5a
0e
a0
0b
01
95
83
d4
07
b5
fe
d4
19
0d
67
30
95
0a
aa
b9
59
6b
22
18
5d
5a
ca
12
52
d1
6b
0d
49
7f
ec
30
1d
2f
93
e8
af
6e
9f
e4
35
22
13
15
4c
af
22
78
e8
36
ca
33
e4
e7
12
28
dc
31
2f
2f
20
f1
0e
6f
06
32
51
bd
4f
8d
2d
81
0d
af
df
0c
01
3e
3b
57
b3
08
1a
3f
65
33
20
4e
3e
06
7e
03
58
1e
7e
e8
88
c0
a1
cd
92
03
8f
72
c9
ca
1e
4a
5e
90
8e
e4
31
5e
72
d1
18
e4
93
af
1a
09
43
36
02
c2
25
2b
cd
2d
e0
64
78
31
08
23
7e
01
59
c4
f2
32
ff
d3
68
1a
fa
75
73
77
44
d3
c5
5d
15
32
62
35
45
0e
07
ff
96
66
c2
de
8d
22
7b
19
80
a6
aa
4c
05
9a
e1
df
fe
2e
08
e2
e5
6f
b7
15
12
5c
74
e1
84
15
85
01
5c
4e
00
0e
98
e3
80
7e
c7
8b
74
a0
ed
a7
ec
2a
c0
00
8f
5b
2f
64
3a
8f
46
68
98
d4
9f
fd
3b
03
16
b9
a6
93
28
20
a0
77
cc
9b
be
b1
13
df
33
e2
62
f0
d3
18
dc
df
e7
54
d0
30
1c
c0
aa
b6
07
f8
cb
05
2c
07
ef
e3
d0
4b
40
d2
92
b7
e9
af
c0
eb
46
da
aa
91
05
41
fc
cf
78
a9
1e
3b
e6
97
ae
e5
3f
30
3e
06
20
10
26
2f
aa
70
ce
dc
aa
dd
c8
29
01
4a
03
e2
a7
01
78
d8
d9
72
c0
61
e5
9c
bf
b5
98
08
5c
68
c5
a9
b0
9e
0a
d6
d5
8a
89
ea
b5
a6
11
49
ca
37
a8
b0
57
55
1e
71
03
6c
ff
5e
d7
b7
6e
fe
10
7f
d0
e0
9c
4e
63
ae
88
93
e0
a4
9e
2d
3b
0a
fa
6f
09
e6
ec
ae
5a
5d
58
d6
e0
4f
98
7f
c0
08
19
e0
3e
0e
6a
61
b4
01
91
f4
aa
b2
7b
a7
2f
a1
c3
51
f5
d1
ca
73
05
af
c3
de
2a
60
25
41
3d
2c
d7
77
86
1a
ce
33
d4
aa
6a
92
df
01
27
ad
74
76
2b
6a
bf
c3
ed
af
8c
11
bd
11
dd
7e
98
06
19
a5
b3
43
41
67
61
85
1c
f3
27
6b
19
ec
eb
6e
5e
d0
e5
31
7c
1b
81
99
0e
40
03
cb
fb
c3
b6
b7
d8
e5
41
1e
fa
f8
ff
a7
81
fa
d6
7a
c0
c4
2b
bb
e9
f5
f5
83
d3
e3
ad
0d
d2
ba
e0
d3
74
91
77
3f
57
ed
c5
f3
fb
ef
33
b9
f4
89
03
a3
7a
da
47
e0
11
86
e3
ff
d4
e7
9b
ca
7f
df
01
95
cc
fb
1e
64
a5
08
1e
21
c3
c3
0d
90
e0
6f
5a
66
2f
a3
53
22
56
29
e1
fd
e4
36
ab
f0
de
25
f4
86
99
fe
e8
bb
02
eb
d7
ed
47
3a
e5
1a
14
01
30
ff
72
17
ab
20
60
c7
39
f6
1b
0b
34
f5
c0
e2
11
3e
5f
ec
30
2a
bf
77
a4
cc
ec
03
da
f3
0b
fe
8b
06
a0
e3
1c
30
8d
a6
03
bf
fe
b2
0f
11
4f
27
38
14
00
f6
2b
14
e0
cd
11
ff
ad
27
fe
37
cd
fb
78
1b
fb
09
ba
fa
11
c6
25
38
b4
0d
06
46
2b
5f
99
fb
19
88
22
2f
57
ce
20
39
19
1c
58
16
f7
e0
e8
49
cb
08
55
88
9c
44
f9
f4
98
79
c8
37
33
40
73
f8
b8
71
f4
4e
0d
b6
31
02
2b
0d
15
f3
4f
72
01
95
21
fe
a8
06
e9
9e
ba
a5
3e
56
d4
ba
66
2e
25
35
42
ea
57
98
f2
81
de
9a
ec
68
40
49
71
b7
d9
e0
c6
ef
3a
c1
60
fc
ad
2b
19
00
c7
c9
0e
60
1f
c7
7a
15
6e
03
ca
60
bf
a7
e1
7a
23
9c
b4
9e
12
27
1e
9e
39
10
ba
d8
1b
3e
25
02
79
3a
59
01
09
8d
39
04
13
0c
f1
1b
1a
d4
26
3a
87
44
fe
5e
42
df
bf
41
99
3f
c2
9e
d2
72
6d
83
3c
4a
41
8a
9c
57
37
51
01
03
5c
6a
71
67
6e
23
ee
61
16
59
18
0b
17
46
b9
10
8c
b9
fd
be
0b
21
2e
fa
9d
a8
b2
d8
d7
4d
8b
14
4b
82
5b
41
16
14
ba
b1
68
b2
36
73
3a
42
3c
b6
a4
01
77
90
a2
9a
8c
01
bb
a2
73
01
d0
c7
3c
41
14
23
cb
d2
07
d2
81
61
ef
14
bb
ff
07
c6
c9
7c
66
8c
a3
28
1b
55
4a
89
2d
2e
aa
65
8f
29
f0
58
88
77
cc
af
fc
72
5c
11
eb
8b
00
46
f1
9b
cb
7f
4e
68
99
a4
ff
da
6e
2a
ed
98
04
c1
8e
a6
87
84
a1
fa
68
e7
b5
73
80
10
48
f2
0a
0c
66
a7
e5
94
dc
14
cd
07
f0
eb
81
59
fc
69
54
8b
01
00
1d
6d
0c
fe
c4
b6
8d
d2
6c
3a
ce
80
a3
0a
15
88
b5
6b
7e
e9
5b
01
c9
39
e5
eb
28
0d
06
17
c1
5e
de
a8
b4
ba
6f
7b
78
1c
19
1c
5a
ae
e3
df
96
08
11
53
75
54
42
01
49
00
4c
ad
5a
cf
97
19
35
0b
8e
f1
36
ea
c9
30
25
16
29
72
43
38
ef
ef
18
ed
3c
ca
82
e6
95
