0e
f4
30
e5
ff
07
fa
24
0d
e6
e3
fb
f8
e6
13
f7
0c
fb
fc
ef
e6
10
e1
0d
08
0f
ec
13
e2
f1
48
34
dd
ee
01
35
04
15
81
f4
1d
38
de
05
0f
47
02
d7
a1
17
0f
1c
1b
f5
04
15
e8
a3
eb
b9
1d
fc
16
18
3a
0e
ea
05
07
1e
df
08
ed
15
d6
f9
28
07
fc
17
06
06
0a
04
10
df
f5
f5
2e
13
e7
e2
f7
ed
01
24
c3
81
04
1f
fa
cc
15
2f
50
46
4f
da
f2
19
cb
39
23
42
13
1b
f3
fd
4b
f6
25
d5
cc
cf
4a
33
cf
e6
f4
f4
05
00
28
06
f8
00
e1
16
f3
f1
e5
ee
ef
f0
f4
f6
ee
d6
0b
17
fd
e4
e9
1f
f4
2c
f8
05
f3
10
d5
cf
fd
d9
d5
fe
1b
f1
0c
3c
14
3f
03
e2
06
f0
18
fc
df
3c
25
2f
1b
fb
7f
ec
f4
06
13
11
25
fd
1a
05
e4
f8
04
d8
00
dd
05
f7
ee
1c
e2
f3
e4
fb
fb
c8
ef
1f
e9
d8
00
10
f7
f0
e3
0d
fd
23
dc
e1
ef
f2
bc
1a
bd
18
f6
45
f8
3f
ce
25
cb
06
62
7f
3d
15
d4
fd
2f
f8
e1
ea
1a
ed
38
a8
ef
18
dd
38
e4
20
d8
e0
df
ed
28
f3
17
2f
12
f3
da
24
e9
13
eb
0e
e6
0d
f3
df
f3
08
ea
e6
21
ed
10
2f
dc
ca
01
df
0a
2e
e8
0b
ba
fd
c7
13
f8
a9
e5
1e
6b
c0
1a
cb
e0
8b
df
23
26
59
09
3c
34
f0
7f
da
45
37
1c
cc
0f
23
05
26
ea
0d
0b
0d
ec
e5
f1
d3
2b
d0
13
fc
f1
e1
ff
ee
0b
0b
06
00
fb
16
04
bb
25
42
00
33
4c
c7
d3
09
0b
59
1c
35
fc
13
d3
0d
0a
26
1d
ff
50
81
24
0f
12
17
cb
ff
be
f6
0d
4b
ba
e2
ea
f8
fe
0f
2f
07
0a
ff
15
21
01
0a
e9
24
b3
e7
2d
e9
0b
e6
0e
09
00
f0
06
1f
3a
07
e9
fa
e0
d1
1c
7f
b4
fe
f6
85
d0
23
d1
3b
2c
20
22
dd
3d
fd
0d
f3
ff
c0
0d
ff
16
ce
4f
07
cb
4a
5d
3a
2a
33
21
f9
e7
02
2a
fb
e1
1e
02
de
c2
2c
ed
05
ea
0a
e0
00
0d
db
38
39
22
c4
df
13
fb
2c
f9
fa
fd
02
27
00
f5
f9
14
1d
e4
8d
c7
5b
14
14
4e
64
15
5a
df
18
fe
0a
1c
81
07
ce
27
09
e3
a0
d6
13
28
43
ee
0f
d1
14
d6
1f
2c
0e
3a
11
15
d8
e9
00
16
02
25
01
08
fb
15
fd
ee
03
e3
f9
06
df
fc
fd
f5
19
ce
94
44
ce
1e
1a
28
ea
10
06
ed
47
16
47
33
96
45
d6
3c
25
f8
f8
34
42
81
43
1c
a9
3f
86
55
f3
d8
35
24
07
f2
fb
d8
c4
f0
07
1e
20
e6
14
ed
07
0c
ee
dc
e6
37
f9
34
ea
1f
ea
01
11
0b
2e
db
04
33
f9
ec
d0
01
07
dc
2e
fa
12
eb
d5
fe
81
d2
ae
9b
ac
9a
d7
e9
ae
dc
22
11
46
28
1f
1b
47
e9
e8
2b
da
f6
f0
e3
09
14
ef
ef
1e
e9
f6
11
fb
02
2f
db
fb
16
d9
e6
12
1e
1b
04
1e
0a
06
00
ec
de
04
dc
a0
8c
09
77
21
04
d2
c9
ff
f2
d4
d0
ec
93
7f
6a
da
46
2c
b8
75
e4
f4
05
c5
3b
10
0f
bf
e3
f6
2a
0d
26
fd
e8
e9
fc
f3
d4
f0
02
15
fa
0f
d3
f2
f7
09
f0
02
07
fe
1f
e2
ed
fc
1a
f6
ed
10
fd
dc
1f
ce
4a
20
ec
0a
50
01
2b
28
47
f0
41
fc
09
f0
06
3c
ee
43
62
19
bf
10
3a
0a
7f
12
b7
6c
92
36
e1
04
d2
10
e9
f6
20
df
fd
f6
13
d8
e7
11
2c
0a
0f
21
e1
f3
e9
10
04
0f
f6
ea
12
fb
03
1c
e3
f8
11
9b
06
c8
11
02
1b
f2
de
1c
e4
c5
c8
2d
1e
66
b1
e1
36
df
ca
e9
0e
0f
db
17
10
13
aa
7f
5a
53
07
26
21
1b
25
12
ff
0f
05
ee
0a
e2
17
18
5f
09
12
1d
ee
ee
fa
01
12
05
22
11
f5
da
10
e6
35
27
3a
19
20
05
3f
c2
81
9b
b2
28
24
00
ff
a7
ae
f2
d9
08
3d
40
dd
e8
20
6e
53
c3
4a
0c
b7
ae
dc
16
fd
e6
04
0a
36
18
d8
fa
ce
ef
0d
ff
08
16
ef
0f
fb
f5
06
05
0c
31
ef
dd
f7
04
0b
06
fe
03
f4
08
c9
24
e3
35
f9
22
59
df
ee
ba
17
27
07
f7
d6
0d
da
01
23
c0
81
19
01
f9
26
4a
c2
ca
eb
f6
51
2a
fb
2e
ba
17
0b
12
d5
3a
f5
b5
ef
e8
2c
fc
14
1e
b6
20
c6
e5
3f
55
0c
de
f0
2c
01
e3
33
a8
e3
4e
43
0e
f6
ab
49
d7
12
3a
f4
ce
ed
a4
e2
4a
2b
ba
57
45
ef
64
23
b7
3e
fb
0c
c7
d1
dc
d8
20
7f
e7
09
07
e3
02
f4
f0
f8
eb
c0
ee
f4
13
0c
02
f3
00
ec
e5
01
ff
10
1f
2c
10
f5
01
12
ed
e2
3c
f6
ec
27
e5
b1
fc
1b
22
1d
40
ec
fa
0b
cf
0a
cc
47
ad
ef
1a
e9
1a
fc
b4
78
d1
6a
53
d9
54
7f
29
0c
c1
ff
19
f4
f9
e6
e7
1e
13
3a
08
37
d3
e3
e7
14
e8
02
24
a8
e1
e6
00
0d
23
ee
de
10
ee
17
14
e2
14
e8
15
0f
c8
a0
52
b7
2f
34
1b
e2
81
f5
0f
49
ed
04
5e
21
c3
2c
25
bf
f9
2d
23
29
b5
0f
2c
7d
d5
ef
ca
1b
27
eb
2e
19
ef
35
0c
01
05
19
de
04
22
1f
04
de
ea
0c
0c
0b
e9
1b
f4
dc
eb
ea
b8
05
02
e5
f7
c0
7f
c9
fd
43
9f
47
e6
31
e8
30
f6
12
ba
b7
b1
f2
d1
42
63
db
1c
26
d1
fd
d8
9d
e8
f0
8b
f2
18
f3
14
26
11
f6
1d
12
e2
ee
1f
1a
dd
19
0d
17
07
20
ff
f4
10
06
0b
fa
f1
05
09
fe
f0
1c
08
27
fc
d0
2d
f7
27
0c
5b
11
df
16
4d
25
06
f3
2a
b8
b3
03
40
7f
0d
e2
53
13
2c
d2
db
19
b0
00
7b
23
e2
ef
1f
05
dd
0c
e2
c2
23
f1
1d
fc
f5
9c
e4
18
c4
28
17
ef
f3
04
06
da
1c
11
dd
ca
3a
bd
c9
01
4e
18
fd
16
f2
46
0e
bc
27
7f
fd
db
34
37
24
03
05
18
26
0d
3c
1b
e9
b0
40
58
d8
25
fb
0a
ec
fb
0d
db
f2
f2
d3
0e
fb
12
fd
07
ec
ec
2c
ec
f3
e8
13
d5
05
14
fb
fc
04
f1
28
08
ec
fd
28
d6
01
3a
c6
1d
ef
13
20
fe
5b
d1
4b
fc
da
05
0a
f1
13
0f
f9
fb
ed
08
08
36
81
95
0f
07
0d
f7
f7
0a
15
15
f2
f9
0b
0a
df
1f
1d
03
0a
0b
ed
fd
07
09
03
fd
ef
10
fc
f3
e4
11
ef
05
09
1e
17
1f
ff
fe
e3
02
11
e4
3d
13
3a
05
3c
bb
01
fc
eb
e6
00
bc
38
ee
2a
16
ff
fb
7f
1f
de
3d
f0
00
02
3e
04
b5
11
10
f5
ea
0c
f3
d4
07
ec
0d
06
2c
f3
2b
3a
fe
01
09
fb
11
f2
fd
e6
de
f5
ff
ec
ff
d2
08
0e
07
e2
ea
d4
b7
eb
f8
f7
16
30
fe
6a
f2
15
06
e1
00
ed
11
f4
2f
11
15
0f
0d
f4
11
aa
1b
7f
f9
16
f6
5d
ff
e4
0e
1b
fa
2e
13
21
13
ec
2e
19
0a
f5
26
f6
2e
d3
07
fb
f5
fc
ec
13
f2
ea
00
fc
ec
d0
1d
0d
1c
0b
eb
f2
33
24
31
24
7f
00
13
05
fe
44
3b
3f
3c
ec
28
42
2e
b6
d0
32
d3
18
e8
ff
3b
11
f9
f3
24
d9
02
f5
cc
04
e5
01
d0
ed
e0
e5
25
1b
25
e2
01
16
f2
29
06
0f
fd
04
f8
0b
db
0c
f6
eb
27
fa
d3
fa
30
e9
e2
e1
f1
d2
22
d0
c3
0a
c3
ce
08
51
7f
e6
ee
2c
2e
37
22
d8
97
13
f0
28
d6
84
db
00
e7
1b
12
1e
18
c8
24
f6
20
06
13
09
c8
f2
fc
29
1b
14
d2
20
ed
e6
02
cd
e5
09
16
1d
28
2c
f1
d6
06
40
38
1b
48
1b
22
fc
ff
0a
3d
7f
00
6d
f5
fc
f3
8e
7b
c1
0f
f2
ff
dd
35
0b
18
6e
11
12
3c
f9
ff
0c
1b
f7
f1
1e
30
08
f4
fe
22
f6
e2
d6
0b
fe
11
da
f2
1a
f2
f8
0d
39
f5
fb
1a
07
07
0c
05
f6
ba
f4
3e
c8
68
19
4e
2f
67
ba
38
ea
b5
0b
e7
29
f3
7f
fa
d5
19
4e
5f
c7
c0
be
1d
f0
f4
ac
1b
a2
12
22
12
23
bf
0b
15
27
12
22
1d
f1
eb
fd
20
10
18
de
00
22
00
f0
23
1b
15
fe
01
ec
04
f9
18
f1
52
27
2b
9f
35
ed
0d
e8
2b
e2
e4
e9
19
f4
e0
2a
e1
71
3b
2e
5a
1f
18
81
41
3a
b0
30
dc
df
0c
f6
0e
03
02
e7
17
fa
e9
ef
f9
04
ee
15
33
f7
f7
03
01
f5
13
f8
f0
ee
f7
03
12
f4
0b
ec
00
12
11
fc
fa
4a
5e
0d
3c
81
2b
f1
ed
a9
f8
df
e7
c9
b5
1c
24
20
bc
f6
ed
0f
49
ed
1f
cc
10
cd
83
c4
0b
37
02
01
11
ed
f6
16
ed
ff
06
f0
ec
1b
fe
06
ec
17
04
ea
0f
fb
15
f8
ff
fb
db
11
ef
1d
ff
05
15
f9
d3
a8
f7
22
1c
c9
1a
06
1f
05
81
fa
e2
08
31
d8
e6
f7
33
e4
32
e1
c4
94
de
31
d7
db
cc
06
4f
be
03
04
fd
d7
1c
28
d5
06
05
f7
ef
39
ec
d4
d6
e9
15
04
04
e1
fd
0f
1d
16
f6
1a
fd
0e
de
fa
fe
10
a3
17
1c
dd
fa
15
f9
e1
1b
02
13
df
14
0c
0b
19
45
c4
fa
f3
24
2b
13
35
28
49
d1
03
04
4f
81
0e
34
1a
09
17
ef
de
08
fe
0c
e5
0a
e6
15
26
19
f4
f4
f9
05
15
03
ed
e9
fe
19
da
0d
ef
24
f0
09
07
7f
fb
f1
0f
07
36
d0
dd
04
18
df
f4
20
0b
ea
10
5d
18
ec
07
4c
20
02
3f
06
2f
36
cf
05
c6
eb
c2
fd
f8
09
fb
f2
07
07
ea
ea
05
25
f3
fb
f1
0c
07
07
02
09
18
0c
fc
06
0b
f3
f7
15
14
ea
11
e5
dc
ee
f7
f0
e4
ea
cd
da
08
0c
ff
02
4e
af
ec
1d
ec
d9
9e
ef
06
21
c8
7f
22
0e
cf
20
e9
f9
14
4b
4c
1d
f8
f0
28
08
1f
ea
e5
03
2c
ee
ed
fa
0e
08
d2
02
ea
05
ee
37
fd
15
fa
f7
ec
e9
f6
f7
dd
ff
01
20
f3
2b
81
c0
03
d8
d0
04
a3
24
19
ae
f9
c6
3b
01
1a
f4
f3
56
e7
de
0e
d1
0c
e9
25
b8
06
0c
e5
fd
0a
12
15
f0
16
13
18
08
cb
f4
f9
ee
e6
37
03
f3
12
d8
f2
e9
f9
15
1a
f7
f3
04
f8
fd
ba
12
04
2a
3c
04
3a
08
0f
37
3b
f6
79
e8
b0
11
12
33
06
e9
0b
7f
c0
1c
2f
39
24
35
09
ee
eb
9e
3f
ff
0e
e6
e5
fc
31
12
f4
14
f8
f6
1e
04
0d
f9
49
c7
e1
1b
e8
0e
ff
07
fd
02
d4
e9
13
2a
de
00
27
e2
d5
75
14
bb
1d
2f
e8
5c
cc
e9
04
48
2d
19
ec
fe
ee
1c
99
9d
6e
7f
0d
ca
c4
76
0b
fc
9c
02
67
79
42
19
1a
ea
21
ea
f7
4f
eb
16
06
05
f1
f1
06
42
01
0b
f8
e5
06
e4
e9
02
0a
10
ec
f5
d9
19
fd
fe
ea
3a
fc
05
2f
11
f7
03
17
e2
0a
41
0e
f8
dd
d5
26
18
ed
35
ac
45
1a
fe
22
14
bb
7f
ca
3f
23
a0
bc
ff
2d
2e
f2
05
fc
f7
1d
f5
0a
bf
21
25
0d
fb
0d
d4
00
04
13
f8
fd
f1
02
28
1c
ff
ff
07
ca
15
0f
1c
0a
21
3c
20
a8
8a
d2
de
42
e8
c2
ea
02
07
49
cc
e1
e3
c5
2e
b0
34
ca
7f
da
a1
b3
54
d5
f6
ef
14
e4
02
1e
d3
ee
0d
d5
0a
f2
e3
fe
ed
0c
fa
ff
e9
19
b0
f0
22
16
15
02
f3
10
ee
09
44
23
d7
03
19
14
34
4b
3a
16
e4
f4
02
63
0c
c9
42
e6
f6
f4
13
9b
15
e4
fa
12
5c
da
29
7f
fe
4f
ed
a0
f9
21
ff
14
03
22
ee
3b
11
f4
0f
e6
dd
e6
1b
eb
2b
19
f9
fb
ef
f7
30
16
05
08
02
13
d8
19
f5
d8
0f
03
18
e1
b4
ea
fe
bc
35
f2
3c
40
23
cc
33
ef
3a
2d
7f
be
2e
ef
df
e7
d8
c4
c2
f0
be
30
de
c0
29
a1
ec
12
e7
e0
1b
18
cb
dd
0c
2a
ff
38
ed
3a
d8
02
f7
09
f2
e3
0c
2e
11
e3
ee
fb
fa
01
02
0d
ea
ff
d8
ce
33
0e
f9
f8
2e
e0
12
77
f2
c9
14
fa
cf
da
dd
81
fc
db
41
21
ef
d9
df
ca
e0
bd
0e
e0
45
2a
dc
f8
f8
f0
0c
df
cd
14
cf
27
d4
21
e7
eb
ce
29
db
d9
0f
f8
1d
40
05
f3
d6
5c
fb
db
ec
36
f3
1d
81
41
fa
ad
e0
3e
d4
e3
c1
bc
42
16
70
30
39
01
48
ff
90
d3
ef
1d
3b
f6
04
03
ec
26
dd
55
b3
0c
0b
f4
f7
eb
fe
fd
19
f6
02
f4
0b
e4
fe
02
00
17
0c
0a
14
04
f8
0a
f8
1b
03
ff
03
10
09
21
ec
ef
bb
ac
16
dc
1e
08
dc
0d
12
fe
03
14
14
b8
ec
72
da
1d
81
ca
f4
fc
f5
fc
0c
14
14
c3
20
e3
06
dc
03
e5
01
06
0c
f2
18
e0
de
e9
e2
e9
d0
ff
ca
b2
0b
23
e2
e4
05
13
df
f7
10
12
ff
0f
0e
30
de
f3
e8
01
2d
50
23
30
81
a9
0d
d6
12
59
cb
fc
1f
dd
31
17
e6
2f
0a
c5
1b
b5
fb
50
50
20
b3
33
e4
ef
06
06
ed
03
06
0b
0f
ff
0f
18
13
e8
0a
05
fb
df
11
f9
01
ff
e9
eb
08
fd
e7
fa
ea
ea
05
f8
f4
09
33
e7
e0
de
d6
4e
1f
f8
fe
ec
fa
ca
d9
fb
f9
fd
e4
f9
ee
ed
3f
2b
11
02
09
7f
f2
cc
a9
03
12
fa
02
f0
c3
fa
d8
f0
f3
e8
e2
07
1b
07
f5
e8
33
13
03
01
fa
2a
0d
08
29
17
e2
d6
13
2c
f9
2e
00
fa
d5
df
1a
14
b9
f2
f0
f5
e0
f9
0e
e2
1c
0d
58
21
81
09
bd
bd
15
a3
5e
35
a7
30
37
f3
13
92
de
e6
e2
01
15
ef
e7
ed
ff
3f
13
ec
fe
f9
32
37
0f
00
d9
11
1d
fa
15
c4
e4
fe
f0
ee
37
0e
14
04
0f
16
4e
e7
13
46
be
1a
ac
5f
e9
f0
09
14
cd
4f
f1
c0
36
7f
fe
42
f3
12
ce
46
ad
ec
d7
25
18
36
37
49
f2
08
10
e4
fb
e0
01
03
15
e3
1c
c5
03
2b
39
2a
da
2a
f2
0c
dd
ea
0c
13
18
e0
0b
17
fa
16
16
03
0c
d7
24
5d
ec
10
b4
0c
e2
f2
ce
ee
ef
ee
b1
05
16
7f
57
b6
1a
61
e5
f4
12
0f
57
1d
bc
92
f6
93
e8
ef
fd
ce
24
ef
f0
f0
09
fd
d5
0b
fa
0e
e9
d8
0a
1a
0b
fc
17
ff
e4
df
f9
21
e5
1e
ff
06
ef
14
81
1a
c8
fd
cd
e6
dc
bc
da
a8
ee
4e
c4
1a
0f
c7
18
f1
10
2d
06
12
e4
8e
f4
11
bd
e4
da
0c
04
56
e7
2a
ff
f6
fe
32
1b
2e
2c
29
0d
00
cb
34
06
f4
17
09
cc
f6
13
16
ef
f1
f3
12
fb
13
2b
e6
09
05
12
94
36
7f
11
15
f1
09
56
eb
19
32
10
ea
0d
af
59
07
08
48
f2
e7
2c
02
0f
1d
0d
e4
cb
f2
cc
19
0c
f6
14
d8
0c
1d
ea
34
de
03
e1
1d
16
f1
0c
f4
1b
f9
47
24
dc
ec
02
fd
02
08
2c
0e
be
ea
26
00
05
fc
e8
65
dd
cf
f2
1b
ba
e1
1f
e4
f8
0b
28
38
20
de
02
19
81
f0
eb
22
1f
4a
c2
d4
d9
f9
be
5a
20
03
f3
dd
13
fa
1c
fd
fa
cc
c7
f2
e9
14
f0
fe
05
17
07
01
f7
14
10
08
ed
06
f7
ec
37
15
01
fe
f0
10
0b
ff
f1
52
0e
1e
f0
da
d1
5b
23
f2
cd
13
ce
45
2f
3d
d8
25
28
0f
f5
fd
e4
05
0a
d1
7f
e5
16
53
0a
26
e6
f5
20
e1
32
d9
07
af
ff
f7
fd
f1
c1
32
b1
d5
08
ff
ea
26
13
eb
e7
f4
2f
0d
ef
02
36
d0
01
27
51
a4
03
db
39
fd
1b
dd
1d
c4
24
b3
40
08
ee
fc
21
e6
05
fd
e6
ff
0c
7f
e3
f0
11
20
e3
00
12
0c
fb
25
cc
0e
e9
f8
ed
ee
42
d2
df
f0
15
f0
0f
e8
22
ed
e8
08
10
1b
e7
fe
05
bc
3a
27
e6
20
9d
cc
28
1f
d9
cb
14
e3
53
f1
e1
2e
31
11
fd
e1
01
77
53
81
5a
ea
07
eb
d2
c3
e7
fa
c3
b9
1b
c8
25
ea
2e
14
d2
d1
c5
e4
d8
f7
f9
1e
cc
d3
0d
17
3e
ed
45
1f
da
c4
ea
4a
f6
0e
05
09
07
07
d1
c7
f9
45
08
e8
03
bd
d2
84
f4
67
5e
ac
e9
da
f4
b1
f5
21
dc
c1
64
b4
68
46
e2
81
d8
ff
1f
00
ee
00
f7
de
2b
22
e7
19
de
00
fa
43
09
22
d9
08
13
e6
2a
e1
11
11
f2
e6
0a
1b
1b
0d
d7
03
f1
07
e2
f6
48
2e
1a
db
dc
d8
07
f3
12
e4
c4
1b
43
0f
b9
e3
81
5d
dd
f7
0a
f6
95
ed
c6
0c
fa
18
fd
03
14
14
05
0f
15
15
0d
fb
3a
32
03
1c
1e
e1
f3
d5
14
ea
f5
04
1e
f9
e1
e8
25
16
ff
08
01
bf
ec
0f
37
de
04
6d
f0
be
4e
7f
2d
d8
06
ea
f2
de
35
f1
d6
3e
b8
a4
01
07
c7
0b
07
fb
d1
b4
d6
0b
da
c4
fb
08
0e
f7
24
14
cd
11
12
0e
e0
21
11
00
e7
1d
1e
db
14
f0
ff
f7
05
ee
fd
01
10
02
ec
02
13
12
01
0c
f6
c0
fd
24
06
08
37
21
e6
1d
3a
25
da
24
43
3b
de
24
33
bd
31
1e
eb
01
e1
38
81
e0
06
30
45
08
11
16
02
f3
0c
ec
1f
fa
e6
09
dc
eb
01
e8
0b
ce
01
05
1b
0d
f2
f6
00
16
ca
f6
11
ce
01
f7
cb
c8
e1
f0
f8
03
e8
f2
c4
16
da
4a
ea
ca
26
24
35
21
e9
81
a5
e1
85
0e
31
f5
b6
07
07
f8
34
bd
f6
0e
fe
e7
f3
ed
1d
1d
ee
26
1e
f5
33
0d
25
0b
f0
da
02
09
d2
ec
e6
e0
22
dc
fd
0b
22
ee
03
15
dd
36
ca
25
f5
cf
74
06
88
d3
56
1b
02
1a
cf
63
59
24
10
e2
5d
83
01
d6
4a
28
3a
f8
10
9f
81
fa
fd
e5
d7
00
25
05
eb
08
fd
14
13
34
0d
24
c0
15
0a
e4
19
f2
00
09
16
f8
d2
02
ef
ff
e4
09
c7
e8
3b
39
de
f5
f6
1f
48
e8
63
7f
b3
31
f7
c4
e1
32
e5
a9
1a
1b
d3
d5
e7
31
f9
4c
16
30
be
37
0f
54
f0
17
f2
e6
35
f1
c8
1f
f1
04
fd
14
09
10
d0
ed
ff
fe
1a
04
12
13
fc
0a
0c
26
1c
07
f3
17
18
f2
5b
f2
f5
20
cb
dd
db
05
1c
ec
f6
a6
19
0d
fe
83
13
22
f9
d0
f3
2b
c1
d3
0f
f4
9f
37
3e
a2
7f
15
0e
10
dc
18
e9
d7
23
ce
ef
ff
14
f4
08
05
21
33
da
0b
cf
0a
1d
04
07
06
16
df
b9
fe
12
10
e3
b9
bf
e9
99
4b
db
56
fc
ac
35
2d
6b
f0
89
c0
07
1e
1b
b9
52
b7
13
05
c8
c2
24
81
7a
ab
47
04
23
b1
