13
e2
9f
ed
24
2b
6d
91
42
fa
c9
b1
c6
74
8b
a3
39
99
a7
ff
65
2a
e6
2f
9f
0d
0b
41
17
ad
39
0f
e9
d4
4d
fc
34
ff
2d
29
03
15
9c
6a
99
89
ce
51
1c
03
ee
a3
27
fc
d5
ae
eb
8e
43
ea
c5
49
9b
10
0c
13
b7
0b
55
0e
f3
69
fa
72
49
c9
b5
55
7c
d3
6d
2e
94
a0
db
55
7b
82
db
a1
87
35
07
f5
8c
f6
ab
9d
de
01
5c
15
36
1c
c3
f6
10
ec
a0
c0
b6
d7
e0
6e
19
e6
80
b7
de
d8
40
10
4f
6c
94
31
d3
ae
9e
49
98
76
e1
ca
5d
40
8d
7e
f3
fc
5c
01
c5
86
ea
7d
ff
a8
88
2c
54
1e
d9
6c
f9
8f
58
94
c5
83
85
3b
8f
25
ad
ce
82
10
de
12
f9
a3
8b
bf
b8
44
f7
c5
de
05
aa
84
13
c0
bc
e1
7d
d1
01
16
52
7f
40
6e
cf
38
0c
fc
53
6e
20
8d
43
98
fd
2f
19
14
64
04
0d
fa
d7
a1
90
89
97
da
65
8b
d2
5f
9d
29
6b
81
2c
a8
98
d4
38
b3
7d
b9
64
e9
ac
03
06
de
e0
f2
01
7f
f6
98
f9
55
0b
5d
43
84
f9
83
f9
10
76
19
ed
03
0e
3c
97
06
1a
d0
80
d3
f2
64
47
ca
33
af
73
86
9d
ba
e5
68
30
e3
c9
b7
bb
ae
b2
54
b5
72
3d
af
6e
15
51
ac
21
0e
62
28
1e
a3
ed
4a
c0
96
3b
e6
70
4d
3e
71
a0
66
03
33
4a
01
54
c4
4f
9d
8f
3d
b4
4e
46
80
4c
e4
c2
c0
0e
d0
fa
f0
0e
6b
da
e1
18
8c
02
44
ee
74
8f
9b
26
ca
0a
5c
0e
3c
92
58
ab
27
17
2d
59
27
9f
a2
d1
75
70
06
39
aa
89
25
ec
32
01
fc
93
ac
15
70
8e
17
2f
fa
c2
b4
19
e1
ad
cc
88
3d
7e
e1
99
ae
55
eb
bb
7a
bf
61
6a
28
18
98
c3
d9
3a
6c
49
0f
38
d5
52
5c
c1
f0
38
f3
35
11
65
09
f9
c6
01
26
7a
8b
08
19
0f
85
62
48
e7
24
cf
cb
7d
4b
20
19
f1
ad
92
67
b0
d1
22
ce
b4
ce
f7
42
ff
88
01
ba
01
7a
ba
3f
3a
1b
86
b0
da
17
32
83
4d
22
c6
c9
b5
12
20
03
53
db
32
5e
a9
e9
4e
c3
3e
0b
24
3a
46
2c
6c
af
9f
66
05
06
e1
eb
70
c5
32
88
df
08
a0
f8
a4
9f
d6
b9
15
a4
b5
6f
03
7a
59
23
ab
9e
04
d2
11
a3
d0
ff
61
01
19
5c
c1
a5
9a
4d
98
0e
cd
12
15
16
06
26
82
37
c5
aa
b4
69
1e
cd
66
ae
3c
ff
c8
f7
ce
7b
e3
89
a5
97
c6
d3
2f
61
de
95
f7
c2
e0
b7
30
98
1c
9f
e3
42
22
e3
5c
b8
3b
7d
0e
66
ae
ff
4a
51
89
49
79
b7
1f
a9
7a
c5
21
e3
f1
56
73
76
fe
c5
7b
f1
d5
07
61
e6
5c
20
17
74
20
99
a9
ef
97
af
bb
e4
3c
53
ca
8c
5e
e2
a0
81
37
b4
4b
bb
d5
ec
01
cf
3c
db
cd
99
98
c2
1c
f4
87
79
38
f4
d7
b5
f8
f8
14
01
af
97
9b
97
b1
8f
e7
2f
08
5f
4d
8d
c9
81
3e
3a
19
3b
47
70
ef
2a
54
5f
df
57
2c
f4
48
6a
fe
01
55
b2
9c
e4
d2
eb
85
54
60
72
26
ad
9e
16
a2
6d
6c
97
98
0c
e1
1d
b7
44
2c
02
33
10
7f
f7
41
28
60
ff
fa
13
4e
77
ef
70
4f
fc
b1
2b
c1
24
64
b0
dc
3f
c3
e6
d7
97
85
7a
21
bd
bc
1b
b3
9e
83
7d
6c
07
67
a4
1e
7c
50
80
1a
31
8d
02
ab
69
32
f1
31
01
eb
c1
d8
c2
80
72
02
cf
65
eb
4f
a9
2e
9f
c2
88
01
56
d9
f9
fa
e7
ba
01
95
6a
19
dd
45
af
99
e0
57
c6
1e
8c
e9
fb
27
f7
22
ee
df
17
6f
45
ec
17
ed
b8
fe
c1
d8
8e
53
11
44
b5
29
d3
fd
09
16
b4
37
5b
9a
0f
01
ad
47
53
9d
14
86
8c
0f
e9
8e
43
c4
2d
82
aa
82
b9
3c
09
4b
40
04
33
af
6d
98
9e
e9
16
d8
1d
df
06
cc
df
c7
e7
d0
f8
aa
59
89
ee
a4
66
3a
01
c5
ef
33
0f
98
a3
c3
9e
46
3d
49
fb
de
01
e5
71
9a
34
cf
30
8e
e4
1a
a0
d2
7c
d8
c8
89
c8
35
5e
5f
04
ed
0f
e6
18
fb
7b
d0
22
34
f1
83
1d
a5
fb
4c
91
b3
c9
7a
50
91
ff
dd
b6
35
59
33
51
5e
3b
21
e0
36
3c
64
76
60
7f
27
a8
de
b5
ee
aa
b6
88
c7
45
19
e8
7e
15
4e
80
e9
20
72
86
3f
18
5c
01
80
dc
fc
44
fc
05
44
53
11
e1
a6
53
5c
0b
3e
ea
d5
74
f1
6c
6e
ca
33
b1
20
2c
83
5a
37
3e
f7
48
9e
c8
8f
30
4a
ff
2c
d8
9c
77
78
13
78
33
d9
17
48
93
7d
9d
58
3b
fd
2e
90
04
7f
6b
30
53
7f
40
16
79
da
d8
47
97
ef
ee
42
fd
0d
66
fc
23
a3
44
35
74
1e
14
76
5e
2e
2f
1d
b7
19
2f
df
ef
f4
6b
1e
b6
61
d1
70
a4
91
9e
3a
5d
a0
af
51
8f
c7
a8
e7
c8
84
b9
6f
29
52
f2
96
a5
ff
2e
fe
63
1a
fc
d1
29
f0
ec
f1
fd
c1
27
c2
5d
df
09
e5
07
e7
5c
c6
a0
11
13
cc
98
e5
aa
2c
c4
42
cb
7c
aa
d8
75
41
d9
a2
f4
3f
43
3e
5e
ad
35
95
a5
29
bf
29
b0
f6
49
9f
88
35
07
e5
b9
7f
cc
ed
4c
1b
f6
d1
9d
2d
ff
5d
09
67
9b
e4
8f
86
1f
a5
b9
2b
0c
2c
ca
b8
fb
fd
c7
3d
c5
fb
0a
4d
28
69
6d
29
6f
ae
7e
87
07
96
e8
e1
b3
b1
7d
62
67
8a
4d
b6
ff
21
ad
36
7c
c5
d1
b2
a8
48
ee
3f
e5
55
17
9b
c5
9a
1d
23
44
04
1d
71
cb
9f
e0
83
85
92
6a
11
36
df
fd
7f
e5
3f
ca
fb
c1
18
22
44
f6
86
35
3e
66
d4
55
b3
e9
cd
ec
29
c2
d2
b1
27
49
fa
47
f2
f3
fd
35
f8
db
10
52
20
30
64
ef
cc
0c
d6
2d
ed
fc
ed
dc
eb
ea
04
a8
37
2c
ff
d0
08
bb
05
db
d4
21
cc
f3
f2
20
64
64
19
d6
cb
08
d4
c9
dd
9b
da
9c
12
9d
52
a9
07
ef
df
08
29
fb
c3
ef
12
3b
0c
2b
ff
15
c7
9b
99
05
88
08
10
c9
7e
6e
46
72
de
9f
4b
dc
32
b5
cf
71
cc
2d
17
56
f5
64
20
e0
13
0a
93
a0
65
ab
04
1d
02
a9
90
74
37
ac
f8
38
c8
b2
f1
f2
aa
d1
b5
38
ae
69
ae
a7
97
c7
ea
c6
ff
8e
a7
c9
65
24
55
ba
49
1d
e4
c2
0c
82
4e
1a
9a
b9
d6
c1
4c
7b
e9
c1
ba
93
17
ce
db
99
bc
26
e9
b1
38
6d
57
09
bf
ec
11
1e
ab
45
a8
50
91
04
67
00
4e
68
7d
f5
63
10
fe
8e
d3
b6
45
d8
8f
63
60
f5
cb
10
cd
3d
36
c2
a6
0b
af
ea
9d
11
53
47
34
8e
f8
1a
6c
c0
7b
d2
a0
ee
a2
ac
0d
0f
b2
f2
d4
2e
6c
3c
01
03
60
29
1c
2f
6a
c0
6b
11
5e
bb
84
11
91
ff
5f
c7
75
f6
18
f3
04
1f
66
5b
72
ad
f5
73
99
58
79
a2
9b
42
f1
b2
ff
d1
b1
b9
60
7a
93
68
45
2f
26
03
e9
7c
78
e7
b3
4d
01
4d
60
e0
d8
c0
7b
0e
3b
1a
05
69
ce
a1
bb
65
34
ce
26
04
46
b4
13
0d
1c
7b
f5
7b
39
60
70
7e
ba
e1
91
16
b8
ff
57
3b
2d
31
0d
78
dd
c4
0c
c5
f4
d7
11
73
6b
6e
9a
30
3d
49
ed
01
27
3c
49
57
4f
e5
48
d7
26
3f
a7
8f
2d
84
de
2f
58
ef
c4
ef
97
38
00
d0
f5
56
56
9c
2f
bb
15
f1
bf
d4
b8
e2
ae
d5
bd
14
5f
a3
73
fe
3f
2e
c0
da
99
4c
62
8c
ad
1c
1c
f9
08
aa
d6
a0
98
5b
a9
64
9d
8c
e4
01
2a
58
2a
b9
33
77
be
32
87
b1
04
68
c6
fe
e3
b7
41
6d
b0
a5
cf
dd
77
c7
b5
19
6a
01
64
95
fc
c3
32
f2
b2
3e
61
38
de
4b
04
3d
d7
c9
b1
83
0c
ff
cc
ca
04
f5
8e
05
54
9d
90
09
a4
d7
5c
5a
06
f5
b3
59
f4
3f
2d
c2
e6
55
c0
be
be
25
00
b0
31
ca
cf
3d
e3
01
d0
de
fa
d4
8b
72
5b
82
3a
83
c3
09
26
e0
34
64
4f
25
e9
97
e4
c9
bb
57
75
bb
46
1d
c4
1f
72
59
a7
7b
e4
63
1e
1c
fa
de
e2
13
26
61
02
7e
81
91
fb
06
39
89
6f
da
24
ba
5c
7c
e3
26
ba
ee
97
a7
0d
ee
ca
88
20
01
d3
39
0d
fd
eb
fc
13
f1
ce
93
26
2d
b5
02
e8
dd
bd
45
00
32
46
ab
08
5d
35
33
a1
f1
bb
6c
78
da
49
23
eb
64
0a
17
ff
9f
fa
30
c6
13
bf
01
64
ee
3f
bf
29
b8
5d
25
34
13
ce
fc
1a
e9
d1
02
ad
15
cc
df
fb
3b
4b
fa
c4
f3
bc
04
f5
21
dc
50
21
b1
27
7c
e2
f0
8b
c9
b7
0d
19
2d
f2
cc
b3
07
ff
ce
cc
01
f2
e6
05
86
f6
1e
eb
c6
de
0b
5b
67
2b
c0
b1
27
c0
de
1a
2f
ef
a8
37
59
96
2a
49
8c
f9
dd
4f
57
26
aa
b8
38
7b
39
a0
e0
ac
89
bd
7c
4e
cd
db
3f
18
49
30
ba
d8
47
fd
92
57
16
b1
17
3c
d8
58
da
f6
b2
b7
62
d4
fe
b2
34
b4
a1
6f
4b
5d
19
c0
01
2d
42
c7
8b
ea
ad
6f
3b
1f
e0
34
73
bc
46
b3
ad
19
b6
f2
2c
f2
b1
33
e3
ba
af
c9
2d
9c
c1
0f
fc
50
19
da
35
b9
28
e7
5f
4c
cc
2a
9e
66
7a
83
59
13
5f
15
71
fe
3f
66
38
28
fd
60
0e
23
d6
1d
17
45
5d
01
57
ac
ad
a1
e0
fe
0c
28
f9
d1
1b
4a
78
58
05
fb
ea
72
72
6a
76
47
3f
72
ad
4a
99
39
3f
16
8b
e6
12
3a
56
48
e4
d2
1c
b3
a5
58
7a
ac
b9
a7
cb
44
96
45
69
fd
56
5f
af
cd
85
1a
ce
f0
40
80
39
29
aa
f7
c0
54
b2
ff
36
f6
05
63
e3
59
db
36
ee
0e
4c
8a
89
00
5e
d1
08
e5
f2
bd
3b
f1
c6
01
3b
91
ee
b6
c5
32
f5
62
44
9e
6a
ff
8f
d8
bc
3a
c7
ce
05
a4
c4
35
0b
eb
27
81
3a
07
b5
3b
3b
fc
e5
f0
03
37
a1
eb
f3
64
7e
74
1f
2d
3c
0f
01
a7
4a
99
26
d0
c8
46
4c
f6
2a
2a
b6
76
05
6b
24
e5
88
f9
b4
87
3f
f3
7d
aa
80
53
e8
ee
7f
7a
b3
f6
ca
60
d0
6b
79
c7
24
ff
cd
de
dd
7f
1c
39
20
19
73
a4
0e
87
10
65
20
6d
b6
2e
9b
45
bf
48
3c
90
51
98
3b
a3
e5
55
e4
92
46
1e
a4
fb
f2
a9
b7
21
e6
d6
af
e4
cc
81
e8
22
fd
dd
82
4b
36
0b
b4
de
c2
ff
24
22
64
17
7f
46
97
dd
cf
7e
c1
d5
a3
80
c5
79
fd
34
e0
ab
3b
ff
c2
9b
8c
a5
fe
14
b3
5b
33
db
ef
70
0a
8f
21
24
e8
2e
ed
38
ac
70
d8
b0
aa
7f
c3
dc
ec
99
c0
70
1e
04
ce
ff
5d
c5
78
9a
7e
2e
d6
98
67
28
12
4e
b7
d3
5c
d6
60
99
41
a5
69
52
f4
c9
a0
09
39
1a
9f
90
87
ca
db
64
d2
30
93
de
21
cf
f6
97
1a
f0
1a
62
5d
fb
fc
c5
43
a1
ec
35
04
f5
0f
1d
ae
08
a0
23
d9
2f
b9
f0
1d
db
e1
03
f1
ac
2a
52
5f
af
33
d3
e7
e2
ef
5d
80
7b
0f
aa
da
f7
88
01
9b
1b
ff
74
84
5c
2e
67
e6
82
4b
71
f1
dc
57
7d
e6
99
01
21
79
62
72
72
95
71
62
94
8f
05
1b
be
06
72
2e
ec
6a
65
d5
0f
03
19
c0
74
74
b1
80
ff
ab
5c
fb
5c
be
60
97
88
21
4e
5d
d4
8b
8d
f9
92
96
44
4f
0a
7c
8d
09
46
fd
03
55
05
5e
f4
8f
03
54
62
85
09
a6
dc
4f
bb
63
97
02
f8
3d
d0
38
ee
f8
56
0c
ce
ed
b0
e2
f9
ff
ff
c2
73
3a
a4
e1
b1
c2
26
51
0e
ac
17
d1
7b
68
b9
dd
d1
d3
79
d8
64
28
bf
2d
d8
64
bc
02
eb
a6
29
da
b5
ce
b6
d8
dc
ba
ff
e4
a8
4e
a0
01
a1
0a
8c
ed
1f
b8
4b
9d
17
4a
59
b8
a7
0d
01
a4
1d
68
ca
eb
94
a0
e5
5d
86
3b
c4
61
17
63
fe
cd
4b
2b
23
6c
b1
f8
cf
0b
53
61
36
44
b1
bf
b8
5e
38
8f
53
32
1b
e3
61
dd
a4
05
9b
b9
0e
ae
de
75
e0
05
0f
3c
76
6f
99
02
ee
db
bb
e9
4d
c7
db
69
04
e3
60
34
92
ca
c6
22
d8
c5
53
8b
13
53
e6
5f
23
55
47
d9
1b
06
11
71
17
42
31
eb
92
b4
14
be
bc
01
3a
fc
d0
63
60
90
3c
4e
17
81
86
60
47
54
1d
4e
66
9e
93
71
57
3b
52
12
c2
7b
1e
e9
13
e9
4f
0d
b5
82
26
d9
ac
15
ce
da
7c
8a
c4
87
ea
37
f4
ca
14
78
86
35
66
35
49
74
92
f0
ce
a3
bf
ff
55
97
15
e6
d6
64
3e
d0
4d
f1
ad
5c
d8
13
f8
f1
19
23
26
6f
d1
24
0a
3b
29
be
01
5e
cc
e8
f4
3e
f3
35
04
b3
36
ee
fd
7d
4f
95
f2
fc
a6
da
9c
bf
b8
53
11
80
1c
b1
d1
de
b3
ec
fe
4c
64
24
74
55
11
4a
86
4a
ff
99
23
9d
67
e7
a0
09
7b
25
04
e4
4f
d0
9b
28
5c
14
82
50
64
d3
74
72
25
32
f0
40
fa
49
1e
aa
44
5a
b0
f0
b8
ed
f2
41
18
82
3c
01
c9
01
ca
25
c6
07
b3
cc
f0
19
99
a8
93
18
6c
e4
4b
e9
81
5b
f0
8a
4d
68
eb
aa
17
f6
4d
21
3f
c7
79
cb
ff
95
b8
44
43
b0
1d
53
84
3d
90
4c
ff
81
23
d6
06
26
ff
2c
d9
17
c6
d2
98
5e
8e
31
b9
b9
ae
79
93
b9
6b
86
cc
d4
59
0b
cd
ea
e4
21
a4
ab
c0
1a
cc
7a
27
8b
3d
eb
9e
f1
86
cd
91
4d
62
c7
39
af
b6
fc
66
fb
36
d4
ad
77
10
49
31
f9
2a
10
0e
bb
1e
f9
36
2a
34
93
ff
7c
35
95
3c
f5
13
1a
11
eb
ff
47
dc
8d
45
97
cb
bc
0e
3b
43
65
d9
97
89
63
fc
ff
4c
bc
87
29
eb
91
5f
1b
5e
0e
0f
de
cc
29
9b
bd
cc
8a
b0
dc
b1
95
78
7d
ef
13
17
c1
40
6d
17
77
8d
00
03
92
e7
d0
da
eb
39
d1
12
00
c6
b8
28
50
56
3a
79
f4
53
9d
e6
8c
70
79
9c
42
5f
d7
ce
16
ee
6c
9f
d2
60
a9
a7
17
ff
40
2a
5b
48
85
63
df
3e
91
df
06
ae
5a
d5
c1
6a
88
a4
67
01
0d
30
38
95
11
e1
94
41
5d
33
1f
4c
03
cb
47
ff
08
d2
2e
01
e7
16
66
bf
e5
4b
e0
a5
eb
f6
30
80
2e
ff
da
41
b5
fe
3d
d1
9e
63
61
3b
47
77
3d
bd
8c
51
25
a4
3b
e4
75
fa
7b
22
06
cc
f8
b5
d6
b1
72
9b
9a
91
dd
0a
78
29
72
54
d8
7b
8e
f7
f6
7c
95
d3
37
34
cf
b1
d8
5d
59
e8
7e
8c
42
30
3f
a4
e9
28
70
bb
3d
c4
01
ec
47
6c
b4
36
15
24
e1
6c
05
ef
af
2e
c6
c6
ee
01
f9
69
b2
8f
3b
bb
b5
2e
29
c2
6e
39
38
27
60
e7
44
5b
56
b6
6d
93
2c
84
0f
22
90
e0
48
60
3f
7e
bf
f9
dd
0a
bb
0d
31
32
9c
e2
21
bc
22
9d
08
0c
7c
ff
a9
c8
e1
9c
89
27
54
4e
18
df
1d
5b
12
43
2d
b2
73
52
cf
66
8d
4e
23
3c
44
b9
b0
39
8e
a3
da
ca
80
12
1d
45
06
e3
68
13
ce
7d
42
96
c1
83
b8
55
7f
47
ec
9d
42
d2
95
e7
6d
45
db
a4
6f
81
ba
cd
9b
93
3a
6f
49
01
82
2e
8a
36
dc
b2
c5
07
c3
bc
23
73
b7
d7
87
b5
31
82
03
7d
6c
c2
52
d2
ce
ee
b5
e6
5c
68
71
b4
24
14
40
0c
e3
2a
4f
4b
02
a9
75
44
e9
a9
91
e0
51
2a
3a
a1
b1
dc
1e
e1
61
11
d3
c8
17
40
87
30
07
48
a7
80
05
fd
eb
d8
3c
af
68
bd
72
5b
c4
ff
68
11
6d
1b
4f
84
c0
89
d6
bf
6e
82
b1
82
9c
ff
53
1f
14
fc
10
22
76
4a
4d
36
ea
39
bc
b3
29
3b
c1
bd
f0
83
73
1a
8b
aa
f5
d9
58
4b
dc
84
d0
ed
81
88
de
90
a9
6b
2b
2a
30
8e
34
14
1c
6e
63
da
f8
cd
8f
04
f8
26
99
29
59
e7
28
2a
38
1d
d3
ff
8f
ce
8f
b7
66
75
4b
72
5e
44
ad
4a
a9
8b
75
3e
55
20
c0
b8
ed
6b
0d
e9
2f
90
20
fc
2c
31
d5
ae
47
a2
c7
22
e3
d1
3e
ee
18
01
ec
57
d7
ed
8d
6c
b6
84
b4
88
ff
bf
c7
9e
ce
34
dc
58
4a
96
26
61
f3
4b
1f
1b
ae
84
79
93
0d
b6
f8
9f
0c
c7
3d
95
33
6e
85
b0
46
24
67
dc
93
24
da
a9
97
19
6f
86
65
34
4c
ff
f9
57
a7
02
79
fd
ff
38
72
46
02
79
b5
b2
5b
66
71
c5
3c
fc
3c
db
1a
a4
73
ea
64
7d
f4
83
48
66
3c
34
5e
bd
2f
5b
a8
97
5c
a7
4e
22
67
59
8a
cc
7a
4c
ba
c0
70
6e
c1
ae
f4
90
39
38
ff
4d
1f
b5
13
82
9e
e3
a2
94
d8
17
e8
69
db
18
e6
8b
00
b7
6b
31
5e
44
26
ae
ff
0c
ab
7c
81
48
08
06
f2
c8
c4
19
1e
f4
ec
9b
52
02
2d
75
79
ce
a0
0a
83
5c
cb
2e
01
fe
4e
97
e9
f7
44
cd
96
76
ba
44
5f
fe
11
57
38
3a
a1
1e
9a
c8
9e
e6
a4
1c
0e
70
19
10
b0
d1
d6
4d
2d
2c
b3
cc
2a
c1
19
f6
77
d9
18
86
13
c0
23
94
fb
10
24
e5
8d
13
db
ea
ed
fd
c5
c6
ec
cb
36
24
ae
4e
2e
8d
88
ed
db
22
9f
d4
1a
82
29
13
35
eb
e9
55
d8
b0
d8
39
7b
af
a4
2d
d8
1f
a4
cf
f7
7b
19
bf
9a
f6
f2
fe
ad
39
40
55
7b
c7
ed
09
ff
f2
47
de
85
9d
9c
56
ea
91
6a
d7
42
e7
5d
d8
dc
d1
f7
2e
0e
1c
ff
1b
bb
35
ea
41
f3
00
04
1e
0e
3d
ea
c8
1a
b3
2a
20
24
61
2b
2f
df
95
d4
39
30
76
30
8c
43
01
a4
89
43
3f
8b
2b
1d
12
4b
c0
e1
e1
0d
aa
df
46
fa
14
ff
db
01
cd
dd
4e
38
21
7b
2e
62
c6
23
46
ab
e2
58
8a
79
13
57
25
51
2e
c1
bf
6a
ff
80
2b
5b
fa
d2
c2
b2
1f
43
80
29
0f
fc
86
5c
1a
80
d9
2e
14
05
f4
a3
4d
46
35
6b
5d
0e
f0
5b
23
3c
1c
ad
65
81
55
5a
2e
12
e4
40
ea
08
96
ec
b7
2a
43
6e
0b
d4
ac
74
16
ce
23
31
07
10
e6
9f
89
62
1a
46
f3
1f
05
56
b9
ff
34
19
ee
0f
af
77
40
55
a6
01
1a
f2
3c
be
d4
de
85
1f
70
8a
e5
4f
e9
e0
1a
43
78
97
de
e9
7b
a4
08
e7
12
ed
eb
a1
c0
01
36
b3
7b
15
7f
eb
2a
2b
7f
c3
19
8c
2f
b3
31
8f
cb
3f
3b
f1
37
75
ee
4d
af
09
ce
41
0f
25
d8
20
5a
b8
f3
c4
c7
ef
02
38
d2
6f
04
fc
b6
d8
3f
61
a7
ca
07
ae
01
40
f8
ea
b0
bc
6b
cd
d5
da
f7
53
54
77
50
fd
39
04
43
a0
4f
02
49
1d
ff
8a
10
f4
0f
22
4b
ad
15
27
50
8a
4c
b8
24
e0
8c
0b
d3
24
9d
a7
f7
c9
9e
15
f8
bb
c3
f6
d8
57
cb
0b
45
2d
08
43
14
7f
ba
44
59
8d
a0
f0
9b
11
52
29
f5
82
7a
b5
e8
01
eb
29
61
9f
66
ef
6c
30
20
fc
6d
2b
21
64
3f
08
1c
48
b5
39
49
a4
07
02
06
4a
1c
22
7a
60
6e
ec
d5
ec
f9
01
ac
94
3e
22
ab
26
2f
6e
f2
c0
29
e5
20
06
59
b1
a4
40
90
9d
69
73
10
21
2d
f3
ee
1c
cf
0f
d5
9e
aa
13
c1
5d
dd
ec
13
6b
66
10
b8
8c
d2
9e
2a
5a
a2
69
9e
53
63
aa
b5
1e
ad
f0
f8
dd
88
45
4c
fe
36
4a
3a
8a
94
19
4b
29
d2
26
e6
ff
82
1d
ec
ef
10
7a
9b
01
20
dd
b8
e9
42
5a
0f
2b
20
11
85
b2
90
1d
ba
a6
d0
b5
4f
db
50
64
06
9a
ca
9d
58
52
96
88
a1
e2
bf
c6
79
2f
bd
8b
ef
d1
f8
e4
b7
82
8c
9d
da
e8
69
e3
61
78
a0
8f
eb
60
58
a7
1c
d2
51
c6
91
23
7c
53
3c
92
1b
7a
08
39
c2
b5
47
c4
df
be
bb
e7
d5
76
17
b1
dd
6a
92
f8
31
7a
7b
d1
c9
76
d9
99
e4
4d
a2
e1
29
c6
44
2b
8e
e2
c5
dd
43
61
55
4a
30
9b
17
f0
41
01
c9
1e
3c
8c
0b
91
69
c3
47
5b
ef
78
96
30
74
bb
15
1c
7a
90
f6
bd
3e
af
80
ee
55
ca
14
01
4b
49
43
bd
f3
78
10
1d
bb
80
08
ba
c1
4b
c5
d9
3a
62
51
83
d9
98
4a
41
89
2a
02
55
50
b0
a1
04
44
21
41
65
c4
d2
9e
f9
67
ff
5c
f7
18
a0
86
09
dc
5b
63
d0
8c
00
23
64
23
fd
6d
53
2a
1d
7d
df
2c
af
8d
b5
4e
b1
19
87
11
f9
cc
84
3e
75
7a
88
f4
19
d7
75
f8
b0
bf
b2
94
e9
3f
3b
18
a2
31
9e
2d
63
fc
b0
c7
d3
e3
b7
c9
12
d9
2f
49
b8
d8
ab
1a
66
71
94
82
0a
64
f2
01
8c
23
46
c9
79
47
f7
e9
d3
bd
e1
47
5d
8c
7d
40
2b
01
61
69
03
41
20
21
ee
ec
c5
62
24
ec
37
cb
f2
38
e2
c2
f5
b8
54
92
e1
77
20
4b
38
f2
18
59
54
f7
31
28
a1
11
3f
f0
e0
59
58
ff
43
99
09
98
51
1c
32
22
11
dc
a3
93
70
02
62
80
61
c9
a8
77
ee
6f
d5
ca
2c
18
c6
64
f0
b8
0a
a2
82
69
62
bb
3b
77
65
fa
a6
6f
9b
88
5c
26
9a
e9
44
a1
7d
fc
f5
db
06
66
55
8f
86
69
b0
8f
46
fd
41
8c
11
2a
bc
fa
2f
e7
fe
b9
50
0b
a7
a4
1f
74
26
17
b6
99
af
1b
d4
37
3b
ec
5e
62
ff
ab
02
68
bb
05
14
e5
34
c9
97
6e
63
9b
09
2e
f8
85
e1
43
d9
e4
db
05
02
1f
1b
4e
48
6e
26
d9
f0
71
73
2f
90
65
68
f7
9a
d9
34
98
3e
a3
fa
64
59
cf
44
e1
7c
9b
4f
4c
08
e9
1e
35
8d
b4
da
f3
68
a4
e8
69
1c
a6
a1
a0
81
08
19
ff
07
0b
97
30
43
cc
ae
0e
07
8f
c4
1b
20
2a
bf
f6
7b
8a
28
0e
22
81
c1
db
ad
43
9e
a2
9f
c5
40
00
c3
43
15
46
81
fb
6b
f6
e0
17
ca
96
45
24
32
a4
6a
27
6b
da
d2
19
94
93
c4
b9
08
6a
3a
69
d6
01
e2
a2
b0
a9
e8
57
6c
00
ac
63
59
ff
27
82
e9
1d
9b
7e
fe
94
72
c4
1a
63
4c
ca
36
54
b0
0f
65
83
d6
c2
3c
0d
5d
21
3e
f2
e3
2a
a5
a0
d5
08
34
a2
40
d1
bc
56
9b
a6
40
7d
67
01
cd
c2
a9
7c
eb
f7
e6
f4
42
f4
de
17
81
d3
7d
7a
e0
25
63
e3
ff
a6
95
e5
ee
cb
51
c7
36
48
9d
e4
ce
90
f4
e1
41
fe
41
a9
71
e0
37
43
59
c3
1d
bc
7a
88
b3
8a
b2
76
9e
7a
6a
2e
ff
29
ec
af
d4
8e
e9
d1
aa
ee
cf
a8
86
0e
ff
b7
e6
18
c6
f6
f2
ff
1c
66
37
72
26
a5
f0
2e
96
ec
21
18
09
e3
c3
c9
b0
3e
76
d6
c4
e2
cc
9f
f0
2e
24
51
16
55
23
76
4f
34
41
05
72
18
93
3b
51
84
47
5a
6e
55
c2
f7
2e
6e
7c
de
51
53
b1
10
1d
c5
44
39
87
a5
f6
1f
93
38
4d
fd
32
1d
af
76
13
f4
d8
01
dc
c5
82
e5
9f
a6
8a
a3
85
b3
80
d0
99
c2
dd
65
17
03
c3
92
56
f3
dc
8d
23
7e
9b
29
3e
53
13
43
38
0b
bd
e7
90
14
87
1a
39
c0
92
a4
c9
76
4d
86
a2
7e
4c
50
37
16
ac
4e
13
9d
ff
44
d2
84
3a
0e
14
5e
b5
8b
45
49
53
00
2a
46
9a
12
ec
30
cb
a1
68
f0
fb
78
eb
b6
65
9b
86
4b
ea
dc
ee
d3
d7
f5
2b
a9
6a
05
0b
b5
18
59
57
43
c5
d4
bf
f7
91
fc
ec
88
d9
05
91
49
e7
f3
5e
1d
57
b3
f2
0c
ee
a2
32
48
47
e3
68
e2
ee
e3
a2
42
58
96
cd
7b
0f
2a
3d
cc
00
dc
e1
eb
f8
6b
09
7c
bf
1b
5a
0c
bd
26
e6
0f
01
b1
30
6b
58
8e
e8
f2
ec
ad
7f
b3
e6
3e
9a
11
ac
53
d6
b8
72
35
2b
cc
c3
84
b7
05
1f
3b
b8
6f
a5
41
91
67
42
3a
70
b6
12
ba
8f
ff
73
9a
05
3a
9c
b9
b0
69
69
95
5b
f7
61
83
58
9f
32
7f
65
41
a3
a8
72
19
dc
11
b6
26
78
1b
09
d1
47
67
86
b9
b5
51
51
2c
09
8a
5d
a9
9f
d5
e9
fd
fd
04
77
0d
d4
25
d5
4b
db
71
0e
1d
b2
e3
d2
27
96
b9
46
e8
2e
83
d5
49
fe
32
01
3a
0e
b0
23
c2
10
31
6f
c7
fb
93
ae
7d
f5
04
ac
3f
b4
ff
05
2b
6f
b9
39
c0
b7
55
4b
ec
e5
01
88
da
73
16
30
27
6a
7f
e1
d8
e6
56
82
da
13
97
87
db
f7
1b
6d
24
bc
ca
71
76
8e
ec
29
8f
57
01
a3
82
87
3d
2a
55
e1
a7
bf
59
e6
bd
1d
6d
08
d4
b9
cf
9b
1a
2f
17
8a
81
3a
b4
e9
34
62
9b
48
df
d4
5d
1c
83
27
9b
1e
76
8f
82
d4
ec
f6
9c
2e
24
33
de
d4
b3
94
b8
f3
b1
4e
c4
3e
ff
31
a7
4b
be
36
8b
e3
aa
01
3f
ed
eb
e7
dd
74
eb
a4
91
83
91
5d
c8
7d
8d
55
a4
3a
2b
60
57
8b
c7
11
0c
86
ef
dc
14
70
57
b1
a0
bb
dd
06
7d
e1
ed
12
e1
e1
2c
4e
ff
3d
a9
45
35
bc
6a
29
dc
b2
e6
50
25
dd
0c
f5
84
df
f8
de
bb
70
16
54
14
aa
49
7a
a7
7d
e2
2d
d8
af
03
1b
29
20
27
dd
ff
f9
e9
14
1c
e6
d2
fc
36
90
1f
9b
2b
b0
f8
f6
1a
75
64
df
52
0a
a2
b8
e0
2a
b7
71
8b
1f
69
02
0b
ac
01
a0
4d
c0
15
59
f1
b0
de
10
53
26
5a
16
8e
33
ca
2c
f1
07
ee
17
c6
41
01
73
dc
26
cf
4c
83
73
e2
61
b1
70
06
58
6c
aa
ec
b3
27
d2
c1
8f
39
11
57
48
92
de
18
10
05
b2
eb
46
7c
01
d5
34
65
26
81
dc
44
b5
bd
6f
ec
12
13
d0
f5
66
2a
dd
8b
af
56
1f
69
c3
30
d2
34
0f
a2
7f
ed
47
64
d2
7f
f6
80
2f
9c
f7
07
be
e5
e0
46
b4
02
58
78
0d
8f
b7
b3
e4
da
a6
05
ef
a1
e0
bd
2d
3b
1a
3c
19
f9
10
7b
7c
49
d1
01
d4
bd
50
79
32
ff
a9
e6
d4
4f
f4
ac
3b
c0
72
0e
d9
d4
66
ae
bf
28
c3
2d
6e
b7
35
cf
a0
59
19
aa
dd
4e
27
64
ec
0d
cc
e6
2a
da
12
58
27
d0
e4
22
82
8b
73
0b
27
24
a0
c5
ad
40
78
3b
d6
a1
01
84
88
47
18
b0
35
e5
a5
8b
5e
b5
a0
e9
32
32
a4
e3
44
d4
61
d0
96
42
c0
40
47
6b
28
7b
0d
b2
0d
61
7c
cf
42
35
d8
35
2f
22
cf
36
23
7d
dc
f7
fd
0e
bf
cb
0e
14
0f
d9
30
3f
ee
cd
11
fa
8d
fd
3f
2c
7c
de
57
7d
c7
3f
c6
df
9c
e0
e6
63
f1
9f
81
1b
ed
79
15
e5
6d
2c
12
01
f2
98
c7
01
24
e0
58
15
d4
d3
54
c3
27
c9
b2
d5
1d
5f
4a
24
20
85
08
dc
6a
f9
90
26
e5
b2
b6
92
bb
69
4c
7c
b8
27
fe
60
30
23
7d
62
63
d5
31
3b
ff
dd
e0
9a
6a
3e
8b
6c
83
ad
02
c6
4b
ff
45
5b
df
f1
fa
26
65
e7
63
0f
7a
6a
ee
92
f4
24
04
0b
83
25
49
a1
b0
ba
f0
74
ff
e6
18
96
7f
ce
04
0d
2b
28
d9
cd
21
9a
84
17
5e
84
27
95
d2
62
fc
14
c3
98
cb
3b
a3
4c
5c
87
6a
a4
44
9d
18
54
a0
05
77
62
8a
e5
b2
30
19
bb
7c
50
01
0e
a4
81
44
5d
ee
3d
87
8a
00
90
d4
0a
56
14
9e
d8
8e
57
9d
01
0b
2a
1a
dc
bf
1f
3e
74
f5
0b
02
26
c0
aa
47
86
11
e4
bf
84
19
44
86
e2
08
3f
cb
2f
0e
46
12
1e
31
22
55
f4
0e
00
3a
b9
60
36
60
b3
53
bf
2c
e4
f9
e1
aa
05
0b
d4
24
5f
5f
2f
03
7d
ca
26
f6
05
fa
55
fb
3f
3b
74
dc
31
82
29
ce
cd
d8
b5
de
1f
2c
b0
41
e8
03
cf
47
5b
4d
da
14
89
e3
da
7d
16
82
01
a0
f8
1f
2e
2d
f2
25
53
af
3f
af
94
c5
ec
e4
f1
ff
0a
5e
aa
01
9d
42
fb
de
2c
e9
8b
78
bd
10
cc
9b
2d
03
1d
5e
90
20
3c
ae
32
04
ec
4b
08
7c
ed
0b
a0
2b
aa
77
84
c2
14
72
ee
21
60
af
90
aa
e7
cf
7f
ab
b4
7d
0d
ae
36
a5
3e
ec
5d
96
63
59
3b
7f
de
a6
de
72
c5
8a
cc
ae
da
8d
65
b3
01
9c
89
6d
40
22
a1
05
03
d9
ae
63
2b
3b
b6
b0
c3
8f
18
88
bc
68
76
64
ff
c8
03
0b
82
44
2c
aa
36
91
77
e6
69
d8
a2
25
63
6a
68
e9
76
25
25
2c
89
8f
69
44
e6
87
0e
ea
b5
31
09
d9
1c
b8
1c
fe
55
3a
e2
0c
e6
53
21
be
2f
0d
8e
7b
cd
7c
a6
01
a6
90
f7
05
f2
11
40
1d
30
2c
2e
4f
0c
da
34
99
21
82
ff
92
3f
90
b1
4e
90
71
7d
d3
92
49
eb
55
88
14
d4
f6
21
ff
a5
89
e1
6d
c2
b7
17
fb
74
d0
b8
d5
b6
9c
b8
40
d9
0f
f0
e6
7d
d4
95
55
f1
9c
25
1c
9f
2b
d4
99
1e
73
a8
f7
d8
72
f4
a6
8d
c2
29
3e
3e
fe
ff
7f
63
41
fa
8c
33
47
31
1f
73
0e
dc
3d
a7
3f
2c
05
b0
66
e0
bb
68
2f
d1
7f
f5
42
eb
4c
65
e5
d9
a2
6b
f9
da
20
c1
aa
b2
2c
9f
48
6a
99
09
2f
c8
26
ab
9a
9a
64
25
5f
e9
6f
90
d6
8e
26
14
82
76
33
70
36
59
84
43
ae
f2
6f
f1
cc
b2
3f
a7
e8
69
18
a4
ff
86
05
93
8c
b6
61
14
38
42
92
69
2e
07
e3
46
05
fc
ed
3e
59
27
e5
bb
64
f4
99
6c
0b
21
0b
cd
9e
fe
72
72
6f
e9
57
66
e3
cf
a8
55
fa
14
c4
f8
38
bc
ad
1d
33
bc
a8
75
cc
b7
13
27
d8
be
ef
01
ff
ff
7f
22
27
d1
aa
37
8b
1d
2f
af
29
4b
f9
bf
d9
2a
10
01
ba
8d
29
c4
f3
0b
47
fd
09
7e
54
b5
15
64
b4
c3
0e
da
b3
73
19
6b
52
d2
a5
36
e0
cf
35
5d
2f
ce
0f
cf
1c
7e
0c
79
ce
88
32
16
2a
2c
d8
ab
f8
b4
2f
16
20
2a
d0
1b
3a
13
f5
6b
f7
bf
be
b2
62
73
ab
ac
31
f9
fc
32
2d
cd
11
5a
9a
a4
f9
59
30
04
17
6e
fb
ff
dd
04
5d
ec
20
7a
5d
63
16
79
c1
96
ea
cf
ed
16
fc
4a
f9
82
ec
81
b7
21
da
e3
e4
19
09
7f
5a
7b
d2
27
65
2c
56
4c
34
b8
35
92
09
e1
79
f6
38
61
ce
d2
33
01
11
d3
02
a7
db
2e
0b
9b
4b
d3
e4
83
d4
88
7f
86
bd
ab
17
7b
c2
f2
b4
8e
92
e2
bf
a9
b1
52
8d
82
35
0f
e2
e3
39
b9
69
88
6c
2a
22
02
8e
5c
a2
31
07
1e
6d
95
b0
a5
f7
72
7d
61
52
36
bd
81
13
42
90
b8
da
89
da
0a
53
86
57
66
92
ff
6b
52
fd
a8
3a
3e
d5
56
cc
6e
b6
64
d7
21
14
fe
3d
82
b8
19
a2
55
f7
a3
ec
75
c9
e9
6b
8c
fc
25
1f
bc
10
d2
7e
ff
02
86
ac
86
c8
2a
52
82
5c
77
75
c1
4d
1d
32
05
fd
fe
01
73
37
d1
4f
fc
53
58
22
09
df
21
a0
7a
a5
fa
f2
da
31
d8
f6
51
85
2f
b9
34
94
9b
16
fa
8f
5e
14
af
42
b0
e5
65
f1
27
56
a7
52
44
35
da
10
e3
b5
8c
22
87
9a
17
52
7c
23
a7
a2
eb
58
c9
d2
0c
24
85
fe
81
aa
bf
9c
ff
8b
43
46
48
f2
fa
7a
c5
e4
87
b1
46
69
f3
e0
5b
b1
e2
01
37
c6
ae
f5
f2
fb
3d
83
0c
d1
1b
40
93
94
81
30
c8
82
ee
bb
b4
15
a5
dd
80
a3
29
03
a0
31
38
00
c8
0f
9d
13
5d
9d
7e
bc
6b
1d
6d
35
d2
3e
f4
a5
ab
9d
e3
67
39
eb
9e
2e
64
b4
14
ba
3d
2f
bd
20
fe
47
88
e7
97
6b
b5
73
2c
0b
cf
07
68
7b
85
33
9c
25
66
b6
7a
0c
8f
d9
82
46
6e
a3
83
44
33
67
57
01
9e
e5
15
d2
45
6d
99
16
cd
af
ea
15
0e
27
3e
55
96
3b
2a
61
6d
3f
9e
a7
fc
42
db
ed
e2
12
34
04
71
f4
15
59
48
6b
73
4a
8f
3b
60
6a
9c
c2
3d
27
0f
93
01
75
4d
8c
04
76
f8
78
e3
ed
b2
9a
81
0e
54
16
b3
57
c6
5d
4f
ed
e8
52
74
59
ff
65
a5
74
86
c5
31
21
70
59
15
f4
49
d0
d2
f1
89
25
d8
0e
8b
87
40
e3
36
97
43
16
6c
a1
be
ce
df
c2
df
56
5a
d8
60
07
7e
0f
61
04
98
06
a3
a7
f9
7f
a5
8f
01
17
fb
6b
92
03
1e
e1
8c
f3
8a
5c
01
8f
5e
a0
a4
b8
86
28
e8
cf
8b
78
5d
e5
65
44
07
a2
cf
30
0f
44
41
de
42
49
ac
9f
74
fd
8a
e6
d3
ff
a4
9d
6b
a9
ca
0d
3c
66
a4
b2
37
42
e0
4e
c1
f8
f8
b2
dd
5d
d5
42
9b
61
e5
d2
9a
d6
99
2d
c8
dd
81
04
1f
13
9a
76
60
96
e3
3a
d3
b0
e8
38
f3
b6
e1
ab
22
f7
86
ba
8d
d7
ae
74
90
1f
f7
f4
07
2a
01
6b
cd
d0
79
60
a8
de
24
bb
7f
4f
0d
bc
99
28
16
a7
7a
2c
df
25
99
6a
15
b8
48
2b
00
a2
d2
1b
f9
5b
c6
93
fa
00
c0
74
37
f7
32
f0
ef
8c
21
fa
da
05
cf
ff
19
9a
e7
ee
b8
1e
5b
f9
37
02
72
51
0b
40
3b
40
c9
0d
4d
a0
12
c3
3f
34
06
a3
18
55
aa
0d
f9
ae
2d
6a
f9
5a
89
3a
90
21
39
1c
22
08
8c
56
f9
d0
c1
fc
a0
48
51
23
c4
22
eb
10
f2
1a
b3
08
e3
f4
28
d5
fc
ad
0d
c3
bb
31
cd
e5
34
3f
f2
12
16
a5
1e
6a
0d
eb
64
4a
3a
a7
b6
d7
41
05
f3
09
03
ff
fb
1e
00
2f
38
ce
a9
cc
b3
b5
b7
05
5a
ba
4f
64
f9
0e
1b
d5
44
5b
b8
21
9f
65
68
f8
61
15
98
c6
6d
ea
92
85
cc
fd
8a
bb
a0
69
73
b0
e5
77
d8
c1
00
19
76
ba
43
9b
f4
d4
45
a6
aa
c3
3b
01
86
ff
10
6d
de
ee
db
2c
95
d8
d3
78
77
1c
66
74
d2
1d
0c
2e
98
bd
6c
d6
72
09
ff
f5
b1
a8
e2
42
49
19
e9
3e
d2
e3
9c
09
18
bb
18
72
aa
4f
45
0a
df
55
b9
19
3e
f7
0e
f3
5f
cb
29
9b
e2
0c
36
aa
be
fe
c7
ff
0e
c8
8b
e0
99
b1
19
77
2e
12
df
22
81
4c
c1
bc
78
e6
77
59
38
1a
ed
86
c2
d8
24
08
53
37
21
93
8c
72
01
6a
fc
c7
18
b3
72
18
4c
08
de
85
81
a2
66
e1
9e
10
ba
c0
12
d6
66
54
9e
3c
e9
76
2b
c1
bf
84
00
6e
5b
ae
55
76
46
ed
59
1f
c4
5e
e7
ca
f9
e3
21
2a
bf
13
f7
0d
6b
fa
21
68
b6
1d
3f
25
f7
5e
56
f2
3f
73
40
3a
3b
01
75
c0
61
45
40
a1
e8
8f
0a
18
52
68
f9
b7
90
db
fe
31
1c
15
fd
f0
3d
00
db
4d
23
a8
ae
a3
08
c9
c8
f7
d9
93
5d
8c
6d
96
78
34
84
a7
b2
0b
68
13
50
62
5c
b0
ca
de
3c
bc
f2
fe
de
ad
7e
e5
27
cd
30
bd
e5
4f
c7
d4
16
3a
a3
3a
46
89
3b
a4
79
61
f0
11
2a
5f
e3
33
ec
49
aa
4f
ff
61
33
ab
f5
18
b5
e0
4d
53
15
aa
51
2e
f9
11
01
84
20
96
f3
b5
d6
cf
0a
24
b8
17
90
1e
ec
49
4c
53
6c
64
44
ae
e4
3f
9d
4d
0b
4f
39
77
62
4f
b7
31
ff
84
86
51
b2
63
c5
35
3b
cc
e4
c3
0f
60
37
50
56
14
41
d0
e9
7b
1e
7f
2a
cf
05
47
2c
3d
a2
1f
5c
40
9b
55
ac
9b
b7
7c
0c
b4
e1
82
b5
16
a7
40
7f
f1
df
39
f5
83
df
07
56
d3
41
1d
a7
9a
70
a4
01
f2
a4
c5
c3
61
30
52
15
89
fe
2c
fe
14
b6
a0
96
58
77
bb
f0
6c
0f
73
c7
5d
38
fc
33
8d
c3
45
36
ce
37
b3
07
28
5e
5d
58
77
50
a4
bc
3f
f7
c9
f9
a3
64
1d
82
62
51
75
4b
b2
9b
21
be
cb
2f
39
01
83
19
e2
ef
52
d8
8b
40
eb
49
30
76
01
73
47
9b
1c
4a
37
85
0b
32
ed
14
19
c6
17
0e
77
c4
77
1d
de
77
19
2c
07
63
ca
27
27
31
17
a2
39
ed
53
f2
af
ff
18
f8
5b
1e
5c
64
a4
7f
ac
d0
0a
49
49
c0
04
e3
f1
03
df
95
1a
31
bf
0d
eb
65
ae
13
01
88
40
c3
45
b1
41
13
80
4c
aa
61
c9
5e
c2
84
d4
13
e4
01
59
f3
a3
22
05
fa
c9
1d
ec
bc
47
24
cd
34
21
e8
87
79
a1
d5
40
bc
53
2d
e0
f9
33
30
73
f8
81
ba
83
16
9a
99
f1
de
9d
db
69
bb
be
2e
55
f1
32
38
07
7e
ee
01
1d
76
cd
c5
1e
91
d3
13
fd
73
1a
0d
6d
b9
72
39
e0
66
49
e7
23
2b
1a
28
34
79
81
0c
9e
3a
df
75
b8
59
8c
fe
5a
bc
de
d7
46
3e
39
85
c8
69
e6
c4
b6
a7
89
0a
ca
19
e0
60
0c
f2
e6
34
f3
d4
01
85
e9
cc
f6
b0
ff
4a
29
99
4a
28
ae
55
02
7f
b0
de
ce
4c
54
96
c3
2d
ff
cf
bd
fd
eb
4b
ef
50
fd
fd
f0
40
54
db
38
ef
03
67
01
d5
cf
d3
6f
60
e3
05
36
c9
83
cd
dc
b6
11
2a
ea
ab
e3
0d
71
68
33
a2
f3
7d
59
20
d8
f4
40
81
31
3d
10
2f
e8
89
19
84
0e
ea
f0
a4
64
5d
5f
fc
9d
78
2c
42
d5
eb
6c
68
8b
77
01
01
55
36
60
f0
53
6b
dd
25
7d
aa
09
fa
e4
bc
02
ab
c5
0a
8d
03
5e
d9
46
27
c5
76
e6
2b
ff
30
40
52
c7
0d
ce
72
0a
85
44
6b
92
e5
ed
f3
53
5d
42
c3
0f
fa
54
84
44
5b
de
23
ab
32
28
39
8d
db
70
66
71
50
cd
3e
43
7c
9d
1f
f2
d4
58
2d
71
db
39
68
08
1e
82
c4
be
48
76
ea
35
33
68
ed
97
f9
b5
7d
c8
15
71
8f
23
1f
01
de
d4
a0
46
ae
48
30
0b
ae
dc
4b
19
f2
a0
78
de
65
c9
27
7e
66
3d
72
6c
fb
fe
73
57
83
58
9f
5f
88
c2
8e
72
f7
3c
d6
0d
9c
ff
6f
f0
15
75
3b
34
1b
c3
d8
32
50
f3
b2
e0
3d
92
b1
3a
02
24
7a
d3
23
2e
3f
f1
20
2d
e4
54
5e
1d
05
f9
b9
6b
67
cd
55
79
7f
12
43
67
fc
c3
ee
ff
59
7a
e7
eb
ae
9a
e9
5a
8c
eb
f0
45
18
e1
4a
e2
30
ad
35
6b
e2
b1
64
7a
d6
5f
36
ac
b4
26
63
ce
ff
5b
37
63
45
0e
8b
f4
6c
fa
f5
46
c2
1a
f0
d3
3e
f2
2e
6c
ee
70
3b
6e
1e
c6
4f
a7
ca
68
5e
a8
8b
bd
b5
51
fd
a6
5c
38
6f
99
bd
9d
d9
9c
d6
19
cb
d8
29
84
c2
ca
54
a2
63
35
df
4a
0e
60
0e
58
11
f2
2e
d2
e4
51
3c
02
ad
87
b6
2b
bc
ff
8a
bd
ac
f1
8e
48
3c
9a
59
48
1d
aa
00
be
6f
af
12
cf
f9
25
a2
ed
ae
67
8c
e9
ff
21
c8
74
39
ec
65
15
ed
22
e8
92
f2
90
cb
38
95
02
f9
51
0a
44
57
13
82
d3
93
84
8d
7d
d6
eb
fa
50
24
30
6b
fc
34
ee
92
40
ef
26
18
2f
31
d3
d9
18
da
40
ca
a2
14
d5
35
9b
cc
49
01
c2
d6
07
e3
1e
ff
9d
fe
62
58
94
e8
1d
f4
81
e7
58
06
a2
39
ce
55
4c
c1
c7
0d
fe
bc
63
88
ec
cd
7c
09
03
7f
56
b6
0c
db
2c
cd
16
e2
2c
b9
af
ff
bc
37
93
b4
e9
4a
f1
97
35
9a
d8
48
46
e7
ee
d1
e3
5e
d5
d7
2a
42
55
91
3a
1b
07
ec
2d
97
94
8f
68
3d
f9
2e
92
b6
54
69
68
59
23
9b
38
dd
04
b4
18
7e
9d
54
23
99
03
b5
a0
0a
62
6d
29
8b
50
b9
93
a8
55
0a
03
c0
90
c5
e8
a0
57
8d
14
fe
29
09
e2
b2
1d
dd
01
28
b5
45
8b
2a
22
61
6b
38
11
83
c3
9e
ff
57
89
1e
fc
bf
a6
25
1f
cb
e9
49
52
d5
ab
d5
3b
ed
9c
e0
83
db
47
69
67
9b
d1
cc
e5
04
eb
f5
e0
b8
e0
bb
e1
4f
b2
97
40
0b
01
18
0d
fd
dc
35
39
f9
d5
fa
ff
4d
f0
05
0d
7b
0a
d1
1a
63
b2
2a
d6
73
7b
4d
12
69
02
00
d3
99
ed
10
8d
9e
4d
fa
bd
08
32
56
19
c5
28
0a
b2
98
d2
37
1a
53
a3
f6
8f
f2
cc
b6
09
92
c2
c4
a8
63
1e
a1
a5
b9
af
85
76
2d
72
eb
1e
b7
14
4a
40
5d
f9
f2
1c
ff
70
d4
d3
06
6c
53
53
a1
3d
c4
1f
11
9d
2c
38
44
f0
cb
9d
79
d3
2c
15
fb
6a
09
05
2a
e7
ad
87
42
4e
db
32
b7
ad
24
2e
ac
4e
ae
03
01
8b
ae
e1
18
de
fe
46
0e
8f
0c
34
29
01
b0
a5
5b
e3
ff
49
38
e0
f6
74
89
fc
46
4d
81
d8
4e
93
ef
f5
0a
52
27
14
6f
9a
56
75
98
64
b9
92
f0
40
11
e6
f5
2a
50
48
71
aa
63
26
e3
51
1b
21
19
ad
81
0d
21
2d
19
d5
9a
35
79
c8
35
11
21
e2
e2
0e
01
b4
c7
d3
11
98
c3
fd
eb
53
ff
59
19
2a
8f
b8
fe
bd
09
4b
1f
28
c2
a7
04
b3
b1
99
aa
b4
ac
3d
c2
26
e3
91
b7
f2
c3
a2
49
f2
30
f3
2d
fe
a5
d3
8b
66
2d
9d
ce
da
03
37
db
12
79
65
c8
bb
5d
0b
74
bf
50
39
08
0a
2c
3c
d1
a3
d8
2d
e6
c1
96
75
16
b2
7b
a0
35
67
b6
fa
01
8f
b7
58
f4
ba
98
dd
ac
ae
33
9a
86
46
13
fd
a5
b6
8c
de
84
57
e2
b6
0e
a5
de
ba
f9
bc
6e
82
f9
8b
6c
d8
fa
1c
a9
60
0f
c8
b0
1c
01
2d
57
60
ac
1a
32
82
ed
c0
47
cb
ff
02
22
8f
0a
3d
c3
be
ba
6e
55
6a
3a
3a
69
5e
55
ce
91
9d
c9
32
ce
79
03
32
0b
11
71
ee
05
be
8a
6f
13
90
d4
55
83
c9
57
64
4d
9d
2b
61
52
95
27
42
40
ce
1c
17
c8
42
f9
11
ae
29
0c
d3
a4
49
db
d2
d8
bf
95
20
3a
90
09
0c
fd
1a
b1
12
43
f5
7c
9c
b4
d7
aa
05
82
5b
dd
b2
b7
0f
fe
4e
e9
da
3a
ab
56
4e
d7
11
37
96
fb
41
08
46
07
e4
c2
dd
06
b6
01
39
6b
ca
12
da
99
57
51
c0
79
bb
55
de
a6
19
38
56
ed
d2
4f
a5
18
ba
4e
a8
62
8f
80
e4
e5
f6
08
dd
7c
0f
62
8a
98
7f
34
53
8c
c1
ef
6f
60
b5
88
c8
7c
cf
c4
0d
9a
78
ad
58
8a
0b
ff
a6
0c
99
27
ad
32
fc
ee
3a
70
38
de
9e
26
4f
3a
ff
cc
02
7d
db
ba
64
e0
50
56
fc
7e
7b
e2
a5
a3
7a
f5
e6
d8
23
d1
5f
2a
93
f5
61
b1
97
52
e9
b6
e8
e3
d6
f4
a1
c0
6a
1b
76
50
11
ed
14
a2
da
eb
1d
20
a8
1e
6e
a2
1e
1d
01
33
9d
13
37
9d
50
50
4f
6b
ae
28
de
cc
27
61
94
ba
de
bc
ff
28
73
42
4a
03
6c
e1
05
8f
58
0a
dd
b2
a4
78
b7
70
d0
0c
2c
f4
a6
36
3a
d2
95
80
94
31
7e
d5
bd
81
95
22
49
e5
0d
87
bb
13
59
86
5e
77
a2
4d
ff
b2
2b
29
d4
84
17
46
b3
cd
30
d8
71
d8
93
8e
a7
d7
a5
37
d9
02
bc
96
0c
af
f5
5a
40
5b
b0
0a
11
bf
5a
2d
50
f7
e3
85
06
8c
2e
b8
92
96
81
43
b3
88
bb
96
73
75
0f
43
08
41
ba
f6
09
ad
85
c3
56
ef
2b
2c
49
ae
3e
2c
4e
49
ed
31
15
de
09
dc
fc
1b
9e
b3
69
ec
3a
78
d3
c9
68
77
b0
25
a6
77
3e
a2
01
8b
e2
d8
0c
15
9d
76
96
f0
86
4c
27
74
f8
6b
92
a0
5f
38
57
31
1c
b7
e5
32
32
df
25
d8
09
33
ac
ec
47
a0
e2
35
16
f7
80
7a
df
f0
df
8d
4b
73
9c
de
80
96
b1
44
69
46
82
8e
24
3e
cb
41
ff
8e
f3
d1
da
c5
dd
6b
f3
70
8e
42
08
c2
62
bb
2a
a6
6e
45
91
69
a4
3d
a4
1e
e3
85
88
9a
fe
2a
13
85
02
07
99
c6
76
23
09
c6
1e
e5
0b
cd
5e
d8
51
26
ba
15
1c
b2
17
43
99
68
c8
f2
ac
bc
30
55
a8
c4
11
1e
29
82
01
fa
1e
c1
47
fd
88
e9
b6
30
ec
45
45
34
6b
6d
a9
7a
14
f6
7f
c3
df
27
c1
e4
3e
3b
da
1b
00
12
d8
87
ac
01
1c
77
f3
c6
41
aa
6d
a7
dc
2d
e6
66
4d
f2
61
9e
e7
2b
fa
b7
ce
b1
40
ab
81
a2
cc
54
40
84
8d
01
30
ed
c6
97
ce
13
42
5a
80
79
9d
31
db
2a
31
e4
3e
4f
56
38
05
9d
e6
69
3a
1b
1b
ba
14
58
e8
5f
ec
06
34
d0
c9
f5
a0
9d
d1
c1
44
51
de
a2
72
18
f7
d3
aa
3e
f4
0e
d4
8e
26
5b
c4
7b
3d
f9
68
dc
d8
c5
4d
9e
61
bc
3d
d6
dc
cd
ff
3c
ad
88
f5
a0
49
e3
76
d2
e1
5d
48
d7
60
37
71
cf
d3
a1
11
9d
60
01
66
ff
14
4c
db
6e
04
c1
ea
03
f6
87
ad
40
40
63
09
fa
77
1b
65
8c
89
66
d2
fc
d3
13
2a
87
7d
0d
c7
68
7d
eb
50
b8
e4
f0
93
bc
ab
72
2a
44
11
d5
b9
62
d8
d1
1a
6f
2e
3d
ed
1c
64
a5
1f
9c
3b
ba
12
be
30
05
9c
ec
fa
c3
11
63
6c
02
2a
1f
6f
36
9b
71
3f
01
41
1f
55
c5
1e
d1
a0
99
64
96
2b
71
18
c3
e5
a8
16
af
60
c6
5f
01
d7
ff
ec
b5
d4
9d
be
72
02
25
89
45
57
c6
78
a8
32
55
fc
cd
fb
68
16
d4
19
04
71
7d
c7
5a
0b
2b
39
b6
8a
dd
f7
ae
f4
7c
1c
d3
5a
98
5a
e8
02
f6
38
59
01
0a
a5
40
97
ab
b9
2f
bd
67
2e
86
3b
4b
a0
f9
33
1a
f3
ca
7c
6e
19
8d
fa
4e
e2
c3
e7
eb
2e
b2
8b
ba
a2
19
41
ff
15
a4
77
1d
e0
2e
d6
0f
6d
2a
15
88
b4
d9
2a
29
0e
52
f6
b3
a4
af
e4
8a
a4
af
ff
bb
98
76
4b
ae
69
65
a4
da
b4
fc
13
6e
9a
4b
4f
cf
e1
71
fa
6f
5a
df
4b
f2
e2
d7
1b
cf
e7
ac
25
fe
d5
9d
c9
5a
ff
54
bb
ff
17
5d
6f
dc
42
61
1f
16
45
ce
1d
07
f7
7e
80
65
d0
b2
49
c5
2a
60
89
57
b5
db
6f
25
68
1a
47
66
20
03
18
01
c6
53
da
4e
aa
42
21
ea
2d
62
0b
01
37
b3
0b
14
e5
e0
60
5c
28
1f
24
55
3f
3b
12
3c
53
25
02
b2
e4
36
d3
c5
c6
b1
c8
30
ff
cd
97
3f
cf
39
3f
d4
bc
0c
d1
9c
07
0e
98
dd
e6
ec
29
05
86
d4
41
02
28
ac
b0
3b
26
44
4b
43
1e
ae
e7
73
3a
ca
eb
75
de
62
63
e5
7a
50
ea
ff
22
07
44
92
4a
91
5e
70
c8
1b
0b
78
6e
3f
f4
a6
9f
bb
eb
74
77
79
7e
f4
ea
bb
85
a8
55
2c
86
a5
72
fa
a9
75
fd
39
12
b2
c4
c4
6c
88
75
db
f6
60
ad
fb
9d
25
5a
cb
33
9b
f1
c9
56
2c
66
26
3b
8b
2a
4a
67
d0
3d
dd
b3
29
e0
7d
fb
e9
e7
3f
ee
f9
ed
1a
c2
4a
01
82
3f
76
cb
ca
cb
5a
3b
a5
d4
64
b5
0e
dc
b8
89
fd
18
35
50
1e
f3
b7
75
eb
63
cc
69
23
c7
c5
6f
d9
47
86
9f
21
5d
c5
27
94
df
dd
2e
e5
3a
bc
fc
70
d5
b5
84
c4
b6
f9
04
6e
54
32
08
a1
5e
78
67
23
45
fb
ce
8b
a5
6b
14
14
67
59
e5
4a
3b
0b
ea
4d
f6
0c
f7
54
2d
01
c5
ff
a6
c1
b3
c4
e8
88
97
cc
d9
e3
e1
11
1d
50
3d
48
19
12
d0
89
bc
70
e8
1d
22
88
39
1e
9a
d3
12
c1
21
55
05
0d
2e
c0
3c
99
58
39
b4
97
cc
4b
3e
5e
69
34
6a
af
50
cc
87
06
bc
01
fd
0e
6c
1a
38
fb
83
5c
09
af
c1
14
cc
cf
e7
d9
85
04
fb
24
cf
4b
01
a1
73
fc
34
d8
78
34
18
e8
2b
2e
ae
f5
96
ad
7f
da
85
75
e0
48
80
a4
e1
9f
07
2a
cc
72
7c
ab
f7
00
e0
8f
da
94
46
a2
ae
e6
37
d7
50
2a
8f
50
09
59
ed
01
a4
1f
5a
af
ab
4f
48
cb
e7
10
bc
ac
ab
17
fd
ff
cc
28
ac
12
93
db
0d
02
21
8e
9f
38
19
df
a0
6a
4d
97
b4
e6
a6
61
ba
74
3d
6c
ee
21
79
f7
72
60
c4
96
01
28
84
38
ed
be
9f
a9
a9
77
44
76
b6
ef
f7
3b
c9
1b
77
0e
88
d2
be
93
02
69
8b
25
49
c2
09
45
52
c8
27
0b
d2
c4
2f
03
97
28
49
44
4f
13
11
ee
7b
b5
95
31
b3
a3
23
9f
39
39
c2
dc
fd
58
d0
d4
fd
51
01
19
61
e8
27
9f
35
19
14
c4
e6
b9
b6
e5
cd
46
d6
23
a6
8b
fc
de
21
96
dc
11
ba
98
73
08
38
9e
47
ee
5b
4b
43
c3
ce
80
d2
f6
c1
90
73
3b
01
27
8c
94
11
a6
a2
49
8c
cb
c6
50
c4
a5
d5
c5
68
38
ed
fe
cd
08
0c
3e
f9
2e
31
dc
92
04
cf
4a
60
a9
bc
92
35
01
cb
61
17
82
7b
7b
07
e8
3f
72
43
20
60
22
f0
22
9e
03
72
22
b9
bf
f0
f5
af
95
8c
55
5e
36
e8
21
64
5e
eb
9a
e9
95
de
d9
90
be
31
d8
34
1a
67
f9
6a
e5
2b
3e
2f
ba
13
a0
d0
3d
29
f8
95
d1
b9
27
13
52
c2
10
86
b4
14
87
77
64
e3
fa
9b
04
db
3d
12
64
f2
bd
6f
92
1f
0d
cb
bc
0b
01
f6
e7
59
17
43
df
91
6f
fd
09
13
fb
5b
43
36
f8
9f
b7
a3
c8
8f
8f
e4
c8
ff
eb
e2
ab
af
9d
67
b6
68
e2
b1
bb
c3
d5
a9
76
b3
8d
76
0a
0d
4e
df
cb
6c
a4
11
2c
3f
2f
25
00
ca
26
ed
32
c4
4a
93
d2
ff
87
2e
1a
5c
2e
61
0f
a4
e0
c5
ed
12
54
0d
e9
e2
e1
a9
e6
36
7e
08
c3
57
37
b7
cc
a6
51
12
32
cd
41
dc
48
ff
d7
47
53
fa
ba
69
53
35
12
01
f2
12
9f
d8
d8
89
a5
7d
80
81
bb
62
61
ce
8f
54
11
b3
46
e8
ad
b9
38
cd
3e
40
ad
ec
df
03
18
74
ef
7c
14
af
c6
10
3a
7b
d8
8c
ed
db
61
be
8c
56
15
27
d4
11
c8
9d
84
70
d2
7a
0e
98
af
4a
ee
01
8d
71
ff
5b
99
26
61
43
d8
62
f3
4c
ee
ec
10
5f
8c
95
be
11
f8
d4
4f
16
39
91
db
26
e3
08
41
81
5b
4e
da
42
ca
84
76
cc
9d
52
de
a3
6e
41
51
49
66
65
c5
12
f0
de
a1
88
0c
01
bb
30
1b
d8
7c
81
5f
56
36
24
9b
c3
0b
e7
a5
df
09
33
d0
bc
ac
ec
c9
08
df
42
ca
1a
16
0d
bc
70
bf
be
48
75
95
d4
5e
ff
5f
89
2f
f3
2e
32
1c
b6
39
e9
2d
2b
ab
1d
2a
06
ba
e2
09
f2
d7
45
04
22
3b
fa
7c
22
cb
ae
6f
5e
d1
24
3d
31
52
41
e4
eb
ef
36
df
0d
cd
02
55
e7
9f
ee
d3
06
48
54
cf
ff
68
07
89
37
52
c6
13
43
ff
bb
0f
0d
ee
ff
13
7a
45
00
4b
84
79
9c
e3
4f
af
4e
8b
dc
ff
b8
c5
60
af
ac
c1
be
25
ac
07
b5
7a
50
92
fa
5c
6f
c8
7c
e9
a2
58
3a
72
20
8e
3d
f2
43
b6
e9
5c
2d
5a
10
c0
42
d8
9c
f5
ca
a0
c5
a4
37
d0
0c
26
11
7c
ca
9d
bf
17
f3
66
2a
49
2a
21
35
bc
3e
49
b3
f2
aa
c8
c1
2c
ef
8c
78
29
87
ba
8a
ee
7e
14
6d
8f
d1
ef
b8
b3
7d
e4
29
7f
09
46
d5
35
c2
db
89
a0
eb
d9
f9
9c
0f
18
ef
38
23
cb
1f
86
0d
a1
15
f2
bc
01
e3
70
8b
30
a0
06
97
5f
ff
6c
61
3e
dc
94
77
d9
c2
34
f9
49
c6
9e
34
aa
41
18
1d
0e
df
34
7a
ab
a3
78
b4
7f
ac
64
90
7d
5c
e6
49
8e
86
e7
0b
f1
d6
f0
15
a5
0a
8d
91
83
40
e9
2e
61
8f
e3
ed
fe
e5
b9
72
24
58
e8
a3
7d
30
b0
da
9f
ac
6a
17
71
13
46
49
45
9d
ed
e1
98
47
ae
12
6a
57
dd
6f
d6
11
3e
0e
5c
5c
49
ea
46
7a
3d
72
9b
4d
dc
4d
5f
01
64
06
01
93
48
e7
cd
8d
c4
89
aa
58
4c
01
2f
44
f0
31
01
25
16
30
f9
84
a7
fe
52
a4
ea
4b
e0
eb
d2
81
76
65
05
62
01
c4
29
f1
33
fe
cf
ff
4d
fb
83
02
52
29
25
e9
7d
28
f9
d1
0e
d0
48
c3
23
54
95
64
38
ac
4c
b0
c6
ec
f9
14
e4
84
e6
4d
44
ed
78
16
a6
33
92
45
26
89
a9
66
2d
5c
c1
eb
43
89
0e
0a
12
0c
67
98
1b
59
00
2f
a8
28
ab
15
ad
37
02
ff
50
41
0c
75
38
d1
2e
55
f0
83
57
59
25
b0
f3
5e
eb
70
6a
fa
8a
26
33
ce
a8
36
c1
cd
c1
1f
d0
93
29
b1
c9
e5
e6
3e
77
a9
89
9a
41
b8
47
4d
4c
48
9f
96
bc
af
f1
9f
04
42
13
74
90
ec
fc
eb
9e
a8
dd
40
41
93
36
ff
53
b6
90
48
73
bf
09
19
38
d4
44
5a
5a
b9
36
d9
95
fc
f6
6f
08
ac
29
61
b3
ff
2e
ed
ed
77
df
a1
35
83
e3
90
5e
5f
d0
b5
c8
3e
97
54
7c
9f
16
a2
1c
fe
ce
75
73
49
1a
f3
8d
ac
36
a3
4e
d9
d8
11
67
77
da
4b
50
8b
b2
23
13
1b
28
51
8d
a0
3f
eb
5d
26
58
4c
97
92
50
6c
1f
8c
1f
73
88
1f
14
05
09
1a
a3
8a
87
2b
1b
ff
c1
d7
ec
a8
94
86
86
fe
22
9a
40
f8
aa
29
83
52
bb
40
cb
3a
1d
4c
98
23
b3
e0
13
f4
56
ae
6b
24
d1
db
da
74
98
22
8a
a3
cf
5e
e4
6e
da
16
f5
57
21
96
6f
00
c6
36
0b
fd
ce
33
c7
12
d0
e3
4f
f3
ea
00
85
c0
e5
95
3c
9a
2f
98
30
17
40
6e
df
fd
be
78
5d
b6
c6
95
b2
e0
b9
b9
8b
e7
ba
60
01
ed
cb
ce
72
9e
1e
97
2c
5a
22
2c
1c
50
33
35
c4
08
6e
ae
10
31
7f
93
7d
5e
d8
a6
af
f5
71
20
d3
07
e5
93
d7
17
b5
01
8a
4c
0b
49
40
f1
d8
63
f7
81
83
22
b1
e3
59
03
c5
c8
b8
03
3b
d6
e3
50
c6
fe
e1
2f
62
a9
c2
2c
fd
d1
ab
a2
81
d2
e1
9a
f4
79
2d
ab
58
0b
98
f8
51
77
53
c3
34
9b
fe
41
6c
b2
4a
83
6e
b9
e2
4f
51
4f
8f
4d
8c
fe
60
87
01
5d
25
ed
f4
31
ca
74
20
05
51
f7
e8
41
03
1b
eb
3b
d9
dd
15
81
f3
bc
d0
20
05
07
ff
41
d2
3a
ac
53
3d
34
e2
29
63
56
e7
64
cf
58
a3
84
e6
e2
2f
5e
28
a3
29
f0
28
84
ff
2c
a2
8b
50
da
08
0a
10
fc
77
7c
6f
a0
f3
57
1b
a1
88
d7
fc
d0
74
e7
58
94
3c
d6
fc
c2
9f
7f
e3
5f
73
c0
f5
e7
51
7f
ef
d1
01
fd
e8
37
72
b6
29
6a
be
5a
81
06
fd
46
35
97
c9
24
91
c5
c1
1a
81
d6
35
0d
02
e5
87
31
1d
6d
1c
52
85
f4
17
5e
ce
ad
bc
52
ef
24
99
e1
12
e0
10
f2
6f
b1
6a
1e
70
f7
8e
f8
ea
fe
44
ff
47
3c
8b
00
02
4a
d7
88
1e
91
81
65
3f
fd
19
89
eb
95
b7
63
24
63
b9
10
e9
95
66
62
41
58
6b
fe
50
72
16
d0
3b
22
f2
a6
bd
61
46
01
dd
38
8e
ba
0b
38
2d
8c
c5
d8
ff
d2
37
33
04
ef
1b
11
1e
02
bb
27
b8
9a
54
0f
54
e0
e6
f2
ec
d1
8e
7b
62
87
d8
45
5f
3e
b4
bf
9f
5e
1f
71
c5
a2
26
8d
ab
ef
ff
64
f6
6b
f4
8d
c8
08
3e
4d
9f
fb
7f
88
f9
77
e8
77
e5
3b
4d
47
62
6b
dc
48
0e
10
0c
a1
8e
da
a6
0f
16
55
66
27
a1
35
a5
4d
30
7f
6b
d9
36
92
9a
d3
aa
a8
fb
07
c4
f7
39
38
b3
19
06
37
ce
34
f9
5f
99
f4
a9
4e
48
99
53
ec
1e
54
2c
8d
85
58
2e
96
8a
3f
1a
8c
11
da
55
43
01
5b
d4
ff
9c
a5
df
03
22
4e
03
7b
18
93
96
77
e9
07
05
4b
a8
ae
bf
9b
c3
58
3e
01
c6
51
08
4c
88
53
e7
c2
9c
56
47
d5
1f
b6
9e
c2
c9
41
c1
a5
62
a4
6a
ba
ba
1e
b2
1d
b1
26
dd
d2
43
41
8a
eb
b3
6c
c8
52
0f
db
70
ff
1f
2b
1a
0b
d2
23
dc
ff
a0
9d
a5
8e
69
df
14
22
fb
7e
a2
30
ff
af
7b
30
c9
45
be
6d
69
de
0c
05
f0
a1
4c
cb
1e
b9
3e
20
08
c4
46
06
b9
ab
4b
f0
a8
d4
fb
f2
9f
26
93
82
48
e6
09
44
9e
80
48
c0
a6
0f
46
05
3e
b0
ae
47
c3
c9
8b
38
12
64
fe
14
e9
2d
08
b0
0f
02
59
d4
c2
92
89
ca
26
56
33
a5
23
7f
38
74
cb
cc
d5
37
42
ff
70
f2
0f
17
5f
73
07
77
21
dd
8b
ca
1d
0a
99
c1
55
4f
35
2f
94
2e
c0
f9
78
eb
c3
dc
bf
de
54
db
47
1a
9d
e1
fd
de
bd
be
97
2e
e2
f0
1f
6d
1f
f6
f0
97
63
41
58
1a
08
dc
13
af
48
e2
98
f9
17
f1
85
e5
69
ad
95
f8
8e
76
19
34
f1
b2
b9
c1
dd
f3
56
01
ec
61
bb
b1
d9
5e
d5
58
1e
ca
d4
05
01
4c
fa
26
1f
5d
b1
9b
fb
b6
24
ec
45
d0
13
cc
2d
9f
ff
e9
e5
53
e0
ea
40
dc
ef
33
f9
dd
0b
d4
0c
14
59
ea
5a
4d
11
98
ac
37
c2
fa
ff
58
13
af
c4
2e
d2
2b
d0
6e
fb
0d
74
96
cc
38
41
c6
38
1b
e7
33
b2
cd
c1
11
21
94
fb
26
fb
2f
6a
70
a1
52
e8
5e
63
16
2b
75
8c
39
e1
c7
e1
ee
e2
50
49
a5
df
f1
dd
f1
2e
10
bc
11
d2
2b
25
9c
7e
95
09
92
4d
ac
80
28
f2
19
01
4e
90
f0
68
aa
d3
c7
0c
e2
4c
c2
2c
10
9f
02
c2
12
92
28
de
af
84
17
97
2a
1f
0e
46
b0
ec
74
01
87
4a
34
f8
56
1c
74
43
2e
fc
ab
cd
d1
ab
fe
f9
87
6f
f6
b3
ec
74
ea
bd
6e
81
13
36
c4
8a
9e
4d
d2
4b
38
dc
9b
d6
f8
13
cc
8a
58
9e
35
21
1f
28
f1
e3
0e
ba
ca
67
37
f4
bb
af
b2
eb
40
ef
ee
44
ef
26
f5
51
c9
0e
69
76
09
a3
c8
c2
7d
c7
dd
47
c7
d8
24
23
c9
02
0a
01
1d
f8
ce
36
18
12
e6
bd
12
ff
17
0f
ad
99
5a
eb
ec
e7
1b
ec
d6
e8
e9
33
6c
f2
f3
2f
b6
c2
0d
13
7b
48
04
ff
7e
09
0f
09
06
7b
77
b2
bf
d6
e5
2e
e4
74
8f
36
a7
9d
bc
0c
f8
16
b0
23
7e
cf
99
e9
59
4f
57
d8
d3
4e
d9
0b
80
9e
91
5e
04
71
c3
70
79
ec
81
4f
f3
24
6b
86
26
01
09
a7
85
ca
66
78
cb
ac
f9
92
a7
69
51
2b
eb
cb
90
20
01
a3
06
d5
d5
4c
96
f1
6a
b9
6c
27
4f
6b
db
2b
1c
d8
d1
a5
c1
f7
36
89
4c
ce
e9
c4
c8
97
d1
16
68
d2
35
84
63
9b
65
0e
78
01
dc
2c
15
db
f6
8e
a7
38
d8
22
c3
8f
9f
b1
a1
61
87
0c
14
ff
47
3b
0a
7e
88
ef
f0
05
18
96
f0
3a
c2
b0
23
e2
30
63
1a
f9
d9
07
01
ce
26
4d
63
11
53
63
84
0b
39
88
f3
8f
79
ac
a6
0b
69
26
41
b1
f7
78
ed
ff
2d
c0
d4
79
2f
4e
a7
8f
b9
9f
ce
5d
a2
0b
77
42
56
fb
c2
f3
5c
e7
35
72
ae
e1
d0
74
87
2e
00
3e
67
f7
c9
3b
53
cc
38
5a
d1
fb
78
f9
6b
45
c0
43
93
7e
5f
29
fd
b6
36
d9
e6
73
6f
f5
f1
b0
5e
55
db
3b
98
ed
68
20
de
1c
79
46
f7
5a
f6
7d
90
2e
6e
52
e8
81
20
64
6c
dc
cd
e3
69
8e
f4
9f
2b
d2
02
65
3d
0b
c5
27
d0
d4
93
51
01
e2
08
0d
06
0b
a1
a9
94
6c
c7
29
84
d3
0b
c3
38
80
d3
99
bd
2b
fc
ea
51
7b
b8
2e
93
6f
01
f1
16
d3
2b
ad
35
2d
9e
91
a3
06
8f
c9
7f
12
50
14
18
da
f2
fa
5d
9a
c5
66
8f
a5
42
2b
f3
1f
24
30
56
af
7a
fa
02
71
cb
2c
88
c5
80
47
92
34
ff
ba
3e
8a
9d
17
85
b1
17
3f
b1
86
7d
c1
c3
2f
35
c7
f5
dc
14
67
80
01
64
75
97
d4
32
fa
57
18
bc
ba
76
a3
ec
2f
5d
24
83
bf
6a
fe
30
eb
4e
82
cb
e4
94
26
16
ef
fe
0e
d6
5c
b7
c4
ff
f9
ee
2d
0a
98
fc
e6
18
18
8c
69
3d
ff
6f
a0
e2
d0
7c
4b
ea
5b
bb
21
bd
08
cf
e4
c2
24
04
bd
eb
84
1a
dc
6f
a9
32
21
33
cb
fd
0e
2e
72
36
62
32
48
e9
d1
fd
c8
ed
5b
9d
0b
9b
e2
28
ac
71
8a
a0
bb
eb
67
65
93
af
d6
33
c8
b0
40
26
c2
c2
e6
bf
33
57
5a
dd
9a
8b
eb
9b
2a
d3
b9
62
2d
23
95
ff
23
0f
cd
f0
2a
11
49
ec
48
20
47
c4
bc
7a
5c
bb
db
16
44
ff
ee
2f
6e
dd
f0
0c
11
89
d9
2b
14
b8
d0
72
72
28
01
d0
b2
55
f5
02
12
3d
df
4d
78
84
ee
d0
8f
57
e7
09
7b
5d
56
d6
23
9d
cf
24
1c
a8
3c
80
ad
b3
da
1c
21
cb
f8
5e
68
3e
d1
17
30
4c
19
69
8a
ea
7a
ae
ce
ba
3d
65
af
94
33
08
ed
1b
c1
f8
f6
5c
5d
8a
43
f0
4b
a5
ef
ff
27
87
44
ef
d0
47
f9
42
b8
0d
b9
d4
b4
bc
a4
64
04
22
ba
75
e7
9b
87
2a
93
47
e9
35
2f
ac
ab
e6
30
2d
c9
3a
b7
34
1e
14
22
ae
03
f2
7a
bf
24
63
dc
d7
9d
ca
bf
23
71
b8
25
01
ff
b5
7e
78
2e
f1
c7
69
a9
19
54
4b
b8
32
af
23
2f
0e
fe
e4
de
63
e9
51
4d
cb
a7
c6
ac
a7
62
4a
34
8f
ed
39
2a
cf
1e
a2
68
56
f3
d4
7b
ba
f5
e2
a8
0e
4d
b6
92
f1
1b
eb
41
1b
fa
08
e4
98
0b
e5
24
f0
8a
79
b0
ff
08
cd
a1
0e
38
20
9d
6e
3f
21
7a
8e
d8
27
12
7c
02
a9
c6
67
9b
3d
46
f2
f2
27
56
37
3d
de
0e
ec
17
fd
ab
4e
d5
b1
1c
05
cb
8f
c8
ff
d0
c1
86
38
e3
35
05
6b
11
b9
b0
c2
f1
46
01
93
19
a2
66
fe
d2
69
cf
10
e7
04
35
4e
90
f0
2a
01
2c
71
76
d8
9f
a0
9c
e3
f5
e6
74
b8
e9
8b
e8
92
8f
3f
e1
ba
24
42
d0
84
09
7d
fa
64
02
c9
b2
e2
18
99
4f
19
fa
99
84
76
0e
dd
50
e8
83
3d
81
7d
cb
ee
3c
0e
44
a0
ad
77
81
f5
3d
b5
0f
19
5b
84
4b
8a
18
51
fa
b0
ae
ff
ff
43
25
21
d9
e8
dc
26
b5
6c
d9
cd
f3
bb
3a
19
70
6f
f8
59
bb
72
fa
d8
03
54
95
c8
9f
51
76
b5
2e
0f
5b
32
ef
d8
60
6f
d8
4c
c7
22
f8
80
ee
59
25
ef
57
aa
c3
c7
ca
ca
eb
97
76
73
d2
5b
52
9f
08
31
2f
a7
87
b2
af
82
dd
98
39
cc
65
e3
b9
5a
69
75
1c
24
51
49
ff
3d
67
2b
90
36
68
49
9d
00
7c
82
f2
02
79
52
f5
01
05
37
02
8b
10
53
64
dd
3f
6b
eb
36
30
28
23
18
b6
48
e9
47
7f
c3
08
cc
4b
b5
24
e6
0d
ca
7e
f8
08
18
ba
e2
38
ea
fd
26
31
5f
ee
a5
d0
c5
de
77
a4
c0
dc
d0
77
35
a9
5b
99
e2
f6
ce
28
e7
db
18
08
3d
01
dd
83
df
67
cb
53
4e
0e
2b
8d
c1
47
8c
26
11
39
c4
cc
78
87
0f
bc
aa
9d
ad
00
51
24
4e
21
d2
57
37
0a
dc
97
75
20
b8
ba
82
b1
4d
87
54
f9
96
53
32
c2
01
3f
a1
de
23
c2
2f
4f
f8
33
08
85
3b
c5
ca
6f
d8
35
35
f6
e0
12
32
13
61
8b
fd
4f
e6
3d
35
54
0f
f6
3f
e4
f6
c6
47
c5
45
a5
c9
fa
ca
0a
06
f4
5b
75
9e
fd
fa
24
17
ae
8e
7d
84
91
55
e7
57
68
c8
0d
0e
95
e6
c3
90
58
45
7a
ec
48
df
5d
9c
e8
07
9c
ed
06
1f
04
06
09
98
e0
ed
36
51
31
23
53
78
a6
2a
ed
b0
10
b9
d8
1e
5b
7b
32
69
f9
77
f4
39
35
83
c2
30
22
ff
e0
4a
20
93
54
c4
0d
eb
e0
0a
50
37
a9
5d
a0
34
db
2a
d8
f3
11
70
53
4b
f1
c4
93
8a
61
de
47
51
19
0d
ea
12
b5
c6
33
f2
19
de
b8
24
ec
31
52
a9
21
75
a8
0f
a0
39
0f
ec
32
15
3f
98
b4
82
65
84
ff
7b
7d
8e
53
96
0e
19
43
af
3d
c4
13
21
e5
c7
f9
40
82
3a
cd
45
ef
91
d4
2a
e4
37
b8
b9
87
76
93
ba
48
1c
55
86
06
80
aa
5b
5a
b8
82
36
9e
9c
f4
15
11
86
a8
da
82
3c
01
ae
18
2d
82
7b
9d
10
8f
71
d1
c8
97
38
ff
47
e0
6c
c5
21
98
0a
4a
70
d4
df
93
ec
b2
f1
21
f7
51
b8
a7
71
00
c7
ff
9d
e9
3f
7a
99
f7
ac
ec
70
74
17
34
3d
a8
08
fd
08
01
d9
e2
6f
f7
fa
bb
48
da
7d
3f
b4
0f
df
d7
fd
f2
63
34
c7
d1
17
ea
53
e9
c6
4d
f6
8d
95
65
b5
c4
da
f6
a2
68
8f
c4
77
fb
08
ec
d9
b5
6a
8f
d9
40
d9
4d
4c
2e
76
29
16
ff
86
0b
a7
08
92
28
fb
00
23
cf
99
c0
49
f3
ee
24
fd
8b
1a
03
17
e1
21
0f
4e
8e
c7
4c
03
9d
97
a3
b9
27
8c
06
6c
de
e9
da
ae
09
8b
81
ed
ae
75
2d
89
a4
9e
22
ff
a8
96
33
35
eb
12
3c
15
51
92
11
bf
bf
1d
fa
1c
ce
6b
b0
e4
7b
cd
bc
19
4a
55
2c
88
68
a5
24
f7
b8
ee
61
3b
2d
a6
95
40
09
28
1f
f2
f4
a3
0e
d1
90
b0
8f
b2
a7
a0
b1
b8
43
b9
f4
17
e7
be
d3
40
16
3c
41
ef
17
85
e9
e6
1a
c6
43
a4
46
55
3f
96
92
09
ae
42
28
f4
e9
30
08
ff
8d
2a
0b
75
83
e4
aa
c5
09
c6
f2
3d
c0
ce
0f
d7
66
ed
71
2d
20
26
08
5e
77
62
18
48
47
5f
89
aa
a5
46
b5
f0
a6
e3
16
5e
7d
e9
58
a0
f1
00
f5
9a
60
41
cf
60
84
37
67
99
02
14
60
89
68
38
cf
ff
f3
3a
05
5d
26
49
83
d4
ae
ab
34
87
ba
85
fe
ba
c1
81
d8
d7
18
4d
9d
2b
b0
c9
4a
f2
75
00
89
69
9f
61
2d
46
c6
06
c8
4e
fb
f5
d0
e2
01
86
a1
73
db
da
c3
f2
08
36
ff
f0
dd
24
23
01
7d
f7
b0
b2
78
7b
df
ac
2e
ea
40
95
4f
d9
3e
7e
5b
30
0c
a5
3e
32
46
0a
7c
52
45
95
8a
86
15
a6
ff
47
55
ab
64
f8
ef
9b
85
6c
28
ba
18
b1
8e
79
38
50
a0
dd
ce
d4
38
73
1d
1d
d7
c6
b0
eb
05
f6
03
ff
ee
de
55
32
b9
2c
4e
76
3f
7d
12
13
7c
45
bc
f0
48
20
0d
39
3d
0f
22
fd
e7
d4
0a
f6
a4
85
2d
43
2f
1f
2c
f1
b9
9e
c2
56
ce
26
4c
cf
ac
a1
76
f6
4c
07
10
55
01
b7
63
d7
0a
74
6b
bf
a4
8e
c9
ef
cc
54
46
81
fd
3c
c6
4e
43
a5
23
ab
99
bf
03
c3
7b
0d
f9
e2
8a
54
f6
8e
92
41
c9
6a
c2
d2
58
47
e8
6f
18
aa
10
25
17
ce
11
73
a9
0a
3f
c2
6f
9f
f5
90
ff
9a
22
7a
28
35
1e
f8
cf
03
57
58
d7
61
23
a5
9c
52
a7
9a
8a
ec
23
f0
79
26
1f
ed
ca
32
c8
b2
f4
17
f2
68
14
76
82
ee
c8
83
bb
c6
3c
22
07
b7
6d
4a
b1
08
bc
47
e9
b9
32
4e
9e
a2
1f
8f
7a
f2
82
46
9e
a1
49
7c
05
91
83
d2
9d
3f
8b
b8
46
80
29
40
62
41
5b
67
ca
01
92
af
01
4f
ad
d9
1f
bf
a3
31
d9
7e
e2
be
28
3b
5f
9a
f2
28
3d
e5
c5
3e
04
a6
a4
5d
2b
fc
3f
75
9d
97
41
da
d2
49
3c
ef
2d
ee
19
a3
3c
ce
5a
f0
c1
6d
f5
bb
9b
5c
1d
ab
ce
ff
fb
72
1b
78
7e
ce
2c
d5
30
1f
f9
e0
ff
56
ba
86
7c
cc
06
ea
ed
3b
e1
08
7d
62
00
0e
b8
a1
3e
21
f9
13
88
33
e9
35
0d
d2
24
1b
ca
5f
2f
e8
20
95
d2
d3
2a
fb
3b
16
1f
b3
28
e9
23
1d
4c
bf
fe
8c
2a
e8
45
3e
85
8a
96
7c
4b
62
8b
ef
00
e8
cf
e5
a9
15
58
29
16
70
e2
3f
1a
b0
ec
3e
36
48
5e
f5
0f
dc
5a
08
ee
a2
07
f8
0b
24
d4
69
ff
48
09
ed
03
cc
e1
4c
b1
7a
3e
0c
32
f6
53
44
bb
c1
f8
05
38
b8
e8
62
d3
f4
58
c7
cf
d6
fd
2e
60
0c
e7
6c
0f
16
4c
83
8a
44
88
bc
95
01
29
32
dc
20
db
ae
f1
fc
15
c1
97
ce
fe
9e
08
4b
ba
16
ec
af
20
a7
33
96
32
a4
80
3d
df
30
08
d5
70
b6
97
26
cd
4b
ed
72
73
6e
71
7c
a0
7c
15
02
10
48
08
0d
20
6e
e6
2f
f5
48
4e
da
70
26
ff
a0
4d
57
6c
af
d4
4a
5e
a9
82
d8
f4
88
81
86
21
67
e1
87
ed
a4
ef
74
bc
00
57
8d
db
38
cd
7a
48
95
08
01
be
fc
01
17
30
78
72
10
99
11
6f
d2
4d
84
8d
c5
31
cc
5e
b7
ee
37
e4
2e
20
1b
2e
ff
d5
6c
11
9b
d7
a4
d3
28
c3
60
83
12
c9
d6
e3
7e
87
f2
46
5f
3f
74
c6
a9
62
33
3c
21
f4
12
9b
6c
c6
66
d9
77
bf
52
af
71
44
51
e3
d9
4e
b8
33
4a
a4
a4
19
cf
f6
6f
15
1e
e1
e9
2d
1a
6e
16
ff
43
ae
eb
62
13
11
74
7d
ce
02
b0
d0
f2
93
a9
57
b1
ac
5d
6f
5d
5d
42
6b
a7
69
8a
b0
5e
3c
20
fb
aa
13
57
09
70
e3
42
7a
6e
40
23
95
f3
2a
21
0f
cf
4d
87
64
01
7b
0e
cf
9c
03
28
d7
75
6c
a4
4b
30
4b
2e
c8
70
6f
d7
7f
2f
dc
6c
c8
a1
11
76
65
ca
a5
4b
0b
17
8a
7c
48
ff
89
71
d9
1d
cb
32
8c
57
78
d0
02
73
1f
07
25
d4
f9
94
7c
97
a8
7f
b6
40
d0
fe
2d
01
a1
ce
01
e7
4d
51
a6
b7
d3
8f
95
7e
2d
fe
c3
0e
fd
ce
1d
3f
ed
6c
70
54
84
3a
51
13
50
2f
11
80
79
98
ff
44
3b
35
c2
c9
3e
99
fa
3e
be
f1
81
aa
03
20
54
f0
10
d9
fe
1e
9b
34
62
71
1e
71
08
bf
c8
74
bd
7e
b8
10
aa
72
8e
c7
2d
ad
ad
9a
26
9b
01
f6
52
ed
ee
06
e3
1f
15
56
e3
76
52
91
16
7a
03
18
68
bf
b2
a0
b8
94
1c
c1
6a
5a
ef
ba
38
77
28
34
a8
23
01
f9
c3
d0
88
7d
ab
95
35
77
7b
09
5a
21
2e
a2
b2
b5
18
3e
05
51
70
92
ad
f6
3e
17
db
67
f2
66
0d
25
cd
9a
3a
a4
7a
ae
59
3d
14
e6
57
34
ff
74
1e
86
01
3b
f7
34
07
30
74
86
79
19
15
3a
42
13
4c
dc
c2
69
2f
5f
70
94
7a
3b
22
a4
46
05
27
ac
8f
bd
e5
48
d8
22
30
ae
1e
3a
68
7e
d5
1f
e0
eb
e4
fe
89
47
06
02
72
29
8a
6f
90
3d
c1
e0
7e
3f
c8
d8
df
f4
c2
b1
ff
68
cd
b2
cc
72
2b
d9
d8
2e
50
f1
f1
23
0f
ff
2d
fa
cc
d3
d0
64
21
0e
1e
2f
95
c1
91
1f
c3
07
ec
cd
3d
f8
d9
4e
23
b1
e8
54
7c
a4
2c
2b
18
ec
8c
99
82
4c
e7
da
1d
02
7a
c2
3d
a7
a4
b2
8e
01
04
b7
60
5a
03
0c
2b
56
6f
a9
9f
6f
d3
b0
99
92
c4
2b
36
5c
c1
7f
53
ff
75
f3
1d
73
f5
de
40
0c
39
1c
1d
62
90
00
21
fc
1e
de
2c
74
48
95
cc
e8
c1
3b
06
a1
3a
80
03
56
03
47
3a
53
cf
68
86
07
03
45
b8
2a
9d
f5
26
d7
87
cd
55
f2
66
41
9a
5b
3b
3f
c2
3d
84
00
65
ca
a8
f4
18
6a
fc
46
77
f6
4a
93
e6
08
e7
01
80
04
d0
26
d2
e5
1c
e5
a9
a3
1a
c7
b6
e3
27
c5
e2
98
50
57
0c
3c
6b
71
8a
71
e3
98
ec
20
e3
e4
39
88
e6
e6
2a
7c
e5
c1
a9
04
4e
dd
2d
05
d8
4e
a9
cd
0e
48
d7
a6
c6
d6
f7
5d
fe
72
25
bd
23
26
50
91
c9
b8
5f
b3
b9
8a
52
86
a5
ef
7d
7a
e6
c1
e8
01
ba
c5
3a
d7
4b
0e
f1
01
dd
c8
6e
d5
60
4d
97
e0
26
19
9c
49
7c
84
91
5b
95
66
1e
e3
d2
52
ff
d5
bb
73
51
5c
ff
13
27
80
2b
d0
93
0c
fb
1a
01
e0
64
85
bd
be
96
9a
d4
27
de
41
a7
16
d7
c0
bb
84
f9
a6
9f
d7
26
37
4a
e3
a2
ad
fe
5f
0e
59
b8
14
bc
e9
84
5a
d4
06
49
1c
12
b0
f4
e0
7c
90
c9
c0
c2
29
e7
58
14
fc
4d
3a
1e
91
be
b9
2d
50
af
4e
7c
9e
10
06
e1
ff
d9
f1
a6
77
6c
13
29
c2
5a
ba
ca
cc
1e
e0
b0
52
2a
ee
52
60
67
2d
8f
dd
4b
3e
24
86
03
ae
43
34
95
f5
d0
b8
79
d7
a5
34
b0
10
f2
17
8c
ae
f1
77
01
01
15
de
99
4f
db
54
4b
af
58
02
3d
2c
77
99
b8
84
fb
b8
20
a8
fa
83
aa
a5
5a
d4
af
ff
04
d4
af
88
7d
c6
3d
ed
a5
99
4e
18
b1
ff
c3
42
08
cf
12
f1
46
7d
bb
61
b9
de
05
dd
5b
5b
85
15
f4
43
ed
c4
7c
49
ad
07
3a
6c
2c
e4
60
ec
75
dc
f5
44
3c
99
75
52
0f
ea
80
f3
80
a7
16
9a
d1
a2
5d
f2
45
ff
fa
64
8d
f6
b0
e0
7b
4e
5a
c6
fc
6d
23
0f
de
2f
52
46
1a
44
fa
51
c5
79
f5
62
b7
a4
9b
0e
82
a7
22
63
f5
d9
a5
db
8b
27
8a
6c
a6
bf
36
f4
49
82
3b
2c
4a
97
7e
b4
4f
9e
b6
2f
a6
ce
d9
2a
d5
f0
73
5c
76
e2
e4
39
91
5e
42
f2
6b
10
23
96
06
da
2c
46
58
04
ff
f5
fb
79
ad
46
2a
df
67
18
05
22
0e
38
33
4e
e6
e2
9f
f4
54
a9
1f
e6
f7
ec
e8
77
59
87
57
55
db
77
e5
1e
fb
2f
d2
27
6f
e0
10
23
d6
6b
c8
23
b1
0f
3b
ff
5b
db
ce
d4
95
2a
ee
02
f6
49
1f
12
f5
fc
51
72
a6
a2
6d
53
05
a3
0e
5b
41
ad
42
cc
6a
0a
21
01
71
40
2f
1a
ac
4a
75
af
f4
0d
d1
1d
89
c8
3d
20
52
32
6d
0b
f0
27
b6
c1
a8
45
b3
f7
1a
49
0c
33
01
b5
40
f9
72
74
f8
eb
42
88
7d
df
61
20
