81
0f
49
31
f3
c7
ef
21
bf
29
f1
f8
e3
4e
32
15
04
d5
fa
e1
12
0a
1b
d8
fc
f3
ef
e6
b5
20
fa
ac
de
26
3c
e9
eb
ef
e1
e2
1d
07
e7
f5
c3
0f
fc
f4
c5
f4
0c
d8
1c
1d
39
3e
c8
21
fa
15
0b
02
03
24
f8
18
3e
22
dc
07
35
cc
2f
f6
0c
f3
2b
f6
1e
1a
dc
13
07
fb
00
11
c2
7f
ac
f8
31
f3
ce
d5
f2
da
3a
9b
1a
9d
3a
17
f2
b5
cc
0e
02
db
23
3d
ac
b7
14
6a
f0
1f
30
42
38
5e
26
1d
d5
41
4a
c3
3e
ad
0b
ce
dd
2a
cf
81
2d
56
08
f4
fb
b1
28
f5
20
fd
6a
ea
72
f5
e7
22
45
5d
41
8a
0c
e0
ed
d7
22
0c
f9
c4
c5
e0
ff
0d
bf
3f
c9
3a
04
3a
2c
3c
34
db
eb
18
01
e9
01
05
e1
fc
c7
10
f1
28
ed
5f
fa
0b
dc
03
41
2e
d4
0a
f6
d1
f6
ff
de
39
e8
eb
d7
e5
46
4c
db
1d
e8
ec
1c
44
18
2c
3d
cb
bd
05
f3
1d
cf
0e
81
42
c3
ae
a5
9b
e5
38
43
63
e5
21
2e
e1
f1
ec
c5
73
07
dc
b2
09
ca
cd
e5
3b
f6
e4
20
25
26
cc
e8
20
11
a2
1b
d2
9f
1d
e6
e5
03
63
b7
e3
f6
e7
20
3f
a0
aa
e4
f1
d9
1d
fc
48
ae
a2
4c
68
a3
20
fe
30
d2
33
16
c0
25
73
f5
24
c2
e1
f9
5b
3c
fd
47
d4
e7
1f
e1
21
b8
b1
3d
ef
ca
fe
81
f9
4f
e3
0e
22
f9
a1
e9
2b
07
2a
01
0a
e1
bb
11
0f
37
17
3b
b1
df
3d
f2
16
23
1f
0d
19
02
08
1d
fb
ed
fc
ce
eb
c2
ee
ec
19
17
fc
15
21
44
c0
db
cb
f9
70
d2
25
07
03
7f
cb
d5
be
26
29
de
f7
99
b5
c8
00
21
26
e3
10
ff
14
09
47
09
0d
f8
20
10
ad
fc
58
48
bd
0c
d6
9b
29
fa
35
fc
fa
fb
b0
ce
ea
e9
04
18
17
7f
cb
16
6c
12
f6
4a
de
28
e9
c2
e2
f4
c6
2e
d6
ff
e5
1f
df
20
16
09
2a
e1
b8
c0
3b
c0
00
cc
1a
f6
c6
26
d5
da
0b
f5
ea
26
c1
ac
92
36
c8
1a
b9
5a
00
50
c7
4c
e7
cc
3d
3f
b3
10
26
d9
d1
cd
ea
28
14
28
ee
b2
28
51
2e
41
ce
e7
05
0f
2b
7f
0f
2e
05
ee
f0
f9
18
ee
bd
0d
c9
ea
db
10
1a
cd
fa
3f
ee
c4
eb
05
00
24
ed
13
26
0e
e7
4b
b3
38
ea
da
dc
4e
b1
6e
cf
ec
01
1b
fb
12
fa
f1
24
00
6e
0b
12
0e
f5
21
22
a4
06
cf
c0
7f
ee
05
c3
30
29
1a
cb
f5
d9
fa
20
72
d4
1e
3f
da
38
32
fc
f1
2d
eb
32
02
2c
f4
35
be
31
d0
e3
28
b6
02
f7
10
19
f0
e6
e8
53
f4
d7
d6
a9
e2
d2
2d
ba
7f
e0
fa
ca
09
2c
16
f3
eb
c8
29
1a
03
f4
40
e3
df
f7
9f
97
34
f2
e5
2d
0d
fa
be
0d
f1
07
3b
17
ae
e7
f7
a7
ec
49
ef
e4
b0
ce
de
c9
e8
d0
2c
45
74
44
34
04
d0
cc
50
ee
07
38
c0
29
11
b6
2e
fd
6e
11
0c
c2
4c
0b
ef
f0
fd
05
66
2c
81
ee
d0
ec
bc
2a
2a
1d
23
3f
f1
d6
cc
c7
15
d6
6f
39
29
03
2c
e1
0d
a2
b4
e2
f4
1b
f9
d1
27
2d
ee
22
fe
23
3a
31
bf
10
ed
9d
c2
1a
3b
41
de
09
b7
dc
fc
21
2e
fd
14
22
39
89
fc
e0
cc
e0
17
26
e2
f0
27
ea
56
b4
bf
59
12
03
24
38
45
aa
4e
c5
0c
d3
7f
9f
f5
18
fd
2e
fb
05
25
d2
0c
0d
d1
44
42
1c
3b
f7
16
39
1b
e5
45
53
21
08
de
0d
f1
81
00
ea
f9
f0
29
d7
f1
d8
2b
01
d8
00
10
ca
d2
02
03
f5
0f
df
1c
f2
df
25
c4
0e
1b
32
fd
f2
ee
c8
10
cd
13
f9
e4
dd
1d
7e
1b
9b
27
a5
0a
40
03
d4
bd
e7
c8
fd
02
ff
fb
01
d7
c9
f9
e5
1c
e0
71
19
ca
45
ed
9a
11
f1
ce
ba
ea
2e
ec
23
d4
ea
14
60
7f
e2
04
a9
eb
21
13
98
cf
2b
35
07
3f
0c
e9
01
04
1b
2f
2f
d3
81
fc
ba
2f
0d
f0
f4
e5
2d
e1
f9
ee
e3
e6
f7
f3
ee
2e
1e
3e
10
d5
f1
db
04
1e
bb
fe
3d
0f
e1
e1
d2
df
40
44
d1
33
20
ef
0b
0a
e0
f6
1f
d3
f7
f3
e3
8b
40
d6
32
02
f2
08
be
41
05
e3
2d
01
38
09
30
3b
1f
e2
f7
1a
0e
3b
21
45
1e
39
81
29
ff
f2
5f
b8
27
6f
1d
08
3c
b1
28
11
f2
bd
da
5b
10
1d
11
db
02
0c
53
aa
fe
d9
c7
35
e8
22
b2
c1
05
2e
2f
cd
e2
e8
e1
09
63
ec
2f
e2
16
2f
54
2f
ee
02
2d
d2
01
0f
e9
11
c1
14
e8
13
45
c9
22
fa
37
20
15
9f
0d
3b
0d
30
d9
e5
09
93
f3
66
7f
83
e0
d4
e5
eb
34
da
dd
f1
fc
ef
ea
30
fa
1b
32
df
f1
e2
39
1e
c5
d1
28
32
22
17
e1
d7
dc
41
dc
ab
d9
21
ff
ba
bf
3a
ec
13
d5
ed
0d
f9
ac
06
5c
15
d0
2e
02
d4
1b
1c
22
f5
3b
eb
c4
d2
19
4e
7f
22
1c
14
d0
15
0f
e1
e6
07
0a
fb
e7
4f
3b
c8
41
e9
f6
fe
f8
24
14
29
fb
cd
1e
ba
e3
67
0b
f5
f6
df
bb
9b
c4
f0
32
0a
57
36
02
bc
2b
19
25
92
24
fc
a5
37
19
fe
ff
c4
ec
44
f8
ef
6f
d5
12
1e
00
f4
4c
f1
81
d4
bc
bc
e1
3e
65
27
b5
3c
30
2e
c2
40
17
28
13
60
74
01
bc
ee
e8
f1
50
9b
1e
6e
b4
23
21
cc
02
18
e5
e2
f9
e4
0c
fd
12
ee
0a
00
1d
d1
10
a6
fc
38
0f
14
fc
d1
81
f8
f9
07
f7
f6
09
ce
10
0c
0b
13
f9
16
0c
01
f8
f2
f4
10
3b
0d
c6
03
12
fe
e8
07
05
ec
ea
1a
f7
3c
f1
12
b7
d9
d8
e4
1a
81
96
25
2b
19
19
c3
ad
e9
f5
d2
b3
ea
15
27
4d
d1
07
e8
24
f5
1f
27
bc
d6
1f
3c
f1
eb
68
31
10
5d
b7
ed
fb
23
dc
45
cd
2e
e1
18
1a
c9
22
d8
f0
cf
db
f0
f5
59
b5
ec
40
f8
03
2f
cb
b4
b7
fa
13
0c
11
07
ce
c1
c3
1c
47
1b
09
08
78
51
7f
2e
13
db
f7
f7
12
ff
ac
de
da
ed
24
33
c2
20
fd
05
fa
fe
b7
2c
e1
1d
fb
da
09
90
c0
e5
c1
0c
28
e8
2a
21
16
50
3e
14
11
ff
ed
2e
2b
14
f8
2c
3c
07
4d
c4
bf
95
be
ea
09
0d
64
43
cc
be
5b
ca
21
0a
a4
82
16
7f
c0
ff
db
fb
2b
07
9e
c6
e0
3f
d7
62
38
25
b6
fa
18
0e
19
06
cc
48
c8
43
ea
be
29
04
af
f2
17
c6
c4
ec
02
1b
50
f1
b7
ba
c8
98
1f
08
e2
e5
38
ef
d7
1b
d0
0c
f3
53
21
f9
0b
df
33
f3
ef
22
16
b6
0c
c3
f5
ef
e0
49
28
1d
f3
d9
cc
db
f8
bf
dd
d9
81
11
e6
42
e1
51
e3
e6
d5
0c
b0
e8
eb
f2
d8
ff
18
e6
27
f2
04
ff
e5
15
e4
cd
01
24
0b
33
81
c4
1d
ed
09
dc
f1
b9
0f
64
d7
ff
d8
d5
2e
d9
39
a4
f5
9f
88
56
d0
01
2f
1b
17
f7
e0
fd
df
37
9c
5a
cd
01
dc
bf
0b
cc
44
e2
16
cf
f1
0b
11
c1
23
e0
38
fa
05
25
05
28
9d
fb
39
a5
f1
ce
b5
3e
14
7f
29
25
c9
2b
16
0b
a8
e1
3f
d9
1f
c7
fc
f5
10
45
e3
f2
0b
2c
35
1c
31
cb
d3
2a
41
ec
33
df
79
c5
35
0f
f7
f4
c2
29
30
08
dd
8a
bf
f6
0c
33
70
0e
08
0b
26
ed
e7
d0
01
03
fb
e3
d0
21
51
fa
e1
c8
6b
41
06
f8
1e
67
c6
eb
e2
1b
fb
e6
dc
ed
03
f8
f4
16
13
b6
d2
0f
4d
fd
dc
a4
d9
7f
ed
61
37
0e
fb
ee
18
d7
6b
f8
31
cc
bf
fc
34
1b
29
db
dd
4f
52
00
02
6d
3e
e9
c9
0f
cc
49
f8
f9
56
f6
14
05
ec
ca
e7
e7
e1
e9
10
56
18
34
f5
e5
f2
7f
0c
e6
d6
e6
f9
20
e2
1c
24
59
04
ee
17
7a
fe
14
07
f0
29
e5
02
ee
e5
13
d4
0e
eb
35
26
d7
08
1a
07
d6
e1
f4
0a
0f
df
f4
34
13
de
01
1d
fc
fd
1e
ea
d8
28
f9
db
ce
1b
e3
0d
38
0f
0f
f8
11
08
4f
19
52
3b
1c
5a
5b
d9
7f
ff
d2
bf
4b
ec
17
10
70
a1
b8
c0
5a
e8
07
23
c9
e8
dd
0e
b3
d6
e6
ef
eb
fb
f7
a8
1d
15
13
b4
fb
3b
f1
eb
24
1a
eb
ae
e4
81
f7
f6
54
bd
ff
e3
2c
e9
19
2e
2c
dd
2d
ef
99
e6
3f
44
fe
f8
eb
14
19
57
d7
b9
e3
26
f5
d1
e0
16
22
18
d0
f1
d4
1d
28
df
1e
db
13
f9
42
ec
e2
2f
ee
ef
03
3e
b5
0c
1b
59
06
16
d7
2b
04
f5
21
c8
e6
cc
e3
38
13
21
ca
e7
4b
76
cb
d7
ac
ff
b8
06
d8
30
35
53
41
29
c3
e2
12
31
e0
0c
7f
d2
16
ce
ed
05
ea
1a
0c
89
33
44
50
dc
d7
bd
5f
33
e6
e1
3d
f6
2a
0b
ed
ce
34
56
31
fe
61
be
01
29
0f
de
2a
e9
22
0d
1e
2d
0d
35
81
00
e8
02
dc
2d
05
05
17
c0
e3
b8
a8
c8
03
e3
c6
f6
1e
0a
54
de
00
dc
13
f2
e0
e5
15
f5
d6
b2
12
1d
19
e8
1b
fe
ff
07
14
db
ee
10
e4
0d
fe
fb
35
21
31
f9
03
e2
11
15
12
0e
e1
0f
03
f7
05
08
dd
d2
7f
e7
0a
33
c1
07
22
f8
c0
4b
1e
0b
13
ec
13
13
e0
05
2e
46
32
fb
b5
04
f3
d9
52
fd
f5
f5
d5
07
fe
01
18
17
01
3b
f7
06
fe
fa
f3
eb
17
1d
f9
f6
3e
25
0a
11
dd
f5
19
06
bc
c6
08
02
45
0f
13
58
ef
ac
e8
e7
1b
03
06
d6
2f
1f
22
75
d9
31
dc
0d
fc
d5
12
f2
2b
40
e9
d1
27
1b
81
21
c3
c2
5a
73
f3
2d
fd
f4
f9
c9
ea
d6
bf
26
06
f6
1f
ed
e8
14
06
22
d9
03
f9
c2
cc
14
f3
05
dd
08
b2
46
22
45
e9
2b
ea
19
ab
de
b9
35
ea
c7
c9
be
34
ec
ed
39
4c
25
eb
72
1e
13
cb
7f
ee
fe
4a
cf
d7
ee
24
ea
d7
d6
fd
41
e5
c3
00
3a
00
0d
11
0f
53
95
08
03
f1
6b
68
02
3d
45
cb
e4
bc
7f
ed
f9
70
c5
dc
51
a0
03
cf
e9
d6
e9
eb
26
ea
b0
fa
20
2a
4e
fa
df
08
c3
1e
17
db
d9
e6
40
f6
0f
d4
e2
b6
d6
fc
dc
fd
05
4e
03
23
fb
35
0b
25
b2
cb
e4
db
d0
02
00
bd
fa
f9
ba
49
4b
ec
de
f3
7f
fd
30
12
cc
f7
d2
15
b4
ce
d1
f2
e0
4b
44
fa
a8
0a
01
5c
09
88
e8
34
ef
05
fc
67
0f
6e
04
d2
b0
bd
2e
f5
b9
02
e5
a7
bf
c6
57
f3
c0
ba
f1
0a
fe
ff
e9
fa
07
06
03
df
df
08
0e
bc
d8
e1
7f
77
47
29
21
db
e0
22
24
e3
a9
3a
19
40
2a
f1
15
ed
e7
07
41
13
dc
ed
e1
b3
d8
f4
c4
e3
0f
05
9e
48
49
1e
f5
b1
aa
a9
22
ed
c2
22
0a
51
ce
d6
e4
05
c0
1b
fc
5d
0c
d2
05
51
f6
09
1a
ec
87
10
13
dd
dd
02
63
18
17
51
19
22
ec
ea
1e
ee
46
00
d0
e4
20
15
fc
d4
14
00
7f
58
0f
ec
f7
d4
28
e5
ef
c1
e4
5e
22
c3
ce
67
c6
b8
cd
2f
0d
f7
ca
5f
87
7a
fc
15
7e
e4
19
07
e9
0b
a7
ff
94
ec
d8
21
ce
08
c4
c6
13
02
13
81
07
d5
0d
bb
22
63
27
23
0c
c8
d0
89
f8
5b
0e
11
0b
d3
2f
ee
20
14
fd
04
02
e3
e6
1a
ac
29
cf
e8
f1
de
11
24
01
d3
23
1a
0d
ff
33
4b
28
33
ec
15
0d
dc
09
ec
e5
d7
d0
05
43
24
c5
e0
7f
05
14
e9
e7
53
3d
49
61
ca
d9
30
0e
ec
9d
c8
eb
3c
13
e2
3c
13
d6
10
20
16
cf
70
09
f0
da
29
c6
4b
41
d0
c7
b7
29
24
1e
e9
6a
60
1e
0d
ac
f0
e6
22
3c
49
bb
ae
48
9e
30
bc
ef
07
f5
eb
e2
db
4c
37
46
0b
3b
67
b7
f8
f6
1d
03
f0
c6
bb
03
ee
b3
1c
fd
08
fb
fe
f9
fd
06
c9
27
ed
30
01
19
bd
20
1d
2c
c1
20
3c
dc
56
b3
d0
81
ea
ce
06
dc
07
d6
30
ea
10
37
02
0a
ff
59
46
7f
d1
e0
d5
26
d7
28
c1
d1
3f
ee
f5
57
1a
1a
08
a6
50
3c
ad
01
f9
02
46
3c
c8
d8
d0
66
fe
73
9d
2f
e1
56
c4
e4
66
08
55
df
e6
29
8b
ef
27
fd
17
b2
24
54
ef
fa
31
40
04
21
09
ef
1d
28
15
a2
7e
41
2c
15
bb
fb
fe
54
85
c5
be
16
a4
60
ae
f0
20
0e
cd
2c
c0
f5
1f
fb
ca
23
2c
bc
04
9e
d8
12
76
14
1a
2d
06
df
30
dc
13
f3
33
3c
d3
b8
1f
f1
fc
e0
df
f6
eb
0e
b7
f3
37
11
08
e7
0e
0b
81
07
d5
e8
fa
f5
df
e7
33
2b
3c
ac
e0
48
7f
0d
f9
94
c1
2c
b5
08
2c
27
c8
12
ed
45
18
d9
2c
08
32
e8
c0
0a
1f
fa
25
f9
e0
41
0d
e1
f2
10
1f
e4
eb
dd
0d
09
c7
2f
02
e1
c0
45
02
e1
f2
0d
d4
fd
0f
a6
39
c9
39
06
0a
cf
f7
7f
97
12
53
e8
0e
48
02
eb
c8
06
3e
00
be
fe
8d
40
00
41
0b
f8
00
06
f5
31
35
a5
cb
fd
58
73
06
05
e8
f5
a0
0f
2f
d3
c3
da
e3
fb
1d
f5
1d
12
09
41
d0
2b
e6
f6
49
49
b8
1e
cc
95
1e
ee
59
1f
fa
bf
ea
ff
ea
16
ee
13
13
0f
09
06
0f
b3
16
28
f3
56
f3
fa
37
f1
ea
2e
b2
37
bd
1c
b5
f7
13
04
e2
02
3d
25
fd
e2
f4
f4
b3
18
e3
d7
e4
e8
fe
37
81
1b
0e
cd
95
b6
fb
f6
d9
24
2d
26
0b
10
44
2b
12
5e
48
24
01
3c
0a
02
ea
0e
36
e3
0d
0f
37
18
2d
2b
fe
cd
cc
a5
fc
02
29
b8
ee
f1
c9
28
31
f2
e6
54
f5
1a
7f
ee
02
0f
0c
67
e6
af
e6
f2
22
0d
0e
ec
1a
04
86
27
e3
e1
f5
ca
83
e9
20
a4
d6
4c
df
81
3b
14
04
24
35
f3
f5
3a
38
00
c4
3b
f9
fe
22
cb
2d
ae
ee
39
b6
b8
16
b2
fe
a3
bd
fa
09
0b
0e
a9
b1
fa
fb
01
91
5f
fc
ff
02
0a
15
d8
0c
f0
55
fe
e2
06
1d
05
30
2f
6a
06
da
c4
0f
03
c7
f3
0e
63
1e
de
dd
29
1a
ef
e3
d1
a8
0a
e3
10
34
0c
ae
16
bf
f0
1e
d6
72
0a
ee
16
f4
b3
d2
0d
31
26
45
7f
0a
ed
15
ec
af
d2
35
0a
0c
f2
08
be
35
ea
05
da
fd
d6
15
e2
2d
3e
0a
12
ed
c1
17
fb
ed
d7
57
0c
42
d9
df
51
0c
cf
1f
ad
d8
dd
24
d7
fe
ee
4f
3c
30
ee
bf
0b
26
de
51
05
0b
ed
89
06
21
30
c6
d8
bd
27
1a
35
06
bf
e0
20
2f
0c
7f
fc
0c
1e
f6
24
11
fc
ff
51
55
d8
38
fb
3a
dd
11
5d
d1
ea
18
51
cd
d2
fc
81
28
c5
e1
11
05
fa
18
d6
c5
30
4b
fd
10
19
32
fe
f2
c2
f0
f4
e7
ec
2e
4f
ce
09
f0
d9
0c
39
1c
9c
3a
50
ea
17
1e
1a
e3
7f
4e
b9
ca
d1
f4
fe
ed
15
24
ea
92
9c
44
d5
fa
d0
ec
f4
e9
4d
27
be
c5
cb
e7
de
09
f4
7f
00
0f
1c
11
fe
fe
ed
0c
cc
3f
fa
e9
ee
f6
e0
f2
d6
15
e6
f2
e4
d5
0c
00
dc
46
eb
cb
19
31
b6
f7
0e
cd
06
29
bc
f6
fc
f1
d3
13
df
12
ef
d2
b0
f0
ec
ff
e6
46
d4
f9
81
0e
00
cf
ff
f4
50
fd
1e
0b
b6
25
f5
e0
bb
f0
dd
0d
cc
33
09
b1
1e
e0
10
f5
f2
40
d0
c8
c4
1f
9b
12
3e
07
50
33
5b
22
fc
19
38
29
22
d1
31
d4
0a
30
14
22
02
af
bd
08
32
15
d9
2d
cf
f3
f9
de
81
02
35
e5
01
37
e6
f8
0e
d8
06
f0
db
3f
f4
f4
cb
e2
27
fc
5f
23
dd
db
4e
df
2f
28
02
ce
20
d9
2a
f3
5b
16
44
0e
e7
cf
f2
e5
41
2e
e2
f0
e9
17
1e
e3
e3
1e
05
f5
c2
f4
e9
e2
ee
e7
81
3c
25
00
64
fc
f6
fb
25
eb
04
04
e9
bd
e0
37
3d
d8
d3
45
a5
36
19
fd
fb
32
25
cf
37
30
93
05
25
e0
fb
41
f5
1b
fc
f5
de
e5
de
d8
f2
e6
f1
22
17
aa
2c
0e
1c
0c
e9
dd
b5
0b
cd
63
0b
23
d8
19
e1
15
1a
14
cc
d5
09
a4
df
86
7f
ef
01
f3
fb
d9
13
e8
0f
e6
4f
db
c4
53
e1
11
4d
ba
e2
41
9f
63
94
51
34
20
f3
f1
39
dc
f7
de
63
a7
13
10
aa
af
39
da
4f
db
19
0a
0e
fd
e2
ed
0c
d1
b1
22
75
c8
e5
23
f2
07
c2
3a
c2
06
00
c9
09
af
da
2f
e8
32
7f
2f
03
31
5f
32
ff
f3
e5
1a
fb
b1
c7
f4
08
1f
f3
d2
d5
e6
3e
d6
f3
46
f3
d7
27
e1
09
dc
40
19
fe
38
19
16
08
b9
fb
0e
ef
0e
9b
11
f8
df
fe
0e
81
93
e5
0a
17
0b
0e
59
c2
46
36
d0
ab
eb
a4
3b
ac
02
e6
e7
e0
e2
d7
24
3d
04
6d
fe
e1
74
2e
f9
b4
3b
17
d2
f9
c5
41
ac
33
eb
8b
39
1e
d1
c6
f8
4c
f4
44
c1
13
f0
dd
2c
47
4d
30
52
c3
4f
bf
40
1f
e9
d2
d6
66
44
da
ef
06
fe
2a
15
40
12
0b
2b
c2
e5
9a
f2
4a
e6
1d
cd
c0
fe
96
1b
fe
1e
f4
7b
3c
10
f3
ab
21
2e
f4
66
11
3c
ff
4e
ec
ac
d7
26
f1
54
fe
c0
7f
e3
1a
d8
2f
f1
06
dd
17
d2
81
1c
0f
1a
cd
04
f6
ff
c8
16
22
11
31
fc
2a
f1
a2
19
e1
ee
de
c7
08
ee
36
fc
51
27
9a
0f
fa
b6
df
f8
1d
21
1f
38
0c
0d
4c
df
d9
be
1f
a2
05
0f
e3
15
67
00
d4
08
1d
ff
0a
07
bc
fd
39
f1
fa
ea
aa
f4
11
c1
47
d7
36
fd
29
a6
37
95
ea
e7
fc
de
ea
ba
25
29
25
3a
ed
0a
15
dc
e3
62
f7
e6
2a
35
c3
79
c6
17
2b
2c
eb
a5
05
1c
ff
84
45
03
67
13
81
12
9d
40
e6
ee
ca
cc
e8
6c
fe
e0
61
ff
f8
41
00
e5
16
0f
ea
f8
09
cb
12
3a
21
d8
4d
19
04
7f
d8
3a
ff
f8
2f
1c
f4
fb
fb
f8
ee
e7
25
40
04
d6
eb
e4
e4
33
3e
f7
3e
0a
21
da
04
2a
1d
b2
09
e7
f5
13
dc
f1
42
c4
27
d4
0c
d8
f1
d7
25
c4
e4
e3
78
ef
02
c3
f6
01
f0
81
03
2e
e4
ff
35
51
f7
04
16
0d
34
f1
1a
fa
c1
eb
19
2b
f5
0c
30
c4
10
cc
fc
09
f5
1d
0b
1d
f2
10
08
d3
12
0e
fd
db
ef
f8
04
22
2d
0c
fb
e0
1a
f6
26
ff
e7
66
cc
c3
12
