1c
e7
60
ca
fd
0d
f4
49
1a
cb
c6
f6
f0
cb
27
ee
17
f6
f9
df
cb
20
c1
1a
11
1e
d7
27
c5
e2
90
69
b9
db
01
6a
08
2a
01
e8
3b
70
bb
0b
1f
8e
04
ae
40
2f
1d
38
35
eb
09
2b
d0
45
d6
72
3b
f9
2d
31
75
1c
d5
0a
0e
3d
bd
10
da
2a
ac
f1
50
0f
f7
2d
0c
0d
15
08
21
bd
ea
eb
5d
25
cd
c3
ee
d9
01
47
85
01
08
3d
f5
97
2a
5f
a2
8c
9e
b4
e3
33
95
72
47
84
26
37
e6
f9
96
ec
4a
aa
98
9d
95
66
9d
cb
e7
e7
0b
01
50
0d
f1
00
c3
2d
e6
e1
cb
dc
df
e0
e9
ed
dc
ab
15
2f
fa
c7
d1
3f
e8
58
f0
0b
e5
20
a9
9d
fa
b2
aa
fc
37
e1
18
78
29
7f
07
c4
0c
e0
30
f8
bd
78
4a
5f
36
f6
ff
d7
e9
0c
26
21
4b
fb
34
09
c8
f0
08
af
00
ba
09
ee
dc
37
c3
e6
c8
f7
f6
8f
dd
3f
d2
af
ff
20
ee
e0
c6
1b
fa
47
b7
c2
df
e4
77
35
79
31
eb
8a
f0
7e
9b
4a
96
0c
c5
ff
7a
2a
a8
fa
5f
f0
c1
d5
35
da
70
50
de
31
b9
70
c8
40
af
c0
be
da
50
e6
2e
5e
24
e6
b4
48
d2
25
d6
1b
cb
1a
e6
bd
e7
10
d3
cb
43
da
20
5e
b8
93
01
bd
15
5d
cf
15
74
fb
8e
27
ef
52
c9
3b
d7
7f
34
96
c0
15
bd
46
4d
b3
13
78
68
df
ff
b4
8a
6e
37
98
1f
45
0a
4d
d4
1a
16
1a
d8
ca
e3
a5
56
9f
26
f8
e2
c1
fe
db
15
16
0d
ff
f6
2c
09
75
4b
84
01
66
99
8d
a6
12
15
b2
39
6a
f7
26
a5
1a
14
4d
39
fd
a1
01
49
1e
25
2e
96
fd
7c
ec
1a
97
74
c3
d4
f0
fc
1e
5f
0e
14
fe
29
42
01
14
d1
48
65
ce
5a
d1
16
cc
1c
13
00
df
0c
3d
75
0f
d1
f4
bf
a1
37
ff
67
fd
ec
09
a0
45
a3
77
59
40
45
ba
7a
fb
1a
e5
fd
80
1b
fe
2d
9c
9f
0e
96
94
bb
74
54
66
42
f2
cf
05
54
f5
c2
3c
04
bc
83
59
d9
09
d4
14
c1
00
1b
b6
70
73
44
88
bd
25
f5
59
f3
f5
fa
04
4e
01
e9
f2
27
39
c8
1a
8d
b6
28
28
9d
c9
2a
b5
be
30
fb
14
38
01
0e
9d
4f
11
c6
3f
ac
26
50
87
db
1e
a2
29
ab
3f
59
1d
75
22
2a
b0
d1
00
2b
04
4b
02
10
f5
29
f9
db
06
c6
f3
0c
bd
f8
fa
e9
33
9c
28
88
9c
3b
34
51
d4
20
0c
da
8f
2c
8f
67
2c
8a
ad
79
4a
f0
f0
69
85
01
87
37
51
7e
0c
aa
e6
b0
6b
49
0e
e3
f5
af
87
e0
0e
3d
41
cb
29
d9
0e
18
dd
b8
cc
6e
f2
68
d4
3f
d5
01
23
15
5c
b5
09
66
f2
d9
9f
03
0e
b8
5d
f5
23
d7
aa
fd
01
a3
5c
35
57
33
ae
d2
5c
b8
45
23
8c
51
3f
36
8e
d2
d0
57
b4
eb
e0
c6
11
28
dd
de
3c
d3
eb
22
f6
04
5f
b5
f6
2d
b1
cb
25
3c
36
09
3b
13
0d
01
d7
bc
09
b7
40
17
12
ef
42
09
a4
92
fe
e3
a8
a1
d8
25
ff
d5
b4
8d
59
6f
eb
c7
e8
0a
89
77
20
1f
7e
c6
ec
55
1b
4b
fa
d0
d2
f8
e6
a7
e1
04
2a
f4
1f
a5
e4
ed
12
df
03
0e
fd
3e
c4
da
f8
35
eb
d9
20
fa
b7
3e
9b
95
41
d8
15
a1
01
56
50
8e
e0
82
f8
13
e0
0c
78
db
87
c5
32
7d
20
75
13
ff
25
6e
d9
23
6d
c2
08
a3
20
d3
ed
40
bd
fa
eb
25
b0
cf
22
57
14
1e
42
c1
e6
d1
20
08
1f
ec
d4
25
f5
05
39
c5
f0
22
35
0c
90
22
04
37
e4
bd
38
c8
89
90
5a
3d
cc
61
c1
6d
be
94
d1
1c
1e
b5
2f
20
26
54
ff
b4
a7
0e
4d
42
37
4b
25
fe
1d
0b
dc
13
c3
2e
30
bf
11
23
39
dc
dd
f3
02
24
0b
44
22
ea
b4
20
cc
6a
4e
74
32
40
09
7e
83
01
36
63
51
47
01
fe
4e
5b
e4
b2
11
7b
80
b9
cf
3f
dd
a6
86
94
17
6d
5a
b8
2c
fa
cd
08
13
6c
30
b0
f4
9b
dd
1b
fe
11
2d
dd
1e
f6
ea
0b
0b
17
63
dd
bb
ee
07
15
0c
fb
05
e7
10
91
49
c6
6b
f1
44
b2
be
dd
73
2e
4f
0d
ef
ac
1b
b3
03
47
7f
01
32
02
f3
4c
94
84
94
d6
ec
a3
55
f7
5d
74
2e
17
25
a9
75
e9
69
de
d1
58
f7
28
3d
6b
40
8c
cb
7e
aa
18
bd
e0
59
01
c6
66
4f
c6
9c
87
1c
ec
56
93
ae
24
74
e8
9b
da
46
c3
94
57
74
af
8b
df
c9
47
6e
7c
f6
18
8e
a3
b9
af
41
ff
cd
11
0e
c6
04
e9
e0
f0
d5
80
db
e8
26
18
04
e5
01
d7
cb
03
fe
20
3f
59
21
e9
03
25
da
c3
79
ec
d9
4f
c9
62
f8
35
44
39
80
d8
f5
17
9d
15
97
8e
5a
de
34
d1
34
f9
68
f1
a2
d4
a7
b1
aa
ff
52
18
82
fd
33
e8
f2
cb
ce
3c
27
74
10
6e
a5
c5
cd
29
d1
04
49
4e
c2
cb
ff
1a
46
dc
bb
21
db
2f
28
c3
28
cf
2a
1e
90
3f
a6
6e
5f
68
37
c4
01
ea
1e
93
db
08
bd
42
85
59
49
7e
f3
5b
46
53
69
1f
59
fb
aa
de
94
36
4e
d6
5d
31
df
6a
17
03
0a
33
bb
08
45
3e
08
bb
d4
18
18
16
d2
35
e9
b8
d7
d4
6f
0a
04
c9
ef
80
ff
91
fb
86
3d
8e
cb
63
cf
5f
ed
24
74
6e
61
e3
a2
84
c7
b5
39
4d
a1
f9
b0
39
d0
e1
15
e3
31
e7
28
4b
22
ed
3a
24
c3
dc
3f
34
b9
32
1b
2e
0f
41
fd
e8
20
0c
16
f4
e2
0a
12
fc
e0
38
10
4f
f9
a0
5a
ef
4e
18
b6
21
be
2c
9b
4a
0d
e7
54
6f
66
07
81
ff
1a
c3
a7
26
58
a3
b6
33
60
01
f6
46
c4
dd
3e
0b
ba
18
c4
83
47
e1
3a
f7
e9
37
c8
30
88
51
2e
de
e7
09
0b
b3
38
21
b9
93
75
79
92
02
9d
31
fb
2c
e5
8c
1b
78
4e
ff
fa
b5
68
6e
49
07
0a
30
4d
1b
79
36
d2
60
80
b1
af
4b
f6
13
d8
f7
1b
b7
e4
e3
a5
1d
f6
25
fa
0e
d9
d8
58
d7
e5
d0
27
a9
0a
28
f6
f8
08
e3
51
10
d8
f9
51
ac
02
75
8c
3a
de
27
40
fc
b8
a2
96
f7
b4
09
13
e2
26
1f
f2
f5
da
10
10
6c
01
29
1e
0d
1a
ed
ee
13
2b
2b
e3
f3
16
15
be
3e
3b
05
15
15
da
f9
0d
12
05
f9
df
20
f8
e6
c8
22
df
0a
11
3d
2e
3f
fd
fc
c6
04
22
c9
7a
25
75
0b
78
75
02
f8
d7
cb
ff
78
71
db
54
2c
fd
f5
ff
3f
bb
7b
df
ff
05
7c
08
6a
23
21
ea
d5
19
e6
a8
0e
d8
1a
0c
58
e6
56
75
fc
02
13
f5
22
e3
fa
cb
bc
ea
ff
d7
ff
a3
10
1c
0f
c3
d3
a8
6e
d6
f0
ee
2c
61
fd
d6
e4
2a
0d
c2
01
da
22
e8
5f
22
2a
1f
1b
e8
22
53
36
ff
f1
2b
eb
bb
ff
c8
1c
37
f5
5d
26
42
26
d7
5b
31
15
ea
4c
ec
5c
a7
0f
f6
ea
f9
d9
26
e5
d3
01
f7
d8
9f
3a
1b
38
17
d6
e5
67
48
62
47
ff
01
27
0b
fc
89
77
7e
78
d7
50
85
5d
6c
a1
64
a6
31
cf
fe
77
22
f2
e7
48
b1
04
eb
97
08
cb
01
a0
da
c0
c9
4b
35
4b
c4
01
2c
e3
52
0d
1e
fa
07
f0
17
b6
18
ec
d6
4e
f4
a5
f5
61
d2
c5
c3
e1
a3
45
9f
87
14
85
9c
10
a3
ff
cc
dc
58
5d
6f
44
b0
2c
26
df
50
ac
08
b6
00
cd
36
25
3c
31
8f
48
eb
40
0d
26
12
8f
e3
f9
52
36
29
a3
41
da
cb
03
99
cb
11
2d
3b
50
58
e2
ac
0d
81
70
36
92
35
45
f9
fd
14
7b
ff
ff
db
eb
f8
e6
1a
f7
82
1d
e3
fd
b9
6b
17
31
dd
22
25
78
f1
fe
18
37
ed
e2
3c
60
0f
e8
fd
45
ec
c4
ac
16
fb
22
b4
e4
34
e4
f0
1a
72
ea
f6
34
0e
0d
19
0a
ed
74
e7
7d
90
d1
31
9c
5e
d0
73
71
d3
69
16
ce
52
e6
ff
f3
aa
32
9d
be
8d
7f
7c
39
df
e8
57
35
44
24
44
24
47
7e
16
2a
4e
25
45
3a
e2
d6
fa
40
20
30
bd
ff
45
00
df
46
36
2a
fd
02
d8
09
f2
30
e1
a4
4f
56
3e
6a
da
1b
d0
57
c4
c9
d2
33
e8
c0
54
c2
e2
77
5d
b5
3f
30
01
83
74
5e
61
b8
bd
19
eb
1c
06
05
cd
2e
f5
d1
de
f1
09
dd
2b
66
ee
ee
06
01
eb
26
f0
df
dd
ed
06
23
e8
16
d7
00
25
22
f8
f4
95
bc
1a
78
01
56
e1
d9
51
f1
bd
cf
92
6a
39
47
40
78
ec
da
1e
93
db
3e
97
21
9a
05
87
17
6e
04
01
22
da
ed
2d
d9
fd
0c
e0
d9
37
fb
0c
d7
2f
09
d3
1e
f5
29
f0
fd
f7
b5
23
de
3b
fd
0b
2a
f3
a6
4f
ed
44
38
91
35
0c
3e
09
01
f4
c3
0f
61
b1
cb
ed
67
c8
65
c2
87
28
bd
62
ad
b6
99
0b
9e
7c
06
08
fb
ae
38
51
aa
0c
0a
ee
de
73
d7
a8
ac
d2
2b
09
09
c2
fb
1f
3a
2c
ec
34
fb
1b
bc
f5
fb
21
45
2e
38
ba
f5
2a
f1
c3
36
04
27
bf
27
18
17
32
8a
88
f4
e5
49
55
27
6b
51
92
a1
06
09
9f
01
1c
68
34
12
2e
dd
bc
11
fc
18
c9
14
cb
2a
4c
32
e8
e9
f1
09
2b
06
da
d2
fc
32
b3
1a
de
48
e0
12
0e
ff
f5
e3
1f
0e
6c
a0
b9
08
31
be
e8
41
15
d3
20
bc
30
d7
0e
9a
40
03
7e
0c
5d
6d
9e
09
8b
d6
84
fa
f1
12
f5
e5
0e
0e
d4
d4
0a
4b
e5
f6
e1
18
0e
0e
03
11
2f
18
f8
0b
16
e6
ee
2a
28
d3
23
c9
b8
dc
ed
e0
c8
d5
9a
b4
11
17
fe
03
9d
5e
d7
3a
d8
b3
3c
de
0c
42
90
ff
43
1c
9d
41
d3
f3
28
96
99
3a
ef
e0
50
0f
3e
d4
ca
05
59
db
da
f4
1b
10
a4
04
d4
0a
dc
6f
fa
29
f4
ee
d9
d2
eb
ed
ba
fe
03
40
e7
57
01
80
07
b0
a0
07
45
47
32
5b
f1
8c
76
02
34
e7
e5
ac
cd
bc
1d
a1
19
d2
4b
6f
0c
18
c9
fa
15
24
2b
e0
2c
26
30
10
96
e8
f2
dd
cc
6f
05
e6
23
b0
e4
d1
f2
2a
35
ee
e6
07
ef
fa
74
23
08
54
79
08
74
11
1e
6e
77
ec
f2
cf
5f
22
23
66
0c
d2
16
ff
7f
38
5f
72
48
6b
13
dc
d6
3b
7f
fd
1c
cc
cb
f8
63
24
e7
28
f0
ec
3d
08
1b
f2
93
8d
c2
35
d1
1d
fe
0f
f9
05
a8
d2
27
55
bd
00
4f
c5
a9
eb
29
75
3a
5f
d0
b8
98
d2
08
90
5b
33
d7
fc
dd
39
31
39
dd
ff
1a
93
88
ee
16
f9
38
04
cf
f2
85
32
35
d5
42
d4
ed
9e
d6
2c
0d
0b
e2
e1
0c
84
03
16
f1
ca
0b
c8
d1
03
13
20
d7
e9
b2
33
fa
fc
d4
74
f7
0a
5e
22
ee
07
2e
c3
15
83
1c
f0
bb
aa
4c
30
d9
6a
57
8c
35
fb
44
29
76
ff
94
7f
46
3f
77
fe
59
5c
e3
0a
f9
ee
3a
eb
14
7d
42
4a
19
f7
1a
a8
ff
08
26
f0
fa
e2
05
51
38
ff
fe
0f
95
2b
1e
39
14
43
79
40
50
13
a4
bd
85
d0
84
d3
04
0e
92
98
c2
c5
89
5d
5f
68
94
ff
b4
40
65
a8
ab
ed
de
28
c7
04
3c
a6
dc
1a
aa
14
e4
c6
fc
db
18
f4
ff
d2
32
5f
e0
45
2c
2a
04
e6
20
dc
12
88
46
ad
06
33
29
68
96
74
2d
c7
e7
05
c7
18
92
85
cc
ed
e8
26
36
29
c7
f4
24
ba
b4
52
ff
fd
9e
db
3e
f1
41
fe
29
06
44
dc
77
22
e7
1f
cb
b9
cc
37
d6
56
33
f1
f6
de
ef
60
2c
0a
0f
04
26
b0
31
e9
af
1e
06
30
c1
68
d5
fc
77
6a
e4
79
80
46
98
66
de
75
5b
ff
7c
5c
de
bf
ce
af
87
84
df
7b
61
bd
80
53
41
d9
25
cd
c1
36
31
96
b9
18
54
fe
71
da
74
b0
04
ed
12
e3
c6
18
5c
23
c6
dc
f6
f4
02
04
1a
d3
ff
b0
9b
67
1c
f1
f1
5d
c0
25
ef
e3
91
29
f4
9d
b4
bb
01
f9
b5
82
42
df
b2
be
94
bf
7a
1b
bf
8b
55
b8
f0
ef
e0
18
be
9a
28
9f
4e
a7
43
cd
d6
9c
51
b6
b1
1f
f0
3b
81
0b
e5
ab
b8
f7
b7
d8
6c
e7
3a
01
82
f3
5a
c0
7d
a7
c6
82
77
85
2c
e0
61
72
02
90
fe
1f
a6
de
3b
77
ed
09
06
d8
4c
bb
ab
66
17
15
e8
ed
d5
fd
fb
31
ec
04
e7
16
c7
fc
05
ff
2e
17
14
28
08
f0
13
f0
36
06
fd
07
20
12
43
d7
de
75
58
2d
b7
3c
10
b8
1a
24
fc
07
27
28
70
d9
e4
b4
3a
01
94
e8
f9
ea
f8
18
29
28
86
40
c7
0c
b8
05
c9
02
0c
19
e4
2f
c0
bb
d3
c4
d2
a0
ff
93
64
16
46
c5
c7
0b
26
be
ee
1f
25
fe
1f
1c
5f
bc
e6
cf
03
5b
a0
46
60
01
51
1b
ab
24
b4
96
f9
3e
b9
62
2d
cd
5f
15
89
36
6a
f6
a1
a0
41
66
67
c9
df
0c
0c
d9
06
0c
15
1f
fd
1e
31
26
d0
15
09
f6
be
22
f3
01
fe
d1
d6
10
fb
ce
f3
d4
d5
09
ef
e8
13
67
ce
c0
bb
ab
9d
3e
f1
fc
d9
f5
94
b1
f5
f2
f9
c8
f2
dc
da
7f
56
22
04
11
ff
e3
98
51
07
25
f4
04
e1
86
f5
b0
e0
e5
cf
c3
0e
36
0d
ea
d0
66
26
07
02
f4
54
19
11
52
2d
c4
ac
26
58
f1
5d
00
f4
aa
bd
35
29
72
e4
e1
ea
bf
f3
1c
c4
39
1b
b1
43
01
12
79
7a
2b
45
bc
6b
4e
60
6f
e5
26
23
bc
cc
c3
02
2b
dd
ce
d9
ff
7e
25
d8
fc
f1
65
6e
1e
01
b1
22
3a
f4
2b
88
c7
fc
e0
dc
6e
1d
28
08
1d
2c
9c
ce
25
8c
7c
34
58
bf
d1
e0
12
28
9a
9f
e1
7f
6c
ff
fd
85
e6
23
9b
8d
59
d8
ae
4a
31
6d
6f
92
e4
11
21
c8
f7
c0
01
05
29
c6
39
89
05
56
73
55
b3
54
e5
19
ba
d4
18
25
30
c0
16
2e
f5
2b
2c
07
17
af
49
bb
d7
21
67
18
c4
e3
9b
dc
df
dc
62
0b
2d
ff
b0
6c
34
c3
ca
e8
25
1f
ae
3b
78
23
eb
25
d0
de
fa
9b
49
dd
e0
e0
12
f9
aa
16
f3
1d
d2
b1
14
35
17
f8
2e
fe
c8
be
f2
43
ca
3d
fe
0b
de
28
01
34
91
fa
99
cb
b7
78
b4
4f
dd
9d
87
34
1e
8d
30
e2
20
5a
0c
24
c8
1c
e7
22
7a
c7
b3
17
09
ac
cf
55
fd
ec
fd
64
36
5c
59
53
1a
00
95
68
0c
e8
2f
11
97
ed
27
2c
de
e1
e6
25
f5
26
56
cc
11
09
25
27
6c
ff
23
29
e2
11
ac
d5
32
65
21
d4
1a
5d
b3
0e
0f
91
e4
ce
58
04
1f
39
1a
c9
96
e5
97
33
18
eb
29
af
17
3a
d3
69
bc
05
c1
3a
2c
e1
19
e7
37
f2
8f
48
b9
d9
04
fa
04
11
58
1c
7c
d3
4d
01
09
f8
d0
cb
ba
9d
e3
36
74
c2
3e
c7
f0
16
51
71
40
bd
04
33
01
e0
d5
45
3e
95
85
a7
b2
f3
7c
b5
41
05
e5
ba
25
f3
38
fa
f4
97
8e
e5
d1
27
e0
fb
0a
2e
0f
02
ef
28
1f
10
da
0d
ee
d8
6f
2b
01
fd
e1
21
15
ff
e3
a4
1b
3c
e0
b4
a2
b6
47
e3
99
26
9c
8b
5f
7a
af
4b
50
1d
eb
fa
c7
0a
14
a2
ff
ca
2c
a6
14
4c
cb
e9
40
c2
64
b2
0f
5d
fe
ef
fb
e3
81
65
62
a9
10
fe
d4
4c
25
d5
ce
e8
5f
19
de
05
6c
a0
01
4e
a3
47
07
b5
72
fa
36
ba
3b
87
48
66
81
11
dd
f8
43
cc
0a
fb
cc
fd
18
ff
c6
df
22
41
c5
ff
25
19
f5
4a
97
1c
d1
f0
d9
dc
85
a4
bd
e0
2a
df
1e
d0
45
da
cf
11
20
37
ce
fc
09
77
75
4e
cc
3f
38
98
51
3e
b1
95
29
c7
a7
e3
c1
5d
63
23
fa
c2
02
f0
a7
01
b4
d3
0e
d6
a5
86
cd
f4
85
71
35
90
4a
d4
5c
29
a4
a2
8a
c8
b1
ef
f1
3d
98
a5
1a
2e
7d
da
8b
3f
b3
87
d3
94
ec
1d
09
12
0d
0e
a2
8d
f2
8a
0f
d0
06
79
a4
07
e9
d0
bd
57
d2
b4
e9
61
ea
42
b8
82
c9
67
d1
8c
c4
01
b0
fe
3e
00
dd
00
ee
bb
56
45
cd
32
bc
00
f5
87
12
45
b2
11
26
cc
55
c2
22
21
e4
cc
14
35
36
1a
ae
06
e1
0e
c3
ec
91
5d
35
b6
b8
af
0e
e5
24
c7
88
37
87
1d
71
c5
01
ba
b9
ed
14
ed
28
da
8b
18
f4
30
fa
06
27
29
0b
1e
2b
2a
19
f6
74
65
05
37
3c
c2
e6
aa
29
d3
ea
08
3d
f2
c3
cf
4a
2c
fe
11
02
7d
d7
1e
6e
bb
08
db
df
7b
9d
ff
5b
af
0d
d4
e4
bc
6a
e1
ac
7b
70
47
01
0e
8e
16
0d
f7
a2
67
ac
16
b4
87
f6
10
1c
ed
47
29
99
22
25
1d
c0
42
23
01
ce
3a
3d
b6
28
e0
fe
ee
0a
dc
f9
02
20
04
d9
04
26
24
03
17
ec
7f
fb
48
0c
11
6f
42
cc
39
75
4a
b3
47
87
76
bb
48
66
79
62
3c
d6
01
c1
71
01
c0
0d
60
8b
10
21
2c
03
e6
19
d8
3e
f5
cc
12
b7
d7
02
d0
16
9b
02
09
37
19
e4
ec
00
2c
94
eb
22
9c
02
ef
95
90
c3
e0
f1
06
cf
e5
88
2d
b3
94
d4
94
4d
48
6a
41
d3
01
48
c1
09
1d
63
ea
6b
0d
0e
f0
68
79
ec
1d
fc
ce
e7
d9
3b
3a
db
4d
3c
ea
65
1a
4b
17
e0
b4
04
12
a4
d8
cc
c1
45
b8
fa
17
44
db
07
29
ba
6c
94
4b
ea
9d
e8
0c
0f
a6
ae
37
04
34
9d
c6
b2
49
21
c5
bb
04
02
ac
94
51
75
f0
20
3c
01
f3
fa
ca
ae
00
4a
0a
d5
10
f9
28
25
68
1b
49
7f
2b
13
c8
32
e4
00
12
2d
ef
a4
03
dd
fe
c9
12
8f
cf
77
73
bd
eb
eb
3f
91
d0
c7
ff
66
63
ee
87
c2
64
c9
51
35
36
a6
aa
ce
62
f2
98
2c
60
7c
6f
1f
a8
e1
2f
e4
cc
6b
e1
90
3f
e2
08
f9
29
12
21
a0
d9
fe
fd
35
08
23
27
f9
15
17
4c
39
0e
e5
2f
30
e4
b7
e4
e9
41
95
ba
b5
0b
38
d9
eb
4b
32
1a
fd
04
27
45
f2
a0
e5
56
82
a6
1f
e8
3d
6f
7d
44
ff
2b
1c
20
b7
31
d3
ae
46
9b
dd
fd
29
e9
0f
0a
41
67
b4
15
9d
14
3b
09
0e
0b
2d
bd
72
fc
24
21
c5
71
7e
d2
32
98
b6
ac
f7
58
6a
5a
d8
e0
11
80
0d
3d
36
71
a6
6e
27
09
8f
84
47
01
f6
55
8f
09
47
61
