1f
55
02
de
98
11
b3
e0
36
20
26
ea
d7
46
f7
f8
b8
b9
e4
27
d8
09
e4
b5
0d
ae
7c
e5
fa
ff
05
52
d4
39
03
fb
51
26
d5
f3
95
ec
04
f2
10
e7
1a
ff
d4
29
69
72
11
2b
89
99
06
1b
7f
13
f8
91
c9
fd
4f
67
10
d6
d3
ba
3f
b8
e8
49
60
f4
f3
f5
04
b2
df
d3
15
9a
b2
1c
9a
61
bf
0f
1c
b5
65
33
47
01
c6
39
a5
fb
2c
db
dc
00
05
32
47
1e
7f
40
61
fc
0e
c3
04
d9
34
dc
cf
40
49
51
dd
e4
c1
c2
31
c1
f1
d7
e4
e8
02
df
0d
fb
ba
37
17
be
18
cc
f9
c8
be
e8
1a
18
ed
e0
c0
bf
05
ef
12
fa
cc
c4
21
3c
13
f4
a5
67
be
42
97
34
e4
22
a7
ce
c6
81
02
61
e6
b9
f9
f7
25
04
70
d3
23
eb
f0
35
2f
fc
12
d7
fe
f0
ad
f0
29
00
fe
1b
f9
d8
ec
10
fa
ec
d6
e9
07
14
26
92
1e
58
20
37
0d
38
07
61
25
3b
01
14
e4
2c
c0
22
db
e0
23
ed
20
26
14
33
23
16
c6
e6
02
21
41
1b
63
e5
db
1b
f2
10
0f
25
7f
a0
11
ce
ca
cc
c0
fb
f2
21
f9
50
37
03
cd
1e
d1
04
eb
29
e7
ba
0a
0d
c8
0f
26
05
4c
0d
18
d3
d7
e9
17
0d
3f
d3
0d
cd
0e
fc
35
31
d2
dc
fc
fd
08
0f
11
0e
41
9e
c7
d8
ad
47
81
e2
25
cb
e7
bb
88
1c
1f
a5
04
40
71
e8
ba
f3
f4
81
f7
fd
2e
95
25
f0
10
d5
fb
de
07
d9
06
cd
08
b2
ca
1a
17
dc
cb
c6
32
42
17
1b
ff
40
12
0d
11
18
84
f1
da
ec
fb
c1
2a
45
22
0a
c1
f8
24
8a
40
b1
02
d8
05
ec
00
0c
42
f4
df
dc
cd
19
33
ec
eb
12
cc
13
03
cb
f7
e9
f6
fe
0f
e5
f6
f4
f9
f7
15
0a
0d
f2
04
6a
0f
d5
cd
36
db
25
f4
2f
c3
20
3d
e4
dd
e3
81
49
fd
d9
e3
05
63
0e
1e
57
e2
7b
d4
1b
4d
fe
dc
14
25
ef
e9
e1
11
ee
f4
ed
d2
f5
21
f6
f8
2b
2a
f8
01
0a
19
cc
be
dc
1f
ff
f2
f1
e6
e6
ed
1c
f8
f8
04
fa
ca
d5
e5
eb
dd
44
14
e3
9b
0b
f2
e7
ef
c9
03
d7
bc
35
ec
01
f8
d5
1c
c8
7f
a4
41
52
7a
3b
c1
00
b5
f6
bd
2b
20
0b
e9
c7
e2
e1
32
19
08
d8
ee
09
1c
2c
d4
03
27
f7
4c
31
19
ff
07
bd
e9
dd
31
25
09
21
ff
f3
40
f0
0e
38
da
5b
a0
db
c4
29
e6
e1
f4
13
d1
02
5d
63
d8
cc
1a
3a
0a
26
81
2a
5a
2d
3e
cd
f3
d6
e6
d5
4b
fb
06
33
0d
13
d4
17
fc
e3
3a
1b
2f
f8
d6
d2
33
f7
f9
f3
04
2e
08
0f
17
17
93
cb
be
a0
0d
dd
f1
d2
7c
30
10
f3
f7
0a
0c
18
ce
02
24
00
4e
3f
14
fc
7f
14
17
31
13
d0
bc
b6
d3
bc
2d
f8
cf
02
04
1b
16
d4
10
05
f7
f7
ea
f1
08
e1
01
ce
02
e1
64
d9
16
1b
01
0b
32
f3
f0
22
08
dc
46
d8
eb
0c
0f
3e
ea
52
d1
d8
f7
e0
fa
b6
13
4d
02
81
d3
19
fd
5e
27
d6
d4
0a
15
d5
2c
d1
5b
97
32
fd
09
f0
1c
dc
1a
10
e5
05
b9
2f
f7
ff
ee
fb
ea
ea
fc
f9
cc
e9
ce
e0
f6
f5
d5
0a
f1
fe
3c
24
d5
f8
e1
c9
f5
3d
00
d6
1a
0c
01
ef
21
f8
2e
d1
41
30
fc
fa
f8
d8
cd
dd
32
e7
d7
0e
7f
f8
5d
27
ee
10
f8
31
31
09
04
15
31
dc
be
02
f9
e5
d9
17
f4
2d
00
e7
37
06
1b
2e
19
18
ed
d7
00
01
e5
d6
5b
0c
44
c7
d8
ed
10
ce
2a
db
2b
20
09
f7
14
ec
10
29
61
01
21
ef
1e
7f
db
3b
dd
da
57
2c
3b
e5
ec
fa
11
0f
e7
2d
ba
db
43
e2
10
2b
f3
0e
e4
3f
15
d2
e4
f7
f9
a4
fe
b8
e4
0b
f9
e5
af
42
18
4a
f9
15
4c
a5
0c
ba
1f
0f
fe
00
44
45
eb
fd
26
f6
c9
47
2d
42
a0
1f
cb
f4
1d
36
b5
41
d6
7f
bc
2d
f4
be
10
e3
07
e5
f4
23
e3
e3
f2
0e
e5
f1
0f
c6
e1
d6
c4
2f
fb
0a
d0
c2
de
c8
e9
02
e3
ba
13
f4
ec
13
c3
18
21
00
ec
bd
f4
be
25
fa
02
a3
f4
d0
50
ef
cf
3c
41
fd
2e
96
7b
0b
d6
3e
4b
13
7f
d0
ef
fc
dc
10
09
05
23
f1
dc
32
1c
e8
1f
e0
15
e8
e9
1a
12
f7
0d
ef
2d
13
cb
f6
0b
fd
ee
ef
0b
30
2b
d2
f6
05
13
01
b7
21
0a
41
f7
fc
0c
f1
3e
f1
f5
c0
22
ed
1e
5e
03
e4
de
49
75
54
81
ff
c5
ef
08
ef
e9
11
27
fb
0e
35
cc
e5
c5
26
fb
d9
16
05
14
24
09
e3
28
1a
d4
1a
cd
59
06
ff
1b
d6
e9
de
e0
e9
01
08
f9
e4
f7
dc
39
5a
12
03
ec
12
d4
f2
4c
13
c8
e3
04
81
e8
23
fa
21
18
21
4f
1b
2a
f7
04
e0
e9
f0
22
10
e8
e6
25
0a
03
b7
e8
dc
0f
27
c9
24
d8
e2
e6
e5
f8
18
27
04
25
fd
e1
28
cc
f0
fe
27
11
fe
d8
10
7f
11
ea
0a
ba
26
eb
13
09
3c
ee
07
cf
eb
fe
d6
ce
62
15
df
d8
ef
33
f7
fd
09
f4
05
e2
09
1a
1a
df
e6
1e
aa
f5
e4
18
f0
1c
20
39
fe
5a
1b
11
f5
b1
54
48
29
03
1e
16
f2
d2
fb
b9
08
22
19
e3
26
51
2e
ad
10
dc
2a
05
cf
fe
b4
49
d9
90
2b
d2
89
05
33
ff
b2
6a
81
5a
94
42
d7
0a
0f
10
24
fd
f0
0b
12
18
fc
24
00
d9
05
f5
0b
f0
33
c1
ec
18
13
12
26
f6
37
ff
1d
26
00
c5
fd
da
dd
f9
06
cb
b2
4e
fc
eb
cd
0b
72
fb
f3
eb
d3
f1
2e
31
34
d0
33
33
4b
ef
f6
1d
fa
7f
be
d8
b4
fa
b9
bf
0d
7f
cf
08
20
ca
07
f9
db
21
bc
e6
19
4c
d8
1c
fb
ff
1c
e2
c8
28
ff
fb
34
f7
21
42
07
05
05
b4
48
9e
3e
37
ff
ac
03
b7
fe
b1
e3
17
f3
b0
21
55
14
d7
d8
04
36
f8
39
ff
1a
30
0f
ea
09
06
d4
db
f3
25
0b
2c
26
1b
0e
03
0a
fb
23
05
fd
e9
cd
f6
0c
1c
57
d2
17
bf
17
17
dd
05
9a
f1
f4
07
f1
02
0e
23
21
d2
b2
1b
e5
00
2a
8f
12
11
d4
fb
cc
f1
0b
d3
e8
eb
ef
42
da
26
e2
81
30
33
ec
24
14
1d
05
b9
11
de
0a
07
fa
0f
e4
df
fd
2b
fe
ee
b0
d3
ed
16
a6
df
fd
df
28
d3
ec
fe
10
34
35
07
d3
03
38
54
e6
2d
fa
ce
fd
ba
e0
46
1f
7b
28
81
59
24
ad
d9
bf
c4
30
da
da
0e
6e
b2
32
cc
4a
1b
f4
0b
d4
00
13
f6
23
29
13
fb
2f
d0
40
2d
03
29
12
05
fc
fa
15
03
fe
23
0b
f3
e7
08
c9
03
35
02
e5
06
81
36
fe
d2
e5
e9
b2
08
ee
4a
0a
4b
e8
f6
fb
2c
fb
27
1d
4a
c2
15
3d
5d
19
b9
af
de
e2
2b
33
fe
22
a0
f5
0d
c4
de
1e
6a
c3
2c
db
02
0a
f9
aa
e1
50
b9
e6
1f
cb
d0
23
30
ef
ef
ee
30
60
fc
10
2e
1a
d7
f5
81
22
b6
11
d2
e5
f6
fe
27
54
1c
fa
2a
23
2e
66
23
db
e9
1b
19
20
eb
ae
d4
00
ed
f0
fd
fa
1c
e3
00
f3
15
05
13
c4
05
ea
f8
fa
df
05
eb
e5
06
13
f5
1e
d1
f4
0b
14
d4
fa
1f
15
33
15
e8
fa
f6
0d
f5
d8
eb
0d
10
e2
b7
f9
0d
f1
15
d3
03
04
e6
1c
81
4c
d4
d1
f4
fd
fe
13
31
2b
fa
c1
0f
12
59
fd
e6
fb
1f
ba
d7
c9
3d
d7
04
43
dd
ab
b8
25
ed
e0
e1
cd
02
ce
f1
42
ff
d6
1c
3b
0d
ca
1c
b5
f4
11
31
3d
92
c3
a7
2b
b7
09
3a
d4
e6
e7
c8
ca
50
e1
7f
20
11
15
37
4a
10
a8
99
df
cc
ef
cc
30
03
0e
d2
d7
0e
f0
24
dd
f9
23
0c
0f
c2
ea
0c
14
fd
fc
08
eb
f8
1c
42
36
f9
f6
fb
18
f8
3d
09
34
c5
1b
0b
21
f0
13
ed
fe
14
f9
fc
21
22
d3
1b
2f
1c
22
bb
19
20
57
2c
40
7f
fd
fe
0d
ae
16
de
31
31
61
19
d5
58
b0
d6
c9
2e
eb
d6
35
38
12
3a
e5
df
20
d9
e3
f6
27
27
2f
47
e9
1b
0d
7f
db
3b
f8
db
c3
b7
0e
10
15
f0
2a
b8
32
ed
36
44
d8
db
08
4a
dc
58
aa
ef
d4
da
1a
49
a5
4f
ab
f4
f3
c2
27
f8
d0
01
27
e0
09
d5
3a
bb
32
15
f6
06
fd
2b
a4
12
fd
cf
00
6e
2b
15
f0
0b
05
f7
1c
15
a9
e1
ea
0c
a6
04
c6
51
ae
2e
c7
d8
00
d0
9f
72
11
67
75
5a
3f
42
ea
24
1b
f8
e9
50
ca
d1
81
11
ed
ca
e1
0b
07
ec
01
de
15
fa
2e
25
48
1d
fe
20
b8
cf
f7
12
d9
3b
0c
17
0f
4b
e5
25
d9
03
02
ed
4e
da
10
0e
cc
fa
d9
2f
f7
ce
b7
13
11
ee
9a
44
dd
81
f2
e1
f2
9f
1b
33
f5
94
10
d8
e6
e0
2e
e9
bb
fe
24
01
d5
05
f4
ad
62
5f
ed
f7
cd
31
d1
e8
1a
d2
27
14
f9
04
27
f6
2c
f4
f0
01
e7
db
1a
d2
d9
af
6c
86
4e
2f
d7
16
69
b2
cc
0a
a3
b4
1d
3e
55
41
01
92
7f
c8
22
0d
37
fa
1a
dc
32
eb
06
41
1a
28
c7
d1
15
fb
31
2b
12
07
14
d7
12
01
e6
ec
d0
e7
f1
d6
18
2a
f4
e8
be
c9
2d
0a
28
0c
17
4c
d2
32
c9
0b
e5
b2
b3
e3
fa
0d
57
ce
70
21
9b
a0
04
1a
e9
1f
81
2a
49
cb
d0
f3
03
21
c8
1c
da
eb
c7
df
19
1c
16
07
04
15
dc
fe
c8
42
eb
d2
29
d6
e5
c7
35
34
fc
e8
e3
4a
eb
f6
20
c1
f7
2e
59
2d
ef
07
00
fd
27
fb
2a
f2
0d
cf
30
e0
c6
e2
31
ac
45
cd
c7
2b
c8
37
b9
1b
cc
7b
33
da
18
81
2f
bb
0b
07
f3
0f
e5
f8
0b
02
d8
0c
ce
f4
e3
44
01
0c
bf
2d
24
81
f9
f8
d9
f5
fd
1a
fb
f8
e6
3c
0e
e5
5d
c1
25
f3
35
2d
3a
d1
2a
f3
2d
0b
c0
51
0f
42
b2
e4
37
fb
de
bd
46
f9
f0
ed
2f
21
27
f7
24
f5
3b
20
0a
cd
2a
05
b9
2f
0c
10
dc
01
0a
0d
06
1f
2f
f1
ea
ea
14
cb
f3
f8
db
23
dd
ad
0e
f7
f6
7f
00
f8
ea
f8
01
01
f4
ef
06
fe
eb
25
1e
25
fc
08
ce
07
f3
1b
e8
f7
0d
ca
ef
62
13
f8
a5
ec
06
e4
c3
da
24
7f
ec
06
4a
c2
44
f3
b8
07
b0
01
d8
fb
e0
23
37
00
8c
ed
eb
1b
00
05
dc
e5
1f
e8
0f
97
06
c2
e5
d3
3c
23
1d
9a
f7
cf
20
00
a9
02
1e
68
12
00
e7
cf
4d
90
14
37
ec
4e
fb
1f
34
f7
65
9f
df
f1
22
01
4f
d3
f1
4c
e4
8c
00
1c
08
f6
6f
09
ce
46
cf
ea
0c
15
20
2f
9a
e2
18
1b
04
fa
05
0d
ed
7e
81
df
e7
27
f6
09
df
03
69
3a
66
3f
4b
19
3f
18
32
cd
3c
9d
b0
ef
1f
63
03
8d
b3
43
31
21
19
57
be
8f
f7
ec
fd
d8
3c
00
5e
c1
54
58
da
01
f8
d4
14
34
44
a3
ea
ed
ec
2d
19
a2
07
06
0d
ee
c1
2c
fa
7f
e9
b0
1e
2d
b2
52
f2
1f
09
0a
d8
e7
fc
b3
31
da
83
2b
f9
05
d6
0d
f3
eb
ee
ce
09
c6
ca
be
11
41
21
df
ed
06
cf
f8
d0
19
b0
18
3b
f5
a9
0b
40
05
eb
e8
d0
d1
f5
eb
d8
f6
06
18
24
42
c3
22
02
bb
36
2f
4e
d6
13
d0
fa
f8
19
1b
16
15
f0
81
fe
fa
3c
8e
1d
cc
af
12
d7
ba
1a
cf
06
e7
f5
04
fd
ee
f0
f5
f4
25
ea
13
e7
0a
f0
24
f6
f5
dd
0a
f7
ec
ff
cc
ef
e8
f5
29
c7
09
05
27
5a
21
28
fb
1c
d7
2a
1c
2c
00
0e
f9
02
10
12
54
c7
e4
c4
76
30
01
cf
69
7f
ef
61
de
18
44
27
09
0f
ff
ab
b5
f3
5e
d1
fe
fc
e3
00
b4
20
19
ab
03
c4
2a
55
2b
24
6c
29
1a
e0
2a
5f
05
27
22
f7
06
97
d1
e2
ca
0a
ec
22
7d
fb
77
0a
cf
22
11
d0
a3
3f
f4
3e
a7
96
c6
ea
d1
91
17
81
e9
ab
17
2f
25
d0
17
b4
e4
0d
7f
e7
31
09
b8
f4
f4
eb
02
aa
f2
ec
e8
f4
22
1d
05
11
e9
17
fc
0b
d2
e6
02
eb
be
15
11
19
93
2c
fa
25
3d
f3
41
ec
e4
03
0d
cd
ef
1c
c2
09
49
c7
f6
d8
52
40
fa
f3
33
bf
a9
f7
be
ff
0d
b5
c0
20
f3
00
41
26
fe
cb
dc
bd
26
d4
20
21
d3
f3
e1
e8
db
f5
b3
81
15
f6
14
ef
2d
d9
da
27
0e
1f
43
e9
eb
d7
e6
1b
37
da
f4
fe
0f
e8
f1
0c
0e
f6
bd
d6
21
90
4c
de
42
f9
2a
24
26
d3
dd
35
d8
18
0a
1b
ed
e3
29
1c
f5
10
17
e1
2a
dd
fc
e0
3f
cc
fa
1b
aa
0e
de
f1
e5
ff
03
08
cc
fe
6d
14
f2
24
f8
10
f9
30
8a
f8
bf
f0
de
bc
81
ed
f3
30
32
ca
1c
f5
40
15
b2
99
f6
22
fd
e3
bf
d7
f7
53
06
e4
1e
c7
03
e7
e6
13
16
0d
13
ce
12
0a
fe
0b
03
08
21
f7
35
13
0c
20
00
10
17
ff
a6
19
a8
d3
fa
f7
e4
17
1e
07
77
20
81
4c
9d
22
2a
ca
06
e8
15
c1
29
40
22
38
05
b6
43
3b
65
f3
bd
c1
12
b2
cf
e5
cc
40
12
d9
17
25
0a
e8
18
24
32
0a
c2
f9
d4
fd
50
ea
19
e2
f7
0c
c5
cf
1f
06
ff
e7
12
24
04
12
56
34
fd
11
c1
b7
32
52
1e
16
09
e7
60
db
6b
b7
62
5a
2a
6b
e6
ca
4a
4c
7f
66
cb
27
d2
c8
1b
25
13
28
a9
06
bb
50
14
f8
c5
41
ea
48
47
15
01
c0
b5
d2
be
e2
c7
e0
17
fd
0b
d6
05
dc
18
3b
1a
d3
cb
cf
fa
c2
06
e9
23
e5
2d
0a
27
2c
56
cd
22
04
6f
5d
c4
49
e0
7f
12
6f
f1
e8
67
08
e9
38
0a
f1
0d
1d
a2
35
f6
4c
38
a1
b9
42
cd
7c
26
4e
fb
fb
ad
39
e6
dd
e6
ba
18
da
b7
04
13
21
f6
51
02
47
51
c5
6a
e4
ef
25
4d
15
ed
fc
e5
7b
0d
a7
44
08
81
13
c5
e7
2f
f3
14
e2
db
3e
74
d4
0c
17
31
f9
00
e1
f8
c8
07
f9
a7
27
14
28
d0
f8
f6
e8
da
0f
29
c8
19
23
0f
0c
ef
06
db
10
04
fc
07
0d
be
e0
c2
3f
0a
b4
2d
e2
29
e8
f9
d8
d0
13
d8
bd
ca
14
27
17
23
81
4e
15
cc
fc
ab
11
22
0a
0e
e4
df
f1
32
e2
ab
ea
d2
bd
09
31
38
bb
08
08
2b
ff
f0
f4
f5
2d
16
bf
b1
fb
36
f1
01
ce
ee
ef
e9
10
06
3c
e9
24
d4
1a
e9
6d
ff
44
d1
f4
c7
af
2d
11
fd
ce
1e
91
11
f2
7f
65
23
0d
5a
23
ff
fe
d7
fc
33
3f
45
f9
dd
f4
16
09
00
13
f3
1a
d1
28
f4
db
de
46
2e
f1
19
13
2e
10
59
d2
26
1d
00
09
31
cf
f3
e0
c5
c3
48
d8
0b
f1
0e
e0
d1
d5
e6
10
a1
1f
23
7f
fc
f5
61
c2
2a
cc
36
26
bc
0e
4c
f9
5a
de
4c
61
5e
19
91
19
1a
fc
0a
33
ed
3e
85
67
23
af
eb
bc
f5
9e
1b
a2
fa
cd
b3
8c
e4
0a
0f
81
47
e9
52
de
0e
05
70
f0
87
13
2e
03
4f
d9
2c
7d
f4
a0
5c
df
33
4f
78
da
c6
d7
e2
04
c8
28
6a
28
47
fb
c4
20
1a
ab
d9
34
bc
f7
59
fa
26
f9
b2
22
07
24
2e
34
0c
e2
0c
3f
43
31
37
0b
ef
e7
ff
90
36
e9
4e
3d
7f
c3
b0
c7
de
02
c5
fb
17
69
e1
3b
e6
06
2a
68
cf
da
61
b7
12
c6
27
cf
11
1c
15
30
2b
33
f5
1c
03
c2
d9
e2
0d
de
eb
07
0e
00
f4
02
f8
cb
01
df
1e
ff
e6
25
1e
01
07
f4
2c
06
0c
1a
14
e7
0b
e6
d8
01
0d
dd
81
ec
df
fc
2f
b7
01
df
e4
19
29
e1
04
17
39
0e
f1
ae
11
18
e2
c8
de
ce
46
e1
45
0c
20
e5
fc
b5
3c
12
9f
5b
20
2f
df
18
0d
b4
f9
e4
e3
d1
dd
d9
ec
d0
ee
90
ed
d0
fa
f6
46
32
06
f1
81
0c
4b
f2
87
a6
1c
db
f5
e7
2d
d4
01
e8
06
f1
00
12
dc
01
99
26
c8
38
4a
3f
23
ff
fd
37
7f
f0
32
9e
bf
cb
15
22
98
63
2b
25
cd
30
14
9c
e0
d2
ff
19
f3
ce
f5
02
f7
01
1a
0f
e3
17
41
15
98
e1
d5
1f
49
f2
b2
3b
ef
3c
35
e0
e7
b4
e7
c3
de
09
ab
f6
22
d4
01
08
0b
d8
6b
20
1b
89
e9
1e
b3
25
18
eb
11
21
e2
06
0b
00
30
d7
3d
e2
ef
24
29
d4
1e
ee
1c
04
ed
66
e5
fd
bd
23
48
fb
df
fb
ca
23
0d
30
ce
3b
bb
13
d9
22
e9
29
08
e6
1d
51
98
05
1e
0d
ee
10
eb
61
c7
19
fa
b5
81
ef
ee
43
3a
f6
fc
dd
f3
14
e3
1d
c9
33
e2
00
00
14
03
ee
f1
35
f6
0d
db
00
19
f7
1e
1e
ed
21
09
2e
e6
e7
ff
e9
bc
fb
f0
0e
19
0e
06
09
e0
cb
0b
0a
0d
b2
08
a8
81
bd
c3
72
ba
25
de
b7
d2
a3
e6
19
31
09
f5
2b
c8
c5
19
fd
db
d5
c6
19
27
cb
0b
cb
16
00
4c
2e
ec
bc
04
1a
a7
38
db
b9
32
3e
54
4a
f9
15
08
0d
e6
63
de
1c
4c
36
b8
41
81
03
2c
2b
ff
13
24
2a
22
5a
2d
98
e8
f8
e7
36
eb
03
00
02
1d
d0
1c
00
11
f8
0f
17
c8
14
08
20
18
27
04
1d
0f
10
16
1a
f9
03
09
e0
e7
31
1a
e3
30
0a
cc
ce
d3
cf
e2
81
4d
ed
3d
0f
17
1c
37
52
d4
4a
e1
18
df
e7
d2
19
20
0e
c7
36
b9
38
d5
e6
fe
26
97
17
bb
43
24
d4
e8
05
46
de
e1
06
b9
da
dc
ef
1f
d1
fc
19
06
18
cd
0d
e7
13
07
41
57
f1
fd
1e
eb
f1
eb
f1
02
bf
eb
1e
1c
37
78
28
19
da
ea
11
27
c5
ba
d1
a5
7f
fd
e6
d7
b9
4e
43
af
e3
59
fa
d2
17
8d
00
36
17
2a
e1
d0
e3
38
1d
ba
70
1b
59
b8
16
08
c3
13
20
2c
d5
cc
f3
1c
5f
ef
cd
15
d9
11
31
89
ce
d5
ee
e5
0f
7f
08
2f
cc
2c
bb
17
bf
4c
34
f4
9d
fc
ea
e9
19
6c
3c
09
f1
ff
ce
7a
12
88
cb
ae
d4
c3
ad
b1
f7
43
66
c8
2d
06
e2
c9
01
57
e2
cf
1a
c4
d3
5e
2b
ec
1c
c9
01
f2
0b
4a
1b
f9
f5
bf
e0
fd
30
41
1c
fe
c6
1d
06
25
0b
59
3b
25
4c
dc
ee
95
f4
c4
b1
17
c8
cf
81
14
05
02
37
b3
24
df
34
