ac
3d
d5
d4
63
45
2c
f5
fb
79
82
31
99
4f
44
9c
0d
ef
48
f6
c5
bc
9d
7f
43
4d
52
e8
f8
68
38
67
f6
55
bc
ba
a3
70
33
36
cc
bc
84
da
94
19
93
27
50
50
64
6b
44
d9
f3
ff
05
90
37
ed
e8
3a
59
5b
92
10
0a
8a
5b
ae
11
fd
16
b1
dc
9e
4a
51
3f
28
fb
25
02
f9
f6
c5
d0
ff
ae
d9
79
08
68
db
f9
38
45
02
9e
99
43
64
d4
7f
08
96
18
07
75
6e
7f
a5
90
ec
c6
c3
02
34
95
72
b1
dd
c6
c0
f3
c8
17
78
1e
a9
e3
67
84
8e
88
c1
4c
3c
fe
17
48
a2
f0
ca
dd
e0
28
dc
4a
26
9e
e8
1f
7a
c8
3a
e5
2d
53
90
61
b0
01
ac
09
44
f3
47
85
c0
38
1e
27
90
68
3d
ff
51
a3
05
6d
42
88
63
6d
4d
c4
fc
f8
80
fe
0f
6a
da
26
28
98
e4
06
f5
b7
c4
aa
ae
83
3c
c2
15
3a
be
15
23
cb
2b
e2
86
6d
f9
c3
01
b4
df
2f
77
cb
cc
c3
12
9f
75
47
42
1e
9c
98
94
37
d3
68
ed
64
4d
6d
5d
27
51
fc
6a
0c
e0
31
0b
f5
c8
d8
ff
1b
d3
eb
39
a1
fb
cf
98
8c
d3
1b
68
98
79
67
46
1d
9b
8f
3b
22
8c
6d
0f
7a
05
a1
5b
df
37
77
ff
78
32
21
a3
9e
15
5d
3b
9c
63
00
40
dd
08
bd
dc
dc
31
c4
4e
d8
84
2a
44
ef
ea
c7
35
bd
6c
20
80
f0
ef
14
22
ec
8c
a2
9d
0d
1a
3c
05
81
a5
cf
97
9e
9c
6d
a3
bd
00
e7
0e
ea
bf
09
4c
24
fb
09
c7
44
5e
99
a1
ae
06
06
01
6e
3f
40
ba
ce
d1
8a
05
b2
08
8f
36
f2
98
03
d9
37
4d
f0
d3
90
97
33
7b
a1
43
01
dd
5d
03
53
f0
a4
e1
45
ea
00
37
94
83
35
29
ea
e6
ea
8c
24
72
cc
8b
e9
23
f6
09
12
ab
1a
c1
68
7c
60
fa
42
bb
cd
50
77
14
63
b7
0f
46
e6
06
37
0d
ea
a2
43
e4
27
3f
34
98
dc
e3
fb
4e
4b
62
bd
a8
85
24
b1
91
c0
b1
76
ff
a7
60
82
02
6e
8b
33
ca
0d
04
ac
9f
f1
fe
ce
a1
5b
70
68
40
00
6f
21
41
a6
85
67
f8
ee
d5
24
37
1f
9e
3b
ae
d2
43
1b
04
33
86
48
4e
3b
ec
61
bd
a5
27
2c
3b
23
77
31
99
9e
01
9e
bd
96
48
b3
20
23
83
a3
8e
1d
9c
30
ca
07
0b
7d
aa
1b
22
55
c6
b2
32
ee
3a
72
ce
92
51
a9
4f
56
9d
12
16
72
9e
de
1f
d7
ed
cc
0d
54
d4
a8
e9
da
b4
2b
2b
70
08
39
d5
1a
71
88
8b
25
7d
98
3a
5f
e7
a1
db
b6
51
bf
90
02
d2
36
1c
1f
34
70
15
2b
5f
7b
c2
63
74
72
56
86
ad
62
cd
36
6e
76
4a
7c
65
32
9d
3e
23
d8
18
93
67
9a
09
01
11
0f
a3
98
9e
1d
8f
a3
9d
d7
b6
9e
c8
ca
f1
b1
7d
6d
50
3e
67
be
f7
49
e7
83
87
d1
d6
97
6a
0a
eb
8b
fd
e9
da
5a
b5
89
f2
f0
23
da
83
ff
06
5a
1d
69
2c
90
30
27
35
cb
ac
50
36
5e
a6
ee
74
42
a0
d2
a8
76
8c
b9
3e
02
de
4b
be
9f
3d
3c
f2
30
15
4b
4c
2e
a1
a6
3d
cc
66
db
90
96
d3
d5
91
20
45
dd
0d
02
2f
7d
b5
db
01
31
b7
0d
1c
53
26
d2
19
30
ad
48
5a
0f
03
11
d0
c2
23
bd
e3
08
57
49
c9
75
af
f7
ca
ca
92
dd
74
1a
3e
09
e2
ee
76
c9
3e
8a
e4
08
c9
d9
d7
3a
87
59
15
14
d5
36
90
e5
dd
32
94
9b
74
22
0b
90
71
d2
8a
ab
ae
68
fa
51
6f
c3
b4
7e
4e
33
f8
0a
fc
e8
67
8f
7d
ac
63
66
4c
d8
c3
d6
af
d4
5a
fe
eb
cb
32
01
ec
18
95
05
e3
f7
e9
c4
a8
05
15
ca
89
0a
b7
ff
03
c6
cc
ad
cd
df
17
ff
dc
e3
da
51
7b
34
b8
b3
f1
94
81
32
f9
49
b8
34
2e
94
64
16
dc
fb
9b
3f
72
6d
2a
36
d9
94
97
89
57
57
a5
57
da
59
c9
d6
76
7f
21
b7
52
54
50
2e
36
08
f7
3c
78
89
68
45
b9
c6
00
38
28
65
b0
d7
11
91
30
7a
d0
b6
ec
5a
5c
3c
df
9b
0f
5d
18
15
bb
75
a5
43
40
3f
67
18
85
12
30
cd
e0
8a
01
28
f5
d1
0a
b5
23
02
72
e8
cd
c1
bc
d5
32
16
ed
6f
dc
d5
95
5d
b4
4d
ae
19
16
12
54
a6
fc
09
50
b9
42
2d
ed
63
2b
21
7d
6c
f5
4d
9d
4d
ca
dd
98
e8
02
fe
b9
71
d3
09
f5
7f
d1
54
6f
2d
18
fd
bc
73
6c
f6
d6
8c
12
fa
bd
01
02
16
cc
f0
26
05
81
ef
65
c4
17
83
81
af
d5
86
44
c8
32
66
58
41
48
c9
50
c0
3c
93
0f
50
21
8b
3f
ff
31
ed
01
9a
08
41
02
e7
30
5e
7e
1d
23
37
30
0c
45
33
2a
5a
51
97
e1
6a
55
88
b9
a1
58
22
ef
72
99
fb
10
ed
f8
19
6c
5c
13
f3
e2
e7
4b
b9
d0
1d
14
3f
85
da
33
c4
c2
7b
95
eb
20
40
80
5b
34
5e
b5
53
12
1c
a8
8c
d3
9d
46
5f
29
f1
66
89
45
2e
b2
0a
92
89
55
1f
69
5a
14
9a
01
a8
df
31
e3
26
9b
46
af
ea
4d
1f
3e
16
d1
ba
37
4e
8d
c0
13
ff
36
d1
32
ee
39
31
ae
28
1e
fb
fc
41
43
5e
da
fd
ab
4a
f6
46
dc
d5
da
10
db
17
01
5f
d9
f0
13
a2
af
de
f4
16
87
cf
63
96
5a
f5
b8
67
6b
af
93
d6
8d
f3
5c
43
eb
aa
70
b5
1e
28
4b
8a
96
38
14
84
f2
10
c5
39
e1
c5
38
45
67
6e
ff
dc
cc
8f
21
19
48
d7
5c
d4
b2
dc
e6
92
74
c2
6c
ee
fb
16
2c
af
56
75
38
99
91
5e
63
95
90
34
ff
8c
97
2e
8f
92
4c
b7
26
2b
97
fc
0d
65
ee
b4
5b
22
c1
40
45
1d
40
14
d2
e0
36
80
2a
c4
a4
ff
03
9c
75
6d
6e
2b
b0
4b
7a
4d
7c
0b
48
50
01
34
f0
c3
1e
f1
70
31
ba
e9
68
12
c1
d7
5e
5e
d4
c5
7d
fc
27
47
3f
9a
66
8e
41
1c
24
0e
06
02
25
3b
73
36
ad
e2
dd
49
14
89
17
e4
5e
04
44
cb
03
0d
58
60
31
dc
0c
32
e7
01
59
2a
91
d0
81
78
93
fa
32
2f
e2
61
ab
3f
06
bf
20
1d
6a
d2
05
fa
7d
9c
ec
a9
07
9f
e7
38
a2
ab
15
4f
dc
17
d8
95
f4
74
3d
0d
31
20
d1
fd
10
a6
ac
f7
26
b5
ea
e2
27
02
c5
1e
76
01
91
53
04
32
e1
e6
15
44
c6
fb
19
50
e4
ac
3a
c4
fe
f5
bb
81
0e
df
16
32
1e
87
7d
19
ca
f6
ce
67
20
3f
05
d0
1a
a9
7d
d5
0b
cc
4b
01
36
9b
29
b1
e8
c9
15
6f
03
f3
2b
a8
b2
e6
06
dc
2f
e4
05
94
36
a5
d8
0e
70
1b
eb
bc
ca
a8
a1
b1
03
1c
88
c9
e6
92
f0
3a
3a
31
1b
a5
b3
39
b9
de
7a
df
41
5e
b4
13
f3
8b
04
b9
25
e6
1f
01
5c
26
5f
ba
ec
69
5c
c2
26
25
6d
bc
2e
23
0d
07
3e
d1
04
b5
07
c4
d9
d0
95
d0
69
22
3a
0b
1d
0c
c0
13
b7
10
0d
a5
de
55
09
64
63
65
6c
9d
5e
37
b4
90
32
57
48
9e
7a
ed
f1
30
0c
57
ac
38
d4
47
18
dd
05
9c
b3
bc
65
42
1f
a9
f5
c5
24
9b
54
61
fc
17
01
61
0e
16
ec
97
3e
50
5c
9f
91
0d
48
5f
80
38
ff
7e
d6
f6
3a
0f
f4
cc
0a
42
75
23
53
83
94
a0
c8
15
4c
52
3e
9b
cc
08
00
e2
c8
fd
14
d3
35
df
1f
1a
82
28
da
d1
db
0e
ca
e8
fd
74
e4
ed
fa
55
01
62
1d
94
f3
1b
cb
2b
5d
27
25
9a
d3
a2
fd
0b
27
a0
72
fd
1d
0f
b2
04
be
57
d4
a9
fa
e6
0f
36
d9
a5
aa
84
4b
15
a5
81
fb
a6
aa
18
a7
d4
aa
49
8f
32
ec
fc
17
7e
3c
a7
8f
fc
79
de
64
dd
ef
e9
12
b7
9d
ad
db
91
69
39
40
cd
db
a1
a6
f9
8f
26
78
a0
4b
5a
cb
93
19
8a
94
b2
09
f9
8c
37
0a
63
e5
01
08
2d
64
36
cf
4a
5d
2c
9b
25
45
dc
b5
35
d2
c5
ba
af
36
2c
1c
6d
db
43
3d
9e
b5
81
bd
ec
27
be
d0
75
43
01
6c
0b
73
ec
d9
86
63
b0
b2
7e
48
3c
86
2b
e1
a2
24
98
55
98
51
38
5b
7a
1f
01
21
b6
05
8c
ad
93
e7
24
10
e2
25
e8
7c
51
ec
4e
cf
32
51
56
f8
90
0c
d4
d3
d2
1e
4b
8c
ba
85
cc
05
7d
e4
11
f5
a3
ac
ae
69
d5
54
a5
a7
ce
c5
03
02
55
2e
8a
b7
b2
4f
fe
1e
0e
90
bf
fe
c3
01
8d
ce
89
ca
1a
7d
73
d2
3d
97
d2
e0
24
fa
58
fd
71
7d
b8
96
ab
ad
c8
cc
fb
e7
15
99
c5
20
8c
d8
c8
94
2a
55
e1
dc
3b
e9
5d
01
f4
14
92
3a
78
78
01
40
38
8b
9f
ce
a8
73
6a
41
2f
8f
ad
36
7e
d9
2a
fd
de
8b
ac
b3
33
c6
3a
1f
d8
90
ea
fe
57
29
a7
55
42
40
01
ea
1d
ed
2e
2c
5c
ea
91
4c
11
b1
83
ff
b4
59
0e
d7
03
ba
b6
6f
c0
c8
1b
6d
c7
18
97
d3
33
21
7b
cc
05
b3
ce
79
6e
ad
52
01
ea
db
ae
dd
dc
22
c5
ff
22
04
93
e9
83
a0
67
bc
8d
df
5e
ef
87
64
bd
cd
1e
ef
0f
a3
4b
04
34
73
16
1f
2f
1a
5a
96
32
48
03
93
e3
ff
a8
a1
bf
8c
98
c9
7a
d5
e3
70
fc
12
d7
16
3e
e9
35
0b
12
c2
e7
95
b6
82
b6
b7
9f
3f
29
17
ef
7b
8b
18
37
31
10
87
ac
7b
3c
c7
d3
a1
ea
f1
15
a2
c0
b0
6d
ce
ef
71
62
20
b4
7d
61
d0
39
9a
56
7b
95
2a
e6
7b
a8
25
ac
0b
71
13
ff
a3
41
9d
76
41
11
96
91
e3
7f
b2
81
56
b9
9c
81
90
b3
2e
ab
b7
e9
1c
54
01
45
76
43
b0
2b
f6
c9
f1
18
eb
0c
11
bf
e4
a4
e7
54
ad
e5
73
d6
9f
8e
80
5f
87
d4
1a
d4
8f
d5
c8
e3
7f
71
1f
19
8f
53
5d
a4
1f
c5
b4
63
87
cd
5e
d3
a8
ba
15
ce
2f
c0
b2
ae
30
2f
79
e4
b1
43
ba
7b
d0
c0
9f
59
c8
32
55
66
ce
e5
b1
43
0b
f0
5b
c9
70
d2
35
39
ef
8d
8d
bc
4f
06
d6
db
90
7c
93
7a
08
43
64
cf
fe
d2
08
22
14
fc
3e
01
c9
f1
16
55
22
31
62
17
f5
ff
cc
96
d9
76
d2
2c
16
e3
34
e3
b5
96
05
dd
f2
56
c7
53
bb
61
bd
1c
fc
da
68
5a
3a
b3
33
dc
ff
17
15
96
92
e2
17
ed
7d
9c
fc
d0
97
ed
4d
16
93
9d
5f
28
1f
cc
cf
45
19
5b
34
2d
1c
31
1d
fb
fc
98
99
cb
cd
64
9c
6f
2e
df
8f
8e
1d
c0
e2
1c
fe
e5
e5
e1
eb
71
c0
f0
b4
16
ff
15
11
2f
b4
d2
a1
81
f0
b3
11
ef
de
9d
ea
a7
01
fd
f3
ef
35
2f
49
da
73
c5
d4
7c
90
74
07
b3
aa
c3
62
13
48
57
de
09
dd
40
19
8f
72
5e
a8
ee
cd
2d
aa
b0
93
e5
ef
35
d5
15
75
f5
fe
71
40
34
98
ca
da
f2
e7
70
89
ae
4d
69
87
f5
b1
f4
ec
73
af
06
63
a3
cc
20
d0
01
f2
16
56
94
e2
f8
9f
ed
df
06
60
47
0b
9e
50
2d
b1
2c
fa
b4
8b
1e
97
3a
5b
d2
4d
20
f1
3b
08
28
7f
99
23
1f
d8
2c
2d
eb
6d
0b
a9
e7
8f
18
18
ab
41
29
05
ca
e8
c8
06
0d
7c
4b
7c
e3
01
e1
d5
45
be
f6
a8
e3
a9
54
64
06
ea
d8
52
35
db
ba
b6
5f
76
7d
2f
f7
63
ce
e6
be
e6
4c
c2
16
1a
5c
59
22
8a
53
ac
2a
cf
3a
e7
05
18
12
17
f5
ae
f8
f2
24
49
f4
c9
14
67
fc
46
dd
64
01
da
09
fb
a3
db
74
56
31
3c
5e
ce
1b
03
ab
f2
de
a0
eb
80
f5
21
ac
68
13
79
9f
fc
24
32
fc
78
b8
bb
86
1a
0f
da
d2
18
fc
c2
25
09
3a
43
c0
a3
53
b9
0d
ef
63
dd
d7
69
3b
b5
46
84
e2
6a
7e
01
ee
9b
fe
a2
fa
16
a5
a1
2b
00
df
dc
34
33
3d
6a
cf
33
95
b4
64
70
cd
72
f4
14
cd
81
22
3c
1d
54
10
35
ad
20
6c
14
0e
ad
2b
c0
f3
b5
33
da
60
2e
a4
01
5a
03
b6
48
6e
ec
ac
46
87
9c
25
43
11
41
e8
48
79
52
30
3b
1a
93
fb
a8
ff
58
e6
79
eb
b6
55
6a
30
9f
f0
7a
b7
df
98
f3
e7
89
ff
1b
03
cd
45
bb
bc
ef
30
ef
b3
a6
e2
14
d8
ec
5b
38
01
79
59
23
3a
4c
9e
93
f6
ff
6d
21
fa
e3
10
34
c7
cc
fc
ca
b8
4b
ca
64
08
03
d9
bd
b7
fb
70
59
26
c7
11
0f
d5
ef
96
82
08
20
4e
3c
5d
b3
30
10
1f
ef
01
55
29
7c
0e
1c
3e
a3
72
c8
06
f0
8b
c3
15
17
b2
75
75
bd
9e
ed
95
e2
7b
43
12
1b
0f
aa
51
77
74
43
7b
9b
9e
03
d2
f2
e3
01
b8
8d
98
14
cd
e5
07
3a
a1
a6
7a
ee
22
6f
25
c0
ca
1b
49
2e
ce
c0
66
bf
bc
c5
b2
b0
d1
cb
9d
38
33
16
a8
12
6b
d8
e4
15
24
59
8a
62
7b
48
f3
f2
43
15
0e
64
41
d4
16
e3
ed
01
1b
31
4f
bb
ff
45
3c
76
f2
e3
e4
47
92
94
49
09
0f
f7
b1
f9
88
a3
bf
88
cd
66
49
f2
19
7e
a8
8c
97
e9
85
5b
bb
3b
ff
42
28
45
6d
17
eb
65
56
88
5a
61
6a
a8
9a
18
b0
e3
5c
70
5a
c2
49
c0
52
a1
18
eb
de
be
96
8c
7d
06
15
f6
12
52
c5
29
60
53
ac
53
93
b0
5b
4b
5f
d7
3e
50
17
cf
e5
a8
0a
2b
06
75
f4
7f
b7
dc
50
9c
72
29
e9
70
05
aa
91
fc
fc
df
77
5a
04
26
d0
21
32
5e
c3
25
da
ab
ba
44
19
48
23
37
d7
eb
b3
a8
1f
82
ef
e1
28
c3
01
ce
74
a2
2b
84
a9
1b
97
c2
60
47
18
1a
8a
6e
fa
99
79
5f
0c
f9
9b
35
b0
47
63
37
ac
2a
08
16
bc
02
06
4d
48
52
80
11
dd
de
76
9c
e0
e3
e3
82
e3
26
60
d9
b5
6f
01
13
8c
76
52
42
90
59
01
05
f5
40
f2
11
01
46
0f
fe
f2
55
41
83
da
5d
2b
bf
9a
52
17
2b
32
24
7d
03
a6
b2
c0
90
6f
bb
a0
dd
0c
45
65
7f
40
8d
2e
ca
a4
d3
15
1f
16
74
06
01
16
3d
15
05
43
ef
78
04
36
20
90
49
86
f4
98
a0
9d
40
9a
fe
a1
0d
d1
67
13
80
c9
61
f5
1f
b3
22
52
13
29
71
fd
6f
93
50
01
a1
f0
af
4c
b5
30
e1
fd
69
8c
7f
94
2b
da
06
2b
48
91
2c
fc
b5
05
90
7d
c6
da
cf
df
d8
b8
97
59
26
03
ca
9d
23
e9
f9
6d
5d
ab
bb
62
30
a0
0b
8b
d3
19
f3
11
6e
d7
37
ef
8a
05
09
52
3b
86
a4
57
b2
6b
93
f6
f7
fe
d5
be
62
f9
fd
ff
f1
01
be
15
65
7a
1e
2a
0c
06
5b
34
10
bc
08
14
19
11
e6
4f
8f
de
68
c0
5c
51
ec
8f
0d
53
f8
1b
71
ac
13
e2
e8
5c
f6
0b
f0
8d
3a
5a
1a
4f
40
27
75
ec
e6
cc
fd
ad
87
4d
fd
18
8d
f2
18
d2
72
3b
55
76
bc
a8
13
d5
ea
bc
c3
fb
c7
12
97
31
9e
32
d5
dc
df
b4
b6
69
d6
85
17
e7
7f
2e
ff
eb
db
45
8e
c3
4b
7f
70
8a
99
32
2b
05
3a
7c
c2
fe
52
6d
50
9e
2b
34
d5
9a
d4
76
a7
9d
26
82
4d
08
b0
3c
84
01
df
60
0f
74
3a
1a
56
c0
92
eb
35
e1
e5
7e
fa
fa
ab
ad
16
fe
86
3c
5e
4c
1f
e4
3b
14
0f
42
e1
b3
c0
e4
d9
7a
88
eb
c2
e5
b2
d1
63
c1
af
54
19
35
61
20
17
f8
21
7e
f3
f5
68
39
a1
69
0c
e7
59
ab
0c
fa
01
41
1e
18
81
35
d7
c6
53
37
37
e4
89
2d
76
3c
8a
f0
67
f9
48
76
b0
f9
28
a7
de
11
eb
53
81
ad
08
ec
df
1c
a1
1e
68
c2
01
43
21
15
d7
a8
41
ec
f0
4d
dc
15
fe
44
e0
00
6c
35
04
f7
05
b2
fd
97
d0
fb
df
c8
e4
5b
7e
30
99
3f
01
07
95
f5
d8
66
f0
96
fc
df
41
9d
26
e7
a8
25
20
37
3a
70
7c
ff
cd
f9
32
f4
7d
05
22
46
03
77
cd
37
db
51
37
47
91
06
dc
90
eb
af
05
26
0f
6e
dc
2d
5e
70
f1
dc
d2
00
04
dc
54
b8
4c
4b
e3
df
4f
bb
5c
08
49
01
71
54
28
ef
99
22
58
b6
9c
16
03
09
e9
98
6c
10
de
e7
2d
0c
49
75
13
8e
fd
e5
4e
0d
d8
f8
20
a1
cd
d0
34
92
6c
68
a0
0a
1c
19
4f
d6
4d
43
d0
46
b3
14
29
36
33
2d
1b
41
a7
dc
8f
42
39
00
1d
9f
ab
c0
d1
c3
39
e7
04
01
af
c8
59
d4
b1
f8
b8
f5
33
d1
ea
ec
49
ba
99
87
f1
7c
01
29
0d
d2
bf
93
c9
0c
0a
ec
3f
2e
17
14
ff
48
8f
05
c2
6b
4d
60
bb
f3
59
04
90
90
c5
78
64
dc
9c
81
d6
ec
e9
1a
f3
36
e9
89
9a
58
b9
d9
d4
3d
28
64
95
08
6b
e0
8c
01
ec
22
92
7c
cd
b9
8a
90
21
f2
24
f5
8d
cf
53
b3
05
d0
9f
28
85
1a
92
81
a8
25
04
e1
fd
f4
ec
3a
38
08
bc
37
fa
08
16
cc
c0
5f
46
3c
e0
e5
13
d8
22
df
34
f4
09
3e
1f
b3
af
ca
90
cc
09
63
e8
cf
11
0f
10
83
2e
14
c0
32
f2
31
fc
33
3c
ff
47
68
05
2c
0e
f7
26
2a
7c
4a
15
ed
15
50
80
4e
bd
e8
11
25
f4
66
89
c2
34
14
ad
10
3c
1b
d2
4b
e2
01
72
d5
dd
91
cc
d8
08
56
f5
af
83
ae
98
ef
d8
98
9b
3f
82
eb
28
9a
be
ab
45
0b
e3
4e
29
a9
60
dc
f0
da
47
ea
ce
fd
64
b0
16
3e
5e
f1
e0
fd
35
f8
1a
9c
0e
b6
60
51
ef
d8
90
8b
f5
ed
fd
c5
e3
8f
01
17
da
a0
63
ad
fd
c1
dc
ce
ae
f8
2f
9f
a6
e0
02
19
ff
66
40
6c
09
01
d9
1d
f7
60
4a
d6
05
fe
07
a6
16
8c
67
f2
e8
62
3a
06
49
2e
92
1a
da
0b
96
66
98
1a
3a
ec
f8
13
b0
c3
51
e2
e3
c9
0a
63
fe
24
b9
37
fe
2a
dd
d9
02
01
01
56
0a
27
17
f0
a0
e5
0c
74
df
54
46
3c
3c
a8
e5
93
23
92
f1
3a
d7
91
cd
71
e1
02
63
47
cb
64
20
44
3a
8f
32
33
ee
ad
6a
10
0b
e4
05
f9
eb
58
39
ad
a4
e1
f5
01
a8
48
f4
dc
50
34
54
2e
fe
78
ff
