bb
c8
d9
7c
e5
d3
fc
5f
f5
ef
30
b0
a0
ff
d7
0e
c4
dc
92
58
57
25
cb
31
5f
6c
4f
a2
3a
30
fc
2e
05
f2
5d
26
ed
14
62
a1
17
eb
a7
29
f2
c2
fd
b7
af
5b
71
ca
18
f3
17
69
65
8e
46
a7
5e
c9
e0
ca
b1
d2
88
f6
fd
c6
12
98
dd
98
4f
a3
de
d7
24
f3
09
d2
08
4c
a5
f4
dd
f1
b8
8b
08
db
7b
f4
3b
2c
be
6e
52
e7
a2
01
e6
4b
2f
8c
15
fb
b6
eb
24
fd
53
4b
d3
f8
00
da
7a
cb
1e
8c
22
cf
20
6e
16
56
1c
9c
ae
24
e9
b8
75
db
60
40
51
6f
5d
3b
7d
e0
af
a8
98
26
14
5a
fc
a5
26
70
19
06
21
ec
c3
d3
10
2e
2d
61
91
b2
12
f5
7a
5e
7a
34
a1
07
7a
aa
4f
6b
f8
ed
05
35
17
6e
5c
f3
ff
74
ff
7f
40
4a
95
c8
2c
c0
88
24
16
dd
e4
06
15
c8
e9
f9
f2
1b
63
5d
cd
ad
b4
f2
c4
d0
4d
9a
61
0e
cb
03
8f
02
91
d0
e7
ee
70
4f
0f
a3
06
53
a5
18
90
db
d5
db
e6
10
82
0c
fa
a0
8d
6f
7e
d9
61
d9
24
ff
70
e0
1f
40
b1
42
ed
1d
a6
0e
be
76
be
87
fd
49
a7
5b
52
7e
f2
1d
d6
c5
f9
4c
db
09
51
2d
3d
d4
cc
54
53
d3
bf
28
9a
ff
4e
10
59
2e
42
55
e9
02
bd
10
2f
70
e0
d7
44
bf
bc
01
68
32
11
fe
0d
73
df
3c
fe
6f
ae
92
dc
c8
15
3b
9b
6e
22
de
28
c3
85
7c
36
20
ce
5b
c1
47
c6
7f
03
19
e6
77
6a
d8
64
cc
2d
8e
18
1f
b2
2b
30
89
9f
f0
3a
23
bd
47
99
31
80
af
c7
df
17
20
af
f3
82
be
bd
7c
24
fb
ff
ac
06
cf
ac
c8
e6
1f
21
20
2a
d7
f8
d8
14
2a
76
7d
00
70
d1
c0
d3
3d
ca
0c
91
a0
47
ae
6c
e3
d9
2f
ee
6d
ac
24
1a
90
16
77
14
e0
d5
ca
55
59
36
9e
e4
c9
48
bf
0f
ff
27
5e
1d
f2
d9
f2
04
9e
f6
bb
94
85
9f
e7
5a
47
af
6a
bd
fd
1b
2d
ca
4c
4d
a5
93
ab
48
78
29
43
60
b1
30
80
0c
ed
e4
91
00
3f
74
48
be
b5
49
98
ea
c0
6a
3f
ff
ae
1a
c8
ea
23
41
87
04
45
ba
42
b9
35
40
30
c7
62
19
03
f9
23
ad
44
ef
5f
9e
08
7e
54
85
b1
43
81
95
3a
15
cc
d9
e8
35
69
65
ed
e9
a7
fd
ba
10
f5
28
fe
71
68
55
a7
41
df
6d
01
4b
b1
da
81
a9
eb
20
ec
21
61
08
c0
8c
a2
4f
11
92
a9
72
a8
a5
e3
d5
2b
1e
52
fc
cf
4d
c1
a7
e8
09
83
55
25
bc
cc
21
63
f8
00
64
ae
93
07
c8
84
eb
04
3b
92
1f
62
20
35
0a
4d
f7
d7
92
c9
c7
13
ec
01
a9
03
e0
0b
ca
99
63
a0
90
4c
ac
88
82
2f
ea
67
36
94
29
e0
cb
33
c2
bd
eb
5e
34
5c
e9
2b
fd
bc
29
25
ce
cb
97
16
0a
2c
48
27
e1
81
0b
66
b1
1b
24
ce
7a
0b
c8
a5
43
b4
fc
e6
cb
58
49
1e
02
ce
66
ff
47
a1
ef
82
56
d9
26
2c
86
4b
d3
fb
d7
eb
9c
69
9c
bc
0f
a7
ab
c3
fa
3b
65
72
53
d7
dd
01
16
11
68
72
56
eb
cc
35
4a
df
3f
59
28
6b
1c
6c
92
01
2d
37
46
11
35
11
f8
97
1b
94
bf
20
34
a2
c8
2b
17
cc
08
0c
05
bd
a4
a6
8d
70
9e
d3
30
01
0c
48
0a
07
54
64
39
85
7a
c7
aa
43
8c
f0
76
15
e3
95
17
7c
b3
3f
98
dc
4e
83
14
60
d4
29
30
03
37
62
77
8d
cc
ee
59
71
3e
6b
17
1a
a5
36
48
5b
fb
c9
22
60
8a
c5
5e
1d
e2
3e
7b
5f
75
6d
9c
0e
b7
db
cd
e2
6b
ff
01
69
f7
d7
9c
56
ba
14
1c
2e
a0
0c
57
0e
b8
d0
e4
5b
0b
b3
2f
a9
2c
48
df
cd
e3
5e
ed
a3
51
1a
d7
fe
0a
47
c4
da
31
9b
eb
21
21
4d
2a
a0
52
d6
51
9c
8c
32
a0
9f
b3
a1
ab
31
cc
4e
ca
57
e6
ff
21
13
05
4c
15
e0
d3
a3
bf
23
49
b9
49
57
d2
13
16
73
33
07
71
f7
68
b6
0e
f7
7b
8b
87
f4
24
e2
00
7f
c3
d8
9e
4e
82
fd
16
b6
96
10
93
82
4b
c7
e2
3e
01
3d
4a
f0
7e
80
e7
ee
c7
a9
e1
39
20
d6
4b
d3
4c
dd
b1
87
53
ca
cf
e5
0b
5f
33
d0
55
e5
60
46
77
7d
34
58
be
0b
9d
98
c9
7b
2d
54
e9
46
35
08
1a
d6
1b
c8
c9
51
2c
5e
01
28
ea
a3
93
20
00
2b
d3
d4
25
ed
8a
10
f8
e4
3a
2c
41
ea
6b
66
d8
99
02
f4
7f
13
27
8e
91
e2
8a
b5
05
95
f7
5a
bb
aa
62
ff
5f
34
49
81
01
7e
7c
86
f6
04
55
eb
fb
37
a4
f3
88
42
60
ba
fc
ab
3a
ca
e6
4c
69
0d
f8
51
8c
a7
07
6b
1e
d5
90
33
1a
eb
71
f8
b3
70
d3
76
e8
a8
8d
95
bf
1f
b1
8d
75
db
d7
68
b4
a4
39
97
1c
54
89
44
ff
0b
3c
cd
80
81
7e
f9
ab
92
3b
67
6a
db
9c
5f
9c
da
3c
cc
10
24
08
7b
96
2a
af
b9
e2
d2
92
77
35
65
3b
ff
aa
fe
4e
63
54
c7
58
24
11
23
9f
ce
dd
de
29
7d
94
28
7b
68
5f
97
ce
42
70
97
17
eb
2a
22
bd
eb
fe
04
32
71
9f
70
5a
5d
a8
9a
63
af
0f
af
1b
20
5a
d0
be
d8
21
dc
13
47
53
1c
0e
38
10
73
02
c7
c2
c9
f4
02
d5
ff
0e
d1
25
f7
45
35
49
35
fe
1b
2f
3a
c7
b6
d6
16
f7
ff
30
19
aa
5c
9f
5e
3e
9b
ee
e6
1d
35
02
02
a4
29
07
2e
49
80
e9
11
1b
b4
cd
a7
03
db
ba
c4
f9
2d
cf
db
4e
76
1c
83
4b
51
3d
9e
dc
b1
47
a0
c9
f4
6f
e2
54
49
8f
ff
e5
ba
da
f0
36
39
c8
ed
9c
82
18
42
89
f1
3f
fd
db
8f
89
64
80
de
d9
f0
00
ff
47
3d
13
45
22
aa
28
d1
3f
b5
5b
0e
5e
a1
d8
f0
d9
61
f3
dd
5c
64
b5
b3
fe
f4
46
00
63
4e
f1
a8
4d
2a
38
99
01
cd
c5
58
2d
17
74
f7
4b
36
30
60
5c
ba
d6
1b
47
ae
ed
23
c7
ac
06
06
fc
10
05
eb
51
db
f2
db
7b
6d
c4
f2
b0
f5
00
4f
b8
d2
62
fc
e5
14
84
c5
dd
83
5f
e7
47
fe
4a
85
08
bd
42
30
c4
cb
05
c4
20
25
a2
87
a4
be
2e
4f
69
d1
ca
cc
11
af
1a
fa
37
48
5e
c3
8b
02
d6
95
8e
e8
4c
85
67
c8
b2
3e
5a
3a
41
cb
2b
ab
01
23
99
d3
f4
14
99
84
28
b6
21
d4
98
f7
6c
f1
64
df
f8
8d
4f
13
f7
bd
fa
83
2e
25
e4
e8
76
9f
30
e1
cc
c2
f8
84
a5
2e
fe
e7
46
ba
42
14
13
fc
12
08
fc
f8
04
2d
4a
db
fc
20
c2
bf
4f
33
00
b8
01
64
f1
f8
d0
1c
e3
84
cf
39
77
77
a0
6b
16
54
28
12
d1
d1
03
e2
a6
c2
7b
c7
57
6d
46
3b
bd
e6
9e
f6
af
80
26
28
19
f1
1f
e8
54
c3
98
aa
39
13
66
4f
69
1a
e2
a9
80
c8
62
98
81
01
75
c2
f4
7d
2a
f0
23
6a
46
9f
96
d9
19
9b
ac
b7
63
d8
c5
e1
5d
d7
ac
64
35
4a
d1
5d
5b
63
7d
6c
ca
88
01
11
e6
1e
a2
4c
d0
3c
f5
a6
6d
c9
99
3c
de
28
4a
0d
cd
a9
bd
f4
da
5c
9a
68
98
2b
e0
a4
73
07
1f
c8
d4
3c
ed
18
4e
25
5d
5a
9f
a8
01
a9
f3
29
01
66
70
fc
41
b5
a6
46
72
8c
82
6e
a7
bb
b7
77
ee
5b
c9
ae
6f
81
6f
ff
ad
cd
0e
1c
65
50
f8
74
ec
7d
81
7b
f9
8a
de
dc
aa
28
0f
eb
9a
07
bd
5b
7f
f7
0a
8c
34
2a
f5
7e
54
4e
74
37
11
bd
3b
72
df
7e
30
5b
1f
ab
d7
3e
67
8b
ae
7b
85
fb
46
ab
8a
f2
21
69
20
fc
a4
31
99
da
66
ab
27
56
4d
01
66
66
14
7b
e3
e5
c7
27
b6
7a
01
50
62
7d
43
6d
74
3b
ea
42
17
76
80
5f
e2
c3
43
5a
a7
c0
02
e3
bf
1c
55
f9
44
f7
11
a0
2d
0e
e6
72
f9
f8
4e
6b
c9
b4
1e
e5
af
fc
01
44
cc
01
ef
ac
92
13
ac
22
16
66
89
e9
31
66
dd
ec
17
0a
fa
c1
72
4d
d6
8c
1e
81
19
19
80
10
d9
02
e2
2d
99
c7
62
e5
f5
a8
02
62
53
14
79
63
55
f7
31
c5
f4
f2
35
06
98
e9
d8
e2
4c
d5
14
24
1d
93
f9
fb
e7
4e
ff
18
8e
e4
ec
b2
31
94
8d
e4
fa
45
be
3f
31
81
62
c4
d3
d2
f8
75
36
f8
cf
6d
bd
c5
7f
83
d4
c1
bf
f4
de
3d
c6
45
28
94
5d
a5
8e
2c
d8
1b
69
eb
55
47
d0
7b
ff
5d
ee
45
81
3c
8f
d4
54
d9
42
31
c7
c6
d3
ff
07
0e
d0
18
08
b6
da
9e
74
3b
23
5e
3f
21
05
5b
a9
b7
82
2a
9a
b5
60
55
d7
99
1c
37
e8
34
4b
d9
fe
2e
b0
e2
94
b8
f5
47
fa
b5
2c
64
27
e7
9a
ea
41
42
63
19
63
a0
bb
b6
f1
70
cc
e7
6e
02
2f
23
12
ba
36
35
ff
7b
9e
0f
0e
54
fa
84
ef
95
b5
31
d2
b7
3c
da
09
a0
26
ab
26
fb
ce
de
cd
e2
ac
8f
94
1a
c2
e6
b4
16
11
fa
91
d9
2b
93
41
3f
0b
01
0b
19
c0
f1
2a
43
9f
22
3c
2c
f4
c7
8d
65
05
d6
45
7b
00
56
08
c5
b9
be
a5
d1
b5
3b
0c
b9
e3
a4
0f
4b
20
27
a4
8d
dd
3a
20
b9
59
2f
97
8a
ef
ec
13
f5
0e
f3
47
13
de
33
2c
f7
d9
7b
82
5f
6e
25
1e
d8
2f
76
49
d3
31
fd
f2
47
c5
cd
30
01
1f
e8
d6
b0
ca
b1
52
9b
3a
37
3e
a4
a5
45
89
02
11
df
b8
ac
db
c9
a5
05
78
d2
e2
61
36
e5
2f
93
84
8a
3d
38
3c
c3
e7
ff
71
da
ff
40
77
f2
f3
c9
57
a0
55
de
55
01
7a
b6
8e
ee
c0
3f
7f
18
de
56
65
6f
b8
77
fc
e8
7c
6c
10
b8
1f
f1
23
6a
20
78
5d
68
cf
a9
a0
16
98
59
ac
3f
35
59
4d
48
d9
00
a4
e5
89
ac
4a
a4
14
dc
ce
cc
f0
09
31
9d
56
fd
5d
34
41
c3
c3
ad
fa
8e
7b
20
45
b5
31
b3
b3
e2
57
58
7c
a3
a9
de
f9
6d
12
29
26
1d
c4
a3
17
72
e9
df
97
8a
4c
60
7d
ee
ff
dc
1b
97
0c
f1
d5
9a
ce
d5
ae
b4
05
dd
41
3d
81
f1
c9
d5
6d
95
27
97
fb
b7
24
c8
f7
0a
19
2f
6e
b4
2f
50
c6
24
e8
e6
75
2e
21
2f
96
eb
69
e6
a6
2b
e4
53
34
ff
c1
4a
a6
b2
a6
77
77
9b
29
4a
80
53
ab
d2
e8
e3
ff
8a
cd
dc
00
38
03
09
3f
c5
cf
15
65
55
0f
b2
65
7e
f0
81
58
9b
4e
04
ea
6f
ff
35
aa
0f
62
e3
1f
48
17
09
d1
5f
4b
73
ce
ee
6f
5f
70
6c
6b
8d
7d
e0
31
e8
58
b4
d0
d9
75
2d
f0
f4
b7
b2
0b
aa
28
eb
8d
8d
54
f2
56
eb
6b
b8
4c
19
e7
c9
62
09
6c
59
98
f9
01
d2
c7
3f
d2
92
23
3f
6e
97
b4
eb
6c
4a
98
46
56
71
4d
07
dd
18
3e
1e
27
0a
6c
87
f2
d0
61
eb
4d
ea
8f
53
c2
f4
3e
2a
09
ca
1b
2b
b6
1b
d5
4e
8f
4e
c7
87
4a
20
6c
45
01
ad
61
6e
f5
aa
bf
3e
88
80
6e
d5
f2
60
2d
95
e7
d9
df
fe
22
e0
f4
6b
4c
f8
e9
6d
11
42
1d
f4
56
80
f3
79
8a
92
a7
3c
25
5c
e9
e5
07
a1
05
95
6d
81
16
50
c6
0f
d1
05
9e
da
65
0d
ea
96
ab
6f
a8
db
3b
4b
b5
c5
0e
e5
82
19
a9
2a
ff
13
44
51
44
45
29
b4
d6
f8
af
06
fb
a3
cc
f7
68
ea
2d
89
a0
f4
b5
3f
fe
02
50
0e
12
73
ad
54
80
23
be
96
32
dc
15
eb
e0
99
dc
3d
57
e8
04
e2
e5
f1
d6
62
54
01
42
d7
02
26
13
3e
67
06
e7
b4
34
19
4f
9e
64
19
2e
25
66
90
23
cb
66
81
0e
8a
d4
db
15
72
f7
18
76
85
f9
d1
10
7e
43
89
ef
02
d4
09
c5
5f
96
67
a2
51
1d
c9
3a
f4
0e
2d
38
81
23
18
d6
e3
b9
bf
8e
b0
c3
47
a4
e2
ad
eb
96
ea
8a
ec
c8
db
20
52
04
b9
9e
15
3e
d8
45
bc
bb
84
d8
72
fe
d9
79
9a
5d
70
c3
10
f2
3b
10
ff
7d
c8
96
ac
a2
c0
6d
60
dc
67
74
b3
e3
5c
51
1c
69
0b
27
f0
92
0e
59
f3
ae
7e
ff
40
55
33
04
aa
1b
00
ac
ab
01
2a
16
84
29
52
bf
d9
e6
0c
78
11
c9
11
20
15
1b
ba
01
3d
1f
e0
00
fa
f3
e6
81
9c
be
18
d8
c4
47
24
44
ac
ef
08
60
83
0f
18
04
11
17
d4
fc
cb
32
71
52
31
8e
0f
e5
e5
c2
0d
dd
fd
b9
da
97
d6
5f
f3
9a
53
b3
a6
c3
cc
3f
4d
13
5b
a8
b3
04
a3
56
0c
ad
e6
52
da
0f
3e
65
d5
18
86
d3
02
63
c8
0e
46
10
3b
ba
3a
05
9d
da
ff
8c
da
4a
d3
ff
29
b3
5d
14
14
83
b8
46
c0
a4
28
54
22
04
ee
c2
ac
bc
aa
a1
78
15
ba
ed
37
e6
57
34
a7
c5
10
a9
ed
ba
62
96
11
12
de
f5
2c
d1
77
1b
66
e9
a5
08
03
c7
c6
42
fd
d3
72
7d
17
30
3e
35
01
4d
61
68
1f
c8
90
fa
c0
90
56
c8
fe
a6
d4
32
b3
16
0b
f0
c7
2b
cb
8f
ee
ac
0c
85
9d
6d
0f
fd
80
36
29
32
b6
eb
58
18
a1
47
0f
08
48
4e
95
1c
e1
09
2b
6e
64
37
f5
0e
42
8d
49
9f
24
01
28
31
8d
84
95
75
99
5f
60
1b
7d
a1
94
e2
e1
40
97
40
d8
1d
ea
85
9f
64
01
f3
53
31
f4
78
3a
15
77
03
cc
65
3e
15
99
d3
9d
9d
f0
8e
9f
17
c6
12
0f
81
03
2f
72
b8
0e
f3
e5
72
f0
06
80
f0
0e
81
7b
76
7c
79
0f
93
ab
cf
c5
6e
5a
92
ec
ae
2c
ae
1f
fb
70
be
0f
be
12
23
2f
94
ea
30
c7
7a
58
41
a6
6c
1f
ba
79
f8
aa
68
55
f4
6b
15
b0
13
7c
74
14
05
54
f4
08
08
fa
a3
19
05
9e
4a
02
27
af
b8
8a
02
58
ff
64
d1
48
26
aa
d6
36
f6
34
0b
64
ba
07
86
e0
c9
78
c5
e9
86
8d
4e
56
9c
73
3c
25
45
39
f3
2a
55
db
3a
1a
3c
b7
87
1e
21
21
38
d9
e3
b9
e4
99
38
ce
c6
f2
8d
31
73
22
2a
ba
e4
52
25
7c
b9
ff
6c
4b
d4
88
73
fb
8d
b7
0e
b0
3a
05
80
01
4c
f0
b1
4b
7d
11
b7
ba
4d
37
12
13
9b
c1
8a
15
d4
fa
e9
86
ae
1f
a1
60
07
29
1f
08
25
97
37
4a
03
38
e9
72
b4
f7
fb
64
8b
57
95
1d
5f
10
ea
eb
92
c4
39
99
aa
e6
75
55
04
28
38
7d
d9
c6
ae
4a
7d
a7
39
40
ee
0e
69
c6
52
24
d3
55
f0
4a
12
4b
14
52
01
f2
2d
23
c5
c6
2b
c8
ec
f8
44
e0
5e
09
0a
c3
38
7d
00
d2
9c
ec
26
d3
2d
02
f5
6f
2f
b2
75
c1
33
19
a7
53
fe
fb
66
39
77
0b
ea
a9
f9
ba
22
fc
a8
e7
46
81
01
f9
56
01
33
35
0e
32
02
b7
b3
16
e1
66
a2
00
0a
f2
da
e6
91
91
76
f2
bb
b1
1d
f9
3b
db
81
cc
ea
62
b6
97
fe
9c
99
35
ca
6b
bf
ab
63
d3
85
f9
d7
fd
49
b8
0b
39
f7
8e
95
f9
55
34
47
a6
2b
1e
5a
4e
8a
ff
4d
57
eb
cd
cb
51
26
09
0e
21
fe
77
fd
53
fb
78
4a
9b
f5
c2
04
ec
25
ae
47
4a
bb
46
a5
ac
fd
b7
5e
3f
b5
93
5e
f0
e9
e2
ca
a9
1f
fe
23
85
83
26
48
bb
94
ef
2c
77
58
9e
1e
01
6a
92
4f
ff
ef
7f
ca
f5
59
fb
a6
fb
04
46
a9
12
8e
6d
62
36
27
dd
28
59
5c
a3
17
ce
dc
44
ff
06
3c
c7
b4
50
eb
05
05
d7
08
14
63
8a
90
e1
10
cb
c1
8d
20
ec
20
14
b6
d2
72
b5
b8
d5
43
3b
c0
86
28
56
d0
8e
40
54
44
17
b9
45
62
20
2f
2f
e2
fd
88
f7
d0
3f
ab
28
37
1e
b1
80
e2
72
4b
c8
02
03
b0
08
6e
4b
7b
01
84
f9
ba
f1
db
49
b0
db
eb
de
18
bb
79
89
cc
19
8b
d9
67
3b
f4
d5
7d
fd
3f
16
3d
1c
cb
e2
91
a3
d1
b8
3e
be
1d
49
e2
cb
74
fa
36
e9
0f
ed
a0
48
00
e5
8f
ff
fd
25
e2
04
71
33
fe
23
44
15
39
1a
23
c6
65
a2
82
56
a6
f3
c5
22
17
59
c4
0b
32
27
a5
f9
27
7f
23
3c
22
b2
e8
77
a0
16
8b
39
83
d4
fa
46
4e
69
f0
99
6d
0b
f1
eb
96
f8
76
7a
d3
44
eb
c9
bc
04
df
4b
32
82
a3
80
97
ee
73
00
01
1c
b1
da
c6
48
0f
00
d9
a3
70
4e
ff
2b
aa
3f
53
c6
40
a0
3c
35
c6
f7
cd
39
25
50
f8
12
6b
88
59
06
9c
e7
ec
10
8a
e9
55
57
cb
f5
10
07
c8
22
8f
83
43
5b
4d
25
ff
3f
fb
cf
b8
50
09
a5
89
8f
d1
5a
2c
48
c5
fa
69
e0
85
16
71
ba
47
5f
6f
cd
a0
49
82
15
cf
33
14
95
e8
8e
4c
44
4b
f9
af
fd
2f
9b
d7
03
75
ba
9e
06
1d
e1
da
d4
9c
17
a8
a8
12
ff
95
31
c3
aa
18
21
aa
39
0b
33
50
56
d8
56
c7
4f
8e
2e
34
1c
17
15
52
31
d2
33
35
6e
79
04
51
4d
21
40
da
c4
d3
c6
29
13
41
b8
9b
6c
c5
f0
1e
01
51
55
9a
49
9c
3e
51
4f
ee
3e
b1
90
27
82
ab
52
3d
93
b8
c3
24
50
bc
15
30
63
7b
8f
54
8c
3a
5f
9c
7a
6c
1d
2c
ec
86
21
e3
f5
d7
25
44
ac
13
41
e9
5a
6c
49
7e
9a
ed
3e
ff
97
d0
86
12
54
8d
3b
6c
7a
24
95
c9
f9
27
03
01
d6
93
d9
64
ea
58
bb
cf
38
60
5a
8a
4b
ed
09
6f
1e
f9
c5
dd
3d
1f
7f
f2
8f
be
45
24
2b
36
db
98
cf
ee
cb
8a
1e
2e
ff
d6
85
02
12
7c
c2
a0
43
9e
3b
a6
8b
1b
a6
bb
e6
c3
fd
9f
53
80
78
1d
9d
68
21
20
66
65
d1
91
5a
52
db
0b
35
8e
f1
15
ae
95
58
ce
b3
cb
e6
3d
6f
cb
8c
09
99
66
7a
87
9a
f6
8f
1f
9c
eb
73
ef
e0
35
24
b1
e1
a1
b0
b2
b9
26
43
00
89
fa
c7
9f
19
7a
60
57
e0
03
60
71
1c
e3
87
32
e5
41
ca
76
e7
12
01
23
7f
30
21
94
66
ea
a0
e4
1e
ac
f2
18
b9
31
b6
e9
c9
94
d2
f9
3e
d2
d8
eb
1a
43
ff
