c0
eb
6a
21
12
df
b0
91
ce
8c
9e
44
e4
df
ec
d6
df
38
93
c7
dd
1b
a6
08
a4
0d
e0
4d
98
1e
02
03
8c
19
27
0e
e4
0a
56
6d
16
29
51
2e
33
6a
4e
79
44
1c
89
66
8a
b7
fe
03
8c
97
18
d6
f6
d2
aa
4f
44
18
d2
3c
41
ed
9f
64
59
2c
68
5a
02
ee
f9
92
06
0f
a7
f2
a8
cc
27
fe
1e
07
b5
56
07
23
c4
b0
d6
ac
26
25
e9
ad
15
9f
27
1f
f4
b0
e3
d8
41
74
84
e2
2e
a5
98
93
06
ee
22
4a
05
8b
2d
e9
b4
90
fc
39
a7
da
d7
75
cf
86
67
74
b9
0b
06
a7
04
e2
98
3c
86
f1
2e
f4
d0
0e
8b
eb
73
ec
81
f5
1a
24
2b
d5
83
eb
2b
2f
12
0f
5d
27
f2
77
f2
b6
87
aa
e2
d3
a3
c9
42
af
63
e1
e0
42
95
72
b6
dd
32
d7
f7
6e
1d
25
01
f4
aa
bd
f8
3a
29
92
7f
27
2b
3d
69
34
2f
cb
e4
a4
84
2b
fe
73
58
84
f0
d0
9a
dd
f0
36
fb
da
23
56
a1
9b
d0
a0
27
e4
72
c6
55
77
c8
3d
9c
25
c7
ce
dd
79
bb
60
ee
11
ac
bc
8b
66
f3
df
6e
65
82
32
b9
33
24
7b
88
68
a2
dc
49
2a
d0
ee
c7
e2
cf
9e
f2
f5
07
1d
93
a3
93
37
0f
42
dc
f8
8d
04
e7
06
6c
77
ad
ab
b4
21
b2
1c
ee
be
9c
a7
df
dd
1a
4a
b1
b9
88
6b
77
80
cb
18
8c
f7
d5
d8
a5
46
68
3d
57
02
08
f7
c4
ca
ab
7a
c7
26
fb
b8
7d
ed
4e
44
10
bc
84
89
aa
50
ff
90
99
e6
2d
0c
d8
01
a5
65
e8
f6
bf
e0
fd
8a
db
a5
a7
23
5d
b6
be
b1
1e
af
ea
b1
1e
67
80
60
00
4e
0b
e3
e2
5a
2b
47
bf
c4
78
53
3c
e6
d2
47
a2
96
b8
cc
04
57
e2
14
63
22
b5
9a
8d
81
07
4e
30
17
3c
e3
32
cb
ca
2f
a5
c3
fb
b8
7b
f1
8d
d5
45
fb
8f
21
7a
27
e2
fc
aa
a5
c3
6b
15
05
1e
ef
eb
99
f2
64
ef
fa
6c
53
60
de
2b
8c
ca
10
ee
c2
69
9c
a4
f1
4d
91
1e
dc
ac
9c
a8
72
c7
b5
cb
ee
67
92
e5
45
25
66
fb
33
18
14
a0
f5
57
13
ca
22
88
6c
fd
63
1a
f6
30
9c
9d
55
a1
93
31
95
06
d0
3e
f5
89
df
48
f4
75
00
0d
49
41
a7
e7
e4
63
3e
fb
49
f9
bd
46
81
c1
29
51
f2
fb
01
e8
7c
fc
bc
3e
d8
15
61
9c
b4
09
76
dc
ea
26
bc
c3
d9
0c
cb
1d
34
23
61
f2
df
93
f8
86
1c
de
5d
a8
8f
fd
47
04
58
25
df
6c
24
1e
e0
a9
bb
36
ad
ac
9f
30
75
20
00
4d
2d
92
f5
d8
4c
72
e3
be
3d
30
d6
42
cd
c1
d6
96
ae
d1
ba
b4
06
d0
d1
4c
e5
49
e4
2d
11
b6
43
0f
48
ef
b3
3a
30
b9
a5
01
03
0d
ea
4c
3f
41
e5
32
5c
06
83
77
c5
17
b7
28
87
26
38
03
3a
2f
21
30
ed
2d
16
87
b3
f7
9b
12
f9
8d
0f
a9
21
8f
b5
88
06
04
b3
82
39
8f
70
52
d8
37
60
d2
b4
ec
51
93
05
2e
bd
ec
65
0d
bc
15
79
1c
1d
e1
8f
2d
b9
7e
e4
e8
6c
fd
43
61
c7
6c
1e
8b
2a
c2
9b
12
7c
25
14
9a
4a
ab
2c
0d
ee
38
1b
0c
bb
02
ff
0b
e0
60
8c
3b
f0
ed
1d
41
1f
01
1f
a4
ac
1d
4a
f1
03
8a
4a
6a
04
2a
f6
c7
0b
98
e1
20
07
98
48
eb
f8
bb
cf
95
4a
9a
e2
b7
3b
2b
4a
b1
14
c2
a2
fd
b5
80
10
56
76
07
fc
c7
4b
f4
97
ba
2f
0f
d2
5c
9f
b5
b5
24
35
e3
1b
f8
68
89
77
ea
4f
53
e4
f7
af
94
a5
70
ae
08
bb
df
26
fe
1c
a4
cb
60
af
64
d5
d4
9c
79
4c
a2
d3
dc
f6
10
86
31
7d
64
4d
f2
79
69
6e
d6
81
63
1e
ff
5e
0f
a4
8b
96
4a
fb
cb
d8
ee
0d
98
c5
2c
69
04
7c
2e
d6
fe
ba
af
27
7a
26
2c
20
c9
98
0f
3e
13
60
54
90
e8
89
19
a6
7e
3a
f7
6e
5c
f7
09
57
1e
2e
93
e4
08
b0
b9
15
c4
a2
91
c7
f2
8b
8f
e6
0f
a7
96
2a
02
26
73
e6
c3
fe
21
bf
a2
40
04
01
ec
85
c0
39
4e
69
70
33
ca
f5
67
20
40
37
e4
67
e0
0e
51
ac
a1
48
53
24
3f
b8
56
19
e4
09
f9
a8
1b
03
bd
2c
33
2e
45
0e
03
ac
ed
5b
1d
22
1e
ff
f5
b8
47
51
e7
61
bf
38
85
7b
a8
f4
7d
28
9b
bb
e0
dc
9d
db
cd
63
3f
a1
fd
cd
7f
14
d2
d3
ec
2d
c0
87
28
2a
85
ab
a1
13
4d
5e
f9
f2
da
1f
09
52
43
a7
7a
e4
24
d0
4c
44
56
9b
65
1f
32
1e
3c
a7
2d
ef
d8
34
9e
38
f0
12
23
ed
69
78
14
42
aa
0a
fb
98
1b
38
0b
67
1c
24
42
aa
32
f4
08
10
dc
f7
34
dd
03
4f
bc
2b
a9
c4
04
af
ac
35
a3
19
c1
fa
9a
96
38
09
0c
8d
a8
05
36
ec
cf
fa
ab
f0
3a
4c
a6
90
35
27
5d
22
0e
f6
3d
01
b1
3c
06
41
f2
81
10
49
f3
25
76
a8
a2
64
08
0d
01
d7
14
c0
17
63
d1
d7
22
eb
d9
c0
74
77
e3
a5
2a
97
fa
cd
2f
eb
f8
83
13
b4
6a
db
cf
cb
e9
c7
09
c1
4a
e2
1a
53
00
0b
4e
fe
f7
f4
f4
b8
e8
b8
8c
c5
cc
8e
b0
d6
13
34
86
96
ee
7a
8c
72
a2
a2
ed
ff
18
74
03
3f
ca
da
cb
fb
cb
32
40
05
36
12
03
2f
14
08
71
a1
40
30
ec
d4
a5
01
bb
ff
c2
17
e9
bd
39
38
3b
13
44
09
c2
89
49
37
d8
9a
c3
ca
f9
38
e2
bc
d4
02
e1
51
3f
e9
fd
0a
bd
17
dd
15
11
28
f3
4f
74
9b
6f
55
31
fe
bd
b3
24
b3
6f
c1
8d
7b
9a
cc
b7
f9
d4
b9
31
4a
e9
59
e3
4b
69
84
98
14
db
ac
82
13
20
f6
d7
0c
e7
9b
67
93
49
9f
4d
2d
43
cc
77
14
e0
7c
ba
2a
40
1c
a9
72
fc
1e
30
ff
d6
06
61
da
97
8e
30
ef
d7
30
d3
f8
1f
fc
15
83
12
46
ec
41
bd
84
c6
cc
2c
9c
e0
55
95
c8
99
8c
25
a9
6e
6c
5a
c8
e2
46
cd
ad
d0
a1
11
ee
a6
28
f2
e3
bb
3d
9c
b6
a9
2d
cd
57
aa
ee
fa
f2
2c
5d
0f
8c
1d
f4
2a
a8
c6
90
5c
33
26
ad
de
55
82
2c
45
c1
62
39
cd
88
51
d6
4a
d1
62
47
a8
ef
d9
28
07
b8
eb
da
e8
cb
c0
c4
92
5a
17
0b
d5
26
9c
92
f3
e1
64
72
fa
f0
cf
ee
2a
0b
60
ed
f9
38
5e
d2
cb
a5
4b
b4
d9
39
91
22
14
3e
f4
f5
40
c5
da
ff
0e
c1
fc
f2
bf
a9
24
58
a5
97
d3
b1
0c
ad
e4
14
c2
e9
e1
fe
7e
c3
29
df
e7
2f
f1
cf
80
04
f8
e2
ab
22
ee
85
90
ea
22
be
33
9c
04
0e
4c
33
01
0b
84
ff
f7
b3
66
f8
54
e9
32
d9
71
bb
1f
05
41
c3
0b
dd
eb
26
dd
00
d0
c8
f3
d7
3d
0f
26
25
2f
f5
15
fb
b6
4f
cf
11
39
d3
d1
f8
06
20
d4
22
1e
09
c5
3f
fb
42
02
0c
4f
e9
03
ca
2d
1a
f1
17
f5
f6
18
be
09
2d
d3
cc
c7
3a
06
2d
c4
db
cb
d1
cb
1d
1d
05
f5
fb
b1
dd
23
d7
42
3a
2a
f8
3f
64
fe
4b
bd
18
88
ac
0d
11
ed
f7
0f
e3
24
32
39
67
d2
39
fc
ed
1c
92
12
e0
f4
31
19
2d
f7
b2
ec
37
19
e3
af
f5
db
25
2c
ef
eb
f8
f7
f6
ff
d6
e7
f2
00
00
16
ff
f6
10
dc
bb
df
11
15
2c
b7
01
03
fa
39
fc
09
e2
06
e0
d5
de
db
18
12
51
29
02
4c
01
3c
21
f9
20
99
fa
de
f0
da
d7
34
4f
b3
cf
f6
01
ad
23
22
1b
43
11
cd
b7
f8
e6
15
be
02
3f
fd
0c
f4
20
65
2c
08
0c
f3
e0
1d
03
f3
fd
d2
b7
e9
d3
41
64
d0
d9
06
fb
f1
00
13
1c
ec
62
26
34
c7
ac
9d
f6
bb
1a
2d
da
0b
0e
f9
07
40
f5
cd
df
18
0e
09
de
d8
e6
e9
cf
8a
ec
d4
33
d8
0c
1f
0a
31
e0
55
e2
91
f7
37
77
fb
2d
4f
d9
af
ba
d2
04
dc
6b
9a
3e
0a
ff
ab
a6
55
50
6a
e1
6e
12
96
3b
1e
59
a2
a4
db
14
ad
0a
46
28
25
44
1a
b9
a8
82
8f
f5
34
2a
95
68
0d
12
00
a5
ab
8c
f8
af
8c
d0
6d
61
06
eb
31
f0
fd
13
84
ee
af
d2
ab
21
ec
95
09
df
d6
b0
5d
e1
9f
ce
58
32
3b
7d
34
b1
d5
30
d1
4e
b8
9c
3f
51
74
ea
70
2a
a6
62
6f
18
fd
1f
a5
d6
88
63
e2
d4
ee
b2
bb
97
c2
ca
32
b6
d5
a8
9d
4e
fe
53
c6
d4
13
73
a3
82
91
66
c3
b3
52
b7
48
af
e0
da
92
53
86
4b
23
1c
04
0b
ce
77
21
a5
23
1c
a0
09
83
31
68
ff
e8
3a
fc
d9
03
98
5d
da
72
51
e9
fb
a8
3b
e9
ec
84
2b
29
6b
ab
f7
ae
9a
4c
ee
1d
dd
a2
a5
1d
f3
25
ad
ea
6e
9f
61
f5
fb
a4
5f
fe
f6
41
f4
01
87
cf
2b
04
f2
5e
d2
43
11
59
3a
4c
7d
10
4d
01
64
da
7a
5a
7c
dd
ae
e4
1f
84
fe
f5
94
ae
92
ee
ce
f0
2b
4f
0c
7e
3a
bb
9c
10
61
75
ee
b1
c9
c2
bf
47
df
ea
e5
88
09
f2
8e
7b
47
ae
ce
ab
60
b7
97
86
2a
f3
58
12
2d
55
8c
40
c1
49
bc
18
dd
f6
5d
df
4f
c5
3f
94
61
ba
59
aa
af
23
10
46
05
b1
90
53
ca
cb
02
d3
a2
4b
22
37
ff
d0
07
ee
d9
d9
c1
42
79
f9
46
3a
4f
e5
1b
ca
b0
5c
72
5d
3a
89
91
92
d5
3b
31
d3
95
03
e5
76
2d
28
4c
a7
e2
75
c4
7e
1c
a3
d8
88
d5
1b
3d
e5
df
5e
ef
ee
d3
bc
c9
7e
66
11
33
4c
ad
07
12
c7
b7
3f
34
04
b2
4c
35
12
fb
82
36
57
5a
46
3d
1e
49
f7
c6
74
34
f5
05
ee
a3
c9
38
3d
ac
37
06
78
41
e5
48
3b
44
32
36
60
28
64
bc
db
b1
ef
7e
5e
91
4e
d8
da
e3
35
a1
36
05
d0
ac
e5
f0
6a
66
6e
95
b0
b5
bb
a2
e5
22
de
b5
ea
37
7f
3b
0b
a1
c9
e2
fd
6d
96
02
b3
af
bf
1f
0d
b2
1c
ba
03
f7
71
bd
57
ce
b9
bd
77
cc
61
62
ce
15
77
53
68
e8
ed
d1
76
3d
c1
f4
55
b1
e4
13
87
e6
2f
2d
94
d2
8d
ac
36
52
d9
54
4a
4c
42
4d
32
dd
0d
00
81
a8
ce
a7
32
56
0e
0e
c4
77
66
52
e4
40
7c
65
67
2b
ea
cf
a9
0a
12
58
a2
9c
0f
03
7f
6a
61
5d
1c
4d
f3
90
f5
28
9f
00
7e
63
c5
e1
13
ab
a5
1d
5e
ff
c9
59
0c
0d
34
17
bc
e7
34
d7
3d
db
8d
da
37
d8
fc
31
e6
a9
ad
a9
a2
c3
cf
97
62
ae
33
32
9b
58
f6
97
41
fe
a3
d5
10
e6
7f
dd
fc
38
40
bc
56
07
b3
34
4f
be
44
cf
eb
ec
89
b4
80
1c
84
c7
c1
cd
ca
c4
f5
46
d1
46
6c
06
62
10
4f
78
60
81
b6
18
c5
b4
42
d1
72
6a
bb
03
99
26
64
fb
06
22
c1
74
e2
71
d5
21
e1
30
53
1c
3f
2b
8a
3c
7e
85
80
e3
67
06
cc
d3
1a
1c
f7
d1
18
40
cd
15
b0
4d
f3
a5
9f
89
5b
c8
02
27
2d
67
8f
0c
c7
f7
08
a7
21
f2
90
a9
bb
9d
37
c8
38
59
29
82
c0
ba
dc
bd
5f
8b
82
05
fc
9a
ad
66
f5
28
05
b3
b8
23
52
f1
3a
74
65
47
73
5a
09
e6
1c
24
20
c4
03
b5
ef
1b
36
90
97
1b
58
f6
e9
d4
aa
35
3c
ad
51
7f
e9
46
76
4c
37
65
c6
f7
97
29
c3
78
41
cc
08
e7
0c
0c
1e
2c
b4
a7
2c
f3
d6
07
2d
c4
f6
7c
58
13
fe
fa
30
96
5b
b6
36
d1
be
da
0b
bc
14
83
d5
c7
3d
40
74
38
6b
b3
5b
46
c3
f5
36
01
17
b9
20
f1
56
93
00
c1
1c
e4
5c
54
b8
43
7b
65
b5
26
ed
14
29
01
ed
5c
bc
bd
de
a7
3f
95
e7
fc
2a
2f
03
6b
3e
4c
ba
08
c5
b9
3f
c2
d5
ab
f7
b1
6f
6d
21
de
d9
5e
a6
de
12
d7
e5
c1
13
fa
49
f7
27
fc
11
ef
b2
6d
4f
39
e5
d1
c3
5c
1c
41
b7
f8
2d
20
1f
ea
68
15
63
11
a3
8b
6e
a9
d2
d1
f7
0a
f0
53
e5
e8
ec
f8
fa
23
2f
00
ae
9e
96
85
7a
05
7b
83
32
d5
49
89
f9
49
07
d9
f5
96
c8
76
a1
98
08
05
f1
5c
c9
be
75
cd
13
ae
62
ec
48
5b
4f
af
3d
ab
c2
5f
e0
48
e3
84
88
d9
ff
e3
b3
b1
1d
11
10
74
c8
eb
f4
39
1c
a5
9d
4c
a2
e9
1a
b1
48
0b
26
e1
15
6c
73
99
cd
be
ed
f4
df
b5
d2
e9
ce
1f
1b
e4
24
f9
da
ef
3e
54
46
15
03
1a
fe
0e
40
5e
c8
65
d2
eb
f9
2b
a7
b7
1e
de
65
7d
60
47
0f
40
14
1e
1f
b4
84
10
14
e9
36
e6
01
63
4c
df
d8
29
6b
c7
03
fe
a7
eb
88
4d
4e
08
26
32
f1
21
89
97
2f
15
b4
72
3d
cc
bb
67
78
04
23
5a
fa
b4
db
29
da
bd
04
20
f2
7f
dc
c4
e3
64
34
21
36
ce
e5
67
19
e4
18
15
97
e5
33
3b
ea
bb
00
e1
b9
40
f0
c7
53
39
f3
33
d2
c7
f5
f0
9d
d9
82
ea
a7
21
4d
6f
f8
80
92
a0
5d
e0
65
25
6a
d9
1e
e5
19
54
fc
8c
32
e6
32
8a
ac
9a
df
4b
35
44
ec
2b
cf
0b
89
d3
b0
c6
00
ca
8c
41
1e
fb
ca
f9
9d
4a
06
b7
5a
eb
c5
de
f0
3e
c7
67
a7
26
16
b8
72
5e
d1
0e
d8
a7
19
d1
08
50
da
ff
1d
1f
ed
c1
d1
4c
7d
a5
cd
f3
e4
04
56
e9
d0
01
cf
ab
4e
5e
cb
be
ac
14
23
c5
c7
74
30
a7
29
8d
0c
ba
a1
b8
d9
d5
f7
f6
19
7a
80
f8
ba
7e
e1
c4
c1
ff
c0
b8
88
96
d2
c7
73
f7
c9
0a
a3
60
c9
cc
fd
52
5a
c8
e5
1f
bc
35
9b
1b
62
b0
25
f7
5f
e9
00
b6
a3
13
97
8a
d6
e9
0b
37
09
c4
b2
a8
b4
9a
4d
80
af
9a
6d
2f
1f
d8
f0
01
d1
94
60
15
3c
05
80
18
c2
bd
fb
a7
0a
0f
d2
81
f5
41
12
b2
a2
7c
bc
26
f5
f4
01
82
2c
3b
a3
26
a6
4a
5a
f0
0c
b5
c5
9a
06
9d
d5
c9
1e
c7
06
c3
12
82
20
51
0a
10
94
25
79
e4
1f
4c
d8
6f
8d
73
19
8f
90
b8
51
ca
43
fc
68
69
db
31
e6
a9
f4
1b
08
7f
18
1f
de
17
bd
d1
89
e2
10
22
f3
ad
20
a9
c4
04
ec
13
0a
f0
b8
e0
d3
29
d9
01
15
eb
bc
7a
f1
d4
c2
ac
72
95
3b
eb
05
df
dd
c8
01
ce
45
6d
17
a6
86
10
28
1e
ce
34
dc
79
25
38
60
c2
64
0b
0e
e3
cc
7c
13
2c
97
29
cf
ce
3c
6c
52
3d
64
b9
00
0e
ac
45
94
df
f7
62
91
e1
3a
64
3d
21
e2
00
ef
ff
1a
39
8d
14
8e
03
c2
22
42
56
6a
12
65
60
c6
94
8b
22
c2
71
f3
63
1e
d7
10
46
e2
0d
d2
e4
55
28
84
bb
e9
3e
5a
73
e6
9c
da
f9
f0
16
ae
22
13
3d
38
36
6c
54
a9
94
ed
4f
71
23
d0
d2
79
df
59
65
2f
41
2c
15
a6
2c
09
15
46
29
a3
89
1e
01
65
a7
c3
8b
4d
cb
5d
e4
75
b6
31
64
e2
1d
b3
ba
f0
30
20
05
cc
bc
a0
1a
8e
68
2b
f0
21
78
be
b6
d6
c2
09
28
74
0a
11
3f
5f
4a
93
9d
dd
8f
b6
60
4f
d9
39
30
2d
3e
db
2c
14
ba
7e
aa
fe
43
87
d9
a4
e5
90
ac
87
89
8c
ec
3c
e8
40
25
bc
f9
32
24
1d
d4
36
2b
e8
26
34
d4
f7
dc
fe
f9
0f
f0
f7
77
38
aa
e8
5c
cb
07
9a
0b
15
f4
c7
b3
34
71
1d
bd
78
f8
6f
54
d2
e2
2c
5c
60
1b
a1
40
e4
e6
11
82
70
53
e2
bf
20
bd
35
97
f6
5f
ac
a3
43
f2
e7
89
ab
f6
f7
1a
da
92
52
e3
5d
88
5e
99
e4
2b
c4
62
73
7c
2c
48
d3
25
ac
94
dd
09
f2
24
a3
fe
1a
ac
c2
6b
8e
e6
3f
e9
e8
36
cc
a3
c8
0b
9a
eb
d3
92
22
e1
57
ea
87
15
68
f2
cb
2a
17
b5
db
23
91
9a
80
31
2d
9c
d1
07
aa
12
a8
68
d0
67
1f
c4
36
32
09
47
c5
c2
c6
3e
b4
a9
c3
0a
f8
17
1b
ea
b7
09
a9
4d
aa
fa
d9
5d
c0
0a
3a
ad
b0
5c
c1
73
d7
e5
e5
28
3b
79
01
16
59
04
91
d3
c2
76
49
86
9d
9a
fb
26
f4
01
e5
c9
eb
36
22
63
6b
3c
ff
fc
a0
68
6f
1e
47
58
08
04
93
f5
f5
dd
fa
b0
23
b4
aa
80
d0
29
d7
3f
4c
0a
5b
af
0f
54
48
2e
36
dd
ac
28
8b
28
09
1a
4d
ae
b8
58
31
18
3e
aa
67
b8
e0
9e
a3
ff
27
20
51
c3
86
db
53
fe
6b
ea
cd
80
c1
ed
66
a2
80
28
9f
48
02
85
a6
d8
bb
dc
0e
07
a1
5c
ac
5b
ae
ad
f4
0b
a9
6e
38
77
de
58
de
97
c6
34
29
ae
19
fe
98
1c
1c
12
c4
11
6d
38
35
57
a4
b0
08
b0
36
21
3b
da
9e
d1
d4
83
ca
ee
1c
e0
4a
bc
68
b3
3b
bd
1b
ed
7b
80
43
f1
3c
db
4b
97
53
2b
59
6e
b9
c7
3d
09
a2
65
4c
23
64
8b
ff
39
41
93
08
24
fb
a9
13
11
47
27
31
42
cc
e5
ff
d5
fa
d3
db
c2
c5
1a
0d
b0
57
df
bf
fd
c9
3f
b6
f1
6a
56
eb
38
dd
81
d3
f0
7f
d7
e0
fc
98
14
57
1a
fe
3d
27
cf
09
c2
09
b3
7b
cc
06
4e
19
a0
e4
87
37
c2
f7
25
6b
1c
d1
bd
0f
e7
00
4e
72
2d
22
a9
44
55
95
e3
52
8f
67
dc
30
84
52
37
a3
38
4a
47
c0
34
03
0e
ef
19
e7
c1
44
07
5d
43
28
07
c2
6d
2f
87
68
8c
f8
cd
d1
01
13
e6
4f
c4
f0
0c
d7
5f
11
25
15
fb
ce
c8
7c
3a
c0
9c
f7
6f
98
4f
24
8f
15
16
0b
31
fc
d5
cb
22
db
10
3d
00
d6
29
f4
23
b3
e9
df
12
3c
08
5f
bc
d7
1a
64
2d
31
32
10
80
54
34
f2
c6
ae
37
55
ea
ee
93
e0
9e
ad
9d
6d
a8
64
17
11
0d
52
b0
20
66
f0
3d
23
34
ff
08
fa
f0
3a
ea
96
81
2f
04
6f
f9
be
46
56
b2
ca
28
3b
5a
d2
99
a3
ce
3e
ef
15
ec
4e
e9
f2
66
49
0d
e6
e2
4c
fd
f8
16
f7
d5
f0
19
85
14
b6
a1
02
90
07
aa
c0
0e
4b
f7
2f
7b
16
e5
b3
bb
11
e2
09
16
43
39
81
4a
01
ca
f3
4c
e3
0b
ab
ac
b1
22
10
f1
93
77
34
3e
17
72
16
a2
47
3f
36
b6
00
13
08
d9
7f
78
73
3a
3d
c7
01
3e
34
a9
f0
e0
8b
8f
30
59
48
2e
b5
02
06
8c
1f
54
f4
d3
36
5b
56
41
30
a6
bb
a0
b4
49
68
3d
10
ea
67
b1
b8
69
ba
26
5a
d8
f7
96
98
de
59
95
d6
92
ef
2f
ed
e5
50
eb
9c
8b
00
52
98
23
8d
a4
13
39
ce
f3
9f
51
9b
d1
39
46
3a
0f
89
a5
22
0e
74
49
fa
a3
c7
a0
4b
08
55
95
73
c8
01
04
de
5b
f1
dc
d9
0c
87
83
18
c6
9e
a3
62
a6
4d
44
5c
6b
b2
99
d8
fe
07
b8
ce
00
8f
fa
65
d2
26
76
94
18
cd
04
a1
95
64
bb
ab
a7
de
c2
1f
47
15
5a
4f
e0
2e
1e
c2
76
05
04
86
8d
b8
eb
19
7a
0f
28
11
70
c9
fb
49
01
01
08
d4
17
10
b2
dd
d2
72
db
91
0f
8a
b9
e9
e6
55
3d
2b
fe
1c
4c
d8
3a
6a
d8
51
8a
66
2c
2f
58
40
1a
ee
7e
75
b7
1b
87
17
29
74
80
2b
4f
85
ba
a0
07
6e
76
e9
3c
06
b7
5b
ae
24
9b
8d
09
05
24
da
b6
bd
0a
36
95
a3
a7
21
2f
80
ff
e5
e9
e9
08
04
c2
35
99
ea
ff
37
28
52
9e
47
59
26
af
93
a4
42
29
0b
b0
22
9d
fd
37
0c
2e
17
2f
14
ad
d2
37
24
8a
82
01
18
d8
f7
66
70
af
c5
77
30
32
d9
9d
ca
72
b2
09
09
2d
56
74
6d
fe
e9
c2
88
31
c1
d3
92
4a
73
34
99
4a
74
9e
c9
8c
fd
07
47
ea
a6
6a
e1
cf
6c
cd
86
c1
42
95
41
ca
b4
fe
97
49
fb
27
e8
2d
4a
84
8b
25
59
a5
0f
7d
55
01
7d
9f
a4
f5
4b
28
42
9d
3e
05
f6
e7
b5
27
d3
c5
6c
79
3a
bd
67
e3
9a
cc
4e
3a
ad
c2
cb
33
db
50
7f
c5
c3
25
b1
c2
18
98
2e
6f
2f
4f
3b
d5
91
cd
bf
75
53
ed
2f
73
7b
d6
0e
a5
4f
f0
e4
25
02
c0
bf
05
c5
50
6d
c3
d7
f2
e1
24
dc
8f
f7
b4
8b
d0
41
fb
f6
83
5e
c3
ff
ae
4f
36
fe
cf
a7
2c
5b
cc
ce
f6
65
6b
df
76
7b
df
a6
8c
ea
17
5b
12
d2
29
fc
03
40
ce
f3
7e
84
5c
5b
84
92
f0
4e
20
90
4c
4f
3d
ff
34
a9
25
4c
37
ed
e9
46
da
f5
47
c7
dc
04
aa
fa
e5
77
dd
2b
4e
67
26
0e
29
53
d4
50
a6
78
d1
09
83
10
e0
5a
a1
0a
2c
56
78
02
6b
fe
ed
32
b5
28
ed
0b
97
48
78
93
2e
37
2f
4d
3d
d5
54
e2
d9
44
01
7d
7e
4d
80
f5
04
30
ef
44
58
f2
2c
28
d7
93
08
89
22
bf
35
3a
94
cd
3d
dc
cc
f2
dd
69
78
f5
cf
cc
e1
fc
ee
63
f6
b8
51
f8
a2
21
fb
00
46
ca
42
10
40
5a
c2
0c
9d
be
12
6b
4e
cb
9c
53
02
41
91
93
17
8e
c2
de
6d
51
02
9d
bb
b9
23
50
fc
bf
3b
ed
99
ec
05
c0
85
dc
41
36
14
00
2a
14
00
06
2c
aa
56
be
cf
e2
56
bd
f8
58
21
58
4a
6f
38
2b
e8
bd
e4
0e
e3
30
e8
f2
e2
8f
4a
7e
2e
f7
a0
a1
cb
e9
c7
a3
01
f1
2e
ca
36
d9
ef
de
b4
84
d9
05
d2
42
91
3d
ad
ce
65
73
0a
36
09
5f
ed
98
3b
ab
8e
07
92
bc
d6
dc
a3
5f
6f
16
e3
75
22
df
4b
11
17
fd
22
1c
22
8b
27
8c
d1
b7
3b
11
fe
07
ca
bd
1f
a5
b3
23
8d
1e
0e
ea
23
ef
36
05
0e
e8
f6
3b
3a
e1
2d
9c
14
1c
f6
b0
14
c9
9b
43
e9
ec
38
e9
88
44
06
15
ff
01
33
7c
41
6d
01
11
4e
ee
e9
fd
80
d9
da
d7
26
c3
37
58
1d
86
a6
8f
2b
26
95
ca
ec
a1
be
f2
ef
ce
d2
22
e3
a4
e1
6c
be
cc
ed
74
c1
39
d9
10
07
ff
da
e0
2f
53
a8
c4
2a
ef
ef
f0
ae
ea
27
f6
f2
19
e8
e2
1e
39
0d
3d
0b
43
f2
ee
19
d2
92
23
2e
32
2c
b3
da
cf
b9
13
20
86
b0
cf
89
be
ed
21
9d
09
ca
1c
db
01
d0
f6
14
02
11
a0
73
46
48
0a
2a
9a
97
f7
60
d8
e5
ce
1c
4f
29
c6
0b
d0
be
f2
1c
a3
b8
9e
24
20
69
1a
af
d9
d9
29
20
60
1e
0a
d1
2c
e9
eb
ca
f8
07
04
49
4d
6d
ed
e0
ed
37
00
ba
2f
ba
e3
31
14
c4
b1
25
de
18
11
35
7d
26
15
10
eb
ed
e6
61
e6
0c
c3
bd
e6
ee
8b
cf
d2
85
9e
d5
2c
3b
a4
d6
f5
f3
4b
50
64
23
bf
ce
12
0f
40
72
4e
0f
ba
86
b4
01
34
de
38
9f
cf
99
90
ea
b1
be
ff
1f
6f
c0
4a
d8
38
9e
0a
5e
03
cd
5b
27
14
b2
47
a2
21
26
d4
94
ed
db
f5
61
27
72
98
6f
2c
90
fd
d7
9c
3b
c5
d6
9b
09
64
05
ed
b2
37
b0
1d
9f
4d
77
af
cb
f4
14
3e
ef
88
be
6a
09
7a
8c
0a
6c
6a
74
21
11
2b
64
a5
b2
db
1e
26
7a
cf
c9
14
e1
bc
d5
bd
dc
4a
28
a3
1b
90
e3
76
cf
43
ae
8c
03
0e
ba
dd
f3
49
17
57
f8
92
6d
04
1b
8b
63
28
5a
36
8d
d0
f1
a0
69
cd
c7
9f
fb
99
00
cc
4a
f6
2c
80
b3
01
2a
b0
d0
8e
34
24
7e
ed
17
86
8a
2d
52
52
d6
a8
0c
4c
ca
71
46
92
d4
a6
c3
16
97
52
24
3e
f2
9d
ee
d0
a6
e2
fc
ac
bb
9b
8b
61
d4
3a
f4
2a
3a
f7
0a
fb
ed
c6
3b
ff
97
9a
95
f8
90
e2
f6
f0
4c
cb
3b
ec
2b
f8
37
79
e0
10
9b
f1
d2
a4
5c
91
61
c8
6f
7c
6b
18
e3
9a
a0
e8
87
af
32
0d
59
fd
01
0a
fe
ef
be
ea
69
f7
5e
45
04
49
56
61
22
4e
c7
cf
e2
d8
34
00
0b
dc
cf
d9
b0
aa
7b
23
e0
ed
5d
50
39
d1
2a
8a
15
d4
84
43
f9
ad
af
ff
3b
a6
52
65
48
4d
06
40
ba
9d
ec
67
8c
7b
40
23
cd
9b
4e
c1
b7
45
34
dc
86
df
19
11
06
d7
97
de
c6
a7
46
0a
59
20
e0
92
f3
a5
28
1e
1e
c4
06
9a
85
5b
d7
5b
e6
07
87
30
00
21
3e
91
09
03
29
b4
ae
91
c4
0b
e8
c9
25
b8
ef
e9
94
15
91
83
1a
79
5c
d9
dd
01
21
00
a2
fa
d2
51
43
13
8d
c3
41
09
5c
ca
43
d0
10
66
e0
eb
ca
ff
30
14
1e
93
90
5b
e2
7a
2e
96
28
72
dd
9b
73
0a
e0
11
b9
ca
3e
7c
46
19
d3
c1
d6
eb
5e
a9
eb
83
53
4d
1c
19
5b
23
38
63
70
7d
eb
0b
f2
fa
ee
1b
09
fe
49
6c
f8
08
f3
39
d3
c3
cc
1d
c4
0a
5a
2b
8f
51
3e
bb
16
3c
30
b2
50
b3
72
7f
83
48
ff
64
0e
f7
7e
45
06
5f
f4
90
ff
98
e8
14
1e
71
e3
0d
83
29
ce
dc
08
a7
cf
da
15
c3
87
d9
4d
40
8b
25
84
e3
eb
a1
e9
e3
19
10
01
c5
a7
7d
9e
c3
28
d1
0b
79
44
37
21
f6
dd
5c
11
fb
aa
c2
54
ae
cb
be
3e
3b
83
2c
3a
0f
42
84
3e
9a
f4
cc
58
8d
48
96
1c
c2
36
e9
b3
b7
26
91
96
fb
25
a3
8f
03
ce
7a
fa
d5
f3
f8
50
03
12
ba
02
77
70
b0
2b
b3
ef
77
e1
7b
74
3e
e0
e6
3a
2e
42
ac
05
7f
04
3b
ed
14
1c
2a
b9
1c
f2
84
eb
6b
a3
88
15
33
30
ec
07
c6
3a
9e
e4
7e
ed
b3
a5
ae
20
20
70
33
8f
33
a1
83
94
3f
6f
b1
ab
f8
b0
f6
c7
12
2f
e2
30
7f
e6
18
89
6e
28
a1
7c
d2
81
ac
71
88
98
a8
eb
18
a1
33
dd
fc
90
9d
8b
e2
62
62
85
a3
fb
c1
07
37
17
4a
49
20
f7
d6
87
82
9e
d5
37
20
86
38
3b
86
ff
34
f2
4f
48
62
27
62
33
44
f0
31
ce
d1
46
e6
2b
b3
cc
b8
e4
12
81
85
c6
fa
d6
4c
29
6b
0c
e3
02
05
a9
d0
e8
6d
5a
c0
21
44
5e
99
5e
4e
e7
b3
10
16
e9
bf
9c
84
d5
76
af
89
fd
4c
c9
e1
a3
64
29
5e
b0
5e
0c
86
1c
36
4c
53
e9
31
75
dc
40
00
cf
3e
de
6c
68
11
fc
64
29
ba
5e
6f
51
47
08
15
9d
e5
be
64
a5
af
82
8a
01
40
04
56
34
d3
25
63
e7
79
1f
e1
3a
71
52
e3
bb
81
ef
c3
ac
77
28
bf
05
23
86
cb
80
90
43
2b
05
63
e0
d3
ab
ef
93
55
02
dc
8c
12
06
a4
22
bb
78
7b
b2
16
b0
f7
fe
fe
3e
b4
e6
b9
3a
38
d3
da
37
c7
7e
6e
ce
e1
d4
02
d1
02
cd
52
f8
4b
fb
0d
47
4f
59
05
53
00
bd
c9
51
da
6b
ec
8c
21
92
d6
33
d9
de
c3
63
75
0b
e4
7d
09
d2
f8
5a
e4
91
a0
39
e4
c2
47
b9
ee
dc
72
a3
ef
9e
80
8a
0c
c4
71
cd
73
31
66
25
e3
ff
53
43
31
87
b5
1c
5d
36
9a
06
b0
01
2a
70
d7
c8
02
e0
d7
4c
14
ee
1a
d3
0b
80
48
f3
1e
05
e3
e2
fb
b9
24
b1
63
86
dc
11
db
e1
dd
b1
c6
36
1c
ca
02
57
34
14
00
e0
b8
2a
9f
ac
96
c7
c7
8e
0d
34
00
cc
9c
3a
f0
9a
7f
70
7e
03
e7
08
2c
1f
c1
c6
1f
8c
17
ed
27
4c
46
38
60
ab
72
c0
5a
22
7c
b4
a7
63
cd
cb
21
1b
07
bb
0b
8b
fd
42
a8
17
af
53
f5
fc
f7
1f
d2
ab
43
44
15
f6
d8
29
ac
fb
db
ee
5c
2e
f3
50
c6
e0
03
2e
23
5f
f0
52
96
4a
1a
33
be
06
e9
ff
34
87
b7
0e
f7
fb
d6
51
d5
12
06
09
ae
db
22
e7
56
e3
b9
e2
a2
06
5c
48
fd
75
32
cc
a1
1a
28
b6
de
0f
b5
41
43
bf
c5
2b
da
9d
dd
0f
57
05
34
a9
0a
55
a8
5c
0f
04
1f
db
c0
fa
0e
83
14
0c
fe
43
2f
cb
f7
15
56
e5
97
df
92
54
97
6a
e3
9f
11
57
0b
d8
37
e3
d7
b8
ab
04
74
63
20
33
fa
66
c1
68
e4
8d
7b
36
db
29
d8
eb
55
fc
84
08
b8
7b
e3
3e
19
43
a7
14
28
19
de
c0
78
1f
7c
c5
d2
71
e4
28
32
31
b1
a6
58
d6
b5
a3
87
72
b0
e2
ce
d6
9a
e2
c5
26
e8
36
df
2a
d6
e7
f3
1d
32
66
b6
59
29
e9
18
d7
3a
a6
ab
e5
82
b0
2b
27
d7
4d
75
e9
4a
fe
48
06
00
9f
d6
7a
b9
46
09
fc
6c
29
0a
75
14
47
17
1d
71
67
28
60
68
1b
4b
d4
4b
16
14
64
b1
c0
c9
03
fc
d3
07
eb
ef
c0
e1
e1
01
16
f0
00
fe
bb
0e
2f
fd
25
1c
33
e9
de
22
15
22
b3
34
ee
65
ee
a2
76
c8
1b
b5
7e
13
7d
e8
4a
88
f6
92
3b
ea
f4
55
1f
d2
ee
7f
dc
d7
3f
27
3f
65
b5
40
f8
e5
c8
3a
ff
c3
df
fd
0b
18
a7
1d
e5
fb
56
1b
d0
d7
10
5c
05
fe
36
b5
00
ce
af
14
15
ac
33
cf
be
ea
07
05
dc
cf
ee
2d
21
23
ec
1d
06
ce
5b
d6
5b
a0
e5
f2
05
40
de
be
cb
f7
fc
c3
0d
a1
34
e9
f5
06
f7
0e
c7
06
4c
10
0e
57
f4
f9
ee
b4
63
05
52
89
c9
0f
53
0e
24
60
2a
e6
bd
ed
06
2f
0f
a5
26
d9
28
99
3f
08
7e
b2
ea
23
27
59
4c
36
db
c2
b9
08
53
8a
d6
da
b1
f4
fd
31
a2
02
68
71
04
54
b5
ee
fd
dd
0e
0b
0f
1e
22
6b
c2
e9
38
15
db
f7
ee
75
10
87
dc
08
19
f5
c1
d6
19
de
c2
37
ff
d6
01
19
f9
33
2e
00
2b
30
df
ff
08
a9
24
ca
dc
1a
f4
2b
a3
2d
a8
05
23
b6
ee
44
85
ab
87
2b
42
de
d8
1d
26
95
ca
b6
bb
db
80
c3
15
43
65
29
8e
53
f7
fd
57
a7
bf
43
a0
e4
d7
fc
50
75
42
c3
67
21
20
86
9d
83
5f
91
e7
21
f3
98
3e
13
1a
70
e7
0f
6b
54
0b
1f
1b
b9
99
e0
76
a1
fa
f8
9a
ae
6c
1f
a8
37
e5
e3
5b
ed
22
0e
06
5e
e4
0d
03
53
cd
2e
68
61
11
30
1f
88
14
2f
9b
36
4b
6c
a4
d5
49
03
8b
ff
ca
5e
be
ff
fd
17
6d
ef
da
46
57
2a
29
ff
6e
b6
6f
d7
e7
74
fe
be
eb
ed
e1
64
d3
38
1a
62
f8
47
8c
09
b7
a0
9e
cf
ee
06
62
02
ea
40
39
10
df
b9
9f
3b
40
b7
63
7e
93
ba
da
fb
a7
85
ee
86
95
fb
23
59
32
2c
27
4b
33
9a
98
00
ec
5f
d4
cd
bc
74
fb
be
52
a2
c4
4b
fe
61
cf
ee
36
8b
09
59
f6
cd
ce
4c
54
c0
93
2d
bb
e9
a2
46
bd
e7
54
e7
8c
c2
1c
ca
3c
6f
95
d1
b9
6c
d6
26
d6
b1
15
bf
6c
c1
0e
b5
da
39
ca
c2
45
10
58
68
43
d5
6e
0d
a7
8f
a6
ed
c5
ff
4b
60
69
0d
86
a6
f8
c7
0e
91
1d
fc
0d
4d
cc
4c
40
e8
dc
be
ee
30
54
77
33
41
0d
9b
c6
4a
20
52
d2
92
77
6a
24
07
f9
a7
1f
21
cb
6b
18
82
2f
1f
10
2f
cd
0d
7a
90
8e
52
fe
ef
1d
83
cd
66
36
df
f7
73
04
ac
da
65
3e
b3
3e
00
67
1f
91
d0
55
5f
01
29
e7
ed
82
fc
6d
6c
72
e4
fb
f7
e0
18
f7
29
ac
33
b3
65
33
30
71
40
39
2a
33
f9
98
b7
f9
9f
19
a1
8d
14
00
5c
30
d1
57
59
a7
ed
51
99
89
7c
00
26
45
27
2a
1b
1f
a0
a8
45
9a
4e
55
bb
69
e8
30
78
05
d3
fb
d8
2b
db
3c
d4
63
cd
04
4f
38
f8
73
c9
31
b3
06
ec
b3
11
4a
ad
e6
6a
4d
a4
0b
f8
1a
0b
a0
6e
1f
ec
b1
d1
31
1b
ce
d0
3b
1d
36
50
49
02
b9
a8
3b
71
41
fa
09
c6
be
f8
a6
b9
0a
a0
e4
69
5f
47
f8
fd
93
7e
65
53
62
91
04
fb
4c
a3
d3
28
df
38
a9
06
ca
1e
0a
d0
c5
67
6c
01
0c
11
e1
11
a5
85
dd
f8
19
20
35
fe
b9
aa
8d
46
52
4b
58
50
9c
15
9e
ea
55
fd
6f
5a
c4
97
10
9c
cb
33
7a
5d
d8
7e
19
63
7f
19
c4
e6
2b
14
db
7f
9a
a8
6f
81
7f
21
6f
e7
c7
65
eb
ca
de
d7
80
3e
c1
6f
0a
b8
9a
92
4c
bc
43
77
e0
b9
13
dc
1e
dc
92
02
78
cf
de
bc
2e
67
2a
b4
6f
22
ab
de
3e
0b
23
dc
c5
b0
28
9b
91
ef
39
fa
8f
99
2e
4a
f3
27
3a
cb
b3
0c
4b
e4
18
0e
32
87
fa
7a
46
12
fb
73
8d
e1
9d
e4
15
32
4d
6b
14
b0
23
4f
f6
a8
bd
2f
27
15
70
ed
07
23
61
ad
b7
26
a8
6b
88
38
5e
7f
3e
3f
19
7e
22
94
30
ac
27
5d
42
31
29
19
21
f7
08
60
f2
42
03
34
56
fe
b9
27
54
41
07
60
72
af
61
cd
11
be
57
19
fc
a4
cd
23
da
b7
d4
58
66
fe
56
93
69
1c
35
5c
03
f2
9f
ba
36
59
eb
fa
76
c1
be
51
bd
3d
b4
23
64
c1
ef
99
03
90
01
65
20
92
4b
07
3a
ab
9e
66
ac
06
69
d8
cc
7d
52
10
e7
ce
31
33
25
3a
be
2f
e7
ae
a2
24
76
c8
c1
b8
5d
ef
ce
2c
50
db
2f
a8
e5
d2
f8
19
c0
8e
e5
6a
f0
f9
0c
01
c2
09
34
78
6f
47
32
b8
d7
96
22
f1
b2
16
e5
8c
dc
12
ce
c4
4a
18
30
5b
3f
a7
49
7e
d1
42
ca
85
21
1a
95
e9
5c
eb
43
b6
26
bc
c8
91
cd
07
fb
c0
4e
6c
e4
3b
07
ff
79
30
7d
65
f3
97
67
0c
cc
fc
79
d2
26
73
de
2f
fb
71
d3
c4
dc
41
29
53
c3
eb
dd
38
ed
ca
ff
2f
ef
f8
0f
91
3a
36
2d
31
e9
17
af
17
e1
ac
05
4d
2e
37
42
09
96
c2
64
75
11
79
ee
56
67
83
cc
02
20
2c
01
b5
ce
e7
d3
17
ed
04
c1
50
e2
cd
f8
48
18
dc
fe
a4
e4
45
f6
c5
66
4d
6b
17
0e
f0
85
5f
f1
c2
0a
b3
22
cf
3a
c4
7a
c1
b5
74
ae
a3
cf
2f
11
09
71
02
80
b1
69
b1
89
44
09
67
e6
f1
00
f9
51
d3
a5
35
14
ca
d1
cf
af
24
02
4c
dd
0e
96
d9
00
d1
fd
ce
60
6b
f9
32
d1
1f
ad
a7
23
01
e8
e5
db
e2
e8
21
07
1c
7e
51
08
d4
01
14
76
1a
ea
04
f3
29
b3
8f
be
59
e4
34
fd
c1
09
0a
f2
ab
43
b8
f7
a3
e4
bf
75
0b
07
d2
f0
4b
cf
53
f9
47
1e
45
fb
23
43
01
ce
32
d1
44
30
8b
98
c3
cb
ae
7d
cc
e7
d3
26
88
48
e7
3d
ff
3e
e2
12
2c
47
2f
00
c7
c6
60
bb
a3
45
46
3f
ee
36
41
eb
87
1e
51
19
ef
0c
36
6e
ee
f1
b5
2a
da
59
00
ce
b5
24
f9
19
2a
76
a0
75
bb
4d
fa
f6
f5
0f
b7
69
42
60
ea
40
65
4c
f9
d1
f6
7b
e3
4e
07
ed
f3
f7
ab
55
9e
02
4f
e1
88
e6
45
cf
14
a0
02
dd
82
9e
e7
f5
09
c3
22
f6
2e
d9
00
f2
73
1d
da
e1
db
fb
ea
15
9c
e6
bb
39
db
ef
bb
1b
eb
b0
50
96
bf
64
ef
33
d1
b1
6f
14
11
0b
5c
9d
cf
82
b4
69
17
58
de
0d
a3
d8
f0
6e
d1
09
e9
09
ed
14
4e
3d
c8
93
2f
22
04
e1
0a
3d
d7
f4
a7
70
f2
20
64
e3
35
12
d3
e1
8d
43
e2
fc
8d
10
c5
f5
3d
67
2c
2f
22
77
93
06
0d
38
c9
4a
12
fd
ea
c1
0a
44
9c
bf
63
93
46
25
f4
47
04
08
3d
d3
1d
aa
77
3b
44
c3
e4
b7
07
b9
91
55
ce
a6
10
16
df
46
c1
0a
25
25
9c
61
a4
f7
6a
35
b6
29
4e
c6
0a
d5
00
07
bd
93
44
73
1e
f4
b6
11
a2
c8
73
fa
14
6f
03
1d
ad
ec
dc
2d
be
af
65
3a
cd
17
9b
5d
80
b3
86
c1
5f
47
4a
91
74
1d
b5
80
e7
0b
34
dd
b0
59
af
8d
c3
63
8e
54
28
f9
c8
c1
8a
33
82
3b
c4
72
24
18
ee
39
f9
e1
e7
62
b8
ca
a7
62
df
84
a0
09
1c
e7
ea
7e
57
10
59
88
ff
06
22
17
90
2f
e6
0e
8a
5c
d0
c4
1c
91
a0
e5
20
ff
88
90
e2
e3
a8
51
c2
da
83
24
07
6c
e5
0c
e6
3c
03
26
a6
16
f5
9f
3f
92
48
c2
14
0d
cd
07
3a
00
48
00
90
0f
55
59
81
c4
f0
ef
55
d1
a9
5b
44
4e
d2
09
6a
60
74
59
c9
05
57
02
ae
38
29
8a
af
74
d4
e0
ae
53
e1
27
cb
f8
e2
b0
49
b8
73
ce
e3
ee
e2
81
e7
44
f4
7e
38
ab
42
39
ec
f3
01
7d
4a
d5
8b
b4
95
9f
33
b8
98
57
7f
b4
e5
66
88
69
c5
81
92
d1
04
e5
89
56
d4
b7
15
cf
0b
03
09
7b
91
34
b7
ea
e0
f4
3f
a5
eb
f1
16
01
ef
fa
58
c5
df
4e
3a
3f
5e
85
d0
3c
28
fc
57
b9
ec
1c
ea
3a
98
8d
1f
f4
1a
ae
ca
f7
57
99
c3
dd
ad
4e
7c
69
b7
43
da
7e
db
79
0d
f3
93
3e
cc
22
11
d7
9a
a9
40
a9
9e
df
91
c0
ef
b6
b8
52
07
a9
3c
b2
b2
c6
9e
fe
49
0c
b8
f5
bd
41
03
02
24
54
94
fa
3c
fe
cc
99
d1
13
1b
27
7b
87
7f
c8
c4
b1
72
cd
61
55
5e
57
0b
f2
8d
0a
55
f8
a3
27
c7
f8
ab
1c
4d
8c
77
35
78
58
2c
92
bc
4a
7f
e8
ef
bb
0c
b4
49
8a
25
f8
6c
f1
09
84
c3
99
8b
de
8f
5c
d3
f2
45
fb
83
ac
1c
d8
03
44
2a
d5
22
0d
6f
e0
23
7e
93
5b
e5
01
6c
b6
a7
d5
96
01
74
41
64
69
62
b2
30
70
ee
df
96
c0
95
c6
e9
21
08
a6
1f
49
0e
1b
78
62
36
4a
6a
60
aa
f9
25
4e
6e
31
03
a8
65
50
81
7e
a2
b4
15
ef
dc
dd
c8
3c
87
00
45
4e
01
2e
ff
de
f8
c5
87
52
54
de
b5
b3
88
f7
d0
89
24
ea
09
f4
16
85
81
53
4e
d6
d6
06
03
ff
0a
73
0a
b4
42
62
6a
f5
87
c5
c6
9a
24
23
c4
bc
70
fe
3b
28
4d
28
22
da
d7
51
a6
d2
d3
15
92
d1
65
98
ca
03
34
15
dd
21
97
0a
64
04
6b
fa
de
d9
0b
c0
3a
13
3e
f2
27
ae
1e
e0
44
5f
6f
74
a6
a7
4b
22
fc
fb
6a
6a
9d
e5
37
1c
80
00
b5
d8
5f
1d
e3
b7
19
db
aa
66
f2
d7
b4
a2
4a
dd
27
fa
d7
59
d5
0c
b6
b3
02
5f
fe
e7
80
eb
18
19
c4
6d
b8
04
ad
df
ff
f8
4a
76
3b
66
02
fe
48
88
f7
22
e3
91
a8
e1
15
79
f0
61
7a
cc
6a
c0
59
86
aa
f4
8a
e5
4c
c9
32
36
7c
ca
8f
75
92
c9
db
91
28
46
14
65
9a
c4
3e
8b
1c
8a
d8
fd
94
ff
c3
28
45
c3
ab
35
4f
b7
a2
ae
bd
2d
73
92
7d
6c
12
be
f4
54
ac
40
69
97
c5
ac
15
3c
05
1f
f4
61
fc
0c
8c
44
70
ca
52
87
11
4d
91
45
e5
ea
9d
1b
28
98
8c
08
51
26
5b
26
1f
95
59
f4
a0
63
da
b2
89
22
db
63
c4
9f
9f
56
13
aa
e6
bb
5d
cc
4e
aa
e8
8e
d3
46
09
09
99
6b
e6
68
6b
a5
a1
dd
2b
ef
11
96
d6
79
a6
30
24
da
24
76
e9
d3
fc
f3
a0
a8
0e
05
2e
df
4a
f2
dd
24
0d
1d
13
7a
b6
ac
17
b8
4f
11
73
e7
24
b6
fc
16
28
17
3b
04
91
3a
20
de
f8
16
6e
e0
ea
c2
1f
df
c6
a9
9d
66
ef
76
d7
04
ae
19
92
0e
b5
23
a7
33
e9
4b
27
da
8e
0d
18
31
5e
4e
8d
ad
a9
7f
f5
85
6a
c8
73
fe
c4
ef
20
e1
ae
94
4b
a0
40
4a
14
3a
cc
ca
13
20
09
54
ae
bf
8b
10
6a
a8
e9
51
76
cd
d3
d6
9f
a6
e4
d9
23
bc
84
ed
b6
0b
f7
39
67
7c
a1
4e
0a
2f
1a
a0
02
e1
41
2e
51
1c
0a
58
58
ce
00
ea
07
bf
8d
79
3f
bb
8d
f4
e5
0b
6b
bf
b1
42
47
54
c9
6f
69
25
4d
0e
cc
28
00
a3
9a
32
35
8c
01
3e
b6
db
82
66
ae
6a
79
0f
db
3b
b9
db
a9
08
02
1f
d7
f7
f2
ac
14
08
a9
0a
01
d4
01
ea
bd
33
00
b0
d9
ed
f4
71
e2
45
41
69
05
eb
dc
7b
06
0d
fd
16
b9
27
be
26
d3
d3
97
ea
c0
f8
af
70
1c
96
26
d8
cc
67
1e
08
30
d1
e7
27
4c
4b
94
74
0a
f9
37
a1
23
b2
86
76
4f
e3
dc
1d
4e
51
d4
9f
bf
ad
c8
e9
85
b0
41
3a
a1
fc
4f
a1
37
86
43
53
1a
cc
18
27
74
d4
86
2f
99
41
5e
0a
6c
75
6c
cb
d9
9e
1e
d9
d5
75
8b
a4
37
34
ad
aa
9d
31
8a
f5
4a
13
bc
00
11
2b
02
d6
e3
1d
c2
5e
27
a8
16
c1
db
f7
5b
0a
6c
f0
bf
fa
ab
01
13
46
29
3f
8c
8b
bc
a8
14
31
04
c6
00
dc
b2
f1
91
b8
55
4d
d5
d6
4d
c3
d4
17
b2
4d
65
36
22
a4
dd
42
0d
7f
c5
58
52
c0
e1
c5
94
25
51
94
52
d8
0b
f9
13
51
d5
5c
ca
63
17
ab
26
ad
8d
12
26
ff
3d
5b
c6
f7
7c
46
e6
46
01
27
8e
a9
c9
1a
d2
a2
bf
c9
4d
97
ba
fd
e8
02
3e
5c
d8
49
9b
9a
94
9b
52
cf
15
32
a3
04
a8
9f
2e
b7
86
81
ed
78
05
d4
98
81
97
84
e1
66
fe
2e
1c
3a
01
1b
e6
99
be
92
64
8c
78
3b
53
18
17
19
da
c8
84
08
24
28
de
0a
15
86
0f
b9
cd
1e
8a
10
71
d1
1d
6f
3c
d1
07
fd
2d
41
2f
72
75
e6
63
94
78
fb
cd
4f
1b
70
f7
55
47
31
5c
8d
46
a4
ad
84
37
11
38
fd
ab
0f
68
cf
a1
be
75
7f
84
ad
e4
1a
73
58
15
67
33
8d
1a
6a
91
22
ab
dc
82
8c
93
da
1e
68
41
55
e1
c2
55
d9
57
60
1a
1c
c8
57
85
9a
24
e8
eb
bc
f5
af
8e
56
3f
c1
b8
2f
bf
25
de
bb
b4
c2
75
02
24
2e
1c
d3
e3
54
e2
31
36
ae
d0
1c
f0
c6
2a
b7
18
06
61
72
33
34
9e
f3
ae
77
a9
ad
fd
53
66
0c
64
f2
38
34
65
90
c2
02
c3
03
86
cd
48
71
a5
3e
70
73
89
6c
94
6a
eb
7d
5f
9b
72
bf
a1
5f
75
62
c3
f9
fb
9e
03
7a
23
6f
b2
d7
96
e2
b3
45
6c
49
f2
64
94
78
d8
0b
d4
68
38
41
6b
b3
a7
ba
ab
0d
b7
a3
ae
d7
2d
69
c7
4d
f6
d6
e5
8b
40
70
0e
bc
5f
e7
8d
59
8f
99
60
0e
dc
22
4f
d2
c3
ed
ba
45
0b
4b
ff
b7
03
f8
c6
b8
fa
99
25
94
4f
d9
12
e4
88
a3
92
2f
a0
ba
8d
6a
95
ee
f7
63
9b
d5
02
6b
7f
ae
d6
50
42
1a
bc
da
04
5b
2f
29
87
3b
aa
dc
b6
3b
7d
95
58
4c
14
09
2b
2d
f3
ea
ea
f0
8e
29
23
29
e3
06
14
3a
b1
44
65
c6
be
62
d2
ac
c1
c8
11
ce
34
6a
12
94
ee
96
44
34
08
05
6b
36
fc
3b
4f
1a
0a
3f
99
5b
68
10
cb
38
f6
a8
bc
e1
89
c5
4b
c0
dc
5a
7c
e9
74
ea
ce
ab
39
fa
44
cc
28
ca
4b
01
ff
ff
fc
3a
bf
c8
4b
ca
4e
e7
9a
f2
9b
49
db
c9
13
23
00
af
44
c6
13
c4
e6
68
17
33
33
a5
c4
0c
15
c2
fe
da
60
65
9b
c2
3a
99
5b
ff
73
38
d5
79
fe
94
e7
0c
75
82
04
e5
e4
bf
0f
35
c8
2b
69
15
0e
56
3b
6f
fc
e7
12
f5
f0
38
06
bf
78
54
7e
f2
8a
10
1c
59
4d
67
3b
59
b4
a1
34
dd
01
2d
c5
60
b7
68
4b
e1
e0
16
75
5a
cf
92
7a
19
f1
4f
d2
50
ba
cd
3f
a4
a5
67
a4
62
bb
d6
2b
0c
23
45
f2
fb
db
73
a7
43
2f
1c
f9
76
82
65
94
81
07
bb
06
df
9d
3b
d9
00
d8
ea
a0
39
85
c9
b0
10
ca
e8
0f
ca
ab
29
7a
fe
51
b0
e0
71
bd
b5
77
61
a7
a2
a2
de
62
1f
ff
26
00
5b
f1
d8
d4
e1
32
f3
a2
3b
15
5a
fb
34
d9
64
85
7e
f9
6f
ed
40
4e
d4
42
b8
17
e0
99
60
6d
af
2f
bf
72
78
c3
28
63
6b
43
94
0d
f2
04
3e
e7
10
9c
f2
d0
53
c8
fc
25
b6
0d
bc
ba
f5
2e
fd
2d
3f
ef
ab
6e
77
c3
f9
57
30
5c
b4
ff
3b
f3
d7
6a
9c
a9
6e
f4
e4
23
f1
bc
f1
db
e7
12
e7
c0
e3
e1
06
15
df
21
53
d3
13
d2
f4
67
e2
4c
e1
51
f0
6a
c1
ce
7f
15
34
37
d7
eb
ab
64
bb
00
4c
8a
03
cc
45
c5
0e
91
15
2b
f4
3e
d3
e4
2e
62
d4
db
b2
f5
68
61
83
59
aa
a9
7a
f5
45
f2
47
4e
06
1a
0e
07
ac
8a
93
af
1b
e4
f7
41
fe
06
26
c4
04
aa
05
33
7b
69
df
8d
81
c6
6f
ec
3d
b6
53
67
2b
54
11
52
bb
db
67
98
ee
a5
3e
4b
b5
ab
76
f9
e6
29
56
b9
cd
e4
20
86
fb
8d
c0
f6
98
df
56
4b
2e
2b
10
3e
88
9d
4f
01
29
e5
fe
e8
d0
1e
a1
65
85
f9
e3
95
cb
21
d1
1c
0b
1d
d5
bc
f6
e5
56
43
0f
11
75
a3
2d
20
12
db
8c
4e
e6
75
fe
4f
ec
1a
bd
b1
47
64
25
0f
ec
db
0f
07
ed
fc
da
56
45
55
d7
f7
e0
8a
31
16
f3
30
91
95
ba
d0
66
e9
ed
55
12
c3
96
1f
09
3c
25
c3
fd
ba
fe
09
48
a7
53
1a
a3
e8
c5
6f
7e
6b
51
e3
3e
b7
54
ea
c5
c1
f9
39
67
83
3f
25
4f
ec
fb
f8
1e
8f
5e
17
70
d5
a8
14
6b
fd
b9
fd
b9
47
13
45
81
73
ee
98
5e
06
bc
dc
6a
ff
ff
ef
2f
f2
04
da
d0
f5
13
01
c7
e8
00
55
41
8b
fe
21
74
db
10
07
60
55
18
6e
b8
60
ad
e2
89
16
ef
a1
55
f9
dc
a6
d3
2f
f8
0a
38
78
1c
f1
0c
3e
88
53
31
c4
2b
98
8d
a5
e8
00
d0
33
a7
f5
a4
5e
42
86
c5
7b
7c
7a
a1
2d
ad
ee
11
d6
05
22
fa
da
f5
08
ea
02
99
c5
4b
00
d3
d7
27
cc
37
43
0e
86
ba
5b
20
2f
35
cd
83
b3
3d
96
81
20
6c
85
62
ca
d8
f1
8d
42
40
34
ef
49
11
ed
98
60
b8
c1
e1
57
b7
3f
67
09
a2
aa
f6
fe
a4
a2
43
a4
99
5b
9e
46
25
1a
82
d4
d5
b5
4d
e7
0f
b0
e7
fd
88
f7
ce
b1
e8
82
6e
5b
05
30
16
b9
13
9d
c4
23
82
15
2f
01
d7
44
64
b3
36
f4
09
87
ae
bf
19
80
d5
c9
a4
6f
4d
57
53
3b
c4
5c
91
16
bd
20
31
37
34
e9
b1
38
cb
66
50
0e
d7
5b
1d
38
b0
40
d0
fb
2f
7d
32
aa
cd
a3
35
f2
fc
4c
6c
7f
8e
6f
f8
57
03
3d
be
a9
03
f9
12
11
84
e7
c8
2a
ea
58
e4
ec
1b
fa
bb
20
d6
7f
fc
84
21
2a
5e
23
39
10
02
a5
67
b5
0f
c3
8e
8a
ce
1d
cc
97
1e
3c
fa
18
9f
51
25
cb
46
e7
52
4d
ae
0d
e8
13
56
9f
ff
33
bc
af
c6
f1
1a
9e
65
ff
65
53
00
dd
a6
24
c2
f6
58
16
cd
ba
b0
63
55
01
11
75
e8
a7
64
ff
2c
af
2f
b3
b8
32
f4
0b
60
0a
64
86
07
5d
2f
3c
40
9f
01
b8
98
70
0c
78
eb
f4
62
f1
05
e0
c7
60
c2
94
7a
e0
6e
f5
3a
53
19
1f
e2
b2
dd
7d
17
cc
03
69
e3
a7
3d
57
45
4e
7f
2d
4e
fc
e1
22
55
08
cb
8f
ab
a0
09
62
2a
a5
31
7f
c6
95
4b
c9
63
bf
a5
0a
18
89
03
5f
f1
d7
be
fe
fa
ad
bf
2a
83
82
f7
25
e5
fb
48
c1
19
db
c2
d5
4e
ed
eb
11
a7
f7
71
f5
56
84
80
a7
d5
ae
16
6a
ac
37
7b
16
fd
7b
55
c3
49
b3
62
f9
0c
38
a4
fa
4d
41
22
53
ac
b9
da
4e
a7
2a
31
24
b5
10
11
69
f7
3f
12
11
b9
2e
24
f1
3d
32
ad
a8
57
58
cc
20
77
19
82
bb
d1
4a
ad
32
f3
8f
07
72
6d
db
14
90
ad
2c
da
0e
98
e1
2e
fc
af
05
c4
56
f0
0e
f6
ca
de
a0
d5
08
7d
d5
07
28
1a
5f
7d
74
b5
0d
d4
77
e2
e8
97
2b
da
5b
91
86
19
03
c9
69
e1
f7
f1
14
8c
f7
0c
ca
40
f6
89
bd
7b
b0
37
9d
3a
44
45
01
91
65
89
47
ff
71
01
86
c1
e4
e3
68
b2
74
b4
ce
d1
a6
b5
dc
e7
56
6d
32
f0
66
f4
f1
1c
15
c8
5d
b7
03
ee
71
1c
3e
24
46
c5
df
bf
32
98
18
4f
1b
02
00
6d
00
92
4d
25
24
2d
08
1f
00
e3
35
fa
fb
c4
28
f6
77
ab
4e
3c
01
ef
db
16
dc
e7
4e
23
ed
87
14
4e
6e
a6
9e
03
e8
6d
3c
75
4f
e3
25
dd
d0
d5
cb
f8
34
1d
1b
9f
19
a0
bd
7b
c1
4d
0c
16
fd
1b
d1
4f
06
a0
08
ce
73
f2
a1
52
1b
bb
d4
a8
c5
39
fd
d7
b3
af
a0
1f
21
a5
0b
01
22
b8
27
54
9c
fd
3a
76
38
fd
c7
6b
05
d9
f2
b2
12
d2
58
ee
7d
0f
9a
35
09
86
21
ee
e6
9d
aa
1e
a5
83
cf
1d
82
0a
4d
b4
58
d5
b0
c4
43
71
22
44
a7
35
a7
43
d9
7a
d5
88
12
07
c3
43
99
12
df
07
2a
ec
73
18
48
78
f5
4c
0e
da
1d
ca
cd
28
f4
e4
92
2f
dd
3f
fb
01
51
3a
9b
ca
70
b6
b6
7f
d4
a3
33
90
d9
0e
02
cf
e4
7b
2d
33
4a
e8
ba
13
07
4f
cd
06
cb
fd
2f
43
86
4e
81
d0
54
39
16
94
6d
88
26
e5
81
a5
c3
c6
4e
de
63
b1
bc
4e
29
7e
9a
1a
0b
d2
0d
11
2c
65
14
ca
fc
05
d1
46
89
1b
1d
1d
36
65
b9
e9
e4
7c
ea
af
4f
c9
61
e4
ce
bc
7e
9d
ec
10
da
00
97
c8
19
3a
2d
f1
01
21
74
06
e2
e7
96
8c
1b
e0
ab
45
53
fd
7a
2f
1a
ae
41
6d
ea
95
57
75
3d
cb
f2
0b
eb
d6
d7
1c
d5
52
88
f2
16
28
e3
eb
f4
0e
a4
e1
90
b8
50
cd
04
af
0d
20
ab
3a
fb
e0
a3
28
39
af
de
3d
22
f7
13
23
a9
c9
c5
1b
5f
f7
a1
bd
3f
3b
31
25
dd
25
f1
69
c5
f8
ca
09
19
c2
d0
a3
ee
42
4a
d5
d3
4f
30
10
12
a6
84
54
1f
00
6b
33
d6
de
72
d2
62
b5
02
4a
37
c0
7c
3e
ab
a2
8a
c6
48
d7
9b
6b
83
cc
c8
d8
58
6a
94
9d
fe
fb
13
1c
78
07
e6
57
4c
38
d3
79
bd
cc
58
44
d8
e3
c7
5b
83
78
e3
5d
e7
12
12
63
be
94
13
0e
f9
c9
c4
1b
67
38
d6
e0
c5
21
63
ae
b7
0c
01
00
39
26
ae
cd
52
3d
1a
64
b4
b9
07
37
e5
da
b1
23
ef
13
3d
65
fc
e7
44
f2
db
a0
e4
1e
31
20
07
77
0e
d0
2f
95
f5
44
3a
a0
0b
63
ee
22
c4
98
0e
f0
76
68
d9
c1
4b
ea
e2
03
63
21
21
96
d3
e6
98
eb
d5
dc
09
74
ac
d4
16
01
f1
a1
bb
8b
04
e7
0a
03
01
5f
5d
06
28
10
3e
f2
a5
b8
50
f9
18
f0
ba
f5
c9
28
0d
94
e5
3e
2c
46
31
c1
22
5d
6b
b1
a4
35
22
1d
c9
0a
ee
d6
63
c3
d3
4e
33
01
2f
3a
d2
c4
24
ce
c2
e5
cf
63
f5
58
40
9f
f2
d6
e1
fe
a3
fd
0f
16
ef
c5
89
7d
be
21
3a
32
ae
3a
3f
15
01
dd
bc
a0
36
ef
50
49
e1
ef
b8
68
31
e6
34
3c
1b
82
89
bf
f7
18
77
11
02
59
a8
cf
08
c1
1f
02
d8
ba
35
c8
e6
c1
2d
c0
2c
ec
94
f5
00
20
0a
1e
c1
40
da
ba
00
c7
84
f0
3d
43
39
1a
ac
ac
be
8e
1d
d2
3d
07
4b
61
f1
e7
f2
ee
0e
06
69
67
f0
95
0c
e5
5f
cc
cb
24
52
96
29
d8
f1
1b
1d
e2
11
01
0d
de
12
06
01
0d
47
bb
12
dd
23
3b
27
36
9d
dd
ff
da
3e
91
41
07
af
16
55
9a
44
20
53
d9
14
04
dc
24
36
4d
61
16
11
ef
1e
2b
9f
29
cd
b7
f6
a4
12
00
fe
43
74
46
fb
18
01
92
a5
e1
4c
3b
ce
06
df
d7
98
d9
44
51
cc
17
52
5d
8f
d6
c6
e3
5d
4b
0c
b4
fa
21
0b
1f
73
d5
17
ed
f1
63
2c
12
09
e1
81
f4
01
cb
b3
2e
87
04
74
f0
53
e1
49
79
51
ee
41
93
c6
33
48
25
6b
a7
44
c5
0a
ab
56
d4
ac
f5
02
f1
9a
78
4a
4d
15
74
3e
be
c9
1f
92
f0
65
5e
49
c2
a2
dd
64
e1
24
fc
59
85
f4
17
f5
b3
8b
35
09
94
b5
25
15
1e
77
c4
e3
51
39
e5
5f
c4
ac
d4
13
06
f4
1f
e8
11
52
e4
ed
83
57
d5
02
54
3b
17
91
13
5a
fb
4b
eb
90
43
ea
9e
79
1a
d2
12
af
46
29
ff
de
3e
45
4b
90
f3
f0
5d
92
38
07
f2
d8
a5
b2
d4
e8
0c
ab
ce
f1
2b
10
e0
d1
e3
03
dd
6c
c9
e2
03
2d
09
ed
ba
07
44
93
a7
ba
fb
89
44
b0
db
f8
e6
97
3c
ca
3c
45
5a
90
b6
9d
c2
4f
06
35
be
c7
39
a3
c9
2e
9d
34
64
1a
e4
f1
57
45
f4
04
23
19
ac
12
37
64
39
22
40
09
4d
ec
84
05
21
d5
12
37
2e
ed
74
c0
ff
f3
a1
fd
08
1e
19
f2
e1
1b
e4
e7
ff
1c
e8
09
9e
3d
7b
6b
44
fd
20
0e
d3
49
e5
28
00
d3
38
ff
4c
ac
17
83
b4
09
db
09
00
3f
eb
ef
21
db
b3
49
ed
15
ea
2b
32
c9
2c
c9
e1
d5
ee
41
6d
56
a6
00
ae
6b
d5
03
eb
cd
89
1b
ec
f1
47
58
13
1f
14
92
7b
fb
03
20
29
18
e9
91
63
a7
e4
f2
fd
91
29
2d
98
f4
76
f3
3c
ab
0c
38
1b
04
42
e1
28
cd
cd
07
8c
03
d4
35
d0
96
3c
0a
54
a2
b5
0d
cd
14
47
62
36
cb
fc
9e
6e
f2
e8
84
5d
f0
f2
2a
b0
b0
34
dc
80
bf
e4
ee
81
e0
13
1b
eb
1c
f3
a5
6c
4f
a3
ec
90
39
33
d1
98
2c
2e
d6
3a
cd
df
7c
18
e8
f9
42
1b
29
0c
e2
03
00
0b
e7
1e
dc
4c
56
f2
e7
58
b9
07
cc
d7
99
cd
83
54
dd
67
59
5e
6b
ce
e7
b5
3d
91
fe
73
32
a4
63
4a
3e
f3
95
df
26
33
d0
86
4d
d6
41
4d
20
de
55
ff
c7
32
00
07
fb
fd
17
17
74
e7
91
35
c9
f3
1a
e0
84
19
c7
43
dc
1f
41
0f
e8
ed
14
ff
07
e6
1b
82
ab
f5
a2
4c
93
91
78
7c
0a
fd
cd
5b
03
e9
1e
32
af
c8
b6
15
1f
18
f4
8b
d2
ae
1b
b9
35
f6
c2
d6
53
e8
1b
02
05
b2
4f
12
0e
7d
a7
1d
6d
03
21
66
64
c3
44
b4
0a
2f
f3
e2
33
e9
4e
64
b3
b3
19
3f
ac
ef
97
1b
3b
fb
01
47
8a
a3
d6
a1
21
1c
9d
f7
e7
2e
ae
ca
09
56
20
30
aa
da
f9
25
85
d9
13
12
51
af
dd
ea
e1
05
ec
db
08
9b
8a
eb
cc
d2
e2
c0
d6
9d
99
1f
02
42
8d
f7
8b
07
06
84
bf
f9
a1
e3
0f
7b
ac
29
b7
1b
d8
37
c2
11
48
55
0c
32
00
c4
ae
df
76
50
33
ee
c1
de
5e
e5
91
50
be
41
65
e0
1b
cd
ba
6e
08
dd
6c
36
a7
6b
6c
22
60
8d
1e
f3
84
ff
a9
13
6a
0a
d0
cb
22
e7
0b
50
3f
27
01
3f
b0
4e
fd
63
0e
b1
47
19
cb
bb
bd
dd
19
52
37
3f
6c
5a
2a
0b
d7
f1
c8
bd
cb
4e
cb
2d
1b
f3
f7
3b
11
d2
0f
ea
7f
20
8d
63
e0
f3
40
26
8d
ef
14
4f
27
74
5a
58
ef
61
3c
13
c6
12
13
da
f5
00
29
cd
87
11
be
74
6f
a6
81
7c
06
41
06
23
68
c2
40
14
4a
43
29
6b
db
83
aa
97
dc
12
43
0d
a1
f5
a7
8b
be
d7
18
b9
ba
ea
5a
b4
e6
cd
92
1c
dd
51
e1
be
74
a7
04
43
25
b6
98
51
38
ec
13
c3
d3
af
04
53
25
7b
e3
0f
44
44
4a
b9
e0
5d
09
d2
f9
3b
5c
1e
f0
05
a0
35
77
c8
43
68
34
b8
f0
a6
38
da
e2
28
9c
e1
bb
d5
10
d2
71
80
25
80
00
9a
23
3f
53
97
c6
34
5f
47
e0
60
c9
ec
07
a1
ac
c2
9e
03
2f
57
e2
da
6e
54
37
54
02
76
c2
36
4a
bd
c8
f2
3b
92
5c
39
7b
a6
b4
66
9d
b9
0e
12
d2
88
46
d0
c6
09
15
71
b1
4f
5a
bc
71
cd
66
12
01
ee
18
cc
b7
77
61
4a
e9
e7
93
01
9e
8b
30
5a
3b
ad
ea
c3
df
da
87
0b
17
c4
58
64
ec
36
be
90
15
9c
42
13
a5
75
a2
cf
52
3e
b4
34
a7
29
79
97
29
05
88
9b
a7
f7
f7
1f
bb
45
a5
bb
b7
8f
15
02
31
2d
ff
1a
a7
0d
1b
16
39
de
27
59
74
02
e5
a8
16
77
2c
4d
df
a4
8d
83
43
3e
9a
44
3f
61
e0
5d
e5
ed
78
41
aa
7d
25
51
4f
49
db
4c
b5
43
be
37
75
50
fd
0b
41
21
ff
42
3d
98
ae
63
7b
d8
6e
d4
4a
6e
18
fc
cb
fe
da
f1
37
0e
8b
9f
21
b2
62
ea
4c
b7
35
c2
c5
53
85
11
35
d3
e7
7b
f9
ad
db
62
59
38
8a
da
10
57
63
2a
36
7d
1f
71
1b
f5
c9
0a
ad
c3
5d
09
53
05
26
02
22
55
0c
aa
36
0f
5e
98
58
a8
1c
a3
01
8b
79
85
8d
8d
fc
3c
f6
33
4c
c1
51
a8
6b
eb
02
1b
8e
c7
b2
93
8a
79
31
fb
c9
35
3a
05
90
60
15
ae
d1
5b
3b
05
fe
f2
1f
39
f1
bc
f2
2b
53
d8
3f
05
15
7a
ed
95
e6
0e
51
53
e9
f1
04
21
d8
fb
44
f9
bc
34
3d
5a
42
ff
d2
09
9f
19
d2
78
c3
4a
2d
ce
e7
1b
86
2b
4e
89
ff
4f
11
b2
06
e9
05
89
71
19
4f
f2
45
bb
f5
b2
29
7d
a7
53
1d
bc
5d
e9
56
5c
86
50
35
c8
59
3c
4e
0f
52
e7
fc
b0
f4
d1
f7
30
f4
8b
23
a4
86
18
1d
5f
6d
88
9a
b7
8b
2c
e5
01
57
19
c6
26
03
fd
38
68
ff
8f
66
98
19
57
5f
8f
e5
e9
e3
a5
77
27
a0
99
c3
69
cd
77
25
61
49
e9
79
d1
c7
bd
51
04
aa
fb
58
cd
63
4f
c3
98
10
11
61
6f
fd
09
38
2d
90
a6
51
30
f9
e0
79
b5
fc
70
bc
ed
fd
7b
46
21
82
4d
c0
ab
ca
6e
6c
0b
44
f0
9a
e6
f3
4e
7d
bd
57
99
3d
1a
47
8e
72
09
22
77
cf
7c
9d
42
30
01
f4
ad
62
a1
d0
87
28
73
b7
83
bd
14
57
05
f0
a3
2e
97
ed
21
cf
60
80
48
b9
21
f4
d8
d9
c0
db
f2
42
5f
40
a6
e7
f0
6e
e2
32
da
05
ba
ad
1c
65
d1
e0
83
c7
cb
c9
a8
4a
9a
3d
08
8d
3c
f1
8c
dd
aa
23
56
22
73
65
95
4c
3d
eb
a1
87
42
eb
bf
e1
9f
c3
f8
02
db
ff
1e
2b
e0
12
a7
ae
db
67
a9
e4
fa
4e
02
06
eb
d7
21
eb
84
10
6e
c6
61
ed
51
13
56
6c
d4
10
6d
ca
c0
f3
ad
ee
e4
84
f3
fa
f1
37
d7
36
93
a5
f4
f5
f7
7d
06
07
67
48
c7
8b
a3
e8
e0
d0
52
13
f4
b0
99
88
97
1a
5b
a4
85
4d
3c
68
93
8d
b0
19
7a
f2
1e
9c
0f
18
59
05
50
6c
ae
c2
95
b9
b7
48
64
14
17
8c
50
a9
9c
04
73
80
40
4a
dd
0e
eb
41
08
d8
a6
82
4d
92
22
2f
67
11
7b
00
31
0a
d3
52
0e
be
46
bb
28
fa
5c
91
76
13
aa
75
6c
40
e9
b7
d4
31
46
82
e1
11
c3
07
87
6d
0e
09
8e
c8
f1
19
9c
4f
22
6d
c0
3c
44
ff
e3
96
21
4a
d2
34
3e
6e
a0
f1
77
2b
d8
85
4d
3a
aa
84
22
55
51
aa
36
bb
88
f9
2d
59
1b
11
b6
8c
40
48
e1
7e
5f
f6
87
69
b0
c4
c0
a0
ce
b5
2e
bf
6b
03
54
e1
b7
03
66
22
f7
39
6c
17
41
0d
c9
4e
e0
79
98
47
36
99
f6
5a
c4
23
14
8f
b8
a2
21
93
5f
70
3e
ff
a8
65
86
88
64
e8
14
54
ca
62
9d
38
60
44
b3
e5
f4
71
b0
15
e5
3c
3d
ba
69
f4
07
2b
2c
4a
f3
99
a6
49
91
04
13
2d
dc
ff
e4
02
ac
5a
c3
d1
23
3f
ba
df
b7
92
ea
1b
73
ec
df
73
b9
fd
fb
af
38
03
60
2b
bb
90
da
fd
e4
b4
ab
39
08
18
8b
12
be
1d
1b
f4
ef
fe
e5
55
5f
b4
12
f0
04
64
08
00
66
0f
4b
f7
f7
cc
65
95
68
eb
77
06
ac
e1
bc
90
e3
1e
d1
5a
15
66
25
82
55
48
51
38
2c
07
59
a4
81
ef
ac
9d
e0
53
01
4d
15
57
cf
63
9b
62
be
7c
50
af
74
82
9f
19
9b
e6
c5
6b
52
10
ba
62
41
7e
87
1f
b9
78
29
c3
27
be
ed
6b
4b
46
0a
3f
b0
c5
0b
d3
84
36
55
01
c5
36
f2
a9
5b
e3
c4
92
0b
73
6f
0d
ee
9e
01
7a
08
28
f8
c9
d3
90
c4
4f
84
6e
77
df
5a
5f
14
23
78
14
26
32
c1
96
ba
35
01
74
9e
ce
5c
36
4e
af
36
bb
28
c7
1f
0b
2e
4e
f5
55
e2
ea
0d
af
4e
89
53
52
90
72
07
ad
5b
c0
c1
e6
ed
4e
4c
c7
ad
aa
84
bb
50
85
ed
11
87
ca
dc
71
09
08
bf
9e
c1
19
bd
b4
cf
bb
da
d0
e6
6e
84
86
a2
b7
da
e6
ca
35
ba
c0
93
f7
fb
08
58
07
a7
e7
34
08
64
28
58
7c
1d
3c
54
ff
5b
c4
79
98
c5
81
d9
26
2f
01
37
25
bb
e1
62
e2
00
e3
ac
f1
c4
17
9b
b7
65
e9
20
98
cd
21
f4
73
d0
2c
ac
f7
83
c7
e0
e8
c2
39
7c
e2
11
94
f4
8c
66
ee
49
eb
05
34
d9
69
2f
d9
b1
06
e3
4a
b2
d1
9b
35
5a
bb
f0
5b
b0
32
27
86
24
df
2b
5e
2a
b9
11
f1
f7
c3
01
d9
8c
73
b2
b2
24
00
02
de
9a
e3
20
12
2d
4f
0c
e4
21
78
60
70
61
e6
d6
f8
4b
b3
dd
e2
e4
ec
9d
58
1c
94
09
dd
7d
31
92
13
e2
b8
01
32
ef
43
81
ea
09
2c
26
49
cf
a8
ef
67
8f
76
ec
3b
d8
00
49
8a
28
22
a3
a9
6c
d8
03
12
3e
d6
df
a9
3b
1a
9e
b3
37
c2
eb
87
d2
0c
c8
ab
e0
9b
df
13
95
94
e4
69
f1
dc
15
1a
ba
0c
84
83
ef
4e
3a
34
21
ad
6f
f6
3d
5c
55
79
c1
87
f6
3c
48
3e
5e
08
ff
9a
27
17
ba
9d
ea
a4
d8
28
2d
3c
17
fe
1c
6b
66
f8
c9
6b
e5
f2
5e
e9
ef
72
1a
93
84
2b
f1
f2
c5
77
f9
d9
f5
42
29
6b
fa
35
95
a3
15
dd
01
e3
49
ca
8c
3a
07
23
8f
20
fd
2e
73
4c
de
b0
23
01
37
44
2b
c6
fa
44
69
9a
36
fc
14
08
52
07
43
e6
e0
9d
e8
83
fa
26
28
9c
53
c8
09
57
f9
1c
d5
da
7c
2b
02
f7
1f
9b
3d
e5
98
46
d5
2f
78
e2
7e
44
15
45
b2
f6
65
be
df
75
e7
04
ff
e2
04
38
22
d5
99
ba
c8
cf
c5
fd
29
ec
a8
13
ff
22
a2
68
be
c3
c1
49
75
c3
9d
bc
13
26
a1
c7
99
de
51
02
b8
1b
71
6c
05
b5
46
80
dd
62
ad
10
38
8f
2f
43
b2
4c
4b
08
3c
5d
58
f8
0c
28
75
60
d8
f0
bd
7c
3f
67
06
d1
60
38
01
b1
21
a3
e0
43
1f
68
13
1d
d3
32
ff
0c
c7
ee
db
54
13
93
e3
f9
e6
9a
61
37
0b
fc
8e
8e
10
b0
a3
b4
24
7d
ac
34
bf
25
59
fa
60
49
ca
b1
de
5c
fc
15
f0
be
c7
2f
fe
ca
39
3e
fa
8e
fe
e8
1a
96
13
43
94
bc
ec
0f
f8
f9
5e
38
a4
09
53
8b
83
b4
91
54
f6
34
5c
0c
a3
91
fe
24
cd
19
3b
a8
81
13
49
b9
00
52
b2
98
25
10
13
07
dc
c5
f2
f2
0e
c6
5a
e8
38
f3
eb
f5
0c
79
3c
0f
83
1a
f9
eb
22
34
3e
28
dd
ec
cf
77
ab
9f
77
76
3a
52
11
8d
17
b4
f2
0b
cb
54
6a
df
e9
43
7d
d1
d4
2d
2e
7d
ff
7a
e9
f3
7a
a1
a0
3c
70
a3
8a
96
1a
c1
c3
22
5b
09
f9
8d
44
92
a8
c1
e1
39
17
df
49
4b
9c
84
53
35
c7
c0
37
9d
3b
03
3b
b8
6e
92
71
9f
ea
1d
05
f6
89
e4
1c
e8
2e
1a
ac
5e
a3
3f
5f
94
9f
a6
b3
c4
ec
33
a6
9c
23
c0
17
78
11
57
a9
0a
7d
09
02
f9
05
6d
e3
6e
6f
ce
6a
c3
f3
c9
74
18
1d
ca
17
8f
fb
f0
24
c8
3f
ae
1d
a9
27
f0
a9
eb
63
24
42
36
50
0b
03
1b
94
3a
0f
79
65
02
8e
03
01
6b
24
0d
7b
d3
dc
fc
59
84
9f
cb
d1
58
7d
4d
1a
2a
33
7b
28
e2
9b
fc
cc
a0
9e
3c
1a
57
bf
38
0d
89
c3
0b
cc
71
a2
cf
35
ce
78
9a
4b
0b
77
71
0e
d6
f2
09
6a
7d
f8
1b
99
5f
35
b4
de
bb
f8
e0
dd
8f
de
6c
47
dd
47
b9
6b
58
4f
0f
87
b3
3f
11
f2
dc
e1
f4
bb
37
33
f3
0b
67
64
5a
e3
d9
a2
79
34
66
39
2c
2a
95
28
ec
c1
cd
91
e9
d6
0f
17
65
b4
7c
9f
69
ed
56
d3
d4
ad
33
25
ab
b5
82
a5
66
28
3d
fc
8f
b0
62
fb
2d
88
e5
37
6c
3f
2a
f2
2c
3f
88
bb
8c
0e
89
62
fd
ad
c5
2b
96
ba
c0
8f
ed
0e
54
1c
c6
4a
51
34
0a
bf
7a
6c
51
e9
da
08
e0
21
3b
ff
1c
6b
96
62
dc
41
ff
47
6b
da
c7
ac
dd
c9
45
16
ff
c3
f7
ee
48
a9
f0
4d
b2
2d
b1
36
02
4c
b0
f8
df
98
67
6f
eb
04
e6
47
02
fc
56
ac
c1
be
2a
68
50
d2
36
69
2b
1b
b8
c1
64
07
19
f8
ca
45
e6
84
1d
09
c2
18
70
eb
b8
fa
e5
90
f1
f6
e6
98
2a
e8
fd
b0
a8
98
e1
94
3e
be
86
c4
7a
72
f3
98
6a
fc
fc
bf
bf
f9
3c
5e
7f
37
bb
00
59
1a
49
20
32
f8
36
71
22
92
2a
53
63
de
4f
00
2f
c5
32
01
fd
d2
29
d7
87
62
89
f0
64
3d
21
aa
88
97
c9
1e
a6
ee
09
45
fb
1a
e8
6d
fb
6c
31
24
d4
d1
b6
5b
ca
f5
29
80
92
ef
e9
7d
a8
9a
c2
d0
2a
a3
46
7b
01
a3
22
52
5b
80
8f
2d
c5
a0
0e
1e
a4
87
d4
02
62
2f
62
29
fc
d5
d4
37
c7
36
e4
83
15
f0
b6
ea
50
4e
3a
0b
c9
15
ff
3d
9e
75
04
28
08
48
c8
5a
14
c4
4c
23
5b
de
bb
ed
5d
02
f9
dd
0a
fd
18
67
c2
05
99
62
f0
83
ef
47
69
26
72
75
5f
79
d0
e6
78
e4
0c
94
e9
f5
8b
fb
17
d2
01
3b
3a
45
e5
b3
2e
23
c6
14
38
07
13
6f
ce
37
dc
5e
83
00
13
84
01
29
8f
f8
18
0a
95
67
73
0d
38
d8
a5
35
1f
f6
ce
ed
36
e1
d2
1a
e9
34
3f
25
70
e0
0b
15
64
64
98
21
b7
80
a2
0f
c2
17
16
f7
51
5c
f9
48
89
de
c2
a8
a7
1f
f0
c7
97
46
a1
cd
fb
f2
01
10
23
bd
d4
25
f9
ce
fb
c4
56
72
11
9c
65
fe
29
1b
1c
34
ee
5c
36
fd
d1
40
f2
e1
4e
0c
01
d1
37
02
08
a9
08
2a
db
c0
2b
d2
29
40
34
ef
c3
20
14
f8
e0
97
1d
f7
a1
87
3a
66
42
93
ca
a8
ab
58
b1
05
74
2f
66
b0
4c
53
c3
b9
28
19
25
77
41
8f
27
55
77
48
12
89
f7
ed
f2
93
73
ff
6a
f1
94
3b
e9
3b
46
4f
a3
ff
46
ca
97
9a
7a
f7
71
e9
a1
46
69
cf
de
16
1d
e3
c2
c5
fc
5f
bd
a0
9d
f5
d2
73
ef
e5
c4
8e
c9
15
32
0f
b9
31
99
20
cd
d9
13
1e
2d
2b
dc
60
38
c1
87
62
a6
6f
4a
d3
43
16
2d
f0
4b
a8
ac
57
db
67
d1
d2
15
fb
68
f2
cb
8e
c3
d2
04
36
a1
32
5b
ea
61
2c
e5
f7
87
8d
a9
57
0f
85
55
f5
4e
a6
92
1b
17
62
8f
f9
44
07
96
3c
a5
d9
ad
6e
37
d5
54
c8
18
e9
71
c9
55
02
59
b0
d6
a5
cc
1c
e0
e6
f9
a0
19
70
bd
ee
e1
89
19
23
d6
e7
e7
fa
fe
8e
ac
b7
24
bf
e9
84
31
60
42
23
25
82
32
27
f6
cc
ed
9d
e0
02
39
e8
d2
7f
2a
75
11
e8
2d
e4
7a
ef
84
6f
42
b4
fc
e2
92
af
97
4e
a2
80
d9
72
85
c0
c6
c2
3e
fe
01
56
85
56
2a
b9
f2
d0
54
bc
14
a6
63
3d
41
77
6d
34
9f
fa
4a
56
e4
41
01
91
16
3c
bd
d0
19
19
e5
6e
a4
15
b6
ab
67
c1
b7
30
16
fa
51
2f
be
24
25
67
06
2b
d3
f0
2e
6a
34
40
57
de
26
08
a1
2f
41
f4
e5
ff
0f
70
70
53
db
2a
9a
e1
12
df
50
ef
3e
a9
75
4f
2e
1f
39
c2
b8
bd
03
24
a1
df
58
7f
ed
89
f6
fd
d5
a5
e7
53
07
2c
d7
1c
20
57
5d
f9
e3
42
01
f2
46
e5
1f
bd
f1
76
39
e6
2b
25
ff
7e
da
81
66
08
6e
64
45
f5
20
cf
54
69
33
56
dc
da
6c
5d
32
f2
55
50
02
e3
74
fc
aa
ea
19
e0
92
20
b0
46
0b
43
b6
cb
29
f6
fa
f4
09
4a
75
7b
11
f3
3c
0c
27
a1
10
f4
f8
c9
4c
64
e4
fa
db
d3
88
ff
f2
11
93
00
b8
11
11
d9
06
ec
cf
fc
ca
ce
2a
7e
f3
fe
aa
cb
1f
8f
32
ed
56
4e
2c
b0
03
d0
33
5d
b0
fe
ff
6a
56
c5
2f
36
20
d6
f6
06
16
b9
f9
49
86
24
29
dd
96
52
cd
35
08
e1
a4
ff
fb
77
fa
ab
da
6c
18
cc
0f
f7
09
94
ed
08
64
66
52
1d
b8
8a
83
5c
e3
75
f0
49
86
de
bc
cb
13
40
cf
72
25
fa
44
5d
ed
ce
fd
27
48
1f
e8
07
d9
95
b4
18
ee
ae
1a
ea
fa
e8
c7
be
46
ed
f6
0a
5d
f8
6a
4c
57
b2
0f
c2
ae
ea
9b
6e
26
9b
ea
95
fb
19
9d
e5
f6
93
e8
0a
5e
5b
fb
4e
da
9b
53
5b
06
5c
1d
08
74
15
0a
d6
87
2a
b4
cd
36
ee
f9
25
f7
ee
47
01
71
dd
6c
40
98
a4
9b
10
9a
1e
7c
d8
4e
7e
f3
1f
3a
a1
06
6f
f0
f9
4d
08
99
75
e9
15
7e
9e
4a
18
26
93
32
0c
15
b1
24
a1
ea
cc
4e
f4
d8
c7
f6
e3
16
e9
05
d9
c8
93
db
da
b4
15
8b
31
0e
a1
f5
15
24
e3
c3
03
db
0e
51
e9
fb
29
b3
50
82
ab
92
07
87
ce
63
cf
c0
2a
cf
e8
fa
5d
5f
33
be
b0
4a
01
d1
f2
85
21
5c
24
e7
98
88
ef
11
07
0a
9a
d4
a7
de
1b
45
4f
7f
94
ad
a2
70
db
fb
6a
a8
6c
36
1a
f2
76
03
72
be
1b
3a
81
24
17
db
20
1b
2c
d2
39
58
0b
6c
16
b4
6a
30
c9
39
d2
de
f9
b3
ce
91
ba
10
a9
ad
41
31
ad
34
d5
75
c8
c1
fe
5d
99
96
a0
24
82
08
31
8d
db
52
65
20
ef
b2
3d
ff
69
5d
2f
16
f6
58
83
b9
a5
6b
c2
7d
c9
00
a7
0c
17
ba
2b
f0
de
4a
ff
cf
56
e5
11
5a
0b
e2
3c
22
64
67
d6
45
90
ed
09
ac
fc
ba
0d
63
c8
dd
40
b9
40
83
38
25
7b
36
64
ab
cd
26
ef
05
b7
f3
ec
93
bc
57
f3
ca
11
5b
21
68
65
a8
7f
26
23
9a
5e
5a
bc
bf
97
4a
fa
71
f7
03
4d
05
70
ca
4e
d8
4d
24
fa
f0
dd
10
a8
4d
43
cb
62
a5
f3
af
22
9a
94
05
92
61
eb
38
22
c3
ce
99
8b
71
f5
8c
86
6e
64
5a
b0
a8
24
2b
6e
3f
3f
d7
ea
40
6c
2b
5a
5b
b2
db
57
81
2f
87
03
cb
e0
fc
ff
22
9e
7c
c2
f7
0f
46
d5
6a
ef
fb
07
e4
0f
fd
b2
85
bb
e5
f5
f5
f6
dd
1b
fd
c2
fc
f6
92
5b
6e
6f
32
b8
30
c4
46
45
2b
11
b9
a8
d5
e8
34
1e
ab
2f
d1
af
66
4b
7a
3a
ee
09
fa
86
e3
71
78
69
d0
11
19
5a
24
92
39
3b
01
cb
22
12
b9
48
a6
38
12
0f
f7
fe
26
2d
3e
96
11
b1
1c
6a
52
61
b0
5b
e9
1d
05
be
35
d1
a0
50
08
a3
5a
fb
db
ba
c1
99
2d
26
36
af
d1
ea
f5
08
8a
b8
78
18
29
7d
4f
18
9b
3a
cc
d6
2a
ac
70
08
ff
07
29
00
2e
04
66
a1
93
16
8d
36
2b
13
b2
4f
a3
12
27
db
dd
e7
1b
f4
1b
ee
a2
d3
e4
24
c3
a0
52
01
0e
57
dd
0c
a1
d8
8c
d4
11
af
ec
f1
04
a3
29
fa
f0
41
90
75
7e
fc
26
ca
d3
01
a5
74
4f
c8
ca
a7
61
1a
c8
f6
3f
e9
ce
02
e0
b7
95
66
8d
41
95
87
c7
f9
98
8a
43
14
bb
76
39
bb
a2
c3
fc
0b
4d
c0
72
75
08
f6
cd
3f
5f
e8
d1
40
2b
f2
50
ee
e0
de
c8
3e
14
4e
8e
d7
83
ad
69
24
55
79
24
dd
a8
d0
c6
b9
f2
0c
9e
e7
40
71
9a
e9
2f
09
ad
d6
01
0e
aa
ac
83
d0
66
0b
9f
9e
e8
d0
cc
25
3b
f2
19
83
b6
41
08
d9
82
c5
bb
8f
2f
22
2a
ce
14
63
17
43
dc
c9
f7
a5
68
eb
e6
e8
02
10
d3
fb
55
3a
16
97
31
be
f9
82
f1
d1
01
78
ca
97
04
b5
55
58
fc
b3
13
24
fe
d6
88
cf
c0
7a
a7
12
65
93
1f
18
26
95
b1
af
23
bd
56
2e
26
2e
ed
93
0c
aa
23
61
19
e2
6e
14
ce
36
0d
0a
73
17
8c
0c
4c
59
6f
b9
c9
f4
f9
d5
c7
fe
c0
bb
1a
c1
f1
49
01
b5
b6
11
00
0f
e7
27
f7
1c
7d
f0
f6
1d
34
04
ec
6e
9c
cf
0b
bf
fc
8a
63
bd
0e
2e
ec
7b
96
14
18
e5
dc
cd
c0
fb
79
19
c6
14
f3
08
0d
5f
8e
47
45
02
c8
44
1c
45
da
ae
5d
be
1f
f2
13
4a
82
f5
30
38
3d
a9
d6
e0
f6
e3
fd
28
c8
11
86
36
a9
5b
5a
78
c5
32
c5
fd
c4
c6
97
99
bf
63
18
a2
f9
fd
51
99
1c
37
8f
c1
b8
ce
2b
9d
dc
ef
c1
fb
d1
05
1e
6d
d1
37
fb
1e
4d
29
51
17
1b
bd
57
c4
16
78
e0
f4
7e
65
b7
3f
1b
60
a2
44
7d
65
2c
15
2a
6f
63
fc
b8
fd
c8
75
f1
b5
1b
5e
1d
f4
06
e0
18
44
1d
b3
6c
b7
7b
da
53
06
26
74
c3
5f
c2
2f
44
a8
34
56
21
34
b8
9c
d1
f7
a0
f2
4b
56
fc
a5
a4
9b
76
62
94
db
58
37
86
f7
a0
15
ff
de
2b
53
