54
d3
3a
b1
a1
01
32
3a
03
3a
fe
1e
18
a8
2c
b9
8d
37
e7
1c
59
46
bb
ca
15
44
1d
51
2b
ca
cc
e3
12
32
b7
6e
96
c1
d9
bd
5c
73
a5
20
e0
84
18
09
bf
89
7e
0b
6f
dc
cb
b3
44
f8
c3
74
f3
d3
5f
27
01
83
b1
f1
f5
61
84
0b
cd
e3
d9
0d
51
53
80
5d
0d
3c
11
b6
27
e2
e8
13
dd
ec
93
e5
39
3f
d0
eb
28
03
db
ea
2a
24
d9
90
ae
5e
a9
b5
79
99
bd
32
99
13
d6
34
b5
96
12
a0
2c
e7
dc
71
db
d6
74
d4
dd
5d
13
9c
c6
50
f4
8f
9f
11
97
a4
ec
15
69
fe
e5
b1
0a
f5
2d
95
7d
26
c6
b0
db
c9
25
3c
48
ac
85
43
c5
c7
0a
48
33
b8
2d
79
7e
1e
21
80
d4
cc
9b
90
e1
4d
ea
43
45
62
94
d5
6f
4e
38
a6
31
f2
00
9f
13
1a
22
a3
95
f8
ea
17
eb
79
93
64
94
60
2e
00
c9
05
17
75
f8
25
b6
01
a0
59
f2
47
a1
fb
c3
29
2d
eb
44
17
a0
d0
c3
3c
5d
aa
83
98
d3
84
c3
5c
8f
30
eb
db
04
5f
f3
28
0e
03
ee
f6
7e
40
21
64
16
a1
9c
84
4b
ff
b6
68
82
86
2a
43
ec
2c
e9
26
5b
9b
0b
27
cd
e0
ce
ee
fb
36
0c
26
1a
0c
43
ba
af
ac
02
63
1f
fa
9e
01
2f
f1
d2
51
3f
52
6f
49
62
a3
b4
3d
7d
7e
86
86
ab
eb
5f
ea
5f
3b
88
28
54
17
b5
d8
9d
ef
f7
da
6c
6c
bb
8a
39
61
9d
5c
c0
e1
44
a5
68
15
f2
0d
11
21
af
2c
13
5c
0a
c0
ff
41
9d
aa
f9
bd
12
96
56
a7
22
23
f2
15
53
6c
b5
de
4b
6c
12
aa
fa
a9
2e
df
c8
cf
61
81
b4
c0
e4
86
ce
dd
cd
2f
f1
db
32
5f
be
8a
76
7f
93
6d
3e
56
6a
41
48
26
27
17
7a
8a
a5
88
7e
31
65
26
e5
a7
26
7f
66
13
ff
0d
fb
34
9f
72
46
d3
b2
ef
f3
28
f3
13
a5
57
1b
26
2e
c1
1a
f4
d5
be
1b
13
9d
49
cf
b1
62
1b
ce
19
23
54
db
24
89
55
c1
6c
5a
9a
96
57
99
53
e7
c0
a2
21
13
45
a6
ee
77
1e
2b
b0
1a
76
7a
a1
91
7b
cc
11
0e
c1
af
92
16
b0
5b
42
0b
a3
df
74
dc
ad
8b
e7
89
d4
6b
03
50
29
e5
1e
dd
f7
25
d1
13
1c
f5
f7
09
11
d2
f3
b6
ca
32
9a
81
18
e4
3b
e4
95
fd
f5
f2
e8
ed
07
0d
20
f1
e4
1c
23
24
1e
dd
04
38
07
d8
f4
10
c9
cf
31
d7
aa
48
f5
ea
1a
d7
1a
37
73
1f
bd
13
06
e9
0b
e8
b2
e8
de
87
74
36
b6
c4
f0
57
da
bd
cc
08
fd
23
14
d1
c0
f3
c9
02
03
39
cc
22
0f
fd
dc
31
c6
3f
e6
3a
da
14
cf
fb
67
56
18
f1
e6
a4
d5
e9
b6
38
22
18
1d
e2
c6
38
e6
04
1c
c0
f2
e5
98
5d
38
2f
be
1a
ec
39
e4
f7
bf
01
47
5a
fe
e0
79
0b
e2
e4
fa
68
d9
d0
2d
d7
ed
1c
1d
ba
ee
68
e0
13
d8
cd
f3
d6
e2
dc
0e
6d
26
d5
ad
f7
3d
19
c9
fa
d6
e7
07
00
13
e7
ea
2d
7e
dc
c6
3e
f7
8a
a9
29
09
db
f7
18
0f
d8
07
dd
a9
d1
07
19
40
34
78
f2
eb
95
ff
03
ac
55
f5
90
14
d8
fc
3a
be
28
f6
fd
e3
bb
f1
1c
3c
10
e2
28
9e
f6
c1
d6
d8
4d
ce
e0
98
d9
d5
c1
cd
b3
d9
52
cf
db
fa
e4
0f
08
50
0f
f8
a8
8c
52
20
93
ef
b4
3b
bb
21
02
3c
06
ad
c1
0c
29
40
ff
7b
fb
6e
25
ca
e2
ee
f5
f7
7d
20
63
bc
e5
ca
f9
95
b3
91
cf
6f
01
4f
08
53
46
d1
d8
f0
62
87
32
11
4a
b8
cd
4d
30
6b
cf
f2
e5
7c
01
75
c3
dc
7f
35
00
ad
14
2b
cf
00
a4
02
2b
11
42
fb
1f
98
3b
f4
0d
c3
0e
bd
b1
37
e4
f6
54
4e
98
3c
11
49
3f
da
05
ca
c5
2a
1d
14
4a
d8
41
ec
24
5c
3f
1b
1b
9b
40
d0
51
0a
d0
1f
03
41
20
a9
f0
c8
22
36
eb
78
57
84
57
5e
8f
92
e9
f3
21
cd
fa
f5
19
92
fa
87
e1
4c
e4
86
84
d7
f6
d1
1e
bb
ed
96
a2
d8
2d
68
43
a4
15
ae
e7
b2
ce
d9
ea
0b
1d
20
cf
13
ca
75
1c
6c
f8
40
83
6e
a7
71
54
bb
c7
09
7b
e9
c4
6e
24
6b
81
99
a2
20
3b
bd
ee
cf
11
b7
ea
bd
f7
10
bd
61
ac
4f
82
29
a2
b2
ad
41
15
d4
fb
22
38
44
11
c1
ec
29
ec
22
0f
43
95
57
1e
df
49
1f
0c
09
dc
08
ba
60
01
a2
8b
98
0b
09
e6
f4
0b
84
fa
19
33
b5
4d
0c
da
2c
f4
e3
0b
4a
9f
08
00
1b
ed
27
3b
a2
30
47
e5
87
f8
da
29
fb
eb
17
ca
13
91
d2
69
bc
65
e6
0c
3b
56
1a
fa
15
bc
47
16
41
70
fe
77
32
1e
d8
d5
e5
71
a2
35
59
03
fc
72
d8
99
a0
bf
28
b5
fc
ef
31
4c
9f
ae
5a
f1
20
d8
63
fd
50
4b
4b
34
6f
36
fa
b0
16
46
0f
aa
1a
48
17
d4
08
b9
8c
bd
04
ac
8e
4d
eb
4c
2e
56
21
57
cb
d5
05
50
18
37
e4
4b
4f
c8
ee
0c
b1
03
9e
e2
49
df
bd
dd
45
42
24
1c
0e
cc
10
f0
e0
ec
f3
49
82
ff
e7
c2
39
b2
22
08
94
0a
60
ff
ea
02
d7
42
31
28
bf
e9
c4
ef
64
bf
17
2e
1d
22
24
ca
d1
77
f0
eb
29
f1
0b
6b
09
a6
ca
ca
3d
d8
08
f0
c0
f6
72
61
e8
88
09
ff
85
aa
2d
0b
0a
f1
5b
b0
4d
f5
b2
e4
ed
e4
cc
e0
26
84
ae
bf
20
f5
e4
91
f5
63
1c
04
77
17
b4
df
43
22
6b
aa
5d
c0
fb
c2
52
81
aa
83
1f
ce
2d
c6
11
49
38
b1
73
1d
2e
05
d6
5a
23
81
7d
f5
de
04
f0
fd
6b
3b
60
4a
b1
40
a2
fd
0d
99
02
e9
e4
1b
83
fd
ea
e6
b7
4c
97
ce
0f
15
57
1e
af
72
19
4c
40
45
0b
bc
f9
64
c3
b7
18
72
f1
bb
dc
24
78
38
fe
bd
b2
c4
b7
13
e0
bd
e8
2d
cc
41
f7
b0
2c
ac
e2
fd
69
d2
87
4b
b3
9f
b6
0b
83
fa
23
60
47
1a
08
d2
db
29
c8
51
6d
e1
b3
b6
f9
bd
0d
1f
56
47
54
fa
c8
25
4e
4e
1c
33
da
28
f4
cd
b9
26
65
4c
d6
ac
3d
15
d4
2b
93
17
eb
42
b3
4e
81
84
53
f0
cd
9d
e0
a7
11
6f
32
86
59
38
a1
dc
e5
99
f1
e8
af
d2
ea
e7
65
c3
f8
c9
be
b2
f4
cb
c0
14
ff
9f
5a
e9
ca
6b
b2
41
28
a8
3c
12
21
89
36
2a
ec
00
d6
d8
e2
27
ce
08
76
27
60
ba
da
96
7e
ed
09
63
6c
d9
23
62
53
3b
91
1a
19
87
65
17
c7
33
13
02
56
28
6c
51
2d
c3
2b
c1
bd
07
ba
96
5f
e2
ae
e3
c0
26
4e
4b
72
66
e3
1c
7c
e5
99
38
07
8f
ce
38
a1
3f
46
0b
7d
a5
88
09
40
9d
dc
1d
f2
bb
95
95
c3
ba
40
01
1a
48
a5
10
ed
ed
7d
8a
6d
35
3a
6b
16
1f
11
c2
c4
35
3f
23
a3
62
8d
f3
00
2e
96
9b
24
f1
f0
c4
37
b9
f7
f3
5c
93
2d
e0
ae
33
cd
14
cd
cb
52
dd
72
3b
d4
df
d6
fc
01
4e
67
27
41
93
b9
12
6c
55
20
ff
49
6d
d1
1f
67
aa
eb
27
ea
e5
ff
f4
e8
2b
fa
ab
ca
ab
58
19
44
64
c1
03
db
6d
ff
c1
14
6f
12
4c
02
30
9f
a4
8e
f2
87
21
fa
14
0f
54
f2
f7
b0
c4
09
04
f8
15
e5
2d
df
f2
cc
1f
3d
9c
e7
62
c3
e7
3e
9d
3c
f1
10
9d
49
48
fa
d8
34
00
30
1b
21
1d
ca
1d
5a
74
a3
0c
48
42
0c
0d
1d
0c
94
92
0f
34
1f
e8
e5
43
dc
aa
0e
f5
3f
37
f6
17
bd
3e
09
37
e9
af
ce
2d
34
01
40
3b
d2
64
9d
42
e6
36
d2
49
ab
fe
5b
42
6c
39
92
22
4f
42
35
06
26
14
fc
ee
d5
d0
76
c4
8f
2d
9b
60
41
56
c6
3d
f1
79
fb
e9
f2
3a
14
bc
29
b5
5e
b6
41
ff
9a
fd
3e
c7
2f
3a
d8
1f
7f
91
0d
df
7f
10
6d
e2
ed
81
1c
ff
af
08
54
dd
55
0a
83
eb
81
a6
74
68
f0
ad
5b
29
a5
ef
a7
b2
d4
8b
bb
de
04
59
55
3a
cc
3a
48
e4
44
2a
ba
ee
61
0e
a2
4f
31
c8
bb
e8
0b
fd
38
28
60
1a
f0
fa
2b
e0
db
02
25
eb
c4
b1
83
e5
5d
09
b3
87
f7
60
75
72
f9
75
70
d9
3f
b0
59
91
3a
04
52
d2
d8
b7
46
9c
d1
53
fb
1d
a2
01
01
15
1a
11
d3
90
45
eb
7a
ce
23
33
a4
0c
03
0f
d1
e9
ab
bd
a7
c8
43
0a
0e
f8
b0
ed
8e
de
f4
0c
2c
75
f7
e7
46
e2
30
79
96
04
34
19
7e
81
28
58
dc
8e
70
20
a3
19
f4
ac
47
0d
05
23
0b
a7
01
f0
36
ec
ea
63
05
c9
9a
e6
d7
33
e0
5e
94
c4
3d
8e
fc
b1
ee
8f
35
42
a1
0d
cd
72
fc
4c
1d
89
59
00
ec
8e
d0
0f
19
3f
15
fc
20
e3
b6
41
64
05
57
2b
e4
e6
fb
ad
6c
02
7e
b5
9a
26
26
d5
ff
ad
01
fc
e2
15
ef
0d
64
e6
12
ae
ea
a7
97
d3
44
c6
6b
65
f4
b3
d7
f9
f2
f3
52
f2
1c
95
03
34
c4
c2
bd
2b
58
02
23
d9
26
13
46
71
15
69
ff
1a
c7
dc
cf
59
c7
31
fb
df
07
b9
d7
69
ff
29
66
43
e6
06
1a
ea
3b
fa
64
30
dd
2e
bf
82
0a
1e
dc
92
f4
dc
c4
16
a4
a9
e4
a9
b2
e0
d4
61
26
68
aa
ee
ae
ad
e2
fe
36
31
be
f8
ba
d0
f7
f3
ff
f1
37
83
d6
32
e3
d4
30
3b
78
30
cb
87
ab
c8
56
4d
f4
11
be
27
02
db
39
f2
07
fe
b4
0f
c3
08
25
4b
38
5c
32
b9
dd
8c
72
3c
f3
74
f5
2f
c8
53
79
02
2b
39
97
26
74
ff
24
ab
ed
cc
dc
47
b9
b6
64
87
13
06
ba
9f
01
34
d2
f5
9e
9f
c7
2e
91
5e
a3
f3
e7
72
e0
31
e1
e1
7c
84
03
24
5b
5a
fa
d3
7f
46
e8
3a
67
c1
0f
6e
4f
da
c2
38
dc
65
42
09
f4
3e
e2
98
16
11
45
f9
10
45
2e
18
e3
0a
f6
f2
84
50
c5
0c
f4
dc
1b
76
f2
2a
07
84
36
83
cd
64
5a
4c
10
e7
6d
16
6b
00
ff
89
96
84
cb
23
73
ca
e6
db
ec
15
d9
c0
b7
dc
3b
cb
c9
27
e0
ed
12
2d
79
4c
c9
6d
01
29
d1
82
b5
9e
cf
e4
f3
17
eb
ef
3b
19
09
0b
10
05
b8
3d
35
da
1b
4b
16
d6
ad
2a
20
c4
26
f9
12
84
3a
ab
0b
3d
6f
b3
9f
18
46
d5
0d
ae
a0
80
33
d2
3b
47
8c
3e
ed
11
c8
14
4a
f3
37
01
3d
7f
9d
b6
97
57
fe
89
35
52
ae
a0
6b
e2
0e
12
e9
35
b1
61
b0
48
d0
a5
12
71
cc
89
08
0d
dc
cc
43
71
19
0a
93
61
4c
db
17
e6
ca
e4
07
19
c3
5b
13
a7
fc
06
11
0a
fd
b9
28
29
84
37
62
c8
04
b1
38
53
2e
31
69
19
7f
19
be
9d
c8
07
7c
f9
ed
bd
83
72
1f
eb
04
4b
57
d4
0c
c0
94
95
39
15
0c
a6
fe
9c
bc
fe
b5
f4
d7
7e
7d
31
f1
da
bb
6f
0b
59
31
7d
d0
9b
2f
ea
c4
10
39
a8
a7
03
92
3f
b5
a0
e0
9d
fa
11
38
39
83
4d
d0
1c
fc
0b
e9
cc
05
e6
5c
2c
32
1d
20
5c
e0
2d
15
75
3d
01
28
74
98
bc
de
55
15
00
47
b3
12
20
63
22
e4
65
92
5a
a2
52
0f
6f
11
44
00
66
85
e4
3b
ed
4b
4f
15
03
5e
f0
50
47
d5
1d
ed
67
30
4b
29
45
02
e7
10
9b
4c
42
cc
4c
b8
d2
ef
b6
9c
1a
06
92
7c
f5
34
03
21
f9
59
bd
5c
e0
3e
a7
29
42
a4
0a
0d
49
17
d2
d0
fc
d5
ae
c4
d8
e7
2b
0e
16
1d
49
c1
a6
18
f9
03
5f
d3
49
61
60
aa
9f
59
45
61
e6
22
76
d6
22
e1
ab
b6
2e
d2
e6
41
80
a6
bf
01
36
41
f1
03
48
ab
9d
ca
be
b7
e9
1b
30
b5
6a
e6
ff
31
db
4b
c6
18
b7
0c
bc
b2
b6
bc
7a
ff
dc
69
89
e4
5f
09
60
47
4f
42
d9
35
48
cc
5c
c4
2a
9a
1d
c5
3a
65
df
c8
c5
2b
31
31
df
4b
e3
3b
42
c3
68
75
c8
3b
df
fb
10
3b
1e
64
cb
b4
f1
2f
d4
7c
25
2c
6f
ea
e6
c4
da
df
18
5e
0b
15
fc
ad
21
b2
1d
8a
39
24
bc
52
0d
d5
29
cc
c5
d5
15
00
c5
90
55
dd
ec
99
aa
cd
05
69
05
01
d5
f2
b1
d2
6c
03
84
61
e6
4d
0b
da
a6
f3
34
be
5e
14
3f
c0
3c
0c
1e
d7
25
a5
4c
26
ac
1e
f7
1e
53
fa
5b
d2
20
04
29
e9
e8
cc
26
ec
50
ab
db
44
e5
33
c0
9b
0d
66
43
1c
f1
4c
05
b5
ee
c4
34
65
ae
cf
e2
27
15
48
b2
64
94
36
e9
25
bb
75
a9
67
e2
63
dc
7d
27
5e
b1
b5
d4
5b
2c
7f
9d
eb
ee
76
f7
0e
33
ad
f3
ff
99
ce
82
f7
09
fd
fb
7d
6d
99
73
31
62
75
db
2e
51
ad
91
8c
49
37
02
b5
b0
73
b6
32
e3
bf
88
3d
87
ff
c5
10
8c
e0
77
21
72
41
f6
bf
23
21
d5
3d
45
52
0a
fe
6f
63
e4
7e
77
ec
b5
b5
8f
ac
61
e0
70
60
f7
df
8c
d0
8f
8f
d3
c6
57
8e
a4
87
5c
e6
a9
76
d4
27
4b
e4
9d
cb
af
6d
4c
1d
76
a8
aa
88
20
40
69
a5
d1
b0
6f
42
fd
b9
76
ba
db
0c
12
5e
24
4b
96
4f
69
0b
3e
84
24
ed
08
dc
27
d7
d4
65
3f
ea
d4
5f
9a
cf
b9
eb
62
28
ed
60
bc
e7
80
18
7c
51
4b
db
d0
11
b5
a4
70
8f
77
c1
94
d0
8a
68
71
cd
38
05
bf
03
34
86
52
3c
82
df
a0
8a
49
e9
60
b3
da
fe
0a
00
73
09
06
ef
db
78
3c
8e
31
34
d6
3d
c3
19
d2
4c
93
ba
eb
5f
26
0b
3c
e6
0f
c3
c2
5f
66
aa
cb
dc
93
13
53
73
27
11
f2
b1
63
98
37
5e
1c
e9
15
3d
aa
f9
7f
47
3b
cd
d1
42
80
01
d9
8b
19
ac
a5
cf
e5
f3
3d
9d
48
6a
36
67
58
ec
e5
73
8d
3d
0d
d5
fe
1e
ce
8c
e1
c6
94
e8
3f
7a
08
7c
12
40
0d
b9
de
21
fd
ea
0d
ae
4b
74
e7
33
dc
56
20
b6
49
ef
c0
50
21
23
10
10
1b
4f
30
4a
d3
c9
a6
21
f8
9f
e3
c8
7e
db
0b
cd
fd
8a
b5
88
cd
1c
fa
ea
ea
8f
3e
2f
4a
52
67
36
e7
06
e5
c2
73
b5
f7
db
2f
03
fa
d6
4f
d6
c5
96
87
9a
15
d0
1f
08
0d
3b
6b
86
a1
6b
39
16
bd
33
01
0a
05
d6
e8
80
03
20
b9
f5
c6
61
48
48
57
b3
00
f9
27
48
a7
55
5d
df
d8
c8
b4
cd
47
f7
25
f9
45
c6
a1
7b
24
63
18
3d
bc
98
2a
f0
fa
58
24
d2
40
ed
ab
d0
79
60
8a
d2
79
f9
1a
bf
2c
4b
11
3e
08
ca
0f
9d
c8
b1
4b
23
f4
90
af
0a
c3
48
5e
7a
c3
34
b9
ad
0a
3e
02
68
cd
4a
77
c6
ac
c8
ef
4d
af
c0
86
1d
9d
90
e6
80
bb
00
8f
0f
45
d2
cd
71
13
9d
94
1f
23
83
51
79
7a
53
ac
95
0f
c7
95
57
0c
5d
dc
74
d4
15
6e
9c
65
bb
53
ef
16
e1
12
fb
06
5c
db
f8
13
e2
ca
fe
0d
95
d5
48
32
db
5f
74
52
0c
63
21
db
ab
b2
7f
ac
75
38
94
2f
4a
3f
e4
be
3c
ec
21
04
8a
48
00
c1
05
ba
0e
08
81
d6
8b
75
89
07
a9
35
8a
a1
2f
91
80
9a
63
e9
b5
e3
bd
c7
60
68
18
51
05
6f
e7
15
50
f3
30
86
32
45
56
c7
c0
bc
41
17
4e
0a
0a
69
fc
27
a8
dd
8a
77
62
c1
8a
da
5b
8b
ce
60
ab
9e
11
c4
c3
76
29
c8
2f
64
0b
eb
e5
d0
33
2e
e0
e8
11
99
48
b6
ae
4e
6a
5c
e6
34
72
51
d7
85
38
24
6f
03
f4
3b
10
a4
ef
06
57
fd
0d
e5
dd
fe
c6
22
2a
20
37
1e
4f
59
70
86
b4
ef
7e
ad
62
01
2b
e8
d1
e2
70
87
33
f3
42
39
71
9b
ef
38
07
4a
36
f3
70
21
92
86
46
b3
27
cf
c9
bc
10
8e
f7
04
aa
01
46
29
f1
f0
fd
df
4e
5a
3c
0c
91
7b
29
5b
08
3a
84
b8
ff
12
db
cc
3f
08
aa
e5
1c
0b
f3
3a
57
ff
1c
43
2b
34
ed
22
56
95
01
37
e8
d9
ef
4a
0b
29
41
3e
ed
fb
ee
4c
15
d1
f3
16
6b
fe
fc
38
92
eb
3d
d1
0b
05
5d
2e
6e
de
12
f5
1e
56
2d
1a
de
fe
25
69
8a
1b
e1
f6
e9
67
54
6f
4c
c5
e1
0d
51
b8
65
aa
ba
2b
43
1f
41
ef
2c
2c
20
97
eb
96
f8
f1
ea
dc
8c
11
c1
2c
44
de
d3
24
f7
37
2c
ad
38
01
3d
24
b4
ae
a0
19
4f
3c
f0
d9
12
b2
aa
21
df
48
7e
f2
a1
3f
f4
60
c9
92
89
17
b4
19
3f
74
00
c7
45
ab
de
0c
20
ee
6d
d7
13
d2
c2
cf
0d
06
88
71
11
1d
c9
c7
02
ed
0c
c3
05
04
fc
29
86
f4
60
fc
10
e7
ec
20
8d
f1
a2
1b
61
01
fe
29
07
fd
ff
ab
63
64
8b
c4
6d
f9
f7
62
e0
41
2f
f6
a6
e7
1b
5d
fd
88
e2
0a
01
30
e9
d5
e4
09
f5
3a
04
e9
12
4d
58
82
10
0b
8c
0e
3a
f9
1e
e4
38
1f
fe
de
d3
9e
df
b2
de
1d
31
f9
1b
2d
c6
ca
37
d1
30
68
05
3c
e9
b7
1d
de
c2
17
b2
db
c5
13
f3
e8
e7
b9
40
4a
e6
21
e1
4f
1c
41
00
02
bb
28
ec
db
45
17
2e
b0
27
d2
ed
45
1b
c2
01
02
fe
2a
03
ed
e9
e3
da
44
b1
f0
f2
18
f9
af
2d
43
97
fe
29
6c
c3
98
92
c4
d4
02
26
fa
01
ed
0d
12
19
05
32
1d
3a
48
da
25
dc
d9
44
de
f8
5d
02
ec
0c
11
09
15
12
f9
04
31
28
d3
e0
cb
f1
e5
14
05
ae
01
fe
e5
ec
d1
29
e2
23
64
99
da
9c
cd
e5
d8
a6
e3
12
c4
de
d9
fd
57
a6
43
49
9a
08
b9
e2
13
2c
d3
eb
ea
be
a2
2c
33
17
3f
ec
bc
06
c6
de
ca
f9
09
31
09
d3
db
bb
43
25
f0
c1
01
03
40
3f
e6
bc
f8
fa
22
c8
d0
e8
45
45
c2
ef
d3
2c
b0
9b
da
03
dc
26
f0
00
2f
ff
f0
69
34
ff
e9
1f
2e
fb
3c
f6
3c
9d
b0
c8
c4
3b
e3
90
24
14
e3
1f
ef
d1
de
de
bf
15
f5
a4
3a
ae
ff
87
1c
9a
f4
00
27
48
b9
e7
12
fe
ca
18
c9
31
de
b1
25
cb
d0
5b
73
79
0e
f5
a8
06
d7
ba
63
10
0c
f5
42
c6
c1
da
d5
5c
17
4d
a3
d9
e5
0e
2c
62
5b
03
ae
3f
21
f6
02
5a
eb
19
2d
60
de
25
c0
55
3f
04
fb
4f
b1
7b
48
11
8d
a2
02
95
59
04
52
44
5d
5e
d1
1f
05
b3
ed
e9
fb
5c
e9
a6
79
e6
b3
df
ea
bd
1b
4c
11
c6
de
29
3f
ca
15
71
d9
c2
0a
5a
41
f7
18
6a
e1
5f
22
c5
7d
04
9a
0e
49
18
6a
0e
55
e2
dd
d9
f6
59
5d
d1
8a
c1
10
ee
57
3b
07
45
72
69
13
54
14
f3
86
6c
26
36
13
4e
d6
5b
ab
ff
07
cc
80
ff
f4
bb
c0
73
35
70
23
23
7d
e8
cf
57
00
08
d8
6c
6a
76
12
d2
41
8d
cb
20
9b
5e
95
9a
9b
a0
3c
72
93
bf
95
bf
c3
88
7a
0d
fc
e6
11
b1
65
2d
dc
18
b0
ad
66
29
a2
b6
dc
1f
c1
8a
35
99
32
98
c4
34
c9
3f
5b
fc
4e
38
cd
2b
28
24
28
e7
47
81
4f
43
2d
d0
c4
a5
ce
69
67
04
25
ed
14
a6
9d
52
b8
e3
ef
fc
ff
c8
d9
ea
ee
61
07
d2
1d
5d
e2
15
ba
f7
f8
fe
e4
19
15
f5
1f
f3
ed
25
2e
23
d8
ed
28
cc
ea
34
df
d8
17
5a
bc
d8
c5
ef
f9
11
d1
f0
2c
d7
bd
e4
f8
cb
f5
14
0a
e4
11
23
2e
84
e0
16
2f
bd
06
dd
d9
0c
dc
17
24
35
0a
df
e4
e5
16
f0
f1
1c
f6
26
1f
dd
33
22
d9
06
5e
0a
17
da
f1
fa
fb
1f
ed
e2
19
29
f3
cd
5a
18
21
3b
02
fd
1c
33
7e
22
23
d9
14
f5
30
e6
ed
47
f2
1d
f1
14
5e
ae
19
e5
25
d9
05
13
e5
d8
e7
18
11
fa
2b
16
cf
e8
e5
ce
0c
05
c0
0e
ee
c6
04
f2
37
b2
fc
28
0e
9f
17
12
0a
25
01
35
15
3b
0a
27
08
be
e7
1d
f4
b7
d0
f4
29
e0
0a
ff
bf
63
f6
07
ed
10
e4
cc
ea
fe
fc
f7
e9
f5
f9
5c
02
d9
06
d8
fb
05
83
f1
fc
06
ef
dc
dd
12
cb
fd
f2
5d
d1
17
f0
10
36
06
22
2c
50
ff
f3
99
f8
e1
c2
1d
33
0b
da
1e
28
40
3f
f0
f2
33
ca
0d
09
da
06
c9
0e
18
e3
f7
0a
fa
27
35
cc
de
e9
21
ea
4f
dd
00
b9
0c
f4
35
24
26
00
03
3c
c7
aa
0b
03
bd
1c
d9
15
27
a7
08
0e
db
e2
d8
1a
5c
d1
21
24
ee
ea
7f
f6
04
ef
c3
30
01
c1
32
df
12
e5
e8
c5
fe
0b
3a
06
f7
e5
18
1e
fa
f6
f3
ef
e7
ef
01
0f
e0
12
f2
03
e1
b6
25
c3
28
c1
bf
b4
d3
06
20
3f
78
bb
c4
e9
e8
b5
37
15
01
f1
f5
da
1d
05
1e
4c
e8
0f
08
45
e9
db
07
03
f7
fe
32
1c
db
12
2a
e1
0a
f8
22
9f
dc
ce
0c
18
31
e3
4c
05
c6
10
ff
35
eb
ab
3e
ce
1f
07
b9
f8
e0
4d
30
ac
b3
14
28
08
c3
09
ee
f3
29
2b
c5
f9
06
ef
1f
9c
33
d3
b8
f6
fd
df
f9
d8
d6
34
2b
b2
81
3d
16
6b
df
fb
ad
d6
eb
1c
1b
00
ed
49
fb
f8
1d
dc
0c
e1
dc
27
ab
38
ca
b3
ea
11
15
10
ed
af
d2
fb
b4
33
f9
f5
02
5d
c4
42
db
63
d6
95
f0
c4
07
ed
11
39
ff
d8
56
e8
07
f8
c3
eb
fb
dd
23
30
e4
1e
ef
06
11
eb
97
04
f5
24
d2
ef
da
b9
04
e2
e1
25
38
e7
f6
ba
13
03
01
de
0e
30
3d
af
24
0e
03
d2
2e
ff
03
ec
3e
c3
59
ae
26
14
1d
b2
a4
05
19
08
25
c6
d1
0b
57
b5
47
f4
8e
1b
05
59
c8
b9
1e
b6
df
47
9e
f9
ed
9a
1e
5b
12
1f
d8
d2
a0
a4
52
0b
f0
9b
36
0a
64
e5
01
27
b7
36
6b
be
60
b7
ed
7e
19
6e
d8
ad
49
df
b8
50
e0
c7
e7
96
8a
09
02
87
f8
1c
af
3a
01
78
ea
ea
dc
74
36
8e
1b
e7
e4
07
ec
01
31
04
fa
cc
c9
4f
55
0d
b9
db
ee
46
1d
81
de
47
a7
6a
39
ec
21
19
e4
2c
84
d4
13
20
f8
07
43
9d
3c
16
48
a1
e0
d5
13
62
76
be
13
3b
59
03
fd
b8
14
0f
f3
da
87
79
5b
d5
66
05
31
60
83
fc
86
b9
bf
d6
df
de
eb
06
d3
f8
a2
a8
19
c5
05
97
37
5c
51
12
b7
46
e8
2d
e2
8b
10
d4
38
01
e5
ab
06
b0
c2
fa
f1
82
4b
9b
9b
09
9f
e1
b8
0d
c1
5a
40
0d
94
0b
7f
17
d5
0e
b0
01
9e
e5
00
ea
00
90
0b
48
1c
fe
0d
2a
08
b1
10
5b
d0
54
fc
c6
f4
2f
f6
eb
e4
38
fe
62
26
fa
e4
10
3f
df
ee
0e
0c
c6
e0
ce
06
1d
da
4a
41
40
2f
09
1e
79
1f
8c
04
8b
5c
6a
14
1a
b3
87
41
37
48
87
1b
0b
f0
4e
47
f5
55
ed
a0
c0
60
59
49
4a
d2
b4
81
53
16
91
d0
37
0d
3e
48
d6
cf
ec
03
72
83
1b
df
05
a8
b3
68
e8
0e
ea
a2
d3
40
b1
72
b6
12
c2
c7
87
e3
15
20
33
74
49
de
6a
ca
dd
d1
ce
b0
4e
da
ee
76
f7
a9
28
43
ad
95
df
fa
97
3a
37
d4
08
92
1a
04
14
ea
0d
fc
91
41
46
07
21
0b
ec
61
62
56
0c
e0
a3
51
30
93
2e
c0
ba
3e
25
98
d9
5e
02
45
50
76
73
40
cd
f1
4c
8c
ed
74
67
34
de
18
bd
bb
57
bd
4a
c3
1e
63
01
a0
f2
bb
3f
41
50
e1
3c
d4
30
9b
53
8c
9e
b8
9c
1e
d5
f9
91
b2
69
64
df
91
43
4f
79
17
a6
4e
84
8b
90
86
71
2e
2e
15
b6
a1
29
f2
a2
cf
5c
e3
0d
50
2e
0f
bf
3e
02
3e
74
8b
e4
cd
35
c6
8b
e7
f2
63
03
99
ba
1f
44
fa
8b
74
b9
f7
9f
c0
27
c9
64
f0
4f
58
e0
ae
b1
90
c9
2e
35
7f
41
1e
01
f5
c9
1b
f6
0f
11
f3
dd
d7
3a
fe
24
1d
24
f6
16
0f
fb
1b
17
f1
ee
a0
0d
2c
5a
ce
0a
f4
1d
00
40
46
f3
ca
1c
e7
3a
ff
55
db
d7
10
c8
05
3b
f5
23
14
53
d3
3a
b7
df
fc
be
cf
e4
d1
fa
25
c0
f0
12
11
5a
d6
db
9a
de
38
c6
21
1c
06
4f
8a
f1
ad
e2
0c
ca
d9
d8
17
02
34
ce
03
5a
1d
32
06
d3
e2
b2
c7
01
b5
17
e5
29
f5
28
4d
e5
45
24
ea
ff
1b
5d
23
08
fb
f2
b4
fd
a9
3a
12
fc
31
20
cf
01
0e
f1
23
2c
33
f6
0f
d1
1c
e5
38
b4
ff
14
ec
26
ef
0b
17
da
bf
0d
d2
03
fa
ba
55
1d
2b
42
b6
ec
5f
92
19
95
f9
28
e6
1d
12
1b
49
3d
03
ee
49
09
a3
57
19
20
dc
da
ca
dc
11
d3
d9
b8
77
0e
32
f0
f8
0c
20
1b
b8
05
00
45
0c
eb
2a
bd
13
ea
10
dc
03
eb
c7
22
8b
d4
f5
fd
45
15
2a
11
fa
fc
c9
e1
49
ac
46
bc
d6
d9
35
f1
f1
aa
bb
ec
1e
03
2e
28
32
d8
d8
20
f6
02
cc
01
10
ad
2b
d4
e7
02
49
cf
1b
b3
1d
6c
23
33
65
8a
ca
63
fe
7c
94
16
c3
c7
07
ae
d1
d7
21
e1
ee
07
4d
f7
5a
be
0b
b9
e3
7b
37
ff
36
6a
36
0e
23
e7
1d
0d
b3
26
7e
28
a1
41
f6
89
25
dc
06
98
eb
13
23
c7
dd
74
be
74
b6
78
e6
2d
b2
02
c8
e2
e0
df
a6
dc
f3
a5
d9
cc
0a
cd
6a
27
f2
c5
d0
a8
a8
95
c9
a6
3f
d4
31
ff
0e
6c
d1
46
01
32
f7
c3
ed
10
4f
44
a9
83
02
25
1c
16
fc
15
3b
4f
c2
3e
1f
67
94
35
bf
21
e7
f0
e8
85
c4
ef
61
d4
0e
bd
55
55
bb
58
2c
fb
e8
e9
64
c2
e7
56
25
60
4a
b6
ff
cc
67
5f
b4
d4
15
46
7a
dc
8b
c0
fa
f0
ee
4a
94
e2
14
9c
69
9f
aa
91
0c
23
f7
b1
3b
49
df
02
8c
50
56
56
27
c8
f1
96
b5
a5
60
f4
79
e4
2f
fe
08
e6
f8
28
b0
ec
f4
c1
77
dc
e1
26
be
92
9a
9c
da
b2
54
60
3a
f7
e8
12
e3
2c
26
32
76
f4
e3
dd
20
ba
e2
fb
5a
2b
90
cc
86
f6
23
ea
12
41
a5
7b
34
3b
b7
d4
39
45
0e
15
0e
55
08
1c
c5
1c
3d
e4
41
19
e9
a7
1b
1e
b9
d7
96
d0
e6
f5
0d
a1
0b
06
db
81
c4
49
eb
52
f8
21
aa
f0
07
1d
ef
03
00
f0
12
12
06
21
28
08
ec
31
c8
fc
d7
fa
08
61
fc
1a
ad
1c
3d
12
48
05
e5
f6
55
07
fa
2e
0a
12
08
19
00
f5
f1
e1
f0
3b
9a
4b
10
6e
15
15
02
d4
04
f5
27
cc
03
14
bd
0c
11
4c
41
40
28
13
d8
49
f7
04
2d
ef
21
61
b3
16
5a
fb
a8
f7
97
e7
33
1a
f1
31
13
49
8e
29
e6
00
42
cf
e4
92
ea
07
15
c1
fb
34
d5
5b
cb
30
f6
b4
1a
a1
71
1e
2a
db
2f
e1
b7
3e
3b
8a
ed
f8
3d
87
17
08
0e
d0
e1
e1
f5
7a
d0
ef
27
2c
1f
15
09
1a
d7
ea
14
61
1c
ef
30
2f
2d
e0
e2
cd
21
d9
1c
fd
2b
19
e8
9b
e7
a9
00
98
52
45
38
08
34
43
4b
1b
96
2e
53
fe
f3
e3
28
1e
65
e3
01
0d
c9
4a
d5
eb
41
e5
42
3a
d8
b3
16
e1
ec
25
98
20
ca
41
d4
4e
c6
35
4b
f5
c7
37
43
ec
c9
ed
13
09
bf
aa
06
f0
bb
f5
a2
54
fc
97
db
f9
1a
ff
28
dd
f9
09
51
72
09
d7
bb
f1
ac
d2
a3
7d
ec
0b
b9
02
9d
06
5b
a7
06
1f
49
ae
bb
db
2a
c0
b5
60
d1
fe
1a
f4
c8
84
2a
51
43
d8
b5
22
0c
50
0e
1f
cb
e8
75
e6
e5
72
fd
34
5c
9d
e4
ad
97
14
c4
e6
fb
0c
47
45
cd
04
c7
12
bf
ec
f1
14
11
66
38
cf
f4
d0
f0
41
c0
12
d7
3e
61
77
80
c5
f0
f6
8e
db
32
30
8f
b3
f3
3e
8a
75
cb
42
33
99
41
0a
f2
f7
17
f8
a5
f9
02
46
e8
60
41
6d
e1
93
92
cd
4b
25
7e
26
d9
2a
17
e9
1f
71
84
b4
8b
a3
63
ca
dd
0a
24
1b
ec
b8
9c
f3
41
dd
e1
3c
15
a7
39
90
42
93
ee
ee
16
b4
ca
b6
bd
13
0d
88
2b
2e
88
2f
f0
b3
8d
d4
d2
49
4b
97
ed
3e
ff
05
b6
dd
de
13
24
7c
a2
2b
ad
fb
7a
41
cb
3c
ea
f1
df
0e
b0
0b
5d
08
f7
e3
48
21
f5
16
0c
76
16
c8
eb
f2
4a
a9
e8
0a
e4
38
74
2a
6f
dd
1b
9f
0e
bc
3e
d7
19
08
3a
ff
0a
d5
eb
fa
df
65
35
af
fe
b1
0b
01
d6
e9
9a
19
4d
55
40
1f
0f
36
d5
c3
d0
eb
18
17
5c
9a
07
5f
ee
bc
19
b2
9e
bc
f4
72
fa
c0
ea
e4
e2
b9
f3
c8
ad
5c
55
1d
11
8c
21
4d
db
1c
e4
c0
ea
42
86
af
3d
ff
e8
93
b3
8c
4f
a2
5b
b9
df
e2
d1
9a
30
83
a9
bf
32
0a
2e
42
e2
43
0a
4c
01
b3
d1
26
42
fa
4b
0d
d7
64
ec
78
11
34
e0
00
58
58
16
a5
61
29
04
cd
bf
50
c1
de
f5
be
f7
dd
9f
e7
3f
36
90
05
55
e3
f9
e2
4f
3d
97
82
44
ad
e2
02
e5
28
f8
3e
2f
38
00
86
dd
33
97
ff
27
f7
da
69
33
1c
09
02
c1
37
cd
cd
a8
89
ef
01
c8
3b
68
14
7c
1e
7d
44
5d
21
1d
93
c8
ea
6c
be
74
9d
e2
04
61
0a
c4
74
f0
db
6c
30
14
df
0e
50
15
c7
1e
0b
5f
c6
12
30
3e
44
b5
3f
7c
0d
2f
bc
9c
3a
f3
48
02
e8
5f
9e
35
6d
f7
25
0b
ef
68
d3
e4
9a
bf
e4
ed
0b
66
78
3a
41
f9
d0
08
d9
3b
2b
b3
4e
02
c9
f5
11
a8
fe
0e
1c
15
df
03
24
ed
57
fc
0d
ad
2a
4e
f4
49
76
31
8a
2d
8d
23
47
d5
d3
cf
41
8a
ac
a0
1f
65
69
ca
e1
8e
db
66
18
f8
33
f5
d6
a7
e2
ff
09
92
00
e8
b0
ca
14
e0
23
6d
04
75
c3
5e
17
15
10
6d
4d
53
a1
3f
47
41
4e
38
11
55
45
67
fe
09
91
f0
4b
f1
ec
24
be
e0
80
86
d3
ca
28
dd
ae
98
ce
37
a1
ef
d9
78
9a
ab
81
ae
6b
38
89
0d
9a
ba
86
bc
2f
dd
bb
07
e8
2c
c9
24
e2
47
14
27
af
6a
70
95
30
c3
0b
c3
e8
27
45
0f
e8
2a
a7
b1
32
02
6c
20
0b
e7
3d
e0
5a
e8
9c
d3
f8
27
90
74
c4
99
cc
6a
b6
bb
a1
7c
19
2f
9c
cc
ba
57
53
f9
4b
78
67
0d
db
27
0c
a8
03
b3
88
f1
10
c8
86
d3
49
18
9c
b5
68
63
70
a6
4c
83
c9
f1
f9
3d
93
27
6a
13
2e
1e
84
e5
ec
40
e1
10
7e
64
df
da
d7
07
bf
04
e2
04
c6
7c
99
f4
23
de
96
86
a1
75
20
4e
55
77
ec
c9
e7
78
33
ab
43
35
d2
3a
7d
11
1a
66
06
4c
22
05
07
f7
ba
40
d6
71
61
51
16
ef
ee
e3
32
c3
06
4d
3f
2a
d6
1a
65
43
2c
b4
68
9e
2a
18
99
b4
57
71
8f
ef
61
8e
c3
d5
9f
5a
a0
b2
9c
34
3b
98
70
6c
5a
d0
e7
fd
36
d6
3c
92
f6
be
e0
52
fe
51
23
e0
ed
c1
f5
e7
30
23
4b
c6
a3
2b
5e
05
23
49
e9
ef
51
bf
79
ef
2a
40
2b
56
6c
50
3c
f8
1e
ab
bd
df
1b
e4
6c
b9
27
ea
50
d4
8f
c8
d6
87
bf
67
49
a4
19
4d
78
c7
5a
d6
71
f1
41
36
50
55
2a
06
e2
30
a7
c6
6f
2c
1f
4e
fb
c2
b9
f5
81
3c
1b
81
c2
5a
a2
3a
ce
5a
43
e3
0e
5f
d6
54
6a
1b
f2
e5
dd
ed
16
1e
50
46
f6
3c
2d
8f
30
e2
0a
e7
b7
57
e7
c1
2e
c5
b0
22
d6
83
b7
de
54
01
22
3b
d7
45
bc
da
82
c0
ab
f7
dd
f4
4a
77
a2
34
1b
98
5e
df
bd
5b
6f
b3
1c
d9
cf
d2
31
d2
aa
94
fa
0b
36
55
03
dc
df
72
68
cf
ed
74
73
60
0e
66
31
03
1e
de
be
ae
18
70
c8
17
18
ca
bf
c9
b2
00
5d
9b
cc
ec
0a
41
23
8f
fa
42
e7
b4
43
e3
b3
09
1a
e0
e9
15
1a
2d
51
d9
b3
5d
d0
e3
ea
eb
a3
e6
0a
a7
85
44
ca
53
5a
1b
cf
e8
29
c6
c7
c8
5b
94
42
da
be
d3
7f
03
a7
15
c0
55
ba
ee
ef
a3
03
f0
ee
ba
ed
94
1e
22
26
d5
16
e8
64
ea
f3
29
f4
34
08
05
37
8b
54
53
91
4c
bc
03
e3
74
2b
58
03
fe
1f
8d
33
dc
c3
5d
42
b7
da
e9
06
f3
f4
d3
22
fa
fe
2f
f7
b1
31
de
13
da
ec
ec
be
0f
10
fe
1d
13
fa
f5
da
0e
ea
90
13
81
15
49
fa
8f
f3
27
d4
d7
06
ee
0d
0e
1d
e8
26
53
fa
ef
ea
11
f2
74
6a
c2
55
b4
e7
f4
93
f4
a2
52
5d
a6
50
71
d3
04
1f
0e
0d
0b
99
e5
ea
0e
a3
56
ee
1e
fa
f5
00
1f
4c
b3
1a
2e
26
33
f6
01
ea
50
db
17
f9
24
29
0e
e6
2c
3c
ca
95
3b
3b
39
16
0e
a6
d0
b8
9e
a3
d0
f1
08
20
20
4c
e7
11
01
21
e4
8d
03
14
15
a1
fd
74
f9
37
07
c8
b4
a8
c6
07
d2
f2
2d
1a
67
05
13
09
08
17
bf
4d
be
ae
10
4a
fa
56
d3
09
19
30
e7
39
df
9f
ef
cb
12
6c
1e
f7
8e
87
7d
b7
eb
20
11
54
e6
2c
d2
fc
16
dc
e6
f4
1c
c7
c2
01
a9
b7
ff
2b
c7
22
03
76
36
e8
28
02
be
d2
cf
d9
c1
28
f2
3b
78
07
bd
82
f5
96
5e
37
26
1f
ec
11
1a
fd
f7
4c
59
29
29
52
25
e0
50
48
5a
17
15
8a
21
15
d5
28
40
eb
89
fb
a5
4f
ef
ad
c7
b8
de
6a
0d
f7
81
98
0b
42
48
31
28
d3
eb
c1
06
cb
db
be
1d
26
f9
15
15
aa
d6
2e
4b
0c
62
e7
d2
56
22
1f
da
e4
bc
8a
e0
25
cf
b0
26
30
5f
44
d5
19
3c
de
26
cf
ea
67
35
00
92
02
3c
ed
c5
42
f8
a5
e7
7b
e7
e6
32
f5
51
1a
e9
19
09
d3
07
2e
af
c5
f6
f9
3a
4d
2b
c3
f8
0a
48
c4
25
a5
1c
57
c7
ce
c3
bf
4d
fd
ca
3b
47
71
13
29
f2
5f
1d
37
02
a2
ec
18
de
16
fc
26
1a
f4
53
65
01
32
01
c0
0b
b7
44
76
f4
00
ed
f4
0a
bc
f1
95
24
2f
e5
22
dc
8e
fe
17
74
09
1e
cb
16
de
1b
1d
ec
12
11
d6
91
06
e4
3e
05
3f
c9
ef
48
cc
4c
e3
4b
65
30
e5
ac
b8
1d
ca
8b
98
d9
49
ef
82
c5
fb
17
2a
2d
a2
ac
15
39
0e
ff
28
bf
23
95
59
4d
0e
1d
f3
33
71
0e
13
ce
95
b2
6b
28
40
20
59
46
44
53
29
40
f7
38
ec
fe
c8
2c
b0
22
ee
c6
02
e6
17
e0
e4
05
48
32
e7
42
c8
10
52
cb
cd
4c
06
8b
00
74
a8
5d
99
29
aa
33
2a
58
f7
cc
ce
bd
07
26
1d
5c
cd
24
e6
25
3a
50
f4
c3
e9
d2
b3
f4
05
f9
cc
23
60
a0
89
07
26
eb
81
12
f2
17
70
c7
d7
ce
14
c5
2f
e8
d9
11
fe
e9
e5
3b
17
12
10
07
48
df
3a
c2
ec
37
b8
b4
fd
ea
01
dd
f7
bd
cd
be
96
b0
45
bd
27
65
db
21
d1
49
75
1d
57
a2
03
e5
c4
50
61
31
cb
f9
be
d3
ce
50
74
c7
32
36
1d
83
66
18
b8
c6
f1
bd
ff
2d
9d
f3
c2
e0
7c
e8
05
01
1e
65
8e
c6
ce
d4
18
a1
25
ff
2c
ae
1e
cc
6e
43
35
0e
71
40
cd
f3
18
4b
98
f1
d5
22
c3
1d
9a
c8
e9
74
23
0c
5f
5d
6f
af
0d
d9
21
fc
ca
28
0a
22
19
0c
44
33
f9
02
43
91
f3
0b
ab
75
d9
ed
ee
09
98
5c
5f
01
39
b7
89
7b
a0
4b
a7
ee
9a
2f
a5
09
fc
ff
70
ee
44
d2
cb
dc
3c
02
0f
48
3f
5e
81
5c
03
88
c9
c4
32
07
22
24
e8
dd
9a
34
f2
eb
a0
e0
c3
69
b3
d3
db
9e
20
20
19
dc
b9
f9
6f
05
17
96
da
d9
ee
b5
57
f6
b5
3b
57
db
0d
0d
8b
0a
89
e7
20
fc
33
1f
90
bb
ac
b1
6c
63
d0
35
07
ad
d7
a4
94
35
f5
80
04
d0
64
91
f0
2b
3a
f9
0b
0d
61
ea
8f
4a
d7
08
43
44
a0
8a
7a
13
c0
24
5f
c5
92
7a
fb
01
ec
ee
d1
ff
21
07
bb
1c
e8
e0
62
e2
fc
d6
89
29
43
3e
38
18
6f
2b
f4
f3
26
2a
57
00
aa
52
fb
5a
b3
2f
b7
94
6a
b5
f5
74
04
e4
e7
8a
a0
62
27
c9
b2
ef
09
6a
81
24
00
d2
b0
d1
c9
c9
29
05
e4
ca
10
5e
e5
47
10
d6
be
ca
36
d4
15
15
77
ca
45
cb
92
d7
e6
96
03
33
fa
ae
e6
cb
02
86
a4
1b
17
d2
7d
b4
48
d9
91
f7
ea
60
90
96
11
77
bb
7f
fb
d7
f0
10
b9
f9
26
e0
c1
21
bb
f2
b2
b2
26
e6
e8
d6
0f
f3
76
96
ef
9f
e5
d8
25
0b
82
dd
57
f1
eb
69
b2
d3
ae
4a
a4
db
cf
ae
fc
06
db
4f
1e
1a
e3
cc
f8
ca
70
d8
73
e7
f2
f1
1d
f0
ef
6f
ef
ea
0e
bb
63
fe
3a
06
5b
ee
17
03
03
c4
61
4a
33
d7
0c
24
b9
90
03
98
ec
08
d1
bb
20
37
b9
31
21
24
25
06
c7
bb
de
75
0c
d9
e5
6d
c6
e7
ef
09
9e
fd
04
e0
e3
f7
e9
ce
dc
55
24
01
73
eb
6d
d6
4c
23
23
01
b8
37
ef
d1
96
f1
d0
1b
01
74
68
ed
8f
b5
ce
d7
ee
15
20
0e
ee
04
41
a2
f4
e7
1f
44
1e
4d
b8
80
d9
4f
da
e1
b8
fb
05
d2
1d
45
f4
07
c9
de
3d
c0
1a
6b
f6
20
05
76
09
4f
c2
e3
48
f5
09
fd
af
3a
cb
50
3a
24
bb
ff
f2
3d
36
55
d7
f9
70
08
0c
d4
26
bb
33
22
de
01
4e
b9
26
2f
36
56
29
0e
50
de
ad
f6
10
3d
f0
59
7d
53
1f
ee
86
e6
14
06
4c
49
31
1b
e6
e2
46
cb
8e
ed
c4
f7
55
b1
25
00
e4
03
d8
42
f8
b1
e6
e8
a7
0b
f3
04
12
bb
10
09
f4
dc
11
1a
00
de
4f
b3
3c
f6
cb
40
e6
fb
60
07
d7
ea
d0
4a
c5
a0
32
01
40
f1
c7
a4
c5
28
16
e4
43
0f
62
08
f3
41
7a
df
39
e5
ec
fd
1f
12
de
20
d3
27
e2
1f
2d
2a
03
16
dd
81
f2
f3
08
ee
bb
b3
35
ef
3f
3d
cb
e5
20
d5
2b
0b
1c
49
07
45
c2
be
07
f6
e1
e2
00
05
e4
4d
ed
41
fd
04
c8
e9
df
0d
06
26
58
38
0a
5e
d8
f1
00
ed
ea
eb
eb
fa
b9
3b
07
df
f4
08
04
3d
de
4b
31
b6
ed
06
12
02
bc
2d
e4
d3
ff
d8
76
d6
e7
dc
fa
ef
1f
28
3d
5d
13
e1
2e
de
d4
f5
dd
2e
00
30
11
5d
23
ae
99
1d
18
e8
da
f6
0d
d7
49
05
04
22
78
0f
45
17
e7
d8
14
20
81
b5
1b
04
1b
67
5b
01
ab
20
bf
e5
b6
0f
19
6d
04
f2
02
ba
c9
1b
4c
ff
d2
2c
f3
b6
05
d8
f5
38
14
fa
6b
90
f9
06
03
80
43
5d
28
11
0d
f0
21
05
12
c2
19
a4
00
0f
25
00
fb
20
07
3a
14
c8
2b
01
dc
1d
b2
99
ce
bd
1e
61
f3
e8
b8
43
a6
e7
2c
69
d8
24
55
dc
f3
79
63
e3
92
4d
7f
30
1c
58
30
69
4f
ec
41
06
98
b3
bb
18
3f
0c
e2
d2
ba
ef
a9
c1
f1
cc
1d
bc
92
64
d4
19
1c
cb
6d
2c
73
b4
de
52
2d
c2
a9
06
72
fd
26
b3
0e
e6
1e
79
df
84
a6
60
eb
05
fc
ee
77
63
64
37
32
1d
ff
d9
fd
bb
12
b1
3b
a2
8c
b7
72
ec
06
65
6f
5e
74
e9
57
cf
5f
9b
70
eb
ab
2e
44
02
fc
f3
7b
fe
73
cf
1b
b4
fc
fa
5c
c8
f1
0c
1d
e8
ef
b3
60
e7
0f
c5
ee
59
30
37
cc
ca
3f
1b
2d
03
cc
23
55
9a
9f
41
31
a4
c2
29
ac
ff
e6
a3
b9
d7
08
c8
16
e8
23
a9
de
82
87
7a
e5
65
d8
7e
41
fb
9e
6e
d2
37
94
a4
a2
ca
7b
d2
82
af
76
44
47
61
69
7e
f6
94
3a
11
28
30
03
15
3a
37
1d
ff
93
69
fb
99
38
ee
f7
0d
99
e4
4c
70
f4
2c
3d
92
24
f0
1c
01
5b
52
10
f0
99
47
e1
33
af
6d
11
94
18
04
82
f3
81
7d
3a
fa
dc
f1
90
7d
38
6d
e6
1b
d3
af
e4
dc
f4
42
3d
c2
03
d7
83
f1
07
df
ae
9f
1a
38
12
d3
48
e8
dc
01
d9
c2
92
24
c5
2a
1a
ff
fc
96
e5
2e
6e
00
e4
04
44
d8
e8
93
ad
ba
15
08
b2
da
76
34
d2
d1
4a
14
ba
37
da
ab
96
c3
44
54
08
31
e7
91
8b
c3
a8
4b
15
14
31
3a
d2
ea
22
09
b4
0a
c2
da
97
37
24
27
01
a4
6a
5f
2c
b9
58
91
b7
15
09
1d
ad
29
ae
bd
f4
e9
1d
31
1e
40
4b
fb
34
15
15
22
98
e3
cb
fc
11
da
b1
1f
a0
7e
53
c3
96
ef
4e
16
7e
14
25
de
01
fc
c7
bc
19
a8
05
6d
09
b2
f3
d8
d5
3e
dc
b4
c6
d7
ac
ff
da
d7
d6
cb
60
dc
78
cd
f2
bc
c4
78
54
22
31
4f
d3
fa
10
ce
1c
cc
cd
14
cc
17
ae
f1
4b
eb
8d
bc
e2
c1
ff
23
d7
ed
d1
bb
03
62
2b
0b
36
fd
22
c3
4e
c7
f2
ba
c0
57
e4
60
d5
fc
09
1a
fd
11
1c
24
6e
21
46
1d
de
21
16
95
52
8d
b6
cd
0f
fe
fb
bb
74
af
c6
25
cf
13
5e
16
28
5b
81
27
18
28
f2
1f
42
c4
07
22
e9
09
6f
d6
8b
cc
15
8b
ad
de
41
fd
da
f9
87
5f
04
3d
43
92
4a
10
68
f3
c1
c7
23
b9
1e
04
f1
00
0f
e2
a9
5e
a1
d7
2a
35
01
73
3d
fb
05
38
5a
fe
ec
f2
e9
ad
82
44
06
38
34
b6
23
6b
06
b8
04
38
14
65
bd
1b
97
03
78
35
d8
b0
fd
12
c4
f1
d9
11
38
ca
30
1d
14
54
4e
af
a0
01
82
49
ea
0b
41
5a
d0
c2
da
50
3b
e1
aa
01
90
91
2f
be
25
b5
30
55
65
af
e7
1f
a8
3e
80
d3
dd
1f
08
90
18
08
70
67
e6
e3
62
d2
6a
a3
fa
53
8b
c8
7e
db
17
10
db
f0
c6
a2
ac
90
fd
db
2e
62
e4
b3
19
c5
30
9b
50
97
74
7e
87
43
56
27
b9
b4
3d
b7
40
0a
d5
c2
5e
90
32
fc
ce
ab
ed
d2
00
96
7e
79
e5
11
c6
a5
e0
28
01
ac
7c
1f
35
c0
89
92
d9
e2
2d
5e
1d
24
ae
83
d8
22
18
e6
9d
c8
7d
6f
30
5a
d9
60
94
0f
a9
ef
99
51
f9
20
f5
c6
92
e9
44
ff
0d
3c
aa
0b
c7
33
f6
1d
83
82
f3
c4
6a
f3
b0
40
b5
e0
39
35
71
4b
5a
0e
a1
76
c0
1b
35
c1
6f
02
cc
64
50
bb
d7
d2
1f
ee
60
84
9c
f6
53
86
20
50
13
33
7d
ac
03
0b
26
e4
ca
f9
7e
30
84
cd
94
57
0c
d1
be
ae
9c
c6
39
5b
d8
42
71
45
3a
ea
0d
32
16
00
a5
9b
73
47
2f
a5
b1
fd
03
c4
97
41
7f
25
0c
73
2d
b8
91
c5
4e
24
b4
42
95
f5
99
e4
18
e7
42
11
f3
9f
4c
06
a6
f4
05
4f
c7
0b
4f
e6
09
a0
f5
43
f8
bd
0c
c6
4b
d7
e0
8a
78
4d
e4
c0
7b
07
e8
f3
37
a1
8c
f9
44
8b
fd
07
ed
ad
e5
85
24
71
47
f3
c4
62
09
10
33
e4
2c
5d
6d
19
56
b5
73
0a
4a
7a
35
e7
d7
ca
b4
20
19
71
fe
aa
65
7c
59
13
99
b6
3b
5c
86
b0
9d
53
32
ad
19
0e
bf
24
e6
40
07
b2
a6
c7
0f
c6
d2
de
36
75
61
66
84
7a
15
2b
d3
66
55
a5
f6
c6
8a
ff
f0
bd
74
17
2b
89
1c
b6
be
3d
41
cf
73
9b
ea
20
fd
ab
f7
f4
75
37
26
c0
96
3c
4a
7b
0b
af
59
01
14
3e
de
40
92
9f
71
c2
19
36
09
3e
18
38
34
af
16
92
f1
28
0c
a7
16
06
b5
86
06
4b
28
29
29
f0
90
02
01
18
f4
86
6e
48
15
a2
19
2c
5d
23
26
c3
2c
7e
d4
1e
e1
e6
04
34
bd
93
1a
21
01
d4
c5
22
dd
fc
e0
eb
eb
fc
23
61
3b
1f
bf
f8
0d
02
08
15
fb
bb
fa
61
09
70
fd
cb
ba
39
15
0b
f8
bd
ed
c5
33
8d
e5
32
06
9f
c6
f4
89
28
98
35
64
a0
1a
a1
fa
98
bc
b8
14
f9
20
cb
f1
d7
06
33
93
23
de
17
ca
f5
d0
a4
fa
2c
b6
01
48
11
07
fa
27
4e
f8
a4
8b
51
06
3b
fd
2e
34
a3
03
eb
39
db
08
17
be
36
11
ff
f4
b5
b2
0e
ea
f3
2b
2e
fd
e7
fb
04
47
d6
0c
d5
48
9f
70
de
19
f4
d2
49
36
d9
c4
dd
a2
57
eb
af
c3
f4
aa
0f
09
17
1d
e7
e6
11
23
c8
da
e9
d3
de
bb
ad
bc
cb
33
ba
d3
13
e1
96
bc
1b
27
45
2a
01
69
2d
af
f2
27
5b
ec
f7
8a
33
ad
0c
46
0d
31
04
c8
c0
12
d0
00
1b
fa
10
f6
2d
1e
e9
d1
63
cb
d8
45
14
ef
e1
5b
b1
ce
18
3c
dc
d7
13
9f
c8
ed
56
45
da
f8
e1
41
c6
c1
d4
4a
b3
03
cb
04
4a
d9
b8
ee
1c
14
26
b0
18
96
9a
d6
70
17
c2
29
ce
0f
bf
32
e8
52
be
b6
89
12
29
01
dd
34
cf
b2
d7
df
20
97
b7
ad
25
22
e2
53
d0
cc
ca
db
dd
00
d0
20
77
21
e1
25
ec
39
9a
62
e8
a7
cb
ae
25
ee
dc
2c
d3
32
e9
e4
c4
19
ce
2d
29
c9
d8
06
25
a9
bb
f4
02
00
2b
fb
2c
2c
42
2b
61
14
10
8e
95
f4
2f
9b
92
e5
cd
d8
05
01
07
a8
00
f1
3a
c6
47
5e
db
03
b3
00
8e
cb
a2
32
df
9d
e7
4e
0a
5a
b2
72
0a
d2
53
9e
fd
35
17
a3
e6
70
f4
44
2e
a6
8d
04
1d
a3
28
e4
05
62
e2
f7
44
f9
0f
e7
f2
dc
1c
bc
a1
f9
9a
48
55
28
2b
60
75
fd
3f
7c
b4
07
f3
c7
ab
ab
03
0e
77
c2
fe
bf
c7
04
f1
eb
12
36
d2
f2
ff
b8
85
ee
50
df
13
67
df
3d
06
23
e0
df
08
e7
a7
e0
c7
1e
d1
8b
0e
83
12
bf
8b
20
37
b7
09
42
94
2a
6c
f3
42
48
eb
8d
70
f2
2e
c7
1b
c6
bd
22
8f
12
9e
fb
f6
e9
87
d0
8d
1b
c1
0a
05
22
c3
88
d2
d2
b6
17
b2
f2
75
b8
1c
50
a8
e4
8b
82
80
8e
13
e4
9b
2b
f9
32
6a
53
19
42
5b
e9
4f
0d
f4
03
60
b3
d9
85
05
e5
00
49
ac
36
3a
94
ae
96
74
29
e0
f9
01
0e
ff
fd
01
e4
9a
4e
8d
1f
cd
09
2e
b3
12
dd
0f
d1
33
20
e3
f4
dc
fb
e1
54
ef
16
31
b9
2c
51
2d
73
3c
2d
76
8c
c2
04
de
c2
07
e9
0e
14
8f
bc
4f
bc
88
cb
00
ef
d3
fa
28
99
20
f8
f5
51
35
8f
3a
e6
9c
38
a6
5b
7d
8a
f2
38
32
5f
3d
0a
6e
07
84
fc
de
1f
0c
22
b5
8a
46
fc
43
e3
d3
98
02
c2
91
4c
bf
3a
83
df
0c
fa
8a
7a
02
f8
7d
26
16
a9
c5
1b
f0
d4
b9
05
43
2f
6d
83
75
03
f1
d9
55
e9
40
0e
f1
21
19
29
39
38
99
85
6c
0a
6d
37
98
2d
2e
00
06
48
63
16
1e
fd
61
ba
dc
85
f5
06
e4
04
3f
76
72
c9
4c
68
06
96
48
21
b6
02
9b
e9
22
02
cc
a8
f9
a9
0f
df
d4
28
59
bd
e2
2a
1d
6d
fc
3f
08
75
29
46
0d
0c
13
01
da
60
86
5a
8d
32
3f
f6
de
e3
6a
ed
b9
22
21
3b
3a
08
24
29
38
e5
a7
25
22
9e
14
c9
ef
a6
79
8b
00
f9
cd
22
a5
02
80
eb
df
65
23
03
55
85
a4
b2
75
09
2a
80
07
b3
ba
5c
00
6f
d5
02
f2
3f
be
f2
89
f7
1c
01
30
17
d3
13
56
9e
26
04
39
42
6c
ac
ee
88
52
46
95
7b
d2
42
c7
a9
fa
cd
8f
8f
d6
c1
3d
77
62
ed
06
99
03
0b
d8
7f
f1
41
bf
4b
27
45
05
b6
aa
ab
17
7e
f7
a6
1e
4b
29
a0
f7
47
12
b6
45
9d
d9
f5
45
fd
ee
dc
c4
ff
65
a6
bd
68
04
36
55
0b
de
6f
ee
c5
b1
27
55
20
22
ef
09
ec
5f
00
20
b1
bf
c6
83
b3
fb
67
26
fa
da
a5
e7
b8
0b
2b
cc
28
54
64
c0
1d
5a
01
ee
e7
fa
5d
89
48
42
01
a5
f8
e8
18
22
e7
b8
4d
71
d7
5e
fb
a9
c7
3d
4c
f8
eb
29
b8
9f
40
57
37
95
6f
ca
02
57
53
14
dc
0c
44
e4
df
1b
9d
65
e3
82
33
f9
39
3e
20
2d
3b
6b
fd
2a
db
dc
04
c8
22
19
8f
8f
41
58
9b
ec
76
65
0b
1e
1a
2b
20
52
ce
14
d6
25
dd
d5
ac
35
75
ec
fd
61
b1
f4
f2
fd
b3
7d
10
09
1e
ed
1b
14
0a
7f
fb
d9
0a
30
42
42
3b
58
9f
18
bd
ae
b9
1a
87
12
f6
0a
5f
f0
bb
ec
45
a5
01
06
05
17
f4
27
f3
0d
7c
ae
a8
57
26
28
bc
16
3f
30
06
d8
08
33
25
0f
82
b7
b4
d1
72
cc
44
2f
0f
d5
fa
c9
05
22
44
08
1c
c7
5d
ed
13
22
56
ff
00
4c
fc
2a
39
25
3f
e9
6d
e4
cd
05
f8
fe
3d
d6
3b
04
1c
03
93
e0
05
d7
ef
e6
1a
ee
ce
11
27
2e
ad
28
fc
24
95
2a
ef
fe
3b
be
ed
31
04
9e
25
e9
0d
01
6d
ce
56
23
79
12
50
bc
07
f0
bb
27
b1
b1
3d
2c
1f
00
10
fd
29
56
12
ef
71
61
14
fd
15
3c
ca
22
db
3a
64
0e
3b
d4
ee
53
d4
9a
ff
92
d4
eb
5c
ad
a5
85
0f
d2
b6
28
39
f1
73
0c
e0
f5
38
01
23
3b
cb
c6
0e
ec
5b
ea
f2
44
bc
07
37
ef
5d
ef
12
e2
b8
8c
d8
f8
bf
cf
fa
51
85
78
11
a5
97
b4
3b
47
8e
1e
1a
38
bd
55
f4
16
46
52
d5
27
f7
49
23
ce
2b
06
49
ec
af
2d
bd
a4
1e
34
36
01
c9
c3
c8
e2
02
02
68
e4
f5
16
02
2b
4b
b2
ed
75
a8
bf
bd
58
f7
3e
75
fa
79
55
fb
19
40
e3
b9
43
21
f6
2b
a0
66
e1
89
9c
f1
b2
61
24
24
b7
0a
42
d4
23
1e
c9
39
a8
ff
db
6b
d4
b3
5b
11
17
1a
21
9a
40
08
1f
1c
c8
06
3b
c5
00
e9
ac
d9
0e
31
b1
b2
d9
5d
08
12
9f
26
e0
8f
5b
4a
04
93
06
1b
8e
cf
4b
c5
be
ce
09
33
69
27
d2
8d
5d
f9
1d
d8
db
2c
e4
33
ef
db
f0
82
7d
dc
57
d3
8d
4f
3c
9e
24
32
85
b5
ef
90
f5
62
da
0c
d5
b8
16
9a
aa
51
5d
e5
61
f8
7c
17
59
5d
cd
bc
26
36
01
b5
30
b1
39
d8
d6
64
ff
56
42
06
df
1f
6a
bf
74
2e
08
19
2e
62
6a
52
8d
cc
fb
a1
03
3e
4e
76
fc
b6
b8
ce
a7
15
ff
ea
ee
51
48
52
f8
e4
c2
b9
d8
fd
15
b4
0b
e7
15
4f
fa
54
c9
d2
bd
eb
f5
32
56
f4
7e
5a
dc
14
77
9b
04
60
39
c3
73
76
eb
3b
0c
e0
20
20
0e
f1
79
27
86
cd
8f
19
0b
03
e5
ed
a9
b8
24
af
01
e4
b7
05
44
e5
5c
7b
cd
b0
25
22
d7
e2
31
bd
64
66
25
d3
d8
d7
80
80
a0
8d
ea
08
37
6e
26
73
cd
8c
b7
ba
5b
54
e0
16
bf
84
99
e8
1a
2a
49
12
ed
a5
0f
e4
2d
69
e3
18
69
8c
4c
f1
0c
ed
4f
16
b1
14
ad
ce
3a
60
41
19
79
9f
d4
a1
03
d5
12
c2
0a
f6
76
d2
d1
e4
d2
f0
ce
b7
4c
73
0c
cf
b5
3e
a5
cc
da
10
e6
25
3e
27
90
1d
b5
50
dc
2f
ed
1b
a0
fc
b6
41
37
e3
ec
aa
fc
45
4b
fa
9a
b6
70
01
51
71
49
54
21
28
53
90
4a
b9
36
3f
8a
c4
ba
20
ce
74
80
68
63
18
0c
ef
25
5e
54
c7
79
dc
c5
55
17
5c
f8
bc
74
e0
6f
7f
19
eb
06
ba
7a
c7
fe
0d
4d
d1
6b
08
ce
91
b8
db
e7
1c
b7
16
ef
c8
09
a3
f3
31
a9
cb
91
46
e0
f2
43
ac
fb
69
f9
c7
7f
74
e1
58
27
e1
5f
1d
91
e0
4a
7b
17
bb
a3
37
ed
04
d6
a1
20
30
9f
40
ad
08
c5
2f
05
e3
39
2a
e2
06
f8
8f
cf
f9
ba
30
7a
07
c5
e7
14
73
dc
8a
04
a7
03
cb
20
30
82
79
df
89
30
2e
eb
c5
bd
f8
c9
13
68
cd
8d
db
58
cd
4e
2d
95
46
bc
33
5d
dc
01
68
3f
b1
95
26
f9
61
c0
0e
3a
84
f5
7f
24
17
0b
d2
b5
23
db
42
db
04
82
8b
de
64
01
2a
b5
0b
12
62
a5
09
0d
d6
17
cc
ef
f2
3a
7c
06
35
b0
ea
60
e6
52
76
f8
47
02
fa
05
5c
62
c4
f9
ba
3e
67
09
19
e3
38
fd
6f
eb
b2
47
be
ab
e7
a8
2d
1e
c0
bf
d1
23
6c
e0
30
93
95
c6
40
fa
cb
2b
e9
e6
27
d5
8c
68
c7
70
04
3f
ae
dc
12
28
70
0a
d0
e4
6d
ef
c6
46
d4
f7
d8
4a
1b
ff
9f
20
dd
a4
a7
6c
10
ff
31
ad
09
8e
b8
d9
f2
25
a8
f8
eb
17
d7
9d
da
cb
2e
9f
40
1a
ba
47
5d
83
c8
11
aa
67
62
24
7d
68
db
56
69
3b
f7
e3
ee
1b
4c
0d
03
cd
8e
5a
e4
7b
32
c0
db
c3
e6
23
59
22
ec
48
58
cf
ae
cc
e0
c8
c2
ff
04
29
3d
f7
26
1e
f4
17
e0
16
37
2f
fd
d5
02
12
13
20
f8
01
02
43
10
db
09
f9
24
c4
d3
00
e7
dc
f1
37
16
10
0e
e6
f4
f7
fd
2b
fe
df
5b
12
bb
2f
03
eb
26
14
ef
da
41
f0
fe
ff
f2
12
03
08
6f
38
d8
91
1f
f5
11
e2
0b
11
06
ee
fc
d7
1d
35
e6
10
1b
c2
15
03
00
0f
05
03
01
2a
22
15
dd
fe
53
3a
10
25
f3
39
d2
e1
fe
00
03
06
29
3a
16
e1
ea
1c
27
ef
f8
37
c3
25
e2
e7
e3
dc
10
fe
af
09
ef
24
10
e5
dc
37
0b
01
39
e3
c9
57
04
76
04
c1
48
27
f1
07
e4
09
25
d8
23
1a
fa
27
dc
73
a6
f6
fe
f5
24
4f
15
51
e6
de
11
48
ef
ed
17
17
2d
e4
df
00
f0
22
d9
03
f6
b2
0b
68
fb
16
6b
ef
31
e4
e1
fe
f9
ff
2c
0f
03
e6
d2
ef
ff
ce
e1
3c
5a
28
f9
4e
2b
ff
b7
01
f5
fa
ff
ff
04
21
16
de
1e
01
02
0e
d9
dc
fc
52
ee
07
f0
4b
1b
12
2a
f4
0a
12
00
ee
ff
e1
03
d0
d8
39
8b
0f
f3
ca
37
f4
c8
be
bf
78
e3
08
3d
5a
14
08
16
b5
63
f7
a6
5f
9e
82
9e
90
3d
b0
43
c0
ee
52
fc
e4
12
ee
88
23
c8
c7
ed
2f
ef
a8
96
da
0b
d4
cf
46
77
bd
96
2e
2d
15
06
4a
d3
7c
a3
4b
2f
0c
d8
3c
c6
4e
c5
ab
73
a0
bf
33
f8
4d
5a
1f
bf
c0
0c
f7
08
05
2f
05
86
a5
e3
00
b6
e0
8d
93
7d
44
f5
1d
ce
bb
ac
a2
d1
4e
30
f6
5c
be
b8
23
e8
e0
b8
c8
eb
d7
67
e5
c6
30
48
ca
a2
21
a8
00
3f
4c
0a
2f
62
04
84
26
e1
00
24
25
90
b2
25
20
e2
30
df
64
6b
99
fa
1b
1e
a4
44
0d
01
21
74
8d
45
46
a8
67
07
bb
83
7d
cb
8d
53
e4
57
aa
20
88
b7
1a
4c
5b
cc
3b
0e
18
e3
5f
76
e6
26
4c
e8
8c
e6
6a
1d
ce
3f
2f
6c
3a
b8
13
aa
57
59
c4
01
e9
75
c3
bd
51
bf
0d
a7
a2
0d
50
e5
7c
27
c8
dc
ad
8b
82
44
09
9b
c0
ad
eb
a5
ce
30
0c
f9
6f
15
77
1d
22
db
73
98
03
e7
80
80
00
b3
97
1b
70
2f
0f
18
1a
f4
8d
29
1f
32
21
6b
13
eb
98
d2
1c
a5
c8
e1
05
ca
e0
1a
74
f6
ee
23
41
9d
22
6f
e7
aa
47
87
f1
f7
96
20
f3
e9
8d
0e
cf
bf
8c
f9
9d
fe
e9
24
ad
6a
39
09
b5
f1
d6
d5
86
73
4d
21
3e
21
4a
e8
ba
ee
86
fb
e4
cb
f6
f5
1c
18
61
18
75
72
db
0a
23
39
48
05
34
fe
dc
bf
85
03
8c
cf
11
e8
90
2b
f4
1b
1f
70
52
b2
11
03
af
23
8a
48
ea
f4
00
aa
48
e7
22
9c
62
67
e5
05
21
ec
da
e5
d6
36
06
9c
08
9c
27
a0
42
d9
69
95
35
e3
55
a4
54
ca
e8
9c
18
c5
03
bb
af
6e
f4
eb
39
9d
f0
c5
ea
12
e4
bf
93
26
a8
ff
2c
e5
cd
c1
66
ea
93
21
9a
05
e4
af
2d
10
4e
4b
2e
d9
0e
30
7b
1c
3b
2b
05
ab
d3
ad
c5
dc
bb
19
d7
d8
0b
e4
c9
ac
19
05
5e
53
ce
5f
94
33
28
26
f0
27
e9
ca
4e
e6
3d
08
ce
40
1a
37
cd
52
47
c0
85
f8
29
fd
62
73
35
c4
fa
77
22
16
92
b5
a9
51
26
15
6c
d9
10
33
34
d2
d7
f1
61
96
36
f4
3b
0b
9c
08
e6
fb
01
42
29
dc
32
de
03
0c
d9
1c
31
22
2a
f4
e9
fc
16
57
20
17
f8
63
05
eb
46
08
40
ed
d8
f2
e3
11
f4
08
fe
01
ef
02
e3
b6
0a
f2
17
cc
24
c6
db
1c
0f
fc
cd
eb
e5
d7
0a
f7
0b
eb
dd
19
d1
de
19
1c
41
5a
e6
02
6d
16
40
ea
2e
ed
ff
01
05
29
dd
5d
0a
c6
25
15
08
ef
08
2e
13
dd
f3
4c
11
07
03
cb
03
d1
f7
cc
f5
43
f5
2e
03
03
22
4b
31
08
e9
18
1f
ba
28
da
eb
1d
d1
ce
00
00
25
27
0b
ce
bc
18
f8
16
bc
04
df
02
0d
e4
23
fe
d3
f0
64
ed
e4
24
0b
0d
00
22
20
fb
da
87
3c
ca
05
27
0c
3e
f9
e5
33
ee
d3
6a
ef
f4
a4
10
eb
d3
e9
4d
1a
1a
af
28
00
02
fa
20
ca
c7
03
20
29
fb
ed
16
0e
f2
fe
13
ee
37
c6
f6
41
3b
23
07
4d
e2
34
0c
07
c2
29
92
42
fa
01
1b
28
0e
f7
d5
3e
20
e3
fb
ef
fc
05
0f
44
2d
35
fe
0a
e1
e6
ec
ca
dd
1a
11
0e
ee
07
07
9f
21
10
f8
12
18
15
04
d0
0d
06
c2
ea
cf
ff
02
b0
d3
3a
b8
09
e3
03
82
ac
f2
1a
b8
2c
f4
0c
fe
f3
c0
89
eb
03
55
c4
22
fb
8e
ca
24
a9
b3
2a
26
bc
26
bf
62
0f
20
b2
be
c9
ba
f9
c6
e1
83
04
0c
f9
65
df
1f
64
d6
07
b9
ae
69
5e
1e
e4
6f
2f
ce
24
77
e2
72
ea
52
ce
41
fd
b5
24
0f
0c
5b
03
a8
e1
e5
32
26
63
f2
79
e1
dd
67
f7
d7
e8
fc
f3
55
df
30
e0
f0
1f
e5
78
1c
dd
7d
9e
d1
23
2a
4d
d2
de
4f
ae
5b
c2
74
14
bf
08
4d
eb
ce
8a
c6
2f
74
07
dd
e8
3f
00
4c
ef
67
c8
1d
3c
30
eb
b0
4f
23
32
f8
3c
be
34
00
ed
f3
b6
3a
68
02
43
7c
65
c5
13
2f
00
b3
8c
bb
d1
5f
dc
9b
db
b2
f0
ad
a8
cf
77
65
df
03
1a
85
d1
d4
12
d8
51
3d
1d
2b
93
1e
fb
b5
d7
56
37
36
eb
f7
f7
d4
14
99
16
58
9f
3c
e0
32
ff
03
df
ff
43
ed
aa
f3
b8
dd
ee
25
23
fb
8e
3a
08
f4
b7
5e
f4
cf
68
ef
f5
05
d9
a5
cd
fd
9d
29
cf
19
e1
f1
33
48
09
33
84
37
64
37
33
27
21
ff
6f
be
ac
ee
0f
23
a3
e6
d8
2a
f0
ca
00
38
56
4c
5c
0c
ac
20
3e
29
e2
39
10
fe
be
f1
2f
aa
2b
e0
c5
c5
11
0b
4d
24
52
3d
30
22
01
e9
ae
5e
1f
03
12
d8
17
62
98
1f
0b
0c
da
bb
32
48
a6
d8
20
d7
5e
21
dd
cf
b6
12
ff
9c
f0
85
51
da
0c
42
5a
0f
ca
f1
b0
ca
ea
fe
a9
e5
08
d5
20
cd
12
25
f3
c7
32
48
4d
c1
1f
20
83
0f
bf
0e
07
29
25
92
06
14
fd
22
c7
fb
3e
1c
0f
da
2c
de
54
e1
f6
bb
34
f0
2e
0a
41
4a
09
7b
52
de
1a
b9
f4
d2
1b
9e
f2
10
e8
41
1d
f7
ee
35
3c
b3
36
a2
e3
40
ae
e3
db
53
e9
2d
fc
04
b2
a8
d9
d4
d8
fc
03
bb
08
d6
62
01
78
33
13
74
d1
f9
68
c5
d2
f9
57
44
12
aa
c7
5b
e9
5b
2c
f8
e7
33
79
18
25
1e
e1
e9
f8
9b
33
6a
64
55
01
30
bc
04
88
63
45
f0
fe
11
32
ab
ed
b0
19
18
0e
3c
d2
76
ed
0f
a8
21
67
b5
fd
ac
cc
e8
b5
9a
e1
0d
de
03
69
49
0b
f9
08
08
cb
04
98
64
30
53
b4
71
fe
51
28
36
97
c1
2f
ce
f5
88
bb
bd
e3
e0
a9
19
ff
20
c5
f7
4c
1a
20
3a
7c
b9
83
f8
c7
e8
ba
c9
0d
60
1b
ad
9f
9d
01
a9
b5
15
e8
ea
1d
c7
9f
01
e5
bf
09
d8
3b
5f
d0
32
24
c9
1d
c6
b4
f8
a8
cb
1e
30
b7
10
c7
ff
fb
15
06
84
3d
fb
cd
73
97
86
12
07
3c
de
d0
f8
32
17
be
1f
f8
86
4f
75
34
09
f2
d5
bb
bb
2f
3e
e4
7e
3b
39
86
15
0e
1f
6e
84
c9
1a
98
75
9c
f8
39
e9
0c
69
b5
51
f3
bc
db
03
5e
e9
11
30
54
e0
07
6a
7f
72
63
9b
01
1c
f4
3b
49
99
6b
56
f5
f5
0e
7e
8e
a2
3e
fa
a2
1a
8b
a6
11
b5
e4
06
46
22
fe
7f
e4
e5
5d
7c
e2
c9
53
29
55
8e
f8
19
73
8f
11
df
41
13
fe
4c
4e
08
b7
6f
3e
f1
d5
d5
34
16
c0
f9
53
4c
31
2b
01
c0
70
29
a5
bf
14
f3
e5
a8
d1
1c
fc
41
3d
82
d0
7f
61
23
c7
b2
10
1c
63
d7
7b
e7
f2
2e
8b
af
2e
1d
77
71
b7
ef
d0
1f
06
9e
64
44
b5
7a
da
bc
02
03
39
41
2d
ba
e2
17
dd
a8
c5
09
36
0c
4b
d6
ed
d4
0e
32
d2
5b
4d
16
cd
e1
e9
67
15
53
f0
a0
b9
38
06
0e
16
28
fb
02
26
d0
99
16
4a
24
ce
20
0a
f5
bb
7b
49
32
0c
d5
a2
e2
94
ee
0d
e6
42
40
30
e7
51
64
de
e8
21
12
50
4b
65
ee
d4
12
71
84
2a
0c
cc
7e
11
a4
e1
bd
b5
dd
12
16
07
e7
e2
01
15
9e
cd
06
23
fa
21
dc
4c
9f
d8
02
f0
0e
97
da
f2
d0
19
d7
c4
b9
03
d3
b4
9d
3a
2a
20
e7
fa
02
c6
fa
1d
cb
75
d6
45
f0
1a
6e
64
f3
d0
65
20
06
4c
b5
f8
1b
1f
c0
d9
5e
d4
bd
d4
0a
59
a4
03
e0
f8
bd
6f
3e
81
f2
06
87
1d
e5
cf
ce
85
b1
34
ca
97
02
32
17
19
ff
11
5d
c4
9f
c5
1e
ea
1a
3a
c3
bd
6f
ff
d3
eb
e1
32
f8
a5
db
e1
02
91
12
e4
5c
18
d2
2e
e0
5a
f0
23
02
00
2d
bc
29
58
70
ea
1f
d6
a6
ee
8c
6d
c6
47
eb
bf
52
08
45
04
f1
d2
e3
b4
c1
00
fd
5c
f9
ec
f1
11
d7
f3
31
fa
3a
fb
3c
48
23
37
77
88
59
d2
0a
96
e6
90
d0
1c
5b
d3
74
a2
0a
83
19
df
67
bd
63
a7
15
d6
a6
4e
8f
0d
ff
37
7a
70
af
fb
b0
6c
2c
04
55
1b
85
eb
1f
07
97
eb
ea
c7
f7
4d
04
18
7d
86
a2
c7
87
e5
4e
4a
dd
ee
c2
e6
68
3c
6e
8c
17
a4
0e
ab
32
b6
7a
f0
d9
cc
8c
dc
c6
0b
fe
04
05
7c
d9
80
1a
d0
e2
c9
d8
04
65
23
a0
dd
2d
24
59
96
5c
a5
df
a2
fb
c2
bb
1d
3b
cc
28
c5
20
83
5b
21
62
02
ef
02
0d
cd
69
50
47
d2
49
e6
04
47
03
a9
72
85
cf
84
c9
f5
22
a0
09
1e
34
e3
44
44
1f
ff
68
a9
26
ea
aa
da
c3
a1
04
04
61
93
b5
4a
c0
f6
c9
80
6e
c2
32
66
7c
b4
3b
59
a0
b0
d9
8a
30
38
b9
85
cb
e4
07
9b
76
69
34
2e
26
62
8d
63
d4
1d
ac
96
7c
96
a4
c8
d2
1f
30
7d
54
e2
da
c4
20
ee
39
ce
ee
18
1a
01
b2
e6
0e
7e
c2
3d
c9
d3
61
d0
8d
3e
6d
8a
ba
ad
bf
ef
9c
18
b8
ed
62
65
a3
de
f1
06
f6
57
15
ea
5c
a1
d8
f0
c2
55
56
d3
a7
ad
5f
c4
cf
02
d3
23
f1
c6
1f
10
05
da
56
52
ff
7b
c4
94
c6
1c
30
fa
cd
f5
84
f7
0e
ee
ed
6f
26
46
c7
57
eb
82
f2
0e
78
ec
f8
cd
bf
de
fa
2a
e6
4d
15
f9
2b
e4
ab
cd
7f
c3
0f
46
06
30
f2
55
fb
09
f9
36
1d
55
17
28
1a
fa
be
0d
2f
de
33
32
e5
35
27
45
de
0b
3f
5e
3a
b3
0a
f3
64
29
ab
f3
34
0f
37
37
00
c7
fb
0c
48
9a
e3
dc
20
bf
10
e4
3f
96
25
eb
c1
18
f4
10
f3
b0
eb
d4
32
0c
03
53
b1
c0
54
a6
22
ee
33
51
05
f3
55
69
ea
db
d8
1f
50
71
f0
3d
a7
1d
7d
1d
c8
d7
12
ff
b6
72
76
f6
a6
e0
02
b9
f4
b6
f7
d4
16
4e
40
1d
4e
b4
32
51
c5
de
68
c6
2d
c1
da
93
f1
4a
5d
ef
4d
16
fd
4d
fd
e4
e1
10
0f
ab
d8
43
35
01
ae
2f
43
1c
ae
fc
22
f8
29
a8
17
1e
a4
19
50
11
22
56
62
39
12
9b
c7
fc
26
1b
35
b1
eb
cb
04
f6
ca
37
15
18
53
48
51
d0
22
af
3d
1f
40
9b
0f
d7
43
c2
b1
ba
7d
13
d6
10
49
fd
2b
44
f6
92
47
8d
fb
ec
04
93
a8
3d
cb
0f
e0
10
96
02
cc
c5
ce
df
3b
0f
4c
cb
fb
51
43
bb
0a
47
29
41
e3
e9
ed
0a
d8
1a
eb
f9
c3
e2
22
fc
41
15
d7
d4
80
aa
ed
ce
ef
13
a7
72
27
f5
1c
d1
b8
ba
f4
26
39
f1
f7
ce
b2
55
e4
49
4e
ec
ef
fa
e7
0e
85
0e
3a
45
2d
d8
71
51
1a
dc
94
c9
18
ec
35
e9
54
ee
03
c8
c4
0a
f4
ff
f2
fa
cd
94
db
b7
82
d8
dc
3f
ba
cc
71
e3
e4
a9
12
22
2d
d8
79
7b
4c
b5
12
04
04
5e
25
e2
fd
e9
87
40
c7
fb
0c
34
c8
a0
28
f1
3d
3a
e8
08
28
e0
02
eb
1e
a2
e4
05
a9
25
fe
4d
66
57
36
0d
e3
d7
38
e0
10
f7
a3
bf
b2
ee
c9
0b
2b
e7
0c
22
64
ec
e3
87
16
28
fe
f3
67
fd
33
16
87
a6
b1
7e
16
01
f5
bb
97
40
1f
bc
d3
10
25
1b
8d
f9
3a
1f
34
18
c4
23
fd
fb
68
ad
f7
31
e2
76
f9
f8
d5
cb
f5
d2
ff
d2
25
cd
2d
b7
ea
f1
16
9e
21
f5
39
29
e5
b8
12
b9
d2
d4
1d
55
30
ec
68
c5
96
c2
d7
3d
7f
31
ae
b0
0a
86
d4
15
be
a1
c6
5a
c0
44
bf
64
33
06
c6
b2
26
6a
b8
0c
09
16
b4
14
f4
b0
cb
8a
5c
cc
0a
6d
2b
c8
28
b0
4d
20
b5
99
3e
e9
43
dc
c1
08
58
31
0c
74
84
a2
1f
ab
0d
16
c3
c2
f1
2f
00
8d
01
3f
75
1f
f1
ab
13
ba
c8
77
ed
15
02
79
5b
be
ee
2c
65
1a
f4
f3
da
89
a1
04
71
db
8a
25
7d
5d
03
ae
0d
b8
c1
93
c5
15
ea
84
4e
9a
0c
f4
63
f5
2b
db
ae
28
e5
5d
a7
c5
7b
21
23
85
8f
07
ea
22
41
10
b8
d6
5f
fd
42
5c
d5
b4
74
02
45
16
2a
9f
7e
ed
1f
05
88
1a
78
08
9e
d5
fc
fb
2a
32
eb
12
50
c2
a0
37
b3
12
80
b6
c3
7e
61
62
e5
08
6e
eb
dc
a6
28
4d
9a
d1
9f
5e
0e
36
55
d3
d4
ff
92
69
0e
64
f6
ec
fb
4c
f5
ba
83
04
15
44
83
1a
f8
23
b2
04
fc
b8
3c
45
14
df
c8
d2
45
8a
3d
82
ec
0e
eb
e0
f8
9c
6e
e2
b2
22
33
1b
01
e2
dd
38
1f
31
fa
1b
ea
e5
c2
47
26
2c
eb
d3
c3
ca
3c
f4
e6
22
01
f9
f2
d4
2c
17
fd
e1
36
36
25
ea
0d
17
09
26
0c
ec
de
00
fb
f8
f4
08
da
01
f0
fa
c3
0f
f4
34
fc
e3
cf
eb
d9
30
f3
15
ff
bb
2c
23
ab
de
ee
c8
18
ee
ff
06
e8
db
9f
f8
e7
f4
06
0b
1e
3f
f0
fd
cf
f9
00
21
2e
e6
39
eb
f0
0c
f7
31
ff
06
01
bf
f0
d2
e5
ed
29
d4
d9
1e
14
f9
04
d6
1c
ea
1e
fd
f5
40
e7
d9
22
09
f5
fa
d7
00
e8
ec
39
43
ee
cf
09
10
1f
2b
fc
f8
d5
f1
cd
12
02
2a
d1
06
03
0d
cc
e4
15
e5
23
f5
ea
04
e4
02
2e
c4
47
6a
0a
28
ec
eb
df
c9
07
e2
d0
f2
e2
09
f6
32
e0
fb
40
04
d6
fd
15
0c
24
c2
cf
4c
05
f0
f1
e9
f1
1c
1d
e6
b8
fa
2e
fe
13
f1
f4
01
11
2e
f8
1c
e7
22
e7
00
d6
06
c7
2b
17
c3
11
a0
f4
eb
05
27
d5
dc
34
10
18
fe
fd
f0
2f
ee
09
10
ff
0a
35
d0
d1
fa
2a
0f
0f
e0
46
cb
37
1a
15
0b
0a
28
3e
3e
e9
5d
17
63
27
c2
49
92
37
cc
f9
9d
5f
dc
bb
ee
a7
14
c9
bd
2e
61
bc
a4
70
43
53
f3
0a
de
d4
87
78
ed
ff
39
c8
03
da
3a
d9
a3
2b
2d
0d
c5
fe
b7
53
c9
44
c0
b3
b3
d0
8c
4c
06
37
1c
85
85
28
3e
66
7c
46
43
1d
48
ee
11
2b
14
30
8d
ec
25
b2
44
22
4c
79
83
74
eb
03
3d
f2
ce
9d
c1
01
a6
54
df
91
50
1b
44
1c
bc
b5
1c
b2
ec
d0
af
18
0d
ad
3a
7c
aa
6e
43
e6
d4
fe
30
0a
ce
74
c3
e6
2a
3a
2f
6f
c0
e2
0d
48
7a
7a
f3
d4
2a
8f
27
c6
8f
c2
22
e7
39
1d
15
76
0c
e1
b5
ec
41
da
23
38
11
97
5b
2d
09
c5
e7
92
bc
ef
9d
02
e1
1b
14
43
70
39
fc
3d
1e
c7
e8
c1
5b
7e
fc
86
f0
eb
02
f7
d0
f2
14
73
f4
73
96
a8
54
73
3a
dc
fa
c1
65
db
82
53
c6
72
fa
01
17
5d
b7
c8
ce
26
36
ee
be
c5
66
ad
75
f5
4b
11
4f
21
f0
b3
cf
69
75
90
e1
08
c4
b2
40
27
dc
de
d6
74
a6
b1
32
51
cb
2c
62
a6
c1
1c
65
13
09
1e
9a
be
a4
fd
10
1c
4e
1a
12
9d
a1
eb
95
82
99
1a
a9
b3
85
ac
1c
08
0a
0d
80
7e
ca
3b
fa
44
b0
22
b3
9d
24
59
ba
54
df
ff
8f
15
54
5c
29
00
fc
dc
01
42
5b
88
f4
16
41
0b
65
5a
e3
5a
6f
fb
74
ce
bb
0f
34
4a
dd
5b
c7
18
f4
eb
2b
98
5e
0c
de
72
c5
41
4e
e1
8d
f4
74
c8
14
13
23
b9
ab
80
04
01
ce
0f
c4
c3
d6
fa
e7
a0
bb
d7
b7
39
20
30
89
dd
1b
2d
02
43
e5
64
32
07
49
c5
6c
f4
7c
d4
bd
73
b8
d9
a0
a1
ff
bb
2e
07
f5
f6
bf
7e
25
ef
f2
a5
ee
05
07
34
51
70
cd
71
60
cc
93
a8
9e
ea
e7
11
4c
6c
12
b4
aa
60
0a
b6
06
be
1b
7d
20
14
37
ab
f3
e7
b1
6e
75
2c
ba
b4
29
e8
20
ce
eb
5d
4e
b2
59
c8
cb
35
01
df
ee
71
fb
67
61
29
3c
39
b4
fd
19
eb
dc
af
ee
b3
0a
42
22
b8
ec
57
26
43
f7
9d
8c
52
fa
78
9b
92
1d
e7
f3
71
9d
39
4c
6e
1c
3b
da
c3
19
93
c6
3d
50
ea
37
74
63
4f
1c
19
fe
c2
49
13
27
95
dd
85
2f
58
d8
19
98
6c
98
f2
06
7b
0f
43
e8
e6
87
de
41
26
08
af
ea
09
6d
ea
78
ab
e8
d6
7c
af
0b
16
e4
7d
8c
cd
d6
35
0f
0a
3d
7d
c0
36
e2
ff
ad
7f
3b
cb
d0
ff
b3
6e
eb
34
ff
07
d1
16
d5
94
0d
77
b0
08
81
0d
f9
52
df
f2
eb
58
ee
04
16
19
97
04
f0
c6
e3
60
f7
13
b1
cd
cf
b1
16
5d
10
f4
d6
8c
fe
c6
29
f3
fb
15
43
bc
94
dd
27
79
30
01
65
2a
35
4e
08
de
ee
2d
0c
41
60
c2
0d
d2
ee
93
ea
af
d3
6f
56
48
02
f5
2c
76
ba
6a
56
12
6c
cc
e2
70
60
57
02
aa
a3
8e
12
d1
c0
bb
ff
d9
1b
05
15
ed
c7
9b
cc
82
e2
22
2e
35
a6
0c
14
fb
36
02
cd
30
0d
32
11
3f
0f
79
bd
4d
1d
e3
ee
07
d5
b8
ed
f0
43
bb
ed
43
57
03
f5
bb
ec
28
28
e1
32
01
35
a4
38
62
ef
d8
99
9f
83
06
af
35
d2
e1
ab
33
4f
fc
12
ec
db
17
89
d8
9f
7f
16
7a
37
0f
fd
36
d9
32
2a
c6
1e
3f
5a
c5
8f
f1
db
e5
ef
17
22
dc
05
f6
46
ff
50
de
83
e3
f7
31
31
1b
de
e6
56
47
60
c1
24
ea
f9
13
f1
d5
d0
f6
2a
55
95
15
1e
43
12
17
dc
bb
ec
b6
ed
ed
1c
25
c3
f8
7a
b5
a5
25
3c
21
1f
35
66
33
47
37
27
27
eb
02
7d
bc
ac
e8
b3
98
53
cf
27
0d
56
3e
ee
25
cd
0b
be
b1
1c
27
27
e3
19
fe
1d
22
42
f2
46
e2
8f
3b
72
40
70
ac
49
e2
d2
01
c3
07
16
ab
1a
0b
5c
05
cb
41
2e
2e
02
25
e2
48
f2
3b
0a
12
f1
6a
08
c6
f9
1a
ff
06
fa
0b
f2
43
ac
e5
af
e6
05
2b
c2
6a
03
1c
db
f3
29
79
c0
f9
f0
b9
d5
e6
f5
2a
fb
bb
9d
55
39
16
1e
f7
94
1d
b0
dc
f1
c1
96
66
ce
d3
53
f2
e6
de
06
d6
25
5e
04
80
22
f9
bf
c6
28
a5
0c
11
21
19
c5
20
0f
93
2b
db
af
4a
60
ca
4a
25
90
ac
10
6f
dd
71
c8
ad
28
d7
b8
5d
3e
43
01
2f
ad
11
c3
c0
e1
2f
23
e0
03
08
2f
d0
65
18
f4
39
48
13
29
ab
03
bb
10
4a
db
cf
e6
a0
ad
b0
30
05
be
f7
c4
c6
f2
e0
b8
d0
98
93
3a
fa
d5
06
fc
0c
a7
cc
d7
d9
d9
0a
db
d6
96
b0
04
12
c9
aa
f2
11
dd
12
85
df
bd
3e
5a
fb
c2
09
0c
d1
da
09
15
d9
c8
e5
1a
e4
1f
5e
44
e8
2d
52
65
b6
18
53
28
e7
b3
17
ba
0d
00
64
2c
2d
d6
d3
04
10
b3
f0
20
bb
09
07
99
64
02
c2
d2
b5
da
71
da
15
62
56
0a
51
76
9a
4f
14
f5
16
26
0f
9f
f4
db
13
c4
af
5b
72
5b
40
44
b5
4f
4e
4f
db
e6
2f
03
30
4b
c6
f2
3d
0c
c3
b4
fb
4f
ff
04
ff
2d
57
4e
04
ea
66
ed
c5
03
ec
9a
69
38
d5
d9
dd
35
c4
ab
d9
b9
b8
52
d6
3e
dc
e7
ac
ae
fe
49
d2
a8
1e
55
65
17
e5
ba
f8
1a
ea
f5
ee
c6
b6
44
bb
c3
a5
cb
4a
b3
cd
21
8a
ba
73
08
ff
17
ee
db
e3
8c
02
15
5e
3b
78
2c
b2
ff
47
fc
d3
40
a2
aa
0b
d1
e6
36
61
ad
68
fc
c0
7a
93
c2
e1
37
77
23
89
08
25
2e
b9
02
05
d1
36
e4
56
c0
b7
fb
93
99
f6
dc
af
12
