22
94
3e
d3
25
d7
c9
3b
fc
33
d4
0e
0e
08
1c
0b
1e
e8
0c
1d
fc
f1
fa
81
1a
c2
fa
42
c4
01
cc
5c
cd
70
da
f2
f4
cb
1d
df
e7
3f
e4
c0
11
cf
6f
07
26
1f
26
f3
99
e5
05
eb
e6
e3
e8
a6
c9
10
ce
60
ff
2b
07
f9
cf
e8
da
f5
0e
25
1b
0d
2a
e1
cc
90
bc
d6
1a
08
0c
dd
26
08
1c
e0
e1
24
48
02
f4
01
41
19
4a
e0
10
d6
c9
b4
e0
7f
64
b8
b3
3a
34
a8
d7
00
11
15
3a
c4
45
ea
d1
e4
3a
1c
f5
1d
a4
f1
d1
49
54
3b
5c
00
0d
4a
d6
03
19
35
63
9c
22
59
30
2e
bd
fb
1d
40
f4
05
e7
e6
eb
31
d6
bb
e4
06
23
f5
ec
27
37
bb
81
03
24
60
ee
e3
d5
59
e6
51
f5
db
3e
c6
04
48
05
b8
09
db
21
15
22
ff
12
f9
f2
00
33
55
01
ea
01
5b
11
fb
18
b2
05
eb
28
26
c7
f0
2f
23
b2
88
56
35
b9
10
60
29
dd
08
10
f9
98
29
10
30
24
f7
3e
07
37
0e
f1
17
44
d7
49
13
09
45
44
7f
7d
0a
a2
43
39
af
6e
15
c7
06
ef
f1
ab
e7
fd
2d
00
0e
11
b2
2d
fb
db
04
35
2a
10
04
c3
f9
b8
d4
21
cc
39
1f
d8
fe
dc
76
ec
00
12
1e
ee
01
fe
1a
d0
38
d2
01
08
49
d9
f0
d1
b6
54
f3
d5
ab
c7
ba
39
17
d8
db
f2
af
e6
f4
fc
fd
7f
37
cb
ba
45
fd
10
f6
40
7f
12
11
d9
3a
23
c4
16
de
33
03
ce
b0
08
51
13
33
d1
dd
47
ab
f9
cc
fe
9a
2b
93
bb
f3
1b
05
fd
e6
8b
36
e1
16
14
dc
19
ec
f7
02
d9
c9
62
07
31
07
06
bd
df
e2
1e
13
1a
fa
05
14
08
cb
e7
00
e4
26
d1
f7
e9
07
81
05
f3
49
1f
06
eb
f8
11
d4
01
d9
0a
4d
b9
f5
17
e5
fa
2a
a4
fa
31
20
d4
da
5a
d7
f2
27
3a
0b
b1
03
f3
1d
e5
ec
ea
07
11
ce
05
03
31
05
51
17
d5
02
32
ef
cc
25
16
e9
02
a8
1d
b9
e6
47
2a
44
f0
07
cd
3d
57
e4
21
c4
3e
64
1d
31
cb
57
e6
27
ed
06
df
d7
1c
47
de
c9
03
d8
ff
e3
94
43
6e
51
6e
14
15
d3
ca
11
24
81
0c
55
c3
34
bb
0c
90
15
e7
dc
1f
53
a1
19
df
15
0b
f7
f7
f2
a4
24
35
ee
29
1a
16
c0
6b
bc
b6
cb
09
23
df
f6
1e
f5
bc
87
cc
23
cc
24
c1
33
39
0d
f4
ca
1e
3d
5e
33
33
16
2a
57
7f
c7
e2
6d
00
f1
5b
f0
58
44
19
b6
d5
f8
29
67
d2
37
6c
59
25
3e
dc
0c
83
26
f9
d3
f3
1e
2a
3d
26
e9
40
08
f9
1e
85
05
f4
8d
22
01
c2
f6
9d
3a
4f
f6
3c
e8
f4
db
aa
25
37
10
bd
a7
3b
e9
62
04
11
24
fa
c7
e4
0b
4c
45
11
39
fc
d5
37
52
81
3b
04
fb
53
70
32
3d
81
f1
09
7a
03
b6
91
fe
ad
45
dc
2d
03
2b
36
3c
fc
b2
8a
e2
04
5b
19
0a
05
ec
08
36
de
22
06
0f
17
f7
e0
45
f3
e4
f6
bc
3d
88
e8
01
bb
fc
06
17
40
e5
1d
11
35
25
d5
f6
19
1f
a4
e7
e6
d3
69
83
e3
51
e4
b0
39
0a
db
d2
5b
fa
07
f9
d6
11
1c
aa
d8
e5
98
59
e8
57
cb
d2
c0
81
c5
b0
43
4f
55
d2
f4
2d
df
d4
cb
0f
29
1f
e8
45
01
51
19
1b
f0
92
2c
f6
1d
16
18
e5
c5
02
3f
e3
99
27
30
b3
1d
25
d8
3c
15
d6
73
c9
dd
2d
0f
e7
f1
c7
0f
16
04
ee
32
5c
d3
ff
d5
9d
47
f7
fd
a4
e3
1a
b2
0a
de
fb
d2
c1
bb
1b
b1
28
52
23
73
4d
1f
07
19
0e
08
d8
07
2d
a4
c0
f3
d4
c4
29
81
eb
b3
00
2c
fe
e2
42
f5
13
da
01
3b
24
17
ad
0f
b1
d5
40
af
f0
4e
59
0b
b5
44
da
57
15
47
ef
24
dc
0d
2e
07
37
4b
25
81
04
d8
31
f0
ac
3d
44
f8
b6
fe
f5
2a
09
23
05
0f
9b
5d
af
d2
04
00
25
bb
dc
f0
14
e1
d4
31
dd
37
ef
70
ff
3a
22
eb
44
19
d2
21
0d
c0
13
17
f5
1c
61
c6
32
d3
d4
10
d2
c2
e5
ef
3b
20
02
f5
90
1a
ba
e0
e1
b6
41
19
d8
68
06
cc
c5
ca
73
fc
db
ea
25
da
7f
19
0f
e9
46
e1
2e
54
f8
3a
e1
5f
06
fa
77
17
f1
1d
0f
52
f8
34
28
43
b1
97
f8
d8
dc
26
e9
16
08
1c
16
d6
c3
00
81
f6
cc
09
32
19
f7
ee
c3
23
9d
d6
31
c8
c9
6f
49
bd
f1
d9
1c
d9
df
eb
10
1b
f1
17
21
97
ed
c0
a5
f1
cb
b3
fb
c5
c8
04
d3
00
f4
22
74
ae
38
25
43
c6
e3
c1
fb
f3
10
e8
3b
02
4c
c8
2d
55
1d
8c
31
db
e2
c1
e4
d3
ea
58
b0
21
f9
08
13
c9
35
dd
42
06
81
0c
42
63
dd
66
e6
34
0b
fd
52
3b
bf
fc
42
d8
44
c8
57
f1
d6
0d
40
11
d8
e4
98
fd
10
15
06
13
ce
15
af
67
04
1f
bc
ec
44
06
40
d1
a4
10
af
af
34
f6
17
f4
fb
f9
e6
05
43
7f
fa
05
fb
d5
1e
18
ea
dd
0d
fb
e5
f1
05
10
34
eb
24
ce
ce
cd
03
f4
ba
fd
9e
d7
12
3d
e5
06
de
28
f5
3e
f1
6e
f9
bf
cc
2f
01
f3
ed
1f
ee
ea
ee
0a
8a
f6
5a
4e
e1
c3
e5
bf
b4
99
03
0a
f3
c9
18
e6
51
de
15
0a
7f
50
e3
1c
05
98
f6
0d
18
e6
bd
f5
f3
c3
27
e9
fd
07
0c
22
25
c0
05
fc
ee
2f
d2
54
a3
8a
ca
be
8d
fa
ba
f4
de
16
a0
02
00
ea
dc
d4
79
6c
62
04
21
35
2b
4e
4c
87
81
d3
d6
01
1f
1b
36
a8
ea
d1
4c
61
b8
14
1f
3f
7a
db
c9
e4
d9
d5
34
39
08
fe
c9
c5
92
09
5f
b1
1a
55
22
3e
e9
d6
2f
19
07
1b
de
ef
0d
e3
0a
ed
03
dd
36
1d
04
0c
c8
29
ad
35
f0
ee
cb
72
2d
58
07
05
15
22
23
30
d4
af
55
19
81
d5
25
c8
e8
02
07
df
1d
1e
08
fe
57
f8
bf
0e
94
e9
29
e6
f1
b0
c6
16
01
03
58
2b
23
54
de
ca
f3
5c
07
03
c6
0d
c2
de
cd
fd
0b
2f
e4
a4
f4
18
f1
d6
ae
21
24
52
1c
f9
dd
06
f0
0e
dc
f3
c3
09
de
31
bc
2f
81
57
d5
27
f3
f1
0c
19
37
fc
10
68
d5
46
df
d2
fb
0c
14
e3
40
e7
14
e7
35
32
07
19
2e
36
cc
d1
d1
46
19
17
ee
35
df
cf
0a
29
f0
0d
0b
18
2f
0e
f9
f3
e6
13
2d
f7
e7
09
f9
e6
49
fd
ba
05
ee
40
e9
a9
7f
f9
d7
4c
e5
f4
c6
dc
02
71
0f
fc
c5
07
08
e2
f3
f3
ce
fe
f6
fd
ec
2d
f0
e4
eb
f5
d6
7f
ce
04
05
3d
3c
f4
fa
0d
c9
1c
0d
fa
15
d4
20
f2
c3
37
07
e2
e2
f5
d7
1f
1e
0b
24
f1
f1
e3
10
ff
dd
f2
0e
13
d5
12
df
17
08
cd
ef
0f
d9
32
0e
ef
3b
5f
62
2f
fe
26
db
9f
3a
13
f2
f7
ec
f6
00
14
11
4d
e1
60
5a
cf
ee
95
f2
03
0f
f8
dd
e3
15
f2
13
0e
a4
39
de
39
27
f5
38
4c
bb
0e
08
b2
81
12
a2
e5
11
d7
33
aa
e4
1f
24
cf
51
30
1d
07
1f
f6
ef
25
da
03
09
f7
e2
7f
e8
1d
d7
fc
08
e2
24
24
0e
e3
c2
d5
3b
66
36
b7
45
e7
17
25
de
14
fc
c9
fe
23
19
ff
21
2d
18
fd
fe
67
d0
c4
08
f6
f8
02
c0
25
d7
2c
fd
0d
f8
08
fd
bd
11
04
b2
1d
03
9c
fb
34
bd
23
36
a2
d8
98
c2
c5
12
56
4d
21
3a
d5
31
29
d7
f6
f0
e9
a2
28
27
03
26
52
e3
24
1b
be
20
0f
7f
41
db
2d
3c
d6
73
4f
f0
1a
b9
07
4f
e8
af
2d
3e
4a
ef
27
b3
24
0e
1e
15
c6
06
14
ad
ef
31
42
fb
09
37
19
bf
17
fd
ff
ea
2a
b5
d9
df
15
10
a4
14
81
fd
2b
f6
dd
d6
fb
ee
f2
45
d8
f6
22
13
2d
cd
0d
fa
00
02
0b
a6
e5
fd
a1
20
55
f9
5f
f8
be
f3
39
1c
b1
3e
27
1d
1b
c3
13
f3
ff
65
fd
bd
f6
c5
81
4f
06
f7
9e
03
10
c4
0d
13
4e
51
4b
68
25
de
e5
df
1d
db
e9
10
d0
0e
ff
ea
06
1a
3a
1d
47
8c
29
a4
b1
41
dc
02
4f
21
fb
24
f1
dc
af
2c
f2
fc
db
05
20
51
d3
34
1b
00
2c
13
ed
2f
34
33
ff
e2
81
71
e1
e9
0b
c8
ff
ff
e6
6f
cb
21
21
d2
17
25
cc
d0
d4
98
4e
2e
c4
22
0a
30
17
15
f7
e2
ed
3b
ca
e2
d6
d3
62
06
01
07
c3
cb
b7
08
2b
cf
05
e0
fa
ea
64
e7
dd
48
3b
1d
29
f3
c6
e9
35
81
3c
25
6a
e5
2a
fa
15
4e
02
6c
3c
eb
e8
aa
30
f5
c1
b0
51
25
24
3c
f2
d1
5a
19
f1
36
f0
58
00
1c
fc
bf
2a
01
93
e4
e0
49
ec
2c
05
f9
54
c1
cb
fc
42
c1
29
32
ad
f6
d7
d9
bc
aa
13
19
14
e3
cc
fd
27
c6
3f
fa
d3
fd
27
2c
27
1f
44
fb
35
fd
33
30
d5
ca
5a
69
e9
26
ab
db
01
f6
f4
ec
07
08
3f
4d
ce
b9
ef
0f
c1
08
d0
f7
2d
1b
7f
06
18
f7
15
14
05
c2
50
22
ce
1c
29
de
cd
e4
b1
f2
fe
be
0f
f6
cc
20
ff
00
11
47
04
e8
06
02
fa
cb
0d
d9
40
2f
95
ee
12
de
fb
df
fc
d3
d9
1e
2e
7f
f9
df
30
d2
d6
1a
fe
2b
d1
ee
1c
af
cf
f8
20
23
12
e7
cd
08
fb
01
c5
f3
52
3b
39
16
cc
d3
c2
32
48
24
02
e7
bc
1a
ef
19
14
59
b8
d2
f7
d7
01
06
47
e7
08
57
d3
03
b0
23
e1
11
00
00
e5
68
db
14
81
23
36
fe
fc
3a
1d
e9
e6
ad
d7
c7
3e
33
3f
e4
cd
01
0e
2a
b2
05
24
20
f2
d7
17
fa
38
fe
25
1d
e7
06
1a
f7
f2
0d
d7
22
e5
1e
58
d5
c6
fd
0b
20
02
08
01
0a
dd
22
1e
7f
f9
de
ef
17
ee
3c
b8
4d
e5
f4
c2
a9
06
bb
05
3c
cd
5b
ad
00
29
c2
f9
f1
4a
e5
05
03
e6
17
f0
d6
a9
04
34
26
29
05
d8
d8
fb
df
0d
3d
34
db
e5
c6
10
cd
0e
e7
36
e2
06
c6
3f
fc
1d
0a
69
ff
d5
c7
20
d6
0b
18
12
db
95
d3
ca
fc
c5
ef
1c
53
f6
3c
dd
0d
04
00
f7
27
6c
f7
2c
ce
fb
4d
bc
6a
ea
f6
c9
3b
81
60
d2
9b
e9
fe
03
f4
fe
1c
bb
c8
a9
2b
e5
bf
7f
2b
33
2c
2e
07
f8
1d
3b
e4
cf
92
08
03
02
ec
13
05
f6
56
f2
6d
ef
01
40
27
f5
0e
d8
e4
26
d4
04
f9
33
19
19
cc
d8
d1
f5
f3
d5
ee
b5
14
c8
42
0e
02
ed
ce
8a
f7
c6
e0
1f
f2
e9
fc
cf
08
f6
04
bf
22
ea
0d
eb
d4
2b
d8
11
fe
3b
6f
09
f4
04
ec
ea
15
ed
eb
77
a2
25
3e
24
e7
21
b7
09
15
ce
24
a0
f5
35
b3
ac
48
05
39
fc
0c
7f
aa
6d
ef
cd
14
cc
d5
d9
fd
f4
42
bf
0e
ce
97
f3
b4
13
13
fb
d1
0b
47
22
72
0d
15
57
e7
b0
16
6a
46
10
fd
24
dc
1f
fe
ef
12
a4
7f
19
f5
e0
62
ae
63
c4
ec
16
4b
c9
fd
9d
c6
30
be
18
98
04
0c
91
aa
d7
08
66
07
cd
b6
29
20
2c
5c
59
4e
1a
ed
3f
4b
b3
3e
1e
fe
ae
39
16
f7
b6
c2
73
eb
43
12
9e
5d
3c
eb
4e
34
da
dc
d2
23
04
0a
bd
db
ce
e6
b4
f1
db
21
fe
16
f4
ef
d4
95
ba
82
4e
c9
f0
f9
3d
98
e2
18
62
09
81
d3
fa
2a
32
e8
0f
c5
09
b6
26
a6
b3
02
f2
8c
6d
19
9c
e9
c7
9c
d1
13
27
1d
1b
d9
30
d8
bb
36
f4
63
23
c6
dd
d8
0b
ec
da
ea
86
bb
1a
4a
e6
03
fc
a6
fb
81
c7
bf
d7
ff
fe
4d
f7
d7
00
f4
1c
2b
3d
a3
37
0f
d6
f7
03
5e
19
25
c8
0c
df
05
44
48
11
36
f8
e7
ec
f1
12
e2
df
c1
c5
e4
4c
54
df
11
f0
14
bf
1c
fd
c3
26
cc
d0
ca
b0
1a
2f
e4
e2
16
2a
ee
a3
27
ad
cd
3a
19
1a
34
2e
58
15
56
e5
ea
e2
06
f4
e0
81
3b
f6
49
f3
fb
08
d1
15
f1
0f
41
cb
20
d8
57
27
0b
cd
0c
0c
44
28
59
05
05
16
f1
4d
b6
f2
30
a4
3f
81
35
f8
d9
21
d7
d1
db
4a
2b
a9
10
f6
25
10
99
13
ec
13
db
e1
25
25
01
40
f7
04
ef
bc
85
2d
d8
3a
49
4d
0f
6d
34
db
02
c4
a8
06
07
f7
14
40
eb
10
13
cf
02
d4
6e
e3
e4
e9
2a
0f
cd
1a
1b
f4
7f
20
2a
22
fd
2b
c2
1b
de
02
d5
dd
4e
dd
f2
58
e1
d2
08
cd
cf
34
35
44
d5
cd
f1
be
f4
40
0b
05
12
a5
63
18
1e
06
c0
d3
0a
10
15
15
e3
13
cc
f6
ed
e3
d8
c8
22
61
d6
f8
36
d2
d2
d4
05
d7
1d
2b
44
aa
e8
0d
cd
ac
81
e8
c2
1a
0f
1a
c1
00
1b
25
2d
0b
d2
12
e8
2b
23
30
11
f0
3b
ba
0d
36
f5
13
26
c5
36
0f
00
08
e0
e3
f2
03
7f
56
e9
31
0e
26
35
21
0a
f4
fc
14
3f
fc
4f
e3
2b
16
ff
fe
23
32
06
37
18
e8
e2
5e
a8
06
4b
02
05
d4
11
f6
ec
b1
e1
f5
f6
ec
43
18
d1
43
1b
5b
dc
10
ca
d7
f8
3a
0e
b6
ef
10
f0
fe
f2
1d
eb
19
31
34
02
dd
0b
38
e8
e2
0c
ed
f0
f0
38
dc
fb
e4
1b
ff
f6
ef
ea
18
81
43
fd
ee
36
dc
d4
0f
04
1a
15
fb
ec
24
23
fd
d3
6a
f1
d4
38
0e
33
17
e1
2b
f7
1a
cc
f4
0c
05
fe
de
de
b4
dc
d2
4e
86
3b
00
bc
b2
4f
cc
7f
12
ff
37
5d
8d
de
c4
2c
33
4a
c9
e8
ce
fe
f6
1a
08
ef
08
15
d4
31
6b
1f
fc
e1
3d
fe
48
03
e9
23
fa
3e
f6
22
52
14
29
05
c5
69
4b
58
30
4c
b6
e8
63
27
e2
16
d3
f7
33
1f
2d
ff
d8
f5
03
e6
4d
be
e4
fd
d3
02
f7
15
81
b0
fa
07
ee
1b
0a
74
fb
09
e4
22
c8
58
57
e6
1d
e9
fa
14
f7
e0
66
14
4e
d2
40
df
bd
03
1d
0c
35
3a
e3
13
c1
f5
cf
a5
24
11
4c
ea
f4
f9
15
29
0e
e5
f6
ea
f6
d9
81
e8
e7
fa
bc
0e
dd
0c
1c
2d
18
82
42
ed
fe
a0
06
15
e2
4f
6f
1a
fc
03
ea
a6
4e
0f
ca
e5
c3
d7
ab
d2
3e
23
40
e1
d0
33
41
1b
1f
dc
21
03
ea
c5
fe
45
32
08
e2
f9
09
e0
cf
1b
f5
f1
e8
20
00
39
35
e5
f2
ed
f0
1a
33
ff
f5
29
fd
04
21
d4
f3
1c
f2
0e
3d
2b
15
02
53
19
cc
da
ec
40
df
27
0a
0a
09
10
e7
81
f4
d2
d9
0a
3b
16
e2
20
0b
fa
16
17
bf
d3
19
f3
f1
23
1a
36
1f
fe
45
13
a3
a5
d3
ea
65
dd
59
28
d3
31
97
4b
e4
01
eb
26
03
13
27
20
4b
f9
f2
c1
59
03
d8
e0
12
fd
ca
f9
2b
ef
98
0d
f2
d3
a2
94
4d
b4
b3
0b
e6
09
7f
02
3c
fc
51
f5
3f
94
39
b7
c7
2f
c7
f6
17
0c
12
22
e2
ec
04
15
01
fb
e9
32
e0
f4
ca
14
01
09
42
6e
09
fe
16
f7
28
2e
04
11
01
05
39
1e
30
36
73
11
25
26
29
e6
e9
12
f0
15
4d
40
26
0a
15
5d
d7
fa
03
14
28
ff
eb
fb
03
b5
7f
b9
d0
20
da
0b
19
f9
10
fd
ff
cf
e9
fd
3b
0f
b1
0c
29
e1
e3
fd
40
1d
2f
2a
7f
fd
df
36
04
1c
fd
0d
dd
20
0d
ef
f7
16
0c
06
dd
f6
ec
2a
dd
e5
cb
13
ed
ff
3b
2b
e7
e1
0c
f7
c1
f6
fd
28
fb
19
a2
1d
20
17
f9
3a
10
03
1a
ff
f4
cd
36
11
27
cf
26
f5
ec
26
45
e2
f4
cc
22
46
d8
23
e7
f9
09
21
25
67
bd
10
37
7f
d7
3c
fb
f9
3a
25
8e
f9
10
11
ea
29
10
b8
0a
e9
14
09
14
21
6e
4a
15
eb
16
ca
0f
e7
e7
ce
09
1a
db
fc
23
ca
f4
9b
19
1c
09
f7
02
4a
35
ff
ce
bd
10
44
e7
81
9a
d4
34
f7
ee
d5
92
09
b5
49
0b
29
1a
30
0b
0c
d2
e8
f8
f6
de
0d
f6
c2
fa
25
ed
e6
05
11
ed
12
43
f0
ee
5a
e3
16
fd
1d
cc
21
e0
3c
7f
fe
12
dd
1c
24
e0
13
e2
ec
03
fe
1d
37
67
30
d0
0a
ae
b3
5a
23
ee
c4
c5
c5
55
a7
ed
20
f6
05
d6
3f
2f
17
fe
fd
b3
01
18
fb
c2
31
10
f7
12
f0
01
2d
ff
c4
10
0b
cc
07
d6
17
64
e4
1b
f8
c9
e6
d6
0a
34
e9
02
ed
23
1d
dc
0c
f9
e2
1d
cf
1a
f4
f3
28
fd
0e
0a
ec
24
0f
17
c3
39
0f
21
16
2e
df
0b
f5
f9
e8
19
3c
04
d4
ef
19
54
7f
09
f8
fd
f6
15
27
f2
f7
fa
27
08
fb
f4
08
12
23
f4
ca
e8
0d
0e
0e
49
d4
1e
41
21
52
25
62
e1
4b
cc
e1
cb
13
f3
9d
67
1d
25
16
f7
90
e5
fe
81
1e
df
38
56
e0
10
a3
dd
3f
c5
a9
a1
46
0d
df
47
13
69
f3
cd
de
41
e5
dc
df
d7
e8
f4
18
e3
e1
3f
45
e2
62
df
0f
08
d3
d8
12
1c
8a
e0
40
19
41
3b
07
e2
e5
08
cc
da
00
2a
11
1a
7f
ee
f4
0e
28
12
ba
2a
27
ab
08
42
fd
d2
bf
ab
17
1b
e8
1a
c2
25
bd
01
19
fb
4c
26
12
e5
68
02
b4
f2
ac
11
23
41
1f
39
bc
09
2d
2e
06
5c
1d
07
dd
32
24
0e
eb
b1
e3
fc
e6
5d
08
07
0f
f2
f5
f4
f7
16
e8
04
2e
0b
c0
e6
11
fb
ff
d9
ad
04
ec
71
fb
f3
46
1f
ff
e7
ae
f2
23
db
f8
e5
bd
0f
19
26
da
0f
df
81
0f
be
0a
06
2c
e5
26
df
dc
de
06
fb
38
98
1d
ce
29
61
af
0d
ed
f6
03
fc
ec
e3
e5
2e
1c
e5
d2
31
d6
01
bd
e3
1a
f5
24
fe
1d
33
27
02
a7
c5
9a
25
17
4d
e2
bc
3c
d0
14
23
ec
f7
25
fa
14
0a
e7
f3
e6
81
10
c4
47
1a
db
ef
f4
10
de
23
ea
5d
e3
3d
a6
3f
e2
4b
d8
e3
30
05
c0
2c
f8
f4
1e
2d
99
2e
f9
59
52
39
a1
0a
7f
45
ea
1f
c9
11
ce
06
30
a5
3f
30
05
fa
fc
f1
51
ec
dc
6b
f0
ec
15
f6
fb
e8
42
cc
0e
5e
f7
f9
02
0c
35
6d
f2
f1
ea
16
c4
da
0e
54
05
e7
f6
92
ef
b4
71
ea
dd
05
6f
08
2b
17
af
36
28
98
e9
bf
3c
07
2d
fc
da
c3
20
81
2b
2c
e4
e5
17
e5
0a
9c
21
f5
0c
f9
fe
d0
07
20
db
1f
d8
dd
38
37
f4
