9e
be
52
84
12
eb
82
24
da
94
68
48
e6
17
e5
92
fd
23
fc
69
06
7e
7c
7c
f1
a5
87
98
f0
8a
55
81
53
6b
15
02
f8
08
0b
47
d3
99
4f
e2
d7
f1
58
41
e2
22
61
f7
29
01
2a
d2
41
7b
e4
80
8a
b8
9a
a9
12
06
47
10
25
32
b1
d5
65
74
36
ac
ad
73
21
23
76
45
e0
ea
0c
1e
3b
e9
18
4e
e0
de
dd
eb
32
de
65
6a
4c
01
37
f9
b2
bb
ec
6e
04
0a
ee
0a
fb
e3
0e
38
29
ff
8f
09
1c
1d
33
15
0c
25
47
f5
14
1f
e4
0c
1a
21
67
3f
54
01
4f
62
30
37
78
eb
ef
3f
c3
65
1c
8e
ea
bc
b3
57
a5
2f
1b
08
6c
d5
34
1e
a6
e2
76
5b
48
20
91
59
25
23
91
c0
49
29
62
de
f9
fb
e0
2d
2d
e9
8b
28
6e
e6
cd
ca
5f
22
3c
63
d7
a0
6e
97
e6
c3
03
90
7b
34
62
84
c9
f6
94
bc
ff
11
7b
44
8b
a6
53
bd
35
b8
9c
14
e4
f7
22
44
98
bb
d8
84
4d
3a
12
f6
0e
16
96
48
e4
bf
1a
7c
6f
62
a1
9c
f8
c9
71
df
ff
9f
51
56
89
31
f6
ff
aa
7a
0c
3e
01
6a
10
3e
15
d5
33
81
20
d4
c7
50
b1
66
7c
5b
44
21
ed
54
ee
36
19
42
1f
67
e5
34
3c
02
54
9e
ed
94
86
48
5f
19
30
fb
42
ef
67
79
41
a8
27
3b
14
7d
e2
df
ec
00
d1
56
02
04
e7
89
75
e1
72
f6
65
5b
36
cd
09
38
29
06
59
53
a8
97
cf
15
a9
ea
59
9b
9c
76
54
e9
7d
a2
2d
67
1d
ca
e2
a4
7e
a7
ce
d1
ca
3b
08
d1
30
d5
79
53
08
56
2f
66
0b
0c
1e
0a
df
d2
d2
c6
13
cf
01
02
cb
93
89
32
63
85
e3
2c
e9
48
1d
17
e4
43
84
f5
a9
85
09
40
da
b2
95
4a
37
47
ba
76
fc
c3
63
1a
91
c5
86
b2
2a
9a
fb
d9
16
11
7e
58
03
ff
bb
9b
f2
c1
ee
4b
2f
a7
5e
ff
54
ec
c6
d2
bf
ac
41
ac
0a
25
69
ce
58
94
79
01
d5
85
ad
be
35
5b
28
01
38
b6
35
82
16
bd
25
95
c7
ed
ff
f8
68
cc
c2
45
5c
7e
3a
e1
c2
b2
f0
ca
34
d6
0f
7e
a9
29
1f
30
b9
34
2c
cf
d9
69
ff
44
44
2f
73
0f
e8
2b
2c
c9
40
9b
ac
d6
01
8b
6f
5d
6a
1b
a4
54
75
b8
f5
07
74
ce
0c
3b
30
87
f3
aa
68
34
03
01
f0
1c
bb
0f
75
c9
01
03
97
a1
c5
66
1c
69
ca
20
de
bb
d7
a6
ec
15
97
72
35
e6
a1
13
8f
67
dc
e7
8d
bd
22
e9
13
da
ff
22
f7
e0
19
7a
7a
a7
19
3e
f1
4d
4c
8b
3d
b2
e7
a3
d8
1e
bd
34
22
4e
4e
6b
57
c2
af
ac
0d
48
4b
0b
9d
59
18
51
05
4a
15
22
c8
cb
ac
87
4d
f2
7e
1c
3f
b1
f0
5c
11
25
33
ce
6d
0d
6a
83
fe
50
c4
e5
f8
a9
46
d2
f8
04
28
a7
46
4e
3e
41
3b
57
b8
e4
6d
b2
b4
92
5d
54
f0
f0
91
dd
dc
83
f4
f3
cf
8d
4c
bd
0d
9c
ed
01
f3
ae
7c
32
d9
12
77
5b
dd
49
fd
0a
e4
a7
8d
ee
60
95
e9
17
48
57
09
eb
f1
99
88
ce
fb
e9
83
bf
c2
b8
40
2e
df
1b
35
49
b7
80
3f
f4
6b
b7
53
65
e6
a3
d4
69
87
4d
29
a2
01
f5
92
9d
53
6c
30
4d
36
3d
6e
64
ec
3f
4d
91
20
ef
67
f8
c3
3b
0c
c2
fe
93
9c
b9
cc
de
77
5c
4b
94
4c
d9
9f
7b
ab
00
5c
b1
8f
0f
06
bf
6f
a8
6e
d6
d5
1c
1a
08
15
16
ee
2e
59
e0
d6
d9
72
83
43
8f
03
c5
a3
02
79
82
01
fd
34
50
1e
2d
24
72
4a
a9
d8
c2
bc
f4
a8
3a
94
c5
80
9a
c1
89
fb
bb
06
a1
b4
54
7f
41
74
e5
40
d9
27
35
8c
04
9c
8e
d2
13
27
10
b3
aa
5d
31
0f
eb
a6
f3
24
6f
b2
b8
26
34
ff
ac
a7
58
e0
99
52
8b
c9
d6
08
f2
84
99
5a
45
1b
61
f9
08
bc
db
98
97
63
27
6a
5f
7b
ee
f4
9d
2b
e7
ec
5d
5e
96
5d
d6
6b
a3
3e
3a
d0
bf
f0
98
96
21
04
3a
7c
38
62
f5
09
8b
f9
bf
ef
6b
93
7e
a9
56
29
c3
59
1a
ff
20
ec
92
a9
b1
31
15
47
88
a2
a5
93
44
42
d2
52
9d
f6
0e
8b
90
6b
11
13
b5
ee
5a
80
cd
b2
1c
48
32
cb
2b
1c
f6
8e
ff
be
05
a1
10
f1
39
ee
50
d4
b6
d7
c5
1b
fe
48
52
0d
78
22
75
86
26
67
bc
b1
a2
c6
02
52
83
56
0a
00
51
c3
00
ff
a5
ce
7d
cb
0e
e9
9d
a0
c6
a8
bd
77
f3
d5
ea
33
f8
ff
a2
ca
df
c1
4b
59
30
eb
9d
33
80
03
00
ba
fb
ec
9f
45
cf
da
35
14
2d
20
98
09
cd
4f
29
4e
d5
e7
e6
d9
7d
06
2d
0d
ce
65
46
39
77
9e
3d
92
81
21
29
f0
01
05
25
4d
14
28
49
aa
3e
ce
99
d3
47
7e
0c
3c
f4
0c
34
bc
0b
ed
4e
67
7e
fd
f4
50
fe
12
9f
b8
bb
28
d4
85
52
0c
5c
1a
bc
a7
91
51
1c
68
df
f9
48
c4
ea
5c
3a
ab
ec
ae
7b
2c
5b
43
ff
aa
f7
07
96
fa
e3
74
b1
b4
2e
30
2e
5b
de
3c
0d
20
22
84
ab
29
ce
41
bd
27
58
d2
f7
12
f5
ba
91
a4
0a
9a
d0
ee
4d
09
ec
15
0d
36
77
de
a9
ce
16
fe
e7
60
1d
61
80
01
00
61
f7
7f
ae
86
3c
06
a0
1d
28
4e
97
73
e4
df
43
ef
f6
ce
6e
dc
bf
30
9e
15
54
3a
c7
39
36
31
6e
65
01
41
74
d1
64
97
45
ba
a7
25
0f
bf
51
9a
d6
af
ea
8d
18
06
5a
15
e3
52
3f
68
38
5c
7b
6a
a0
67
5f
e8
3c
a2
d9
2e
86
b0
5a
c4
ab
cb
ff
b9
ef
63
69
85
b3
87
cc
14
42
88
3f
cf
37
cf
67
8f
45
55
ec
30
ce
f1
81
af
da
a5
56
51
d0
65
5b
2a
63
1d
c3
d6
38
48
17
ba
2e
c8
4d
ff
bb
0a
1f
40
25
29
25
f4
a4
44
16
d2
0b
ca
4d
df
48
80
92
6b
01
8a
d4
2b
1d
a5
b6
8a
e0
4d
48
48
bd
e3
01
0c
06
0b
d8
52
77
fc
1f
74
16
89
f9
7c
08
19
de
22
03
8e
59
d9
ea
0c
47
ab
ba
0c
51
68
1e
ee
a7
8e
14
40
f1
f4
86
0c
15
ff
e4
f3
3e
a2
2e
78
be
f7
d5
e2
bf
b3
d4
37
4e
f0
ec
7c
7e
be
ef
17
be
13
53
dd
e0
15
86
82
3c
38
12
4f
28
06
1f
d3
2f
f8
52
e2
c9
90
2f
d7
19
c4
ec
51
77
b5
fb
51
85
d7
1b
13
3f
f9
7c
f1
9e
35
12
c4
9b
02
01
33
2c
b8
f4
cf
2b
0d
8b
f8
b9
10
fe
98
3e
1b
3d
10
c3
4a
25
11
5c
d2
fb
fe
2c
b9
bf
31
1c
ec
5c
e6
92
cb
ec
ed
87
70
f1
b0
41
93
1f
66
af
28
e4
85
d8
8f
25
72
cd
c1
9b
bf
01
59
84
25
bb
8b
f6
2a
be
ae
e0
e9
dd
48
b7
0f
e8
2f
a2
36
b6
f7
4f
51
e1
bb
33
f5
cd
28
87
c8
c9
64
eb
b0
f8
dd
53
2b
dd
7f
85
12
cc
e2
91
07
c0
f9
8b
10
5d
92
70
8b
7b
71
de
96
9f
b4
0c
93
13
76
ab
01
9c
3e
e8
bd
46
ea
c8
00
7e
f2
78
3e
30
81
51
a5
01
1b
b7
05
ef
5a
f0
72
5a
1a
09
39
52
3b
39
ea
fe
f4
94
19
36
37
46
d1
b5
22
e0
ab
00
9e
24
ad
e0
57
96
44
07
3f
b5
83
1d
5d
f2
bb
c4
91
78
4d
fd
c9
6c
d9
3c
31
a3
b5
bc
b3
6a
fc
fb
a2
e7
f1
5b
72
b5
1b
22
48
d2
f7
01
3d
f2
bd
cd
d3
5c
9f
8e
fd
e9
f9
73
17
41
c6
9d
fd
a5
ee
ac
f6
4f
a3
45
b3
8f
96
f6
5a
fd
95
51
67
1b
83
98
91
59
88
84
2e
91
be
86
9c
ab
c3
29
00
49
39
06
d3
b1
f4
f7
32
54
eb
57
59
d6
52
3a
e4
14
e6
b0
91
ff
cb
b0
c7
6a
14
f7
f2
b8
b9
62
1b
99
e3
5b
15
b3
ec
dd
ed
f0
a0
79
2f
c3
4d
9a
08
4d
1d
ff
4d
90
a0
1d
b6
30
7b
de
f9
93
2f
1b
f3
48
b7
ff
fc
bf
c0
ea
cf
15
77
d4
da
a2
c1
9b
58
b0
1c
fb
a3
98
3b
c0
0b
d2
07
00
18
ce
24
4f
b5
41
54
c8
ac
4b
55
5a
e2
c0
4c
17
fa
d4
f5
b3
8d
14
b7
18
49
ec
18
f6
85
e2
71
58
a4
1a
dd
33
76
b1
71
fd
67
d2
2f
42
4b
a3
46
35
5a
2c
56
4e
97
88
11
03
90
a9
4e
81
bc
e8
a0
7b
f8
84
ca
66
cd
01
06
61
09
4f
ef
33
a5
65
18
7a
8e
65
28
48
2f
91
dc
81
e6
e3
32
a3
33
8a
64
4e
0d
1b
3b
11
1d
21
0f
27
9f
cf
08
3d
59
26
a4
be
2b
2f
01
d5
da
1e
40
d7
7b
61
2e
e2
9a
9c
da
33
ce
eb
b5
b8
b6
cc
ab
32
e8
12
4f
7f
15
fc
2b
19
c6
46
d1
c6
cf
82
79
82
e0
5b
dc
03
a6
10
61
37
70
5a
ca
0e
54
cb
43
7d
2b
8e
2a
c4
06
f3
f5
bb
b3
1f
a5
10
5f
39
89
2f
49
38
89
42
5a
af
53
9a
38
d4
28
46
ae
8e
7b
ff
10
d0
0f
89
11
bc
64
e2
55
da
b0
ee
63
ef
dd
9b
7d
e4
94
e7
01
4f
0a
63
ca
04
6b
38
ff
8f
53
25
ee
ee
57
16
e4
7b
e1
3c
01
f9
2d
a2
73
39
67
ca
d9
33
7e
dd
8a
f4
64
90
22
cf
0a
2f
21
d3
76
8f
0b
89
61
b2
6f
82
d2
6b
62
61
ea
9f
81
b5
15
0d
cc
09
ba
23
a6
c7
10
3b
ef
16
e3
a2
3d
85
16
53
89
c5
5b
2f
46
1b
85
00
3a
f1
96
25
36
f8
88
ea
82
dc
16
cf
6e
4c
70
45
ee
22
d4
26
de
a7
6b
37
32
ff
de
7d
65
03
ff
3b
53
50
f6
3d
da
9a
d6
a7
40
c4
ee
95
40
38
a7
26
ab
ff
51
78
3a
7d
15
b3
3b
9f
0f
38
eb
99
ce
75
39
09
ac
02
58
f3
15
db
5d
bc
f0
17
0c
95
b5
8a
39
a5
a4
c9
bf
7b
ff
fa
e6
c2
d3
6a
d6
73
0e
85
72
ce
e0
ee
2d
27
3b
d2
04
cd
48
3d
b1
77
df
43
ef
f4
b9
52
be
28
07
52
83
61
a9
ba
07
db
e4
87
a2
e1
f1
6b
6d
78
e0
20
5b
93
9a
4f
3d
4a
99
ca
d7
9c
20
e9
4c
92
0a
5d
ff
20
ef
04
7a
41
cb
96
1b
eb
08
b4
e2
54
0c
52
ff
fe
d2
54
1a
94
14
19
fc
16
5b
10
a0
d8
1e
18
d4
2c
82
e1
38
ec
eb
2b
cc
8f
96
18
7e
f8
ec
ee
9e
2e
da
38
30
16
25
87
dc
d8
bf
f4
7b
ee
5b
ff
e0
2f
07
50
eb
55
e7
fa
74
11
3d
eb
f8
d9
14
5a
5d
50
dd
a0
a2
9a
8a
26
94
d5
16
23
80
fc
fe
5d
e0
07
04
81
56
24
4b
31
42
c0
0c
f3
2e
15
11
e7
13
0f
d5
42
fc
f2
e8
d4
d1
8c
cf
99
28
f8
47
c5
9d
10
26
63
dc
43
01
25
c3
42
fb
73
62
2b
a5
b8
6d
05
b9
7f
3d
57
3e
32
ef
a6
73
96
d5
b7
02
2e
75
76
90
c1
9e
d9
18
e2
bf
85
75
99
fa
40
99
85
f3
44
df
72
62
d3
35
8f
cb
d1
4c
ff
d4
6f
a8
66
a8
75
85
69
df
6a
a3
25
b8
0f
a4
d7
7f
66
e9
6c
89
32
62
ff
cf
d1
59
8a
89
21
13
da
a9
d0
04
44
e6
09
d7
01
1d
fc
ed
33
6f
a0
3a
a2
3b
46
76
aa
dc
9c
86
e7
74
3c
24
be
45
d1
9e
d0
45
db
f0
79
fd
78
86
36
fa
43
e6
b3
35
27
1b
70
b8
9c
3d
d2
27
47
59
00
8e
f2
82
88
ff
38
fa
e0
08
87
41
f2
26
99
88
df
2b
e1
7f
50
52
7a
98
ec
ec
9c
07
5e
ea
28
60
f0
fe
b8
21
e0
44
94
84
05
56
8e
2c
55
34
8c
ed
c2
27
b5
13
26
b0
6f
bb
d2
32
cb
50
ca
a4
9b
32
a3
5b
8a
c9
2f
a7
f3
ff
f3
8d
71
01
97
90
38
4a
0b
ea
1a
27
4e
f7
4e
00
0e
bd
f6
34
52
b8
bf
03
f8
c1
5e
74
c8
7a
4d
e7
32
7e
e8
fc
ae
2b
35
f9
24
b2
43
23
ce
31
06
23
6f
32
c0
9a
86
70
1f
17
87
3a
40
23
ca
dd
44
e3
e8
a3
01
fd
67
a6
0b
3b
22
36
08
56
ba
11
5c
4f
84
10
b5
26
4a
19
e4
b9
2c
bb
81
e1
0b
59
1b
19
65
b3
b1
16
35
f3
0a
5b
fb
55
01
46
a7
9a
0d
b4
e1
dd
8f
dd
36
47
9b
a6
90
80
7d
13
2c
8f
cf
cd
47
84
b6
77
1f
5d
2a
ff
52
a9
c0
29
41
14
02
6d
00
c3
f7
d2
a2
41
2f
e0
3f
84
81
03
40
be
f2
ce
cb
ac
54
e6
f8
ed
ce
99
1d
3f
2e
25
ff
ea
3f
8b
7e
96
a7
40
2f
e0
85
0d
26
59
c3
19
12
08
be
b2
b3
7b
83
2f
38
bb
b9
1a
e3
de
42
44
0f
b4
a4
ae
55
d7
5d
fa
1e
cc
7f
84
6c
83
65
e9
93
3e
1e
55
ff
bc
1d
40
db
fb
a0
61
a5
5d
a7
fb
fd
6f
9e
2e
f5
5f
a9
14
26
cd
49
be
8a
46
69
3c
01
9a
11
57
ca
32
41
e8
14
74
64
27
f3
e6
bc
fd
e9
05
89
de
97
31
6c
6c
cd
dd
15
92
85
46
4e
e3
eb
5f
7d
d4
df
c2
bc
1e
3d
ff
eb
3f
98
0c
53
fe
2a
ff
61
3a
02
f4
f0
de
61
5f
36
d7
72
f3
43
5c
48
4c
ac
73
b0
3a
34
c5
be
03
82
77
14
ee
fb
05
b9
06
40
c1
29
9e
c5
7e
b7
e9
44
b5
61
20
30
6c
7d
0d
4c
ea
09
7e
82
1b
67
01
d5
e7
65
74
33
fa
1c
55
28
c0
9f
99
72
b1
1d
77
cd
83
f7
8f
c0
e0
7a
19
2a
fe
dc
2e
1d
65
f6
22
90
0c
25
eb
65
bd
6c
b7
c8
94
a6
92
e1
3e
c6
ff
89
93
e4
69
21
fa
1e
59
c9
0c
1d
e7
17
b9
81
07
1f
aa
53
aa
b4
d0
21
43
ca
88
3c
9d
80
25
fb
60
c8
96
7b
b4
d9
07
9f
37
0d
16
4f
af
a5
36
0c
4d
91
64
5b
70
95
ee
01
6a
5b
52
33
d5
64
31
f1
0d
d7
cb
c7
10
d3
4e
87
88
a6
ba
01
87
8a
80
6b
a2
51
e5
70
d2
80
dd
f0
72
c6
57
89
1d
89
1d
36
87
90
b2
cb
ad
6d
dc
01
8b
03
39
77
37
49
22
0b
ec
28
d5
42
ce
b7
b6
00
4d
3f
2b
3c
03
fe
a7
72
01
d5
c3
8d
1d
38
5d
7b
26
57
b7
3e
0a
2b
cb
93
de
b0
03
f8
05
4b
0c
db
c0
ce
46
72
33
e9
3a
ec
ca
d6
a2
cd
dc
43
d9
8c
3d
c6
08
05
db
4a
b5
77
b6
e5
c3
a5
4a
30
42
f1
7c
04
03
28
64
9a
df
05
33
f0
6e
52
01
6b
c8
e0
55
1e
c4
30
a7
d0
0e
b5
6a
d6
99
b7
2d
c3
a0
b9
f4
da
28
3c
d2
41
57
a0
39
68
ff
1b
c1
d4
8b
58
2a
fe
bf
a5
65
33
a3
58
51
c4
75
2b
d5
ef
3a
f4
ae
05
48
08
36
fd
c6
91
5b
b3
aa
fc
46
01
c9
80
9f
fc
20
55
15
9b
1a
85
1b
dc
96
37
9b
ed
4e
b6
fb
c4
20
d6
17
ff
23
9a
64
13
87
1d
4b
91
4f
ff
0f
de
e6
5e
f2
10
2a
28
b5
43
cb
3c
2c
42
18
93
bd
b3
da
5b
a8
f1
3a
e8
c0
eb
0c
5f
27
ad
a7
15
4a
56
40
19
b7
8f
16
2f
76
9e
ef
86
50
08
b4
c1
43
68
b3
d7
f2
8a
40
33
23
f0
73
d5
26
a8
76
ed
df
05
c4
ff
ae
59
6c
08
1c
5d
ba
37
ed
94
9e
fd
cd
99
0c
1e
84
48
1c
7d
8a
fd
72
95
8d
61
ea
92
d2
07
ef
1b
2a
49
4e
d4
cc
ff
4b
f0
35
aa
6d
f7
23
90
29
51
17
83
b5
dc
96
9d
13
b1
b3
cd
ba
1c
2d
78
66
49
ba
eb
b8
f9
cc
7a
7b
88
1f
78
1c
83
ca
50
c4
c2
6a
b5
d7
92
c0
80
ce
d9
7f
b1
98
74
0b
f9
b7
ff
39
1b
4b
21
f5
30
05
d0
a8
12
da
5f
05
8a
0e
51
22
57
ce
2a
42
35
ab
45
81
09
fa
a2
7a
60
d9
a5
30
22
9c
aa
bc
f8
1c
6f
ac
ba
a6
5d
f9
9e
fa
7f
14
7d
4e
10
c5
7e
8e
1d
e8
bc
28
bc
d0
33
42
c5
5c
6c
1d
10
1d
44
75
f9
4e
da
47
fe
d3
cc
2a
c9
a5
22
ea
6e
b9
61
d2
82
df
f3
e0
0c
ed
0f
ff
1b
09
ce
d9
c3
cb
f5
43
eb
83
e0
c0
d2
d2
5e
01
fd
1a
04
1d
5b
9a
65
e5
22
ec
d5
f0
27
b3
a8
9f
2b
56
6d
e9
35
e7
da
0d
c1
a9
f2
4f
19
be
22
86
e0
7d
a5
f2
c2
b8
1c
54
c5
79
d3
e0
52
28
7f
03
3c
46
f6
05
30
f9
f6
b4
24
db
de
cb
87
d8
6c
c0
68
eb
9e
d8
c7
4c
7e
13
a6
1a
a6
a0
55
1c
57
ac
d4
e1
43
38
c7
94
65
71
bf
97
0e
c3
d3
63
81
36
3d
66
ff
c3
de
72
9a
b6
27
0c
ff
19
b9
fa
1f
fb
a9
37
6f
c6
21
d9
aa
36
be
45
f2
34
9a
fd
18
41
19
df
16
f1
fa
b5
7b
f3
8c
29
a3
0a
e3
81
2c
44
e9
43
f7
f3
a4
16
4f
a7
b1
62
d8
81
36
c5
eb
80
cd
22
30
55
fd
a4
48
57
79
c9
86
1d
44
ff
41
f0
f6
e7
57
05
b6
b9
4b
12
94
7c
1f
86
e9
d7
89
01
c4
10
7c
0e
75
f9
62
1e
ac
09
2a
b2
9d
d0
86
4d
fa
64
a1
01
eb
40
4b
11
4a
42
99
86
ff
d1
3a
3e
94
a4
9c
b9
fc
6e
a9
4f
e8
43
e3
92
0a
2c
f9
00
c9
9c
cd
2b
07
a3
f1
29
56
b7
ec
ff
0e
5f
05
4e
88
d7
28
b5
1f
65
22
f7
b1
f8
f8
01
f1
10
f8
40
29
7c
6c
ce
ba
e8
5f
2c
0a
09
80
48
d0
0d
4d
b4
d8
b8
d8
f5
3a
4d
ef
f7
ce
00
41
fd
0d
6a
1e
71
94
8a
13
9c
96
fc
5c
e8
e9
1b
21
4a
ee
12
7f
a6
dc
11
a3
0e
33
65
27
d9
bf
5a
ff
2c
d1
40
67
e7
f4
27
88
35
0a
6a
1a
5a
6c
97
10
43
dc
ff
b0
9e
d1
84
d3
38
a8
69
ae
05
0d
2f
47
d6
24
ab
f1
e9
00
37
a5
3a
5c
35
29
85
67
1d
23
22
c6
2b
ee
8f
05
2c
93
3d
a3
ba
70
5c
4e
25
3b
33
57
ab
f7
a5
86
16
6c
b5
ff
42
15
22
46
62
6a
28
e6
fe
33
82
d5
96
87
2e
b1
45
59
17
d9
f9
85
bf
c7
f8
f4
d4
ec
d1
69
e8
6f
23
09
ea
df
ff
8f
c5
df
77
5c
c9
47
f2
0c
a5
32
f4
88
fb
ed
ee
6c
2b
2e
01
fe
f1
ef
9a
11
ec
7b
ef
0d
80
16
cc
72
bc
3d
c4
69
c9
e1
5a
c9
cb
61
c0
21
61
33
4b
8e
47
74
be
70
1a
4e
