da
fd
29
6e
da
7c
3b
29
89
17
fa
39
a6
a2
29
3f
43
cb
02
dc
3e
f1
12
dc
82
7b
c8
cb
b0
3b
f9
5a
d8
0e
4d
7a
97
25
0c
fd
0e
2c
d6
00
11
9f
fa
23
9d
93
f7
33
e4
61
42
ff
28
1a
5b
cd
2a
cd
25
d8
b7
a6
69
20
43
63
c0
6a
c1
b9
fd
05
5f
a9
86
ec
e1
8e
2e
e9
01
52
16
1f
26
5e
cb
6f
02
53
92
31
8d
9a
f4
8f
f0
51
28
e7
37
1b
c4
c7
f3
e6
40
65
e7
0c
34
b4
39
dc
05
be
de
a5
ca
01
26
c2
aa
2a
ed
99
bc
30
7b
45
85
c0
ff
49
25
bb
b9
a8
a5
96
cd
61
5b
ca
4f
11
1f
0a
3a
bd
4f
9d
a9
d0
38
a5
53
d0
18
44
c7
8a
d6
43
95
df
8a
1a
2d
a8
bd
56
7c
72
a7
58
04
74
92
1a
3d
2f
1d
ce
55
c4
29
66
1e
ff
9f
09
42
b1
a7
92
26
bf
a4
e0
3d
69
9f
4b
d3
90
30
87
10
56
5a
53
1f
aa
be
73
cd
17
09
4e
33
b5
be
79
75
f3
55
6d
38
ca
d5
c1
ab
de
04
d5
ff
d0
fe
c7
39
f2
4d
19
4b
d3
d9
f2
4a
96
0e
c8
fc
0a
f6
5e
32
04
67
ec
6e
bb
35
e4
1c
ba
83
d4
75
4a
7a
4e
c3
a4
67
14
b9
10
5a
1e
4e
dc
d4
20
50
07
c9
46
38
ff
52
4f
8b
32
89
1c
e8
92
6b
27
89
83
71
4b
54
dc
ea
69
30
72
51
49
dd
81
b3
79
26
3e
4a
70
c3
c8
f6
5b
ac
15
2d
3a
a3
6d
72
dd
47
a3
c4
34
60
22
e7
2a
d0
ee
e9
75
7f
1f
27
88
b2
a9
1f
66
8c
4f
5c
84
d3
6a
61
d3
0d
12
07
25
a7
86
ae
98
1c
53
1e
ff
b7
aa
29
1c
ee
6a
b4
f6
df
5d
d5
09
03
47
cd
3e
f6
a1
f8
15
cc
e5
2e
d5
ab
37
1c
18
c4
6b
83
94
f8
14
44
c8
01
4f
fe
b5
4d
74
86
21
9e
db
c4
41
f8
49
f4
d6
09
30
c9
55
1e
45
08
af
54
81
55
eb
76
c3
65
12
8f
d8
c3
7e
ba
0e
35
3a
d3
6f
0b
51
da
f7
1d
1d
c4
33
89
e5
dc
3f
bc
81
76
8a
23
63
d0
fe
7b
a4
59
ce
8f
87
b5
de
94
f9
81
cc
27
18
fe
41
7f
0f
61
cb
9e
96
a3
ff
b7
63
28
79
24
8d
ac
13
33
0e
6f
bc
23
f5
04
61
93
fd
d3
ff
0d
64
36
ae
4c
4c
e4
57
10
ce
80
fd
cb
ce
ab
b0
fb
71
55
10
bb
77
04
05
e6
39
18
d5
84
52
c4
0e
52
0c
56
0a
fd
4e
76
50
ce
38
16
3e
91
05
51
92
52
88
9c
cf
6f
ec
99
2b
22
5f
bd
db
9e
8e
1e
22
13
b0
82
05
bd
12
3d
12
0a
d9
80
7f
10
e5
f1
42
ff
fe
ab
f7
0d
ef
78
82
14
f7
e3
35
cd
9a
78
21
e5
10
ff
81
7d
4a
e4
65
ca
df
53
27
74
02
20
a1
94
f7
b1
94
ea
db
cc
77
f1
ff
ce
b9
f8
47
ac
0e
7e
69
ad
53
39
b4
cb
b4
d2
4f
d4
83
f9
31
2e
3b
78
85
d9
1a
ae
2b
07
13
d5
e5
c0
71
d0
96
d7
f3
94
d6
5f
9e
93
04
50
84
20
b2
6a
ee
17
55
2f
ff
ff
41
83
eb
ac
68
c0
57
50
eb
78
61
f0
9c
02
16
cf
bb
6a
f3
9f
2c
77
e8
9e
59
f4
4d
23
30
7c
e2
04
85
21
6d
c5
19
a9
fa
09
c7
e5
c4
bf
cf
99
34
cc
5e
75
77
e2
91
01
ed
d4
7e
31
80
be
5b
61
b9
2c
f8
ff
b7
9d
d3
5f
2b
ff
23
bc
e9
95
d1
16
8e
4c
c4
b1
32
cd
11
ba
d9
fa
c3
4e
01
05
87
80
23
f5
06
05
1b
aa
c9
96
35
49
81
18
a8
4f
be
4d
63
44
e8
0b
6b
65
eb
00
c5
1c
99
73
a5
cd
40
3e
3c
2f
cb
5c
c1
33
eb
0f
4a
55
cc
e6
cd
ff
05
e4
b2
1b
84
13
ba
f9
07
39
31
8a
f8
a9
38
7f
77
11
f4
94
cc
d4
11
38
a4
14
1b
21
4f
15
c7
df
d0
ac
87
87
66
d9
2f
a8
38
a6
4e
f5
d5
fc
3b
70
dc
b6
13
04
5c
c1
3a
41
8e
97
d4
17
7f
8c
5f
f9
c4
d8
1f
c2
bd
30
0e
58
33
8c
d5
f6
1f
17
11
71
01
0b
6b
12
4e
86
86
e4
4d
06
ce
03
b1
f0
b7
13
45
d8
52
4b
bd
55
60
67
54
33
4d
cf
15
40
ed
f9
68
f9
6e
78
54
58
49
48
c3
c7
86
1b
6d
92
6f
fa
22
2a
d5
b8
35
99
18
16
6f
c4
a6
9b
14
d0
d4
ac
89
4a
c0
fa
4f
34
2c
60
bb
86
69
4d
ec
06
dc
b6
4e
81
3d
e9
40
cc
01
6e
eb
0d
f0
09
0c
da
75
90
40
03
34
aa
27
19
b6
4f
ec
e4
f3
93
fa
f9
17
98
a8
eb
73
f2
7e
bb
49
4d
01
e3
66
2d
ff
e1
ef
f6
ec
67
56
2c
a8
d8
43
17
bd
53
b9
07
8a
af
a8
d7
65
14
ad
38
43
03
68
f7
86
29
30
9d
8b
b0
43
65
8e
f9
8c
67
67
0e
ee
7c
22
26
8b
8f
b6
65
67
05
b4
29
f4
b6
38
aa
c9
d9
f0
0c
0e
84
a4
16
07
14
6e
3c
12
79
92
c3
95
57
bf
43
a7
f1
16
e5
16
17
b9
f3
a4
70
d4
c1
96
4e
08
2a
88
4b
da
6f
c7
a1
8a
70
5d
c1
db
e3
3f
d9
e4
ab
ff
04
a6
23
55
47
17
b2
2c
29
bb
78
59
dd
2b
ec
ac
4d
f2
59
12
1e
5c
6d
00
f9
c0
82
23
a1
f2
05
2b
25
45
8c
e8
9d
e9
32
f3
4b
b8
02
9a
b6
67
41
38
03
1b
27
eb
c3
91
ed
3a
78
07
74
86
c2
fb
9c
fc
01
6d
f2
33
c5
06
69
d2
d4
29
0e
ff
64
ba
07
cf
73
86
a5
e2
de
8c
17
5d
3c
8e
73
b3
ab
20
cd
0c
0a
f1
19
8e
53
3c
10
73
f5
60
4f
33
c3
32
a8
56
f2
d6
98
68
48
6e
7f
0b
7f
01
02
34
b4
59
a6
ec
bf
27
01
40
61
24
51
0f
ec
e7
44
45
75
85
53
62
5e
73
8f
49
30
82
45
03
70
92
c8
2f
51
b5
0a
35
09
5a
28
10
b5
01
e2
77
c1
4b
5a
b5
90
d3
38
ac
43
d7
04
6b
71
bb
c3
1f
76
7c
d3
29
24
5a
2b
3d
55
1f
b7
03
5f
23
bf
a0
c7
aa
01
c6
6f
9c
ff
92
c6
59
c4
cc
28
25
97
9c
4a
3b
04
ec
34
8d
ca
ca
ed
1f
4c
dc
72
f7
d5
3f
41
86
32
e1
7d
c1
1e
ce
e5
80
34
43
07
bc
06
a9
90
b2
33
33
c1
e1
22
2b
1a
6c
2f
98
6c
21
f1
f7
19
c4
08
d3
ea
f1
7c
b2
b9
95
21
eb
1f
dc
d1
36
66
ef
4c
5e
f2
eb
88
f1
ba
e1
df
15
7d
2c
e5
a2
19
0c
a9
35
ce
ca
95
51
05
95
0d
74
1d
ff
01
94
a1
02
3f
28
a7
a5
52
3a
63
81
bb
45
c4
48
19
29
fe
db
d4
d6
63
e3
a8
3e
73
13
93
09
31
20
06
57
16
df
f7
6c
1b
40
88
74
cc
f1
82
7c
14
39
8b
49
9d
e6
c9
d4
88
b9
b7
e6
1d
31
d1
c7
54
b5
6a
51
4a
43
2d
ff
1d
4a
1f
e4
36
29
3a
0c
bc
a7
4d
2e
3a
96
f5
62
c8
9e
8c
fb
21
e6
53
a2
a1
93
9f
24
96
1f
5a
1f
ff
a8
21
61
e8
7b
7b
70
99
0b
cd
3c
35
e4
26
18
8b
5a
10
cb
2f
b3
e8
b5
3f
33
6d
da
fb
27
35
f3
a7
e7
0a
c8
2f
98
ae
db
04
af
bd
84
37
ee
d6
be
d6
de
59
c7
12
76
cc
4f
93
63
e6
c5
cf
8d
01
c9
90
27
51
33
8b
39
36
40
7a
b3
ea
7c
11
31
2d
f0
46
2a
6b
c7
cf
da
a0
1f
06
c4
fc
4c
ef
16
c3
b0
98
82
bf
e3
e6
13
85
d4
95
d7
ee
4d
e3
df
e0
fb
d2
f6
5b
85
52
11
e5
35
c4
f9
f6
62
8d
c8
0f
1c
b6
65
1a
4e
f3
89
90
3e
74
3a
90
d8
2b
45
64
59
14
e4
74
1a
5b
2d
9b
81
66
ff
b7
35
e1
20
d1
7f
3a
1b
61
a2
20
a2
cb
77
e9
99
a7
ff
11
67
e5
73
fe
96
58
8e
cc
30
19
98
00
70
c6
51
d1
64
70
e5
a9
c3
e2
c0
69
6e
46
62
f0
f2
9a
2b
12
e0
72
03
96
49
92
96
f9
a7
9d
bf
e9
a9
fd
6a
1a
ee
db
0a
93
d4
fc
97
cf
c6
cb
38
e0
2b
ca
c3
ee
27
ba
40
27
6a
a3
63
b6
15
a8
95
7a
9f
64
7b
f6
1e
01
c8
9c
ad
c0
ef
64
c4
c2
f8
84
5d
d1
70
fe
4e
88
5d
70
0d
99
e1
1a
2b
bf
ba
a3
e3
c6
82
db
56
5d
c7
6b
a6
5e
b2
be
cc
df
82
f2
91
1c
a4
5e
e3
41
3b
a2
c6
d1
6c
f4
ee
26
25
e2
a4
de
b6
81
a9
33
e0
03
5b
72
1c
5f
41
0b
0e
01
f7
03
6c
df
df
08
5e
7e
16
48
e1
bf
b7
c2
1b
27
c0
e4
17
51
af
e7
d1
a2
4d
ae
40
62
f4
87
ed
3c
11
48
b5
01
89
de
bf
b5
f7
ab
1c
af
92
0b
34
9b
87
15
1e
91
20
63
a8
c4
00
b3
59
ad
03
d2
aa
4a
91
45
01
89
5c
f7
dd
af
7e
ff
8e
32
bc
4b
28
34
40
58
32
08
9c
37
96
71
8b
d9
d9
98
dd
62
e9
24
99
38
65
01
7c
b0
eb
af
93
c3
70
17
3d
d0
a9
cd
bf
58
8b
f8
0f
aa
a6
6f
3a
69
0c
ec
22
41
45
35
48
9f
37
a9
de
0d
8f
27
1b
9f
c4
1e
c9
2c
04
b4
4c
ff
09
bd
28
3f
c9
43
26
da
b1
98
c7
9e
67
41
a6
4d
9c
07
34
3d
8e
17
1f
99
4e
2b
d5
3a
f4
75
20
cd
5b
d8
33
8c
23
01
be
6e
1a
04
03
4a
be
e3
95
d3
c0
e2
8e
9a
32
2b
5b
f6
73
c0
5d
e1
d2
e0
e4
44
a9
94
77
b8
25
0a
d4
4a
f8
ae
ba
59
5f
0f
ca
ba
8e
b0
47
6f
28
a4
1f
f0
52
51
1f
6b
c0
d5
df
61
10
18
4d
0b
8f
14
4d
0a
a1
8d
22
74
3a
12
34
e0
56
b7
84
8b
c4
09
fd
fb
bf
a4
ff
7f
03
6d
e7
2f
98
7c
e3
5a
ce
08
2b
8c
d0
b1
8a
c6
48
c8
34
13
22
aa
79
32
c0
80
3e
c4
34
e7
c2
c6
c6
ec
60
a7
0e
dd
ac
8c
f7
27
ea
7d
a6
a9
e4
92
57
ed
b4
10
c8
c0
41
79
e6
4c
30
36
98
4c
2d
b5
33
87
c4
fc
b7
a7
33
d5
01
b1
d3
75
d8
08
75
cd
1e
f4
20
fa
f9
06
58
f5
f3
36
f2
c5
c6
eb
ef
c5
4b
60
fe
8a
13
f0
fb
f6
30
46
05
9c
61
bd
0b
04
fa
a8
01
04
88
f5
bf
f9
14
e7
01
9c
96
6e
f0
24
70
a2
b6
01
ea
d4
ab
01
f5
86
09
49
da
ac
81
7b
3a
da
7a
1c
4d
ff
a9
f2
fc
0d
3a
64
d2
0f
f6
91
e4
35
89
47
71
a2
b5
a6
df
f6
2f
4c
ad
77
49
67
a3
fc
ac
bd
92
31
1f
7a
ae
d7
79
8e
8e
6b
e9
13
09
64
a2
8a
66
60
d1
61
7f
27
d6
b6
6d
2c
ec
e6
8f
1a
71
16
14
d0
28
6b
f7
2f
c6
ff
2b
86
b4
53
8d
b6
19
dc
28
ee
77
05
5a
c9
13
16
93
9f
d1
52
33
9f
74
5d
af
5a
c9
38
fb
34
ee
c2
2c
55
b8
bc
3f
27
cd
a8
fb
72
fd
42
e3
a2
49
d6
cd
f2
5d
e4
22
b5
6b
74
59
16
b1
15
cd
ff
d0
9f
7a
ff
09
0d
02
a0
8c
d2
4f
f2
90
53
42
44
20
52
62
a0
61
08
9b
94
03
91
1f
cc
36
09
4b
c4
92
72
e5
fb
24
cd
9e
ce
b2
76
41
75
8a
2b
9b
a7
eb
ab
8d
62
ae
3b
24
07
be
b3
ff
9b
be
51
14
20
23
9b
20
00
05
fa
bf
08
15
22
9a
e5
94
20
e2
90
0b
40
63
96
6a
ae
51
ed
ca
9d
4d
a5
31
e7
b1
c5
5a
08
27
11
a7
0a
9e
02
fa
ac
53
49
36
d6
c5
bb
1a
cb
7e
69
29
d9
84
aa
e1
c1
e5
5d
f0
e0
a8
e7
02
7d
4f
68
ed
95
7e
c0
4c
ea
11
5f
be
6a
0d
16
36
5e
1f
d5
dc
71
ff
cd
22
67
a7
dc
e8
d2
ec
43
46
be
d9
01
1f
f3
03
fb
97
16
eb
ad
c9
c0
cf
0f
91
76
c1
01
db
f6
fe
4a
ea
8f
4a
e8
4e
5e
3b
67
c0
d8
0b
60
3d
bd
e3
2b
6b
f1
46
e7
d3
01
ce
cb
71
70
ca
12
89
82
27
c9
48
b7
44
0f
e2
38
2e
f5
28
01
b5
c3
22
1f
de
99
85
c3
49
48
3b
ed
12
99
22
b5
3b
ba
07
b4
8d
6c
88
87
f6
63
6d
e6
6c
dd
01
d2
fe
4f
e2
31
a9
c8
2d
80
a2
91
ac
af
36
b4
71
97
ac
77
c5
fa
e6
78
67
d8
8d
45
ff
8f
1b
c0
7b
40
a5
16
3a
e5
49
2f
97
2b
e0
65
ef
fe
0e
fa
33
f1
06
79
61
1b
e4
a3
3e
8d
5f
71
c2
4e
e6
af
bd
ce
91
f5
29
c2
eb
b4
cf
83
23
56
69
ae
fe
01
a0
3e
1a
53
f8
e1
6e
c3
38
23
91
bd
55
94
91
34
05
60
56
03
ee
66
ee
dc
88
56
51
f1
3e
3c
0b
9b
f3
c0
ce
7c
b9
a9
be
02
36
39
d2
66
6a
47
2b
58
f6
53
e6
4a
5c
d9
f4
ac
bf
4c
d0
1a
cf
82
d9
c9
75
17
ac
e2
71
f1
f5
e5
6b
63
ea
ae
6e
37
fe
84
23
23
dd
47
0a
fb
3a
a0
55
30
93
df
01
8b
45
28
dc
d9
6d
f1
95
ec
b4
8b
51
92
d7
f6
c6
f0
3f
ac
73
05
11
65
e3
71
6b
1e
7e
d9
ff
b0
3c
49
27
61
ad
bd
f6
08
d7
85
a4
77
41
40
dc
56
be
e6
4f
21
c4
46
f6
4c
01
7d
97
60
bf
b2
45
9b
7e
67
82
9b
01
5f
3e
85
71
de
09
65
00
94
a0
33
ce
a3
76
0b
33
b1
63
97
51
2f
01
04
81
fe
68
05
cf
09
c3
d0
35
85
44
b0
6a
c2
28
28
a4
8b
15
79
9f
02
62
f9
f8
30
83
1e
47
29
f3
1d
56
4d
47
61
c1
79
bd
b7
b6
07
59
29
bf
4d
a0
0b
df
ff
95
90
18
71
98
cc
f6
c9
83
fa
e5
ed
61
4f
fe
fb
f3
82
ff
37
09
07
77
5d
0e
c9
25
db
1d
32
ee
e4
c6
a1
f2
19
3f
d2
99
3c
c0
ab
1a
1f
fe
0f
3f
3b
bc
39
60
b1
e3
32
c9
94
42
e3
c3
c4
b6
28
b8
1e
e1
ff
17
0e
d2
61
8f
d8
66
f0
b1
9b
ea
54
24
17
b0
46
b5
81
ea
dc
c1
11
30
d9
b5
e3
f0
30
04
b6
60
71
aa
bc
d5
3c
b3
d2
26
1e
8c
7f
cf
e7
40
b9
c0
90
dc
ff
67
7c
d3
28
91
b9
b5
b5
d9
4c
89
18
70
fe
0e
a2
bd
0c
ff
70
c1
0b
69
cb
a2
79
98
c2
70
d3
2d
23
de
85
fb
f8
fd
5d
17
17
86
04
e3
81
79
b4
3a
f1
25
02
46
c1
ca
27
ab
0e
b2
85
bd
32
c2
5a
70
86
f3
6d
e5
e4
6f
d2
22
65
01
f0
09
0d
f6
df
72
79
93
0b
db
67
3e
05
51
a5
de
40
a2
aa
35
da
91
66
16
63
a1
5e
51
e7
60
b0
fc
68
01
67
d0
f6
f2
46
81
f0
24
3e
38
9a
9a
5a
5b
5f
80
45
b1
d4
40
85
15
3b
13
3a
db
28
75
58
f2
f8
a5
c9
e8
f3
6e
34
08
6d
a3
66
aa
8a
c4
e8
0f
6a
f3
c7
9e
52
c4
19
73
aa
9d
69
76
c6
0e
b6
02
45
f5
c8
38
e2
a2
0f
a0
6f
06
1d
f9
5f
0b
bc
70
b2
a3
9e
b9
d0
40
a8
ff
85
06
21
e1
2b
e6
f8
81
90
07
bf
8e
b9
74
fd
bd
d2
3c
41
dd
59
78
af
f2
e9
27
99
50
80
78
c4
25
b7
a3
5a
39
23
e1
06
07
5c
9d
81
90
f6
b4
17
af
5e
91
7b
03
01
74
8c
3b
32
df
cc
93
55
47
81
7f
44
09
17
9a
76
d7
ac
0b
08
31
a6
02
7f
b0
67
94
11
a9
f7
40
42
66
55
78
fc
c0
6c
1f
41
4a
27
ed
db
13
6a
0d
fa
17
14
ae
0e
74
ed
12
b6
63
1c
43
bb
e5
4b
22
8d
c9
99
9a
30
b0
79
25
a5
7e
05
25
39
d7
eb
89
98
01
f0
1e
36
6c
5b
56
28
f6
bf
c2
e2
36
27
81
bc
d0
2e
8e
39
0b
90
08
18
74
a6
01
3b
e6
5f
f2
2f
a5
61
f4
f9
29
56
2c
fd
a5
d3
ae
5f
ff
cb
87
c4
c3
ff
e3
b3
c6
73
2c
ba
10
0a
b9
cd
fc
14
0a
36
9b
e7
2a
22
4f
26
0a
05
bc
cb
03
6b
44
75
f5
3f
86
fb
01
5b
6b
b5
7e
56
0e
d0
56
74
e0
14
07
df
4e
2e
a2
c1
f4
5a
28
76
30
95
50
bc
cf
11
71
29
db
99
5a
ff
98
e8
31
67
fe
78
38
5d
be
cb
77
2b
58
d8
01
d4
77
2a
11
54
a5
13
4c
cf
ff
1a
28
4a
66
e0
e3
91
e3
1e
29
f1
74
f3
27
4d
61
89
65
1c
20
0b
fa
df
4f
a3
00
d6
71
3f
b3
a4
03
99
fb
56
bb
10
fd
e4
61
88
10
7c
01
8d
1e
c1
aa
86
14
82
55
20
df
c2
d3
af
ab
12
be
da
12
03
11
fd
01
11
ad
e7
97
92
63
22
a9
3a
01
de
2a
fd
71
09
34
b3
1e
38
83
f8
15
73
e1
f4
b0
84
b6
dd
d3
1e
f1
18
f3
75
40
ee
98
ca
d6
78
57
c8
58
18
49
de
5f
f7
44
14
d2
b8
69
f6
bd
85
01
f1
3e
cd
81
f8
62
52
35
1d
8b
b7
3c
03
13
c4
fb
81
84
24
69
60
f7
24
14
9a
b8
4c
23
59
e9
6a
77
0f
43
5d
32
c8
21
4b
36
50
c7
11
d9
64
82
86
01
aa
a5
73
6c
93
5a
36
08
1b
a6
04
c7
4b
0a
09
3c
f9
f4
6e
ee
52
cc
58
5a
a5
2a
1b
34
99
5d
20
7d
18
96
b7
5f
37
eb
92
27
a6
0a
6a
bd
4f
96
b4
dd
f7
05
82
27
8a
21
5e
c6
3c
2d
de
e5
66
01
ea
30
e9
d2
81
80
cc
39
54
e3
3a
bc
a3
6b
79
fc
5d
fe
10
6a
be
cf
b4
34
bb
a8
e9
75
79
d4
39
0f
c8
62
4e
50
04
13
b4
90
73
2a
72
90
7f
ce
76
70
b8
fb
a0
7d
86
f2
67
12
e3
b8
96
5c
e4
01
83
4e
36
d5
ae
bf
92
0d
04
c0
c5
3a
bc
c4
aa
c3
5e
8d
39
a9
c4
51
f3
89
82
40
95
fc
f3
01
42
65
97
67
43
75
86
13
3c
68
9b
27
89
ae
35
b3
55
e4
41
c1
de
15
64
46
22
a3
cf
16
08
ac
69
3d
48
a1
27
a7
46
3c
37
46
b5
76
81
29
0f
7f
7e
01
f2
a6
15
39
39
41
b3
59
48
9e
07
b7
ab
56
74
a0
7c
12
9b
2e
8d
8e
1a
ba
d5
18
ac
47
bb
0a
26
56
b1
4e
c2
4c
91
73
f7
12
3c
fb
ec
6f
e3
68
e0
5b
86
e7
e5
7e
6e
7b
68
2e
a0
af
93
01
c4
ff
bc
3c
12
1f
3e
dc
42
12
ce
f7
07
f0
e8
45
d0
90
b6
b7
b5
ad
57
6a
ab
f3
71
6a
16
c5
5a
ce
e6
64
21
f3
f2
98
11
aa
8c
bc
8e
08
98
73
e5
83
f7
f3
ae
30
10
56
ff
a2
2e
f9
2a
3f
63
13
6c
1e
19
c9
