09
f1
4f
f6
12
15
b7
48
a1
fd
e4
d9
63
3a
45
d2
1d
cd
d4
00
b3
15
72
17
4f
07
06
a1
0b
56
1c
08
f4
ea
26
fe
1a
7f
16
14
01
0a
4e
b5
4c
44
66
28
0e
02
f7
51
94
fe
ea
56
f5
47
a2
f5
e3
a5
cd
08
06
09
dc
05
2a
07
fa
34
fd
b9
24
e5
db
2a
3e
ea
36
17
4a
d0
ee
2a
3d
41
ee
50
c4
9b
04
fb
46
fb
d5
cf
ef
81
2e
0b
1b
0e
e2
fb
08
f6
d0
e0
5b
ec
f0
b7
0c
f3
c0
dc
ef
ec
20
08
27
b6
4a
18
ea
d7
4f
24
cc
3b
f0
65
2e
20
46
bf
f9
fe
2e
81
e3
43
f5
3e
00
d4
44
16
2a
0f
ed
b6
fd
c8
2c
ca
e3
41
42
1d
47
12
d7
e7
c1
08
ef
09
fc
d1
c6
e0
5c
22
fc
e2
ef
03
d5
c2
09
e0
de
f1
3e
e8
00
0b
29
c0
20
37
e8
9d
06
fe
29
b7
10
46
22
4c
fe
17
8d
0a
b2
02
07
fd
ec
d1
c8
c5
cc
ed
32
c6
e9
b0
4e
15
35
40
16
d4
cc
ea
1c
da
3e
dd
32
f4
56
02
03
ef
f0
f9
81
3f
fb
cc
fc
2a
06
2e
a2
c2
fd
41
fc
08
3b
0c
f6
02
07
9e
cc
03
0d
e8
40
e9
f9
b2
23
e5
1a
57
ba
c3
ce
dd
72
34
18
f1
64
5b
5d
57
d9
2a
db
39
1e
57
b7
0b
28
d6
10
07
31
14
0f
d2
f6
a5
e0
4a
9e
f3
38
26
1f
38
d0
33
02
9a
25
81
2a
e2
28
cf
c8
1e
59
27
23
c0
26
f2
e1
e0
07
e8
7c
f8
07
35
ed
f1
0c
c6
01
22
f7
3a
47
ce
13
e5
05
2e
07
1e
48
2c
d6
13
0b
16
2c
13
d0
d1
e9
3a
38
03
1c
55
c5
12
f6
19
81
fe
ca
d6
0a
38
c7
0b
17
fd
e1
da
0c
f0
d7
e6
c4
1e
3f
f1
cd
d7
ab
f5
de
3d
e0
30
35
14
0c
cc
e1
ed
1d
b7
24
07
1c
eb
29
2e
60
f8
1c
fa
9b
09
32
04
fc
e3
81
13
bd
c6
04
0c
08
42
b1
24
f4
12
e7
e6
3e
25
10
0c
f9
56
c9
b4
d8
e9
11
e7
da
e7
fb
a1
ff
44
01
dd
81
3d
dd
1f
1d
0e
43
d8
ed
0b
19
41
27
11
e3
64
db
09
90
01
29
ed
19
2f
54
74
27
61
1f
05
12
1d
23
16
b6
d8
d0
33
02
03
f1
f5
b8
e3
19
44
6f
04
d0
fc
d2
d0
eb
dc
0a
d2
5a
b8
02
3d
ad
11
55
cf
02
e9
08
d1
e8
ff
30
81
0d
ae
e1
d3
cd
26
4c
07
66
09
0b
0b
03
13
41
9c
e3
54
da
b5
0f
e7
33
d7
1e
7f
e4
fb
e7
3d
f1
44
52
4b
e3
ea
17
30
ef
cb
fb
e1
f0
db
18
cc
0e
4f
f1
a1
92
f1
2e
dc
1d
3e
07
33
d7
7f
a5
28
c5
25
3c
dc
10
54
3d
e2
10
f1
f9
2b
ba
bb
ff
e2
3d
f9
eb
03
b1
f3
2e
10
0b
ba
10
4c
54
f7
cc
57
5d
71
1e
29
e5
46
2f
f1
50
c1
1b
da
a6
de
eb
f6
01
e8
1e
ee
e7
cd
cc
60
0e
fa
c4
bd
1c
fa
ec
da
fc
fc
0a
81
57
cc
ce
cc
d9
c8
73
98
04
30
a7
46
e5
c1
1f
1d
0c
1d
23
b8
f8
15
2a
b0
f0
2c
16
79
24
35
7e
00
2a
d9
4e
f2
e9
f6
42
aa
b0
39
13
d7
cf
0b
d1
36
b6
cc
cc
06
f1
0e
db
22
16
01
19
08
3f
fc
20
14
30
7f
fd
09
27
bc
f8
38
27
fe
d9
15
e1
92
32
d8
ee
20
e2
f3
eb
cc
c3
3d
10
de
de
0d
59
cf
41
3e
b6
04
33
52
0f
3e
a8
c0
8d
18
46
01
d6
b5
19
f8
18
01
f6
e1
ec
60
40
b9
01
67
32
f6
a8
d4
17
d0
61
44
81
2b
6c
fd
7d
f4
5d
00
4a
b5
0c
ef
a3
d8
cc
f0
2b
e3
0f
c6
f5
fe
13
fc
11
f7
ef
0b
37
a3
f6
0b
f7
dc
ff
e1
ec
c7
aa
89
22
db
14
ea
ff
05
0b
da
1c
2d
cd
08
01
d7
24
29
4e
0a
c3
c6
08
f5
47
21
e2
16
41
d5
c1
dd
1e
04
26
20
02
1a
d8
36
cc
cf
f4
0b
ec
0e
f0
03
e6
ef
e4
f4
e8
fc
d5
2c
c5
f7
52
33
1d
81
e2
f8
1a
07
cc
d2
e2
cf
23
1e
25
fe
ef
00
f2
38
cd
1a
e8
18
c7
f2
0d
d0
e9
be
ec
e4
c5
e4
1a
2f
2f
02
f6
07
f3
0c
fe
be
e8
11
1a
f9
41
0e
d3
fe
26
c9
da
e4
bd
28
c9
7f
ee
db
1a
2c
19
28
2f
1d
10
f0
9b
1e
32
bb
b0
3f
94
d4
ef
da
f7
d5
db
44
e4
22
0d
f4
bf
0b
27
40
f4
10
b9
43
20
0c
2e
81
c0
ee
fe
22
fe
03
22
29
09
f1
d3
29
ae
06
9f
f5
eb
3a
f8
b6
b7
e5
19
d9
10
16
c2
2d
1b
1f
fc
24
cf
e4
c8
18
25
7f
16
ec
ce
bc
bc
0a
bc
19
ec
0c
24
ca
3e
cf
2c
1d
fe
17
c8
02
3f
35
18
29
3f
20
0b
3c
ed
ec
24
cc
f7
f7
21
fe
07
33
fe
12
d2
22
1b
ba
0f
0a
bb
b0
17
17
0f
db
0c
18
f0
f8
fa
35
0f
db
30
e9
38
d2
48
cf
9d
af
d0
57
28
47
e3
d4
73
e4
c2
dd
37
14
29
f9
4a
d3
7f
17
ff
b2
0d
fe
e9
15
f8
f6
78
fe
e0
13
e1
2e
f0
04
72
03
73
2e
e3
d0
08
8a
e6
4c
72
55
16
e2
21
e6
3e
d5
ec
3a
20
6c
51
fa
1f
22
1f
2f
56
1a
cb
52
14
e0
14
d8
fb
24
d0
44
1a
03
f3
5c
c0
e6
f7
26
8e
fb
68
cf
17
7f
2e
04
33
ce
f2
c8
43
10
d3
dd
15
06
16
e5
dc
fe
fe
e4
1e
e3
fd
05
26
14
34
36
14
37
d7
3f
c4
03
cb
f4
f0
59
58
3e
31
33
c5
a7
db
7f
11
d7
1b
be
e3
68
d9
54
24
f7
1f
f2
2a
0c
4d
e3
4c
0e
11
22
02
0f
38
65
d0
f0
41
c3
49
b5
09
9c
ef
fe
3f
f3
1f
e5
fd
60
8c
11
22
7a
c3
1a
1f
33
69
2a
59
f5
e7
f6
14
61
e9
d9
14
24
fd
a4
f9
fa
fe
1a
fc
ed
08
29
10
18
32
f8
e6
06
eb
17
f7
fe
f6
ee
f5
f5
02
54
1b
16
7f
e8
04
dd
03
ed
ea
10
e6
fa
f9
10
32
32
0d
eb
e6
04
ea
e5
ef
ce
ed
ce
09
cf
a9
d5
03
f8
f0
04
14
fd
e2
f7
09
1e
06
16
7f
0b
e3
ce
4c
02
c4
04
08
e5
3f
37
23
39
ef
d0
25
ee
19
db
e7
38
e6
16
0b
2b
fb
32
10
f0
09
05
ca
d0
b3
d5
02
0e
01
54
c8
3a
1c
56
fc
1c
e4
59
f9
f9
55
e9
da
1c
d7
34
d7
d4
cc
e3
f5
e3
7f
c7
53
e5
b3
92
2b
5d
24
0f
f2
61
06
c1
27
0d
4d
dd
eb
e1
26
3d
74
e1
dd
ca
0c
e7
ed
4c
5e
13
f4
58
1c
b7
2b
04
5f
f6
08
0f
d6
22
d4
28
c9
02
33
00
a7
34
3e
fa
b2
08
7f
c7
ea
5b
22
ec
c8
31
30
fa
e5
08
e7
1e
1b
e1
d3
06
57
f5
cf
09
2a
23
9a
47
7c
8d
36
e0
3d
e9
50
f7
d1
d6
07
08
d9
f9
ea
17
36
9e
81
01
30
95
0e
17
35
60
35
09
af
5d
c2
08
c9
ff
2f
e4
bb
fb
0c
fa
02
0f
33
2d
39
d7
fa
39
cd
2c
3c
d1
4d
21
f9
d9
00
e9
58
dd
b1
bd
ca
34
a3
98
13
01
74
3e
3c
73
d9
a7
81
26
30
f0
ec
e0
be
87
1e
0d
03
34
e7
d1
de
b3
1a
e7
13
02
23
da
0a
06
0e
be
fb
be
1c
b0
38
3f
dd
f1
c9
0b
dc
7f
2c
1d
97
18
06
3c
ee
62
06
e3
fa
ec
08
39
35
b7
cd
18
1e
24
f7
00
13
1e
25
2b
a8
72
24
ec
13
20
d4
c8
16
c2
ef
17
ac
f8
e2
77
4b
1c
00
e8
fb
2b
2b
ce
18
dd
0b
f8
5f
6a
dc
f1
d7
6a
de
0a
2f
d1
ba
ff
1f
17
e0
ed
cd
26
31
c6
d7
8e
0e
fd
04
55
eb
d0
4c
2e
d5
32
4e
46
72
00
15
2c
95
dc
19
3b
df
19
43
d9
02
b4
e3
ff
f1
dc
20
b7
d8
52
e8
ee
bc
e4
5a
0c
35
81
b3
cb
fe
e2
19
f9
d9
1f
30
1c
ef
a6
02
1f
ec
e4
d9
41
06
ff
e6
e5
02
fa
47
02
2a
4e
48
04
d2
ec
ae
2d
03
fb
da
2c
fa
1f
16
e1
f3
2a
e0
5f
df
12
00
d8
18
e5
e8
1e
f2
81
e8
ef
fd
ea
45
b9
ae
41
1d
c2
61
04
13
f0
1a
b2
27
13
f4
cc
f2
e5
dd
2b
3a
5d
23
0e
e2
0f
39
2c
53
be
f2
31
0f
0e
fd
ef
f1
09
13
b1
82
3f
40
48
fe
03
1c
44
37
ed
12
dd
ae
3e
f1
13
5c
f7
cb
53
06
f7
e5
44
10
81
ea
1c
07
fe
f6
fe
09
f8
e7
ca
13
17
db
01
f4
ee
df
22
00
19
23
d6
04
af
1a
19
d1
f9
de
b6
bc
ed
25
11
f5
32
05
0b
00
d0
fd
18
e3
0a
e0
81
32
f7
1f
df
14
dc
af
12
1a
0a
e7
fe
0d
f4
e9
01
d7
0b
e6
ef
7d
1d
a6
fd
e2
f9
de
02
fb
10
ee
28
10
d9
13
3e
f1
f8
c6
e5
db
07
0c
16
f9
66
59
04
7f
e7
e6
01
f9
f3
02
43
fb
0f
f6
e3
ef
06
2d
33
15
e0
58
13
60
ef
0d
18
f7
d4
9c
2d
cb
15
a5
c6
fd
ef
27
2b
13
d5
dc
1c
be
1d
d0
f0
d6
44
df
be
a7
e7
ee
1f
8d
24
99
dd
ec
23
fe
c9
2b
0b
58
8c
1e
ec
ac
ed
fb
59
5b
31
ea
ff
d9
9b
da
d0
37
a6
2e
0c
e0
81
16
21
e4
45
f5
d7
b8
1d
10
f0
1a
ba
de
a4
59
d7
0c
5b
f9
16
f9
d9
19
f1
dd
d8
e4
16
ce
e1
07
fe
28
0c
ed
1b
dc
14
f4
2f
a7
e6
15
cf
33
3d
41
2c
09
2f
0a
b9
ff
1f
b3
1c
14
fe
30
07
11
eb
0f
0c
22
2e
81
2b
56
d7
d1
f0
ff
06
14
fd
e9
0d
25
bc
2c
02
fe
f5
b9
b9
35
bb
a4
a0
b9
d7
25
cd
1c
1f
0b
45
f3
09
1d
ab
24
f2
e9
0e
da
52
2c
bd
d6
5c
53
e6
a2
4b
a3
34
fe
2b
b0
d8
e6
c3
0d
e7
f8
20
c0
1d
14
d5
7b
60
2a
d9
7f
9b
fb
02
31
f2
2d
ed
1b
f7
07
26
45
44
00
2f
e8
04
f3
f9
df
1e
f9
e3
00
1e
48
f7
5b
e2
19
fb
b1
22
4f
b5
ff
c8
ec
de
1d
e3
e7
02
d2
e2
1a
05
f5
13
40
9d
03
db
1d
1d
fe
f3
f8
02
1c
d1
f6
f9
32
bf
3a
0f
17
9e
07
81
d4
25
4c
13
e8
e4
23
26
fb
15
15
db
bb
03
b6
12
f3
44
fd
da
c4
1f
fa
3e
d5
c0
29
f4
f7
3f
3d
59
fb
65
b0
e8
35
3c
e4
12
7f
e7
ef
ef
3f
0e
1c
10
0c
39
d2
07
43
89
32
91
36
5a
17
ce
23
df
24
9f
48
29
4c
1e
51
f2
2a
f2
49
23
0f
d2
fe
f9
d5
dc
10
f3
eb
d8
f2
e6
40
f4
11
ff
6e
c1
25
1b
86
da
ef
e1
ff
12
11
32
0b
c0
23
cc
ef
e8
bf
e0
6a
d2
40
62
bd
fe
1a
70
d6
1e
7f
60
4d
c6
d3
ff
0a
da
2d
1a
ed
f7
b8
05
47
10
92
f4
17
76
9c
56
b8
6c
d8
d5
c0
e2
ee
75
4c
60
38
0f
02
e7
7f
2e
62
3c
cd
3f
17
eb
cc
33
95
89
a7
db
ea
2e
eb
b0
cd
20
d3
34
29
fa
64
50
05
9d
0d
4f
48
c4
e5
ee
32
e9
18
49
ef
10
e7
fb
cc
0d
f8
0d
31
af
fe
fe
e3
21
d1
f6
1a
02
fb
07
0e
d7
04
d0
11
ec
17
dd
f8
0e
ed
f1
02
f9
d6
15
29
2f
d8
19
e9
f4
f1
f7
af
c0
be
07
d5
ed
fc
44
00
ce
0d
7f
3a
42
2e
17
33
f3
41
25
b9
78
ee
ac
3e
f3
cd
01
10
3c
b1
39
39
4a
38
31
4a
c8
02
0e
df
03
39
97
f6
35
b3
ea
07
01
0d
60
3a
ba
58
40
7f
d6
2e
fe
ae
df
b0
cc
c4
10
27
2f
ea
c6
46
fc
c9
cb
a2
a8
05
3e
46
05
23
ff
02
2a
03
2f
fa
c8
02
2a
31
42
05
d3
ee
27
de
31
cc
01
fc
1f
e8
9c
f7
fc
2b
06
e7
f6
58
f1
7c
7f
00
e1
39
1d
d2
70
d9
e1
13
28
07
d6
0b
e9
3d
34
dd
ef
e9
69
3c
ec
32
14
5f
16
6b
b2
de
82
75
53
14
ed
5a
e7
5a
ec
ee
dd
ff
f2
53
27
d0
01
d0
05
c6
f6
10
dc
25
cf
0c
a5
2c
dc
53
07
81
d2
0f
34
e5
f6
4a
d0
f3
2e
43
1d
62
b1
0b
31
ff
e7
26
15
12
b6
58
fc
67
06
aa
b1
1b
a2
d9
e0
5c
2f
9c
c8
29
19
0d
f2
30
6e
d2
03
4d
dd
07
d7
ef
3a
f0
03
08
1e
3b
b8
cd
01
f7
ee
5d
f4
a7
e3
6d
b5
02
f2
30
1a
49
e5
e3
11
ec
e3
29
45
09
aa
f3
30
11
2a
a4
ed
0e
03
09
39
0b
a1
18
75
c9
da
0a
df
de
81
1d
fe
e8
31
b0
48
9f
27
0b
c1
c3
30
23
2a
0e
27
33
4f
49
b9
2c
1d
29
09
e1
be
0f
f4
0a
f5
a8
06
5a
41
13
ed
d6
0a
66
ed
3e
c5
e2
43
f5
1b
fa
e5
0a
3c
43
1b
33
1a
a5
ba
49
f8
e7
51
e0
7f
2a
cc
0b
f3
eb
32
1f
e8
26
f9
d6
2e
ec
8a
fc
f8
0c
12
13
37
e8
12
05
1d
15
df
81
af
e6
f4
fa
1f
fa
1a
02
da
1b
f7
ff
bf
a8
cb
f9
fe
d3
ed
ce
e0
dc
29
08
c0
0e
d9
68
ef
59
f6
7e
26
b2
12
ba
ab
08
25
43
25
00
cd
11
cf
b4
f3
4f
05
3d
12
02
f2
27
e8
ce
14
ae
0a
41
a9
32
ea
3a
39
13
19
f8
20
fd
24
0f
55
22
2d
d8
f8
dc
f6
f9
20
0c
c1
1e
01
e5
81
e5
13
e3
04
da
e6
f8
0d
4c
54
ca
0c
36
f2
25
f4
c1
ae
f8
45
26
b4
f5
d5
0c
7a
a7
91
a0
e4
3c
e6
ff
4a
dc
22
21
58
0e
29
c2
9f
48
26
00
40
11
eb
03
13
7f
16
ec
0c
e3
e9
cc
af
c7
99
dd
dd
d7
3c
ca
dd
b6
c3
65
ea
ad
05
66
f5
72
10
d2
d6
e0
8e
e6
bd
13
c6
1e
f6
cf
f8
43
e6
48
26
31
e3
1c
d8
db
fe
33
fd
1b
ea
56
3b
08
24
18
fd
15
08
07
5d
0f
fc
1b
15
9b
49
7f
be
1b
cb
1e
fb
09
0d
09
f6
ff
24
ee
46
22
4b
e6
de
07
1d
21
b3
ed
4b
44
31
fe
7f
a6
de
43
15
f5
48
2f
0e
2f
07
07
ef
66
14
ce
5e
e6
45
d8
ee
d9
4a
3c
3e
f8
8a
0b
60
20
36
0b
3b
46
00
02
c9
f3
e8
ed
f5
9d
e8
09
00
62
dc
14
a8
ab
1d
bd
fa
aa
4e
f3
c6
b8
bd
ce
21
2f
eb
e7
0b
f7
36
d0
e9
30
d5
d4
0b
7f
20
15
2d
24
c3
31
f0
1f
c9
f0
03
d7
2d
ea
60
b5
44
52
33
00
06
18
1c
cb
08
f1
4a
20
2e
19
10
a6
02
e6
23
00
04
e9
17
01
f4
0b
33
df
f3
25
70
d3
f6
fb
18
c0
17
7f
ed
20
db
ff
1f
e9
cf
b2
30
1d
23
bc
1e
5e
46
a9
13
51
9e
f2
3a
fd
3d
11
03
e6
fc
5a
eb
58
39
4d
cd
48
ee
05
3c
15
ba
2a
ec
be
47
fc
fb
3e
4a
ea
1c
1a
e7
d9
ec
2e
2d
f4
3f
46
21
18
1f
d2
f5
14
b8
de
1e
e2
81
f6
24
36
5a
9b
0b
12
f1
36
02
f8
d8
17
e3
e3
f7
01
fd
b5
59
c8
9e
de
db
17
14
e1
37
1d
9c
14
30
f4
22
2d
ab
db
b7
ca
16
42
07
11
48
f0
24
b0
a0
bf
e0
fd
ee
05
dd
06
18
19
ce
71
10
de
11
4e
04
06
3e
7f
d5
e4
f1
ce
c5
14
2a
27
0c
f0
0e
2d
09
21
16
d9
ba
29
e8
33
c7
27
11
1e
a3
dc
d8
1c
46
d2
ed
e5
c0
09
0e
22
03
f1
34
0a
e7
3e
21
cb
e1
c2
dc
2a
3f
24
f6
cf
a2
e9
cb
73
36
a3
ed
d2
37
c1
dd
66
4d
ca
1d
b8
a5
81
41
17
45
1b
ee
d9
e2
04
e2
de
11
ba
dc
eb
c4
db
18
41
01
3e
36
e1
a9
e9
e7
f7
db
f3
ae
b4
38
da
12
0a
20
06
f1
15
a8
25
01
d5
3a
22
f5
d5
c8
6f
a9
15
1d
d1
d9
ee
0f
f0
30
09
ea
e4
0b
20
c4
18
04
24
d4
c0
03
fe
f5
ec
1e
d8
34
df
b9
2e
e2
00
34
08
36
0e
27
42
e0
c5
eb
e0
37
41
d9
c1
ce
7f
29
10
0a
fe
08
11
bb
a5
26
9b
f5
1d
de
da
15
1e
e1
df
f8
c2
39
0d
c6
d5
fb
ed
2c
25
6e
42
e8
f7
c1
44
ef
c8
d5
35
15
15
99
c7
1a
0a
0e
37
31
ed
fc
e7
47
02
fc
13
cd
14
2c
f4
14
15
1c
0e
ea
7f
c8
e7
c8
db
33
3a
25
b9
af
a2
d7
25
d5
c5
3a
1f
2a
10
e0
dc
f7
35
07
f4
18
c8
90
fe
96
18
6a
d7
23
51
e4
11
f1
68
9f
f7
0c
81
f6
2b
6b
f7
c7
36
db
42
59
44
ff
5f
e4
cf
67
1a
ee
2c
25
cb
93
b1
fa
a6
10
0d
56
42
3c
ca
07
5b
7b
4f
06
e3
9f
cb
1a
37
c3
d8
23
92
b4
ee
ca
12
ed
d5
cc
0d
37
c3
32
1a
26
7f
fd
2b
53
01
3c
ff
ff
1c
b9
23
01
3c
5a
d9
2d
b3
b9
e3
1e
fe
1e
6d
0d
d2
39
f5
32
3e
fa
c2
24
b3
1e
1a
2f
df
17
2d
d4
4b
2e
53
a7
11
33
2c
45
e6
3d
a6
dd
e0
38
b7
e1
57
fa
48
9d
1c
7f
27
10
db
09
c1
4f
f1
51
ca
ec
0b
f4
34
ed
0c
f3
45
00
dc
b6
18
2f
22
13
d7
00
06
55
be
c1
a4
04
03
f9
e4
62
0c
0f
fa
f6
cd
29
01
17
3a
3c
e7
d0
05
c2
2e
e6
17
81
ff
a7
cc
74
fb
22
e6
cb
3b
dd
a2
2f
ff
08
2c
1c
1d
50
0f
cd
e4
cf
f3
d2
0e
07
b8
0c
08
58
e8
eb
26
16
16
da
e6
15
e1
0c
fb
bc
ed
0c
43
0a
60
11
4a
fe
08
12
f3
c7
09
ed
f5
f7
ff
e3
e3
f6
e6
1b
12
d7
27
17
46
c4
f7
ee
11
d0
ea
0d
41
15
09
1a
f6
f5
2b
ec
58
ec
1d
3d
d8
d2
16
ec
0f
d2
67
fc
3d
0d
e0
cd
fb
f9
ff
d7
1d
20
2a
be
e4
f6
05
7f
f9
23
ef
42
4e
ce
ac
f5
c9
35
6b
21
f3
2e
ec
ee
e9
fc
17
07
0e
00
0d
de
1a
f5
20
fa
00
02
0f
07
1e
f5
e4
0d
da
15
10
12
30
15
18
f0
4a
ea
1c
18
bb
18
c6
22
01
d2
c5
a2
1f
c6
15
0f
09
25
e0
f1
f1
06
d5
f0
a3
fd
0a
ff
ed
81
e7
ee
a7
1c
10
be
97
b1
e3
11
23
55
f1
2c
45
3c
0a
2b
12
28
17
e1
e0
35
7f
c0
15
2e
fd
e9
e1
59
0f
21
40
15
08
fe
43
2e
0d
40
ed
17
0a
83
fa
d2
26
23
9b
b6
2f
07
f8
2d
11
1e
0e
56
32
c1
2b
ad
17
09
f2
20
f5
04
cb
f6
dc
15
21
37
05
ea
d6
ba
0b
e7
11
18
03
08
f3
d0
c5
31
0d
23
fa
0f
02
2b
dd
ff
1a
0c
f7
08
d8
3b
20
ab
d3
81
0d
f9
1e
df
ea
ef
c3
10
38
c5
f3
27
f5
f0
0d
21
bc
cc
ef
f4
3d
d2
04
f4
09
f7
f6
d1
e0
01
1b
da
be
0a
3f
f6
15
15
c0
e2
0c
46
17
d9
18
c7
e6
20
1d
f8
1b
3a
f7
26
57
04
e7
20
08
13
ec
10
ad
dc
fa
e2
e3
f8
01
1c
e9
37
02
fe
db
ec
1f
30
53
e5
04
d7
81
20
fc
f5
d8
de
b6
e7
ea
ed
fb
2a
2a
bc
28
fe
1c
02
21
d0
28
01
25
0f
7f
45
08
fa
07
11
26
d7
0a
14
28
45
26
dc
12
f0
46
05
ea
12
cf
d4
fc
e4
4f
0a
fc
5d
e2
fb
ec
2b
e5
06
23
16
04
22
0a
c0
dd
22
2c
c7
d0
77
4d
08
29
15
7a
41
bd
5a
f4
81
f5
15
30
4f
b3
f7
36
18
10
fe
b7
15
11
b2
1f
04
0e
24
db
1d
24
d2
03
01
03
25
0e
11
bd
b0
37
f6
ea
f6
fc
01
d6
ca
1f
11
d6
93
17
37
f9
e0
14
f3
10
03
2c
58
d2
20
c8
cf
b5
39
08
10
17
f9
76
0e
e8
08
6a
cf
d5
0a
e1
2e
ef
f6
09
36
b3
88
5b
c6
e9
4e
15
2d
50
b5
cf
29
b2
d5
db
0f
56
f8
fc
ef
44
a3
26
ff
9c
25
1d
c5
ca
0c
26
14
68
13
f3
7f
41
0e
f6
f7
08
3d
ce
81
10
ef
dc
f4
21
2d
08
15
10
08
c3
d9
48
8f
dd
d3
e8
db
27
ee
28
32
03
4d
65
4e
2c
29
cb
c4
d0
f1
e0
62
3c
17
de
45
f8
68
fc
f2
dc
c1
c6
4e
ed
73
b5
f2
30
3c
d0
c8
f6
b0
2c
d4
0e
e9
28
e3
48
12
3e
29
1e
c9
0d
3d
04
9d
e1
5a
24
61
ef
df
de
f4
eb
3b
0c
d9
ef
b5
49
fc
18
3d
3d
e8
64
bb
ec
4c
f2
26
51
f1
14
e3
a2
15
47
f1
e3
ef
22
30
2b
a5
18
ce
0b
f8
20
81
e5
0f
1e
c6
06
48
34
e2
a4
ae
f8
bc
4b
18
3a
de
0b
0e
bd
48
7a
5e
9f
d8
40
f7
2a
e5
8b
81
25
a5
22
5e
79
3c
08
0f
5d
c0
04
dd
e1
a6
e2
ec
1d
31
29
41
ec
4c
a5
20
44
15
01
2a
a8
d8
d0
02
a2
10
20
b3
e2
e9
cf
fd
b4
7f
2e
fc
0c
50
c3
04
6d
2d
31
e8
46
00
12
32
12
ff
36
2a
15
0f
3e
ef
16
d8
c7
db
27
58
0d
43
08
fc
e6
42
1f
bb
3d
c4
fa
0c
eb
3a
fc
d8
e0
59
ca
f5
1f
1e
0c
d1
18
4e
16
b2
fe
d8
e4
ea
f2
5b
e5
09
ed
18
a5
dc
6c
d6
0d
33
38
ca
41
05
b2
f9
01
46
11
23
64
3c
23
fc
f5
ea
5e
f0
23
2e
c6
bf
20
15
81
30
b5
02
20
10
10
f7
f6
e3
b1
12
f6
1c
e6
f9
1c
f1
e1
fa
dc
2a
49
f1
bc
10
25
1c
f9
0c
2d
aa
fb
19
14
d1
08
1f
f8
f0
2c
2c
7f
21
cd
05
4c
29
0e
19
11
09
ee
51
ca
b8
01
31
40
30
64
d4
3b
f7
37
6a
e5
16
0c
e3
b3
f8
5c
05
51
c1
34
31
de
1d
3b
b3
fd
d3
b8
cd
44
2e
13
4d
74
a3
50
3e
fe
fb
ee
03
b3
ab
c8
43
34
58
47
23
fe
21
c6
09
15
de
fd
17
f3
ff
5c
28
05
53
52
10
ba
13
0c
db
4c
d8
0d
ea
1c
1e
f6
2f
31
7f
d6
01
b4
de
03
0a
f2
1a
e4
cc
b7
31
ce
85
17
fc
42
f1
21
ec
f2
ed
02
01
0f
0d
a7
a4
37
13
ed
f8
38
ba
17
48
b3
34
fc
4d
ed
9b
4c
1f
d2
7c
b2
ad
e8
22
f0
3e
ce
27
26
04
f4
0f
1b
c7
5a
ed
fa
34
52
f4
34
8f
d3
50
d0
c1
04
8d
7f
84
05
cc
18
22
e6
d7
07
04
c8
e2
0d
10
15
e0
fb
3d
45
14
07
11
40
e1
ee
d7
21
4e
d1
d0
62
20
00
61
a2
0b
23
c1
fd
b6
fb
f0
0b
e5
cb
a3
12
19
d2
35
94
35
ed
e9
0c
4a
49
e2
dc
04
b5
1d
34
6b
81
f1
d1
d8
d5
f4
2b
b6
00
d6
31
2d
ff
13
41
f5
0e
ce
3f
ff
ca
39
e2
0d
32
26
e5
1b
2a
d8
88
b3
41
eb
e1
1e
06
2e
10
1f
f9
71
15
52
d0
eb
85
1a
d1
20
e8
de
ab
4d
d3
20
bf
33
81
e7
e1
54
3e
f5
fc
f3
fa
21
fa
ef
0b
40
ea
3e
bd
f0
13
31
f1
ff
d3
cb
f3
77
65
28
63
9b
24
4e
f2
e7
c8
7a
f1
20
ff
20
d5
38
6f
1b
21
2c
e2
0e
de
3d
c4
d9
c5
58
bb
cf
3d
b5
17
ff
14
f6
d8
ea
c7
f5
e9
d5
f7
e8
d4
43
07
7f
5b
f3
0c
e3
fb
f9
7f
0e
b3
1b
39
13
52
f8
17
4b
f6
10
0c
05
71
e2
64
d8
1f
bb
eb
e2
f1
e6
d0
f8
17
92
28
0b
2a
11
3b
27
1a
a1
02
39
0c
ca
1e
28
c2
23
2d
b7
2a
e1
fb
17
b7
3e
ef
a9
29
d8
08
0f
e2
22
9d
43
d3
fb
10
49
1c
26
fe
19
0e
d8
3b
0a
fa
ec
81
ee
62
41
f3
d0
d3
c5
51
42
59
c0
e8
cd
e1
ee
32
0b
02
e2
c9
ab
fa
ee
c7
12
3f
4d
15
9f
29
0a
22
1c
05
5e
f4
48
0a
43
0d
1d
e0
c9
d2
64
bb
a7
43
d1
bf
26
28
1b
0b
d6
27
0a
cf
7f
22
e9
c2
1d
07
0a
2f
db
c6
22
24
29
00
15
23
4d
8a
f6
18
e6
d1
b4
f8
fe
3c
f5
db
32
cd
c3
25
f5
ee
f7
69
ec
fb
96
d4
35
03
06
db
0c
2c
2b
21
e3
ea
e0
fc
c9
fe
f6
c4
ed
02
c9
a5
f3
f9
2f
0e
ac
59
f9
06
f7
51
19
24
23
f1
b4
f1
f7
f2
51
21
2c
cb
66
3d
08
15
1f
e6
00
ee
f0
f6
fc
b6
04
3e
5f
0d
ad
06
df
13
73
07
81
d9
18
35
2c
47
f4
f9
f6
d6
c0
59
f3
1f
4d
08
d6
29
eb
dc
39
9b
96
e6
61
c2
5b
02
90
9e
dc
37
d3
20
48
33
a1
9e
b8
5a
09
dd
47
7f
39
4d
03
1d
4e
5c
58
34
b5
4a
2d
fc
b1
41
ac
d0
19
3f
32
20
d2
d4
39
0d
ee
08
db
93
bc
8e
04
68
23
b4
43
dd
db
28
28
16
05
45
2e
d4
d0
eb
f5
fe
fe
02
3b
06
ea
12
eb
a6
ee
38
07
0e
d9
f2
e9
13
4b
dd
23
f4
17
c2
eb
24
ff
19
01
1d
07
58
12
e1
08
18
37
e3
fd
49
56
bf
fa
02
56
1f
da
7f
02
16
37
dd
1c
e0
dc
2a
25
f6
f3
00
44
ed
ba
0b
18
13
35
c0
f1
ec
f3
2b
41
ed
0a
4b
43
ee
fb
0e
36
12
de
e5
38
bb
c7
f6
14
c8
2b
81
d2
41
c4
1e
96
2a
f1
53
e0
2c
f3
de
0f
b7
04
ea
dd
e7
4d
0d
17
0b
c5
c1
1d
da
f4
1a
31
4d
24
ef
ea
2e
0e
41
13
4d
0f
bb
c8
c1
69
f6
fb
ce
17
12
1a
6e
ea
d9
ca
dc
fa
58
27
e2
1f
ff
18
d4
25
df
1b
45
f1
55
81
a0
f7
f6
f3
ee
ba
f5
52
c9
41
48
2e
e4
bf
46
2a
52
1d
15
b1
ac
45
e4
09
06
c3
f8
ee
8b
38
2b
d9
d0
de
ef
03
bf
f0
f7
09
f0
f1
16
27
7f
1e
d5
a3
1a
de
35
14
ee
59
73
28
12
ef
06
fa
42
f0
fc
ef
de
38
0b
2a
0a
55
24
3d
d4
3e
f1
16
ec
d8
02
0d
14
10
14
ef
ff
fd
74
0a
0e
f3
e9
fe
1b
48
0f
ce
15
d8
fc
fb
0d
bb
32
ef
29
05
d1
dc
f0
15
dc
b9
45
0f
34
01
05
d6
01
d0
26
e0
0b
ad
f9
58
ef
08
aa
13
2d
0b
47
1a
e5
16
f8
03
f7
0b
e3
20
81
39
ee
93
e8
26
41
39
f1
b1
58
b8
03
2c
b6
d5
f6
da
14
e9
e1
c8
1c
09
2b
24
49
ef
0c
08
03
d9
f5
a3
3e
81
eb
1a
32
13
40
6e
22
db
df
37
f6
09
09
e8
fb
33
95
ef
c6
d8
2b
0f
34
61
18
68
1a
88
50
c0
76
23
b2
e9
c0
fb
40
18
4e
fc
04
df
f3
f0
23
da
01
2c
bd
07
c8
dc
da
f2
ed
d3
02
f8
50
f0
df
16
1e
8e
1e
0c
fc
08
3d
3e
24
e9
01
ea
df
28
3c
19
7f
d5
f3
ea
28
fa
d6
1d
e0
b9
07
ed
ea
b3
d7
e0
14
e1
16
b7
db
1a
e7
d0
ad
0c
d5
ee
27
13
32
f6
06
e6
f3
15
ed
09
2c
13
e8
f2
11
41
c6
ba
05
13
12
d0
62
d7
20
3c
1d
eb
d1
81
c2
44
23
0c
58
1b
f2
d3
c6
2f
db
4f
f4
19
19
d2
71
22
ea
30
68
4b
21
e0
20
23
b6
14
3d
07
d9
06
30
be
e8
21
1a
ec
1b
17
92
e8
1b
11
3e
ee
fb
fe
07
e0
e5
07
0a
08
6c
18
1f
f7
e6
08
fd
c7
ff
1f
16
3e
ef
2b
3e
e4
1f
e3
ef
ce
f0
f3
31
f9
4f
40
0d
f6
bd
0a
72
36
16
09
81
f9
cc
e4
00
12
f0
2c
0a
ea
e9
2a
e1
13
e5
d9
ea
0f
b0
25
12
10
42
04
ee
b5
fd
48
13
f3
59
db
49
5d
b5
26
be
dc
14
ff
30
18
12
3e
31
31
eb
19
1d
7f
6e
f0
cd
35
1f
c6
36
c2
d7
01
62
25
00
23
2d
ef
78
fd
13
32
f4
31
07
bd
35
f7
c9
fa
12
02
05
41
12
24
d1
d8
dd
f8
3a
7f
f3
0c
cb
3f
67
02
06
15
14
6c
e6
11
4d
c2
0b
2f
42
94
4a
69
b1
fe
8b
e2
cc
e6
1d
d2
26
2e
43
35
52
22
cf
0c
2a
d0
83
3b
b1
c5
f3
d9
18
0c
de
3e
28
81
07
d2
40
22
2e
f7
1f
43
c5
00
c8
ea
05
2b
0a
cf
ec
c7
2c
cf
00
06
15
0d
ee
e0
0f
1f
ba
fb
06
01
13
e0
d5
23
c3
08
f2
e0
c2
0d
22
c3
f1
04
20
e6
18
07
23
09
0f
19
11
2b
fa
07
00
1d
dd
b1
1b
30
59
2a
df
16
f2
fd
f0
d5
02
05
ea
12
b0
b0
18
02
bf
e5
13
fb
02
fd
2a
fe
1f
1d
3a
ee
18
41
15
e7
e7
ec
5a
ef
0f
16
d8
a1
f4
02
e8
24
2d
26
ed
0a
c5
f2
ed
bf
0b
c1
81
d0
fc
10
17
16
f9
12
29
d8
20
57
ca
e3
f6
f2
f9
7f
05
2f
d5
01
4e
21
fd
ef
16
f5
45
bc
df
08
e6
ce
17
02
0e
2f
48
10
1e
d7
19
02
f6
25
04
3e
f7
05
50
15
d5
3b
42
e1
0a
b9
f7
10
30
d8
c8
d5
f4
e7
3f
d6
da
3e
07
d7
1b
d2
1f
f6
2e
cb
b2
ad
1d
3f
ef
52
ef
b9
e3
c5
e6
57
ed
c7
32
59
01
ce
c5
36
20
11
50
02
02
ed
56
31
16
9e
db
d8
e2
c8
0c
c4
de
34
bb
32
7f
64
02
86
41
22
16
d5
1b
48
bc
f3
34
ec
d1
12
31
35
34
f4
3b
12
93
16
c5
c8
34
22
f3
43
07
f5
db
18
04
ec
0e
dc
0e
ff
2a
1d
f1
06
f3
aa
10
df
17
06
c7
be
e7
3e
d3
81
d3
c8
fb
02
f9
09
20
0f
18
16
17
28
06
ed
1a
cc
11
c1
ff
c9
1f
c8
58
27
c8
b9
3e
e9
49
a5
f6
2a
c4
0a
ea
fb
10
7f
d2
44
f0
36
61
dc
0b
fd
3a
e8
dc
eb
db
ce
dc
20
6c
08
f8
f3
3e
6a
4a
2a
f8
4e
12
0e
d0
16
ea
cd
8f
39
54
7b
ec
b9
fa
53
46
e1
15
1f
1f
ff
7f
3f
31
21
fd
c6
1a
23
18
0f
ba
07
ee
9f
53
1f
16
02
d8
33
f0
de
34
17
e8
3f
fb
21
f6
26
32
f2
6c
d1
b6
fc
ed
10
e1
d5
d9
97
4f
24
b5
cc
04
98
e4
13
55
cd
cd
32
93
b0
f5
b8
c8
eb
c7
13
8a
c1
3b
1a
38
1b
2c
42
21
d7
f9
37
f9
66
d9
a0
d4
f4
34
0c
d2
7f
c3
02
49
46
db
30
0a
1c
21
49
34
17
04
f2
a3
02
fe
f7
1f
2c
14
f2
de
b2
fa
cd
36
06
11
06
e6
4f
7e
b9
39
b8
f5
2b
b3
f2
e8
d4
ab
fd
0a
62
fc
1c
de
d7
0e
19
de
d4
3a
e6
dc
8a
13
6b
df
77
00
ff
7f
c0
11
14
e9
55
1b
45
0f
98
d8
15
25
fc
e0
ed
15
08
81
dd
c7
95
61
f9
86
24
fe
05
bf
2a
db
0b
32
da
e2
07
ed
59
39
0d
35
29
68
d3
1b
f0
e8
1b
2e
17
e7
08
e8
0e
3f
06
bd
e7
44
19
0b
15
16
ec
d5
fc
da
17
0b
10
15
e8
0e
1d
09
fb
b6
fc
e0
df
d9
31
39
d6
d6
19
fc
fe
19
16
e6
08
ad
cd
d2
fd
2c
18
02
0c
37
fe
7f
ef
02
af
f6
10
3d
2e
b2
0b
bd
e1
cb
f5
67
f6
0b
fe
25
fc
41
f6
c1
dc
10
ed
f1
f2
0d
04
3f
ad
be
e9
13
32
16
2b
26
1a
5c
1a
49
04
f1
bd
fb
9c
30
66
e9
19
81
08
e9
01
d4
ed
17
05
ce
25
ea
f2
41
ea
44
c0
c3
5e
d6
0b
3d
e1
f9
da
c7
c9
f1
5f
d5
d9
a9
c7
41
1a
07
71
f1
1d
5c
b5
44
36
15
11
01
47
2e
d1
18
03
0f
36
cb
d8
d3
fb
39
bf
30
29
1b
de
40
09
21
c8
dc
ed
44
ed
05
29
c3
2c
33
c9
7f
35
29
ff
d4
1d
9f
eb
2b
e6
37
db
32
ec
10
0a
ff
1e
41
dc
0c
d1
2a
fc
d2
f6
3a
64
f5
35
c6
fe
12
0f
de
08
e9
bf
00
01
c3
d6
43
e4
96
29
c1
2e
3b
3a
60
26
0f
19
03
fe
ff
81
ba
1b
e9
27
fe
aa
ac
11
04
ef
10
50
3d
d3
fd
f9
6c
99
ec
fb
28
42
98
dd
9a
ca
4d
0b
fd
47
b0
0a
57
21
d8
72
b3
f8
13
2b
d4
29
a2
1a
ed
08
f2
da
c6
11
c4
cd
0c
a9
3e
11
53
d1
75
ac
64
e9
06
12
c3
ff
40
d5
e0
ce
7f
45
a2
a3
24
f9
fd
3d
e2
f2
c4
d8
23
34
fa
f0
2d
d9
f1
81
1b
e3
d7
fa
f9
fd
1e
c2
87
e8
0d
20
ca
ca
40
18
e4
c1
f7
de
da
0b
d3
6e
c0
d1
14
02
d0
19
9c
00
e4
07
cf
09
2e
cf
bf
5e
35
0e
36
1a
e9
1f
fa
52
d5
4e
f2
33
1c
f6
cf
17
b2
da
0a
dd
1e
98
de
10
ff
23
c4
f4
4b
b6
5a
ba
16
05
e8
04
34
be
c3
19
ce
13
b3
db
bd
06
c8
ec
c1
23
b7
d2
c2
22
19
33
ac
81
cf
f3
0b
e9
23
36
cd
0b
e6
d7
f5
0a
07
14
1f
2a
cb
1d
15
30
b7
20
cf
d4
fe
21
ee
f6
f1
09
1a
02
b9
fa
0a
2c
a4
b6
ba
25
c8
1d
b0
35
ce
e1
1e
14
08
ca
00
3a
26
46
02
bb
fc
3c
f2
f6
d9
4d
c1
07
2a
0b
da
2b
e3
af
27
f7
f4
a9
3a
2c
7f
32
52
ba
43
62
18
10
b8
2c
0b
fa
24
e8
e9
f9
c5
12
ec
07
c6
c4
20
f1
1b
cc
21
0b
36
d1
df
e7
f0
e1
ef
2b
2d
ec
30
04
bf
07
30
02
4c
03
d2
d4
fc
3f
d3
c8
81
0b
fe
35
49
02
0f
f1
46
79
45
2e
00
c8
2f
d0
52
dc
c3
14
73
e8
45
bc
af
72
32
22
04
d1
67
18
07
22
20
ef
21
25
d6
4f
3a
ff
c5
f3
69
7f
52
4e
35
54
65
07
1e
33
d2
59
1b
21
f0
a7
e1
fc
fc
d9
6e
2f
eb
21
cd
b1
f3
e9
cd
eb
cd
17
e4
ef
c1
02
10
09
cd
bb
30
cb
f2
1d
ea
d8
f4
1c
fa
5a
f1
d6
11
fc
43
dd
46
ec
d7
3a
c8
0f
fc
fa
04
96
81
36
e7
e8
3c
30
d4
ef
12
de
3f
27
06
de
4c
14
0b
d4
3d
16
f0
12
cd
b5
0a
dc
24
15
00
d1
e9
0d
fd
2d
e3
ca
fd
00
e0
ba
1c
fc
19
f8
f8
c6
11
fd
ed
02
e7
7f
0c
cd
f4
f7
dc
0f
2d
fc
1b
81
39
28
06
20
9e
20
e5
06
a7
50
09
e2
1f
9b
03
d2
0c
2a
d5
07
fd
d7
16
35
fd
2d
c5
1d
48
10
1d
0e
11
04
c6
2b
fc
e8
e0
fe
50
24
28
11
e2
11
f6
08
f9
0d
da
04
f1
fa
14
eb
fe
d7
07
e1
de
18
e7
f3
1a
1f
f9
09
0b
52
0f
35
07
f6
b3
25
1d
d4
db
ec
20
02
f9
04
01
7f
fd
0f
00
17
1c
e7
d5
66
da
da
dc
03
2d
dd
28
b2
fc
07
0d
ea
22
ae
dc
10
4f
32
b4
fc
30
0a
cc
e3
b7
f5
c9
42
e6
fe
c5
de
50
34
ba
d8
f2
bc
ec
e0
00
0c
bb
dd
21
ce
fa
ea
22
d3
d5
e2
1d
81
c3
00
08
36
ef
77
ee
96
4a
ec
ea
3c
bc
0e
b3
ba
e9
0e
06
17
cc
df
b6
eb
39
04
7f
fa
d9
54
f1
21
24
0c
f5
1f
e9
f1
ce
04
0c
de
0c
b9
d5
27
23
05
6f
2a
dd
0c
1f
fb
07
fa
2f
e5
14
ce
f1
06
1b
d5
df
ff
e3
00
07
e4
c6
f0
4c
58
0c
3b
98
8a
f0
11
40
26
e1
de
bc
f3
bc
2d
1c
0d
f7
43
e1
ec
12
04
29
1c
11
49
c6
b9
81
35
fe
e4
0c
d9
39
0c
26
04
ef
c3
40
d1
b3
f0
cf
08
dd
e0
09
eb
b3
aa
4f
1e
f5
bb
15
e1
e0
c2
00
37
ae
56
2b
3b
23
f7
2c
0f
62
2f
f3
e5
fd
f1
11
95
e0
0a
fb
07
b6
fd
11
34
5a
0e
1f
13
fb
2f
2b
f9
1f
39
20
1d
1d
81
bb
60
30
23
20
d1
f4
47
05
0c
a9
34
fd
db
c8
ed
ff
18
0e
0b
fe
f8
1e
00
ee
26
12
d4
d7
d2
04
e5
e4
fc
ed
ca
2e
c6
36
cb
bc
1a
c2
d4
d9
05
b4
09
28
31
ae
58
e5
ef
1e
de
f9
ff
6e
d7
3f
f3
94
e7
18
df
f3
28
e3
ea
0b
1d
d2
1d
23
c5
1d
d2
bd
30
f8
09
15
2f
f2
1a
f6
24
d5
27
7f
31
19
d6
fb
0c
5a
f0
27
29
0b
d5
28
17
fd
09
00
c2
10
4b
fa
db
eb
e8
05
12
5c
0b
c8
0f
f6
24
a6
29
36
b2
22
d7
f2
1f
cf
26
05
a8
1c
3b
31
27
dc
99
7f
42
43
28
59
b2
e3
1a
1d
e6
f2
e2
07
b1
1b
28
2b
0a
21
e8
f5
3d
0f
3f
15
e7
02
23
16
1e
d1
0f
2e
20
ce
2a
56
cd
dc
be
06
da
f0
41
5a
0b
d4
20
c0
f8
f0
1c
fb
c2
f0
03
ab
ea
20
0e
d4
cd
38
d2
81
f9
d2
e3
e2
b1
18
29
0a
44
ff
16
ff
0a
db
50
cb
ac
3b
5d
f8
36
07
39
63
2e
1c
fe
9a
c7
e2
22
1b
e7
1b
59
03
14
af
2e
2c
bc
28
52
de
1f
fc
e5
fd
d2
32
0e
41
31
a9
3a
25
d9
4d
11
5f
e6
17
9d
81
41
8d
f1
77
29
ec
45
20
f6
24
18
bb
00
ba
23
4d
0e
25
1b
c3
05
19
f6
0a
0d
e3
0c
07
3b
e2
bc
0e
ef
bc
0d
16
03
31
e5
13
14
18
0b
d1
1c
f7
29
f9
d8
7f
0c
fc
2d
0f
ae
b2
d2
c0
d6
e8
05
a5
24
e0
02
f2
f9
02
f0
cb
0d
18
e0
06
f6
b3
57
09
00
c4
20
e2
22
d9
20
0a
c0
26
55
b1
e4
af
e1
c2
ea
0a
f2
81
2c
79
d2
11
02
fd
e5
0e
f6
de
23
12
e7
1a
10
f4
43
3c
50
eb
20
de
29
17
f0
fc
1a
18
ba
fc
c1
dd
41
0b
cd
cd
f8
ef
cf
ed
34
de
df
17
2a
f9
19
1c
04
3f
f7
01
0e
3b
e7
62
0f
c9
e9
0a
fe
39
0d
06
36
dd
39
1d
f0
33
25
f4
11
16
0d
14
1a
3c
c1
06
cf
1d
ef
bb
dc
2c
c6
ff
2d
5e
ef
ec
23
1f
1d
42
e4
34
f3
e2
5b
d4
c5
05
e5
0c
f0
b0
06
f9
f3
1a
f9
ea
81
42
f4
e6
fb
d8
ff
25
14
cd
25
14
d7
2a
01
3f
d8
ef
e7
26
2a
cb
e2
16
7f
e8
df
fe
f6
25
f8
28
ff
ff
f8
20
2a
ed
1c
f7
02
33
00
ea
e8
e9
38
30
f2
03
1b
e5
41
e7
ee
db
08
15
f5
d6
f2
07
39
34
19
d1
fa
3e
2c
10
ec
fa
a0
c1
18
1f
88
17
f4
c5
0d
c2
07
f5
f8
52
32
af
b0
fe
cf
3c
16
a1
eb
f6
36
34
45
3b
00
81
ab
1b
30
f8
aa
b6
ef
12
3e
d5
04
fd
f2
de
01
55
e3
05
c7
02
2f
6c
23
94
e3
bb
f3
16
7f
18
20
a9
e4
06
e7
b9
05
42
22
36
c9
f2
f7
f9
2a
af
21
e2
07
7d
2a
c2
22
2e
ef
11
55
19
14
1c
46
6d
38
b3
38
28
e7
9f
21
3e
cf
10
f9
ea
2c
17
38
ed
1c
34
04
0f
c1
e2
df
24
bb
f5
9b
1a
b4
f7
cc
7c
db
3e
e4
0b
38
c8
11
10
01
ef
ea
d0
23
d7
24
18
05
57
ee
a6
0c
f9
50
3c
ef
b3
e5
13
bf
b3
1f
ba
b6
fd
7f
39
2c
41
ac
cf
b0
c4
e1
c7
b9
fc
1e
eb
07
4e
7f
37
f8
0a
3a
1d
1a
0d
e2
ec
99
28
f9
d9
f0
1e
c9
d9
1d
82
12
3d
ea
92
17
1f
f9
10
97
f2
2a
2f
0e
03
fc
dd
b6
33
e7
2a
3c
c0
09
22
b4
fe
e2
f7
7f
2c
3d
f4
f5
d7
cd
f4
ad
c6
f6
f8
22
0c
f0
25
71
98
d7
1a
35
f1
d8
32
bd
eb
b0
1b
56
da
93
32
e7
7f
2d
1b
32
22
07
c5
fa
b6
7c
fb
a3
61
0d
f8
e9
1f
79
17
b6
f7
38
1e
37
0f
63
27
d4
e5
b4
2f
d4
c6
de
db
28
fe
d3
ae
1c
38
cd
5e
ce
ed
4e
6b
0c
e5
ec
14
42
e1
e5
2a
50
31
1a
6f
25
07
b0
07
2c
09
f9
17
e9
f2
28
1e
01
56
43
db
15
5e
7f
c5
df
d6
78
c7
24
1e
cd
2c
a5
0f
d5
00
df
37
d8
09
e8
fd
13
51
f6
d7
b4
c6
f5
ff
11
e4
3a
9d
f6
b3
8b
f6
11
f4
c9
f9
c8
e6
1c
cb
01
fd
28
05
22
2c
09
c1
e9
ca
42
c7
3e
eb
f5
fd
28
12
18
b6
fe
1a
f7
c9
20
f8
13
0c
18
19
e9
ec
0c
ed
20
64
d1
0a
eb
1a
ce
e6
24
81
e1
eb
04
f2
0f
ff
cf
ff
31
2c
4a
f4
0f
fa
40
f4
2c
03
d1
1c
e7
2a
26
e1
e4
07
ff
de
31
44
f6
66
3e
05
01
c0
2b
db
06
ed
16
e6
0b
f1
16
dd
57
7f
de
1c
ca
da
f4
25
f9
cc
9b
4d
ec
a5
23
f4
f7
e8
f2
b0
ea
ec
15
21
ab
c9
1d
0d
84
f6
17
cc
ca
c8
34
1e
fc
17
c9
5b
2a
b5
b5
2c
11
ce
9c
ef
02
da
0c
bf
cf
2a
12
4c
02
db
d0
05
31
b7
14
c6
28
dd
ca
53
2a
05
02
60
48
62
f4
50
ac
c7
0a
ff
14
05
f1
d9
0e
6e
81
14
db
23
45
15
91
30
36
1c
09
41
e1
4f
ff
2b
c5
0f
fe
e0
d3
13
0f
e6
f5
24
29
eb
d6
eb
1d
f6
ce
f0
c2
ee
a4
34
b4
4d
e8
e6
f2
02
f5
fa
70
dc
f0
de
f1
27
d9
cc
20
06
01
0c
06
ff
ee
1a
1c
fd
ea
fd
7f
26
f8
02
06
3d
05
e8
0d
31
d9
95
eb
39
3d
26
09
34
01
00
e9
cd
f6
08
46
cf
27
fd
de
04
19
2b
0c
e2
14
05
d9
4c
e9
1b
0d
29
d2
fb
47
f9
e6
db
05
49
e1
e2
54
31
0f
50
52
dc
d8
42
3b
17
b9
f6
0f
dc
0a
a6
20
2e
fd
f9
0e
7f
38
ea
ea
03
b6
29
2a
d1
1f
62
0f
09
4e
96
1c
22
f8
e6
4e
3c
ea
16
0a
fd
b5
04
03
15
f4
d7
43
21
27
ed
19
db
56
12
17
56
27
d7
01
00
c6
57
f0
8c
ef
ff
23
07
c8
06
1a
15
00
d8
d3
2e
f2
7f
24
1c
f0
fb
3a
c5
fe
23
26
c1
ec
27
ca
f7
fb
05
29
14
0a
b8
cd
2b
3a
cc
32
dd
c9
f8
20
08
f3
fb
15
28
24
38
d5
31
13
f1
28
0d
11
0c
56
c1
06
10
97
0d
eb
cd
9b
3c
e4
1a
09
10
f1
f1
07
81
da
e4
ea
08
cc
e2
ff
f6
2a
7f
2c
8d
96
47
dc
7f
5e
05
25
0f
14
61
d4
02
da
d9
cd
55
da
56
9f
e1
13
f1
48
5b
f9
e2
d1
24
78
18
f9
17
ff
52
ea
c6
33
16
cf
e7
ed
02
1c
6d
09
bd
32
e4
5d
2e
06
ba
df
a8
9d
04
05
96
1e
e9
51
6c
16
f3
e0
cb
3a
0b
d9
3d
50
1a
b4
5b
fd
01
47
db
2c
fa
dd
cc
ef
56
57
1a
cd
c3
23
0a
ff
d3
5b
46
ef
42
ac
f1
db
07
d3
ef
dd
fc
de
b7
c1
fc
c6
36
ec
fd
0e
d5
b0
07
e4
d8
0e
81
97
2b
30
d6
0d
19
c1
f6
60
24
e5
7f
01
91
c8
05
9f
e2
5e
dd
b7
ab
35
1d
1d
34
af
2a
67
48
cf
e5
19
e7
bd
02
19
06
09
b9
f7
03
df
45
b8
0a
c8
ea
2a
c2
64
ac
b2
26
cf
15
30
29
cb
14
21
20
67
0e
0b
64
21
fd
09
57
15
06
ea
52
a5
ee
e9
ec
e0
4a
10
9e
48
04
06
ff
0d
d9
09
21
fb
be
4e
da
ec
d5
02
41
2d
ef
58
5b
08
ff
27
f5
ed
9e
d5
2b
27
ec
08
1c
cb
fe
20
04
23
03
f2
e1
ef
03
db
81
1c
b6
e5
09
ed
cd
ac
29
e0
3c
de
2a
6f
53
0d
1c
2b
f6
68
a8
d2
0c
dd
a7
54
b2
c8
40
72
f3
fb
84
ee
3e
88
31
c5
cc
3f
1a
29
c6
e1
f7
37
30
db
c4
e4
be
e8
62
06
4d
3c
d7
2c
45
05
7f
53
87
cd
13
d7
19
fe
f7
1d
38
1c
6f
cf
13
a8
9d
7f
e6
01
3e
ed
dd
b2
f0
28
2b
fe
bf
3d
f1
52
d2
bd
fa
f3
ec
11
e8
b0
15
ca
fb
30
58
cc
29
f5
db
f4
f1
eb
fa
d1
e0
b5
8e
3b
a8
08
f7
0a
d1
6d
f6
0e
10
d4
90
37
51
0f
0f
81
19
cf
09
9c
4e
a9
28
a8
b6
d7
14
ef
e6
13
30
ca
dd
ef
5e
7f
14
39
21
25
01
36
f1
03
47
ac
05
ef
d9
d2
3c
db
38
e8
06
16
fa
d3
1b
9d
e9
cb
40
ca
18
3f
eb
df
c1
4a
11
24
f2
06
43
5d
09
2d
c3
af
3b
50
26
7f
d9
16
14
ea
42
0b
23
da
66
18
ec
b9
ec
49
c7
d4
eb
52
9c
6c
01
de
cb
06
d8
fb
2d
a0
2e
d8
86
08
5f
2d
97
28
fb
f2
c3
03
c6
17
5c
c9
cb
c1
a2
da
c4
de
cb
ba
bb
08
21
04
20
dd
7b
04
d7
c3
61
2b
f8
15
16
24
d7
9f
16
27
25
76
18
0a
6f
05
ee
fe
0e
cf
da
34
f6
1d
bc
ea
e5
34
3b
58
12
d3
3b
9f
51
81
45
f1
ec
06
0a
cf
3b
cb
f8
c3
26
14
3a
fc
b6
49
d0
b0
1c
2c
99
0e
5b
f2
19
19
f0
12
ec
05
19
d6
f6
23
d0
f1
9b
0b
fb
c0
bd
f0
f8
f0
c7
25
39
ce
ef
c0
cb
d9
22
b5
23
c1
47
12
1f
e6
20
7f
47
fa
e9
ed
e2
ef
b6
f9
38
47
21
04
e1
b1
de
15
53
37
22
48
34
d2
1e
d2
0f
f2
42
44
4d
ff
15
0a
c3
01
03
cd
e3
3b
11
05
e3
0f
f3
06
e7
2f
ec
29
13
dd
0b
0e
d9
0c
a2
4c
34
e4
f9
d6
5e
18
2a
d4
e2
08
0f
14
41
81
fd
0f
e1
24
ff
43
f4
db
18
f6
22
23
1a
35
36
d5
3d
0a
fb
3f
e2
f0
13
e0
f2
1f
1e
ed
0d
00
09
6c
c4
d6
01
8f
bc
fa
e3
21
d5
36
53
ee
16
f3
b3
26
f9
b1
4f
f4
16
fd
dc
67
d8
20
d6
c1
d1
e6
aa
20
42
c7
81
98
f6
e3
4b
e7
0a
21
ad
40
3c
4e
18
ed
15
18
f2
1f
27
2b
9c
02
cf
f3
b5
1d
0d
0d
dd
0a
2c
73
2f
f6
03
9a
e8
e4
fb
4f
cf
e9
e0
a2
28
ef
d1
b9
0c
fc
ea
d5
1f
fa
07
ea
47
13
2e
e2
3d
1e
fd
b4
ee
ec
e3
26
4f
b1
de
1e
eb
ee
e7
7f
1e
d6
43
fb
d0
a5
f1
bb
e9
f0
2e
24
eb
b0
1b
38
67
ea
d1
08
4e
30
00
b3
7f
0a
26
ed
b7
02
e1
f5
02
fb
c4
56
a1
20
31
05
fd
3b
0e
33
46
c5
33
e9
fe
ea
09
15
c4
3e
06
e4
34
3e
f5
a8
dc
f2
f8
ca
de
d6
b9
95
22
89
eb
dd
b1
ec
68
0d
b8
17
1f
f6
0e
b2
52
0f
ce
1e
dd
09
df
18
03
4e
f6
fd
e2
89
32
36
01
15
0f
b8
1b
ce
38
1f
01
20
0f
2a
e3
0f
e8
50
4c
b2
4b
15
38
0c
e2
f3
d4
0b
d8
b0
e3
b0
01
ec
7f
f6
5a
ea
cf
df
39
01
12
c5
22
2b
e3
bc
d4
19
2a
fe
66
fe
b4
0b
ea
0c
02
39
bf
e4
2d
86
16
1c
db
c5
ef
fc
d7
fa
3e
0e
ea
2d
cc
2d
f4
01
fb
1c
2c
81
05
d2
20
4b
d6
dd
98
df
33
17
c3
1e
26
d0
fc
19
0d
fa
e5
be
37
0c
c7
fd
a7
f1
e2
f4
f6
17
d9
45
dd
51
0c
20
7f
0b
d2
3b
8f
f0
17
eb
07
36
15
0a
c4
5a
ed
15
15
07
29
fb
da
d2
d8
f2
45
52
d8
ff
de
cc
bb
25
d7
b5
b3
52
ed
da
fe
09
37
cd
25
27
e8
f1
39
fd
37
2d
ef
25
f9
f1
ec
0d
e7
f4
56
13
ff
6a
cf
e5
2d
ff
2a
5d
7f
0c
2f
b8
ee
21
31
90
0b
23
e7
0f
04
fb
3f
40
32
e8
d9
24
e3
15
30
c5
2c
db
ee
37
12
34
0d
23
33
10
02
0c
01
e3
29
ed
a7
d5
a1
10
74
97
31
06
81
1c
da
06
0a
f3
f0
30
2e
14
10
12
2b
1f
9e
09
1e
29
12
01
d9
f2
1b
ea
e3
e3
d9
e4
18
ff
e6
4b
1f
e8
1c
1f
ea
de
06
e9
ce
03
07
cc
ee
f3
f6
14
02
c3
ea
20
01
14
d6
d8
1d
13
22
25
21
0f
56
f4
ba
1d
e5
f6
bb
ef
b1
31
f2
bd
a8
f5
7f
11
04
22
c9
a5
48
2f
38
e4
0d
06
3c
b7
a0
fa
d3
d0
de
75
3a
3b
3c
bf
fa
f5
5d
c3
d4
2a
16
c3
d3
b9
fd
d5
bb
ff
9d
09
d9
e2
e2
36
44
bb
ee
fb
b0
56
fe
cf
12
2d
65
9a
4d
f9
e5
2b
16
33
13
9e
45
15
25
33
e8
9f
6e
59
14
70
bf
fd
74
f4
1f
f7
fc
f7
0d
60
25
81
41
20
bb
65
e5
e6
2d
1e
52
ea
32
da
07
ee
dc
c5
fe
0c
9b
28
0f
f9
dc
bb
f6
31
e6
34
11
e4
e2
37
ed
a4
42
d0
10
2e
e3
13
4a
f0
ef
17
f3
1d
de
fe
38
eb
db
42
e2
db
fc
02
37
2a
19
04
50
2f
3c
b4
11
22
fe
e7
45
d3
35
0a
0a
b4
2c
f2
25
1d
05
f5
26
fb
06
fc
aa
16
81
e3
ff
53
e1
d9
61
74
c4
cc
e6
ec
f1
f1
09
0e
a8
1e
a5
0d
09
e8
c5
de
38
f4
0e
11
c4
1c
8f
4d
ea
09
60
91
ab
02
07
17
e0
9e
4c
ac
1c
5a
cc
e6
25
9f
af
34
1a
35
57
a8
e6
c4
03
de
81
fe
07
b6
0d
1c
fd
41
2e
04
d8
e1
0a
e6
e7
f4
ec
42
02
fd
12
e8
25
81
50
39
fe
1a
6b
3c
1a
0c
f4
15
17
d7
7a
cb
56
c0
ed
42
3a
f0
24
c0
d2
70
cf
03
15
e6
39
be
d6
fb
00
f0
c8
ed
ca
23
51
d7
f3
1b
ec
28
15
c8
28
04
2c
f7
00
52
10
ad
57
55
a8
24
e5
f4
08
5d
d6
d6
0c
ff
7f
e6
14
d6
09
49
ee
07
01
10
47
d0
1c
0c
f0
d0
35
26
4b
da
f3
d3
b1
dd
3a
1e
36
f7
10
bd
7b
39
30
e2
cb
00
14
c2
1c
f7
df
d0
d5
d5
bc
22
bb
db
f8
fb
1d
e4
0e
bc
07
44
e9
df
49
01
34
c6
12
24
e1
05
22
29
e4
14
06
e9
e2
17
01
cb
14
24
22
27
0a
09
f7
be
da
4a
18
da
51
12
d0
1c
9d
e1
ee
ff
ac
e8
ea
ff
28
81
0c
30
f4
13
d0
9b
0d
0a
e2
f3
5c
5a
f3
e7
23
eb
11
d3
c6
fe
ef
11
cb
ee
08
5d
4c
39
04
1c
cf
23
f7
2d
25
22
e2
e7
40
e9
fb
60
48
39
1e
81
14
46
ca
09
d3
d1
24
46
e6
e3
28
e2
d3
ea
e2
34
1c
f7
ff
e7
04
06
1f
fd
17
18
ee
c9
02
e7
25
30
54
de
c9
1a
81
e5
30
0b
c1
3d
3d
04
f4
1f
b9
21
10
30
91
f8
11
cf
01
39
11
dc
e0
f8
fb
d8
4a
c6
ab
af
1b
f4
10
b2
af
f5
cd
f4
cb
ef
ed
c8
df
19
ec
1a
0d
33
fc
35
f2
16
1f
18
dd
09
50
e8
1e
15
fc
cb
e9
dd
13
09
29
e1
08
c3
59
0a
c4
bc
32
f2
fd
ce
02
ee
1e
09
32
f9
df
38
c9
0f
07
e5
5e
06
01
fb
f3
2c
0b
21
ef
48
37
ff
04
0a
fe
2e
21
1b
fc
4f
db
d2
e4
47
47
f2
e4
7f
f6
71
55
d8
4e
33
db
b4
f1
58
dd
e2
6a
d5
3b
d9
46
bb
05
07
27
ef
e6
b7
52
09
16
1f
18
12
00
e5
13
f6
19
e2
a5
ca
e9
7f
43
17
0d
2e
17
30
07
d2
f0
e3
f7
09
2a
06
f5
f1
f1
d5
f3
1b
3f
04
61
2b
9c
dc
e6
53
28
09
19
e6
a1
ee
24
7f
ec
a4
aa
fd
dd
b5
29
1a
09
00
f9
09
4f
ec
ec
c5
52
3e
40
40
de
31
31
e7
47
aa
89
da
a3
f4
56
dd
1c
e6
1f
20
d6
f6
ef
02
0c
3a
f8
3e
0a
57
e3
08
1d
be
ec
c6
f6
ed
b1
df
46
ab
0b
94
ea
89
e4
4e
c2
38
e9
bd
07
cc
d8
25
77
81
46
b9
00
ae
cd
13
30
21
ec
b1
fa
26
f7
76
08
b0
c6
4a
5f
08
fc
ea
27
0b
9d
48
ee
13
f1
04
20
40
2e
27
ed
21
e5
c2
3b
e6
cf
29
ef
d2
37
20
a9
24
33
32
e3
09
f8
ef
d1
c4
06
01
dd
18
0d
ec
3e
c1
2f
ab
1b
12
4d
e1
05
f3
d3
f0
04
19
e8
de
56
f6
e5
04
f0
21
e5
0d
0b
07
de
38
e0
df
24
3a
cb
ea
af
7f
b0
44
17
f9
17
99
0e
db
1d
f5
16
15
d6
0f
15
03
dd
f1
04
f9
ec
22
02
11
1e
fd
3e
11
e6
d7
37
2f
e9
12
1e
18
29
21
f2
f5
f8
1b
f0
07
e6
01
ab
f4
4f
f7
ea
03
24
2a
e7
7f
b4
04
c5
1c
29
e3
09
21
ff
5d
08
06
f7
00
0a
bd
22
00
26
42
bd
ce
f2
27
d8
a7
c6
6e
7f
dc
e3
b0
57
d6
60
5f
93
d6
03
da
3d
28
49
7c
2e
b8
64
3e
f4
50
2c
9e
b9
90
c7
9f
79
21
5b
f4
2e
16
2d
08
e0
a1
ec
ce
fb
e5
4f
e3
d2
9c
e8
06
13
09
3e
e5
cf
e0
0c
f9
33
15
24
15
10
9b
de
1f
24
da
f9
d5
63
e1
16
f7
46
bc
14
c4
dd
c5
f7
bf
0a
b7
47
e9
f8
dc
da
bf
f2
14
c0
05
23
eb
1a
e1
ee
c5
d0
f5
ed
fc
ce
07
0c
f7
1c
11
e6
10
43
07
50
0a
f9
de
81
f2
38
c6
18
d0
03
cc
b0
7f
36
30
9f
ee
49
bc
ec
e1
9a
fc
24
e3
cf
9a
55
20
0c
0e
07
ef
1a
3d
d5
51
3c
da
3f
d6
b2
47
3e
2e
f3
24
c7
c3
f4
05
f9
eb
f8
0b
d3
05
46
48
41
20
f5
17
31
c8
f2
f7
ff
72
5c
39
12
2c
f4
d2
bf
18
58
ed
4f
d6
35
0b
38
09
23
24
a3
4e
f7
f1
4c
23
d7
09
35
2b
ee
b8
eb
09
9f
07
2e
2e
a5
f5
23
3d
1e
b9
4d
26
ee
26
b0
01
32
03
01
ca
24
f3
e7
c7
62
c5
55
2c
a7
81
17
22
f8
18
01
12
0b
18
fd
c2
d4
ff
29
52
f5
25
f0
f6
e9
c1
bb
32
02
31
81
61
15
f9
19
ff
e8
ff
27
fe
41
01
29
14
12
f5
bf
14
fd
e8
07
e8
24
e1
12
aa
4a
32
1c
56
26
d8
e3
f6
fc
0a
f2
c2
f3
26
22
f7
3c
0b
d3
19
c9
22
94
44
d5
33
17
ae
e1
f5
a2
44
07
05
09
06
33
cc
0e
2c
00
17
d4
14
d6
0b
d7
1b
01
7f
a8
20
06
3a
1c
e9
17
ab
f8
c2
ac
2c
13
d8
f9
2f
f6
b8
35
fd
c5
13
19
e7
d4
1b
e1
e7
60
10
e8
ca
14
58
e5
f2
f3
9f
3b
54
c5
cd
20
dc
24
26
a6
24
4f
cb
de
d8
78
4f
02
a1
0a
3a
48
f6
fe
75
4f
54
ef
a0
20
ca
1b
7f
29
db
c8
a5
ba
e0
85
8d
1c
ea
a2
2d
2d
5c
1b
ed
4a
fe
fb
b8
04
56
15
30
59
7f
17
f6
f7
bc
f0
50
1a
41
71
c8
2f
b0
e8
db
63
1f
cb
2a
3e
d0
0b
51
8e
ff
e7
bb
ba
24
0d
fa
46
d6
1b
d2
a7
ed
ec
08
b4
bc
6c
25
a8
45
d9
12
09
0e
95
a9
c7
d0
1f
f5
af
93
2c
26
cc
c9
28
36
0f
46
10
39
c4
0f
0a
03
04
0d
d2
c5
c4
15
0d
7f
e1
ec
f6
d4
4a
c3
43
ff
11
cd
20
fc
d5
15
41
29
de
20
e6
1d
0e
26
4c
11
59
f0
8a
fa
2b
57
35
12
68
ed
ed
3a
4b
11
c5
d2
e8
2f
71
37
ed
0b
fb
ac
11
cb
37
00
63
1b
86
fe
e7
1a
e4
09
e8
f1
27
fa
f5
00
42
e0
f2
4a
1e
cd
17
cc
18
0b
20
b7
f0
fe
df
3c
2f
db
e3
4a
d9
f0
dd
dd
45
f3
dd
30
81
f6
e6
e7
b9
4f
0f
4b
16
2d
11
16
0e
28
1a
1a
61
04
37
57
08
18
3f
49
bf
2f
ec
d3
d8
fb
b9
10
ea
03
f3
49
ec
0c
db
81
c5
26
06
a5
20
f8
ec
31
fc
40
41
91
d9
f2
ad
02
e2
e4
dc
02
1e
eb
f2
28
e3
ff
f1
17
b1
54
61
16
fe
e9
55
d1
40
e9
f0
cd
fa
bd
17
d6
2c
05
cc
fc
28
bc
29
e2
1a
ce
ff
20
36
d9
25
41
37
dc
f1
27
28
28
c8
a7
46
ff
30
c4
00
2e
13
f6
fa
99
e5
ba
10
02
28
fc
f4
20
02
0e
f6
1d
ed
ef
0b
40
f9
5d
68
10
03
03
7f
a1
e9
1d
d6
29
1e
1a
f1
15
b2
ab
f4
32
67
2c
d2
c2
f3
f1
18
2f
14
51
14
f8
14
c2
7f
16
51
45
28
ed
04
05
08
fe
bc
be
37
50
fa
2b
0d
50
c4
ec
fe
e8
ba
f4
2c
ca
1e
eb
fe
61
d0
3f
f1
2f
39
e0
fa
f4
a9
c0
f8
e9
01
ff
f4
1c
39
db
14
35
df
2d
40
03
ff
23
1b
4b
e4
12
48
e3
e1
0d
40
eb
1a
07
01
f3
43
18
0e
36
0e
29
42
fa
0c
af
e7
d7
5e
a9
f8
12
cd
f1
09
f0
08
f9
37
d9
b5
0f
38
fc
c7
fc
f5
ff
22
7f
23
1e
45
00
01
25
6b
c4
0f
c9
c1
32
1f
fe
0c
c5
75
4a
db
31
12
b2
5c
08
f5
4a
b4
31
20
ac
35
ff
28
39
0b
68
1d
92
f9
53
df
31
23
81
ee
1c
47
dd
06
1c
16
c6
e3
ec
00
e9
9c
1a
02
f8
0d
89
0f
01
de
13
dc
cd
2a
08
aa
f0
f3
79
f6
e9
47
be
b1
43
ec
22
2f
1f
da
e0
4f
af
0f
38
e3
d1
13
46
d6
f7
7f
32
fb
35
fa
c7
e4
04
1f
26
d0
fe
c0
c4
fc
3b
f4
bc
f3
1d
26
a4
31
35
ee
a4
07
08
06
d1
c7
ed
d3
88
0b
2a
b4
14
d1
1a
d3
26
98
c0
35
ec
1b
49
4d
e9
d5
d4
fe
03
62
fb
1c
1c
d9
0d
03
1b
e7
1a
fd
30
cd
fa
d5
27
a4
cd
2a
75
0f
aa
96
c7
c3
2c
97
cb
c5
20
0d
46
09
ed
2a
a2
81
2d
ea
00
4e
d3
ef
02
11
27
01
3d
0c
49
cb
3b
74
04
03
25
54
d7
e0
cd
e2
2c
1f
01
e3
a9
85
26
44
aa
f4
e1
ce
ab
23
ea
0f
5b
4f
e1
e5
20
e0
d3
31
52
35
dd
dd
0f
d9
0e
d9
13
ef
e9
21
20
c5
f6
da
36
e4
a9
88
ee
38
7f
0f
15
0d
05
e9
12
ee
00
d0
4e
d3
47
34
f0
0a
11
fe
bf
d1
18
7f
d7
3d
18
e5
22
df
b7
34
ef
06
03
f8
d1
26
e6
0f
dc
1f
10
04
62
23
03
dd
d6
25
f8
54
ea
fd
f9
d0
13
49
41
a4
f3
04
22
cf
c0
24
e0
d3
07
23
02
1f
d8
57
23
e1
e5
45
1c
09
32
ff
0a
f4
16
04
58
08
01
2c
ea
e1
c9
c5
e5
13
2b
1a
52
11
c0
9d
ba
e6
e6
6a
1b
21
7f
b8
f9
07
0b
2f
ba
03
3b
10
ee
45
65
0e
05
cd
60
2a
27
1a
17
ca
17
60
fd
bc
f6
e1
ee
df
ef
2a
ed
23
0d
4e
f1
7e
6e
de
df
cc
17
f1
f8
10
36
0f
fb
f8
cc
31
21
2c
0d
04
6e
0a
d8
24
f1
cc
fd
0b
f8
c3
f3
34
d7
4a
fc
c7
3b
0c
1a
f9
d9
dd
e1
ee
fa
2b
81
f6
30
de
d9
ec
2f
ea
2c
0f
e5
ea
02
00
26
fd
13
10
2e
d9
ce
fe
db
12
f6
23
e8
09
e6
17
d0
00
f5
f2
29
f0
f5
20
ee
f7
1a
fd
ef
06
ea
06
0a
2c
f5
2d
26
08
cc
d6
1c
e1
fd
7f
2c
09
d8
e2
17
e9
16
e8
37
fe
06
3a
cb
e6
1c
20
e3
1c
0e
f4
19
d9
e7
e1
09
11
4a
fe
13
fe
98
35
b9
d1
29
f4
2f
31
0b
15
bb
c6
1c
f1
e4
f0
f7
f1
28
25
d3
f0
f9
ee
f8
97
08
de
08
e9
15
13
4e
3f
4a
04
49
26
56
40
14
f9
0c
81
27
48
f8
b4
d5
ea
e3
06
f1
26
e1
16
08
d0
01
e1
09
c9
14
ef
d8
42
0b
cc
15
0f
07
23
d8
f6
3a
81
c4
a6
1a
fc
ab
0e
ba
21
17
fe
d6
e6
e8
d6
ff
fd
c4
37
fb
da
f6
3a
f5
df
37
c1
09
1b
e2
c5
cf
26
e9
26
1c
ee
ce
eb
fc
09
e6
c5
2c
cf
1b
10
0f
14
f9
f2
07
dd
e5
33
1b
fa
de
57
59
f6
20
f7
f7
22
f8
13
fa
28
e5
07
34
3b
04
d1
e4
e1
bf
e3
ef
24
e4
ec
12
11
64
01
05
81
0f
fc
e7
1b
0c
09
f3
df
09
7f
0b
07
d7
cd
2d
f5
f6
f3
0e
f6
eb
f4
f4
19
36
f9
fa
18
db
e1
06
0a
3d
24
02
ff
bf
05
07
05
03
3d
3b
59
df
eb
f3
17
f2
3a
c8
1b
d4
ce
de
06
fc
0b
d8
11
3f
e8
cd
f5
2d
28
2b
ec
e9
27
ed
05
c0
4f
48
af
02
b9
61
38
bd
f6
40
27
fa
12
36
43
13
00
04
d4
42
e5
33
bc
e5
d6
fd
c9
d4
34
28
15
f5
65
48
10
81
51
03
ea
ea
26
cb
f9
b5
dc
36
13
27
35
ed
15
0e
ec
e9
d3
e1
fc
1b
c5
26
e7
f4
e2
e4
cc
e8
0b
34
e9
1a
42
31
4d
32
87
3c
81
ee
97
0a
ee
fb
c7
d4
1c
ec
91
e2
c8
d0
d9
d0
30
43
06
0a
00
23
1d
05
bf
44
f7
77
02
0c
cb
f8
9d
e1
d8
11
f1
18
31
0d
fd
ed
04
00
e7
13
26
b2
89
29
31
42
06
1c
c4
fa
47
bd
d6
53
05
34
13
20
58
fb
3c
f6
7f
17
e0
ea
3c
17
27
53
c8
dd
d0
e7
2e
51
05
bc
21
2b
7d
e1
f9
2e
f4
1a
39
56
f1
e8
ba
c4
17
00
9f
b4
fb
64
1d
29
e6
1c
ad
e8
fd
bc
fd
35
22
e0
21
49
bf
30
14
ff
db
1b
ed
f3
39
b8
fb
f8
58
2f
ab
ee
1d
cc
76
b4
10
ef
0e
bd
23
7b
ad
fb
bf
48
17
37
29
f4
40
10
32
36
6e
66
f2
34
c7
7a
d0
15
69
01
b3
1f
06
e2
13
e8
ea
49
29
81
f1
04
07
03
06
d1
d5
ca
36
e4
95
c2
69
05
e2
1c
c0
ea
4c
df
96
fe
75
28
3d
dc
17
ca
b8
81
78
0b
ea
96
d7
1a
17
cf
c9
d2
83
c8
e4
c0
89
a8
0a
0c
6d
f9
7d
af
cd
e3
33
c8
52
21
96
fa
0f
12
18
2b
57
3d
fd
01
38
65
16
44
62
c0
23
49
9b
7f
dd
1f
45
cf
0c
42
d9
0c
1f
d9
43
3e
60
e2
17
1b
e4
fa
ee
0a
33
40
01
32
3a
cc
ea
19
fd
2b
0c
de
dd
bb
d2
f6
17
af
12
41
e0
35
ff
18
f5
a8
c1
e6
f2
ca
13
0b
f7
ff
07
eb
2e
5b
e2
ff
fc
f7
16
05
4c
fe
f3
0c
0c
46
34
1e
7f
37
d0
f1
e8
3e
26
f5
2d
de
11
df
04
e8
f2
e1
12
02
df
f6
42
0d
ee
b8
d5
19
11
19
e6
fe
07
17
b9
1b
31
19
a4
f5
68
ff
e4
f7
2d
ce
05
ce
f1
14
56
39
c5
d0
de
f5
33
32
49
d8
eb
19
64
d8
20
13
e1
e1
f3
df
1a
2b
ad
ee
4d
45
f5
ce
15
e9
5c
31
16
12
cb
7f
11
08
e7
78
15
89
24
f6
24
10
23
e2
de
3d
ae
5d
ed
0b
22
00
f7
17
37
ee
f8
87
08
c5
ec
16
0a
dc
e8
39
b9
14
81
e8
d9
ab
fb
01
09
1f
f0
a7
3c
42
f7
e8
c8
2b
f4
04
3d
af
ac
eb
11
4e
e7
12
0e
53
1e
c0
d7
da
ed
0e
11
e5
fc
b0
b4
1f
e8
0b
18
26
8d
b5
c5
f5
bd
d7
e7
dd
1e
b3
57
ca
19
04
f7
0d
e1
fc
fb
2e
2e
c5
21
f8
26
52
f7
7f
13
c4
22
f8
e8
23
fc
21
dc
07
5c
ea
da
5e
d2
32
02
11
dd
3a
f4
4d
43
15
ca
23
f5
1a
18
d6
d6
f3
18
16
e5
1d
db
9a
0f
0a
11
d7
02
f9
bd
e0
12
31
ee
eb
cf
e5
e0
11
38
dc
12
01
7f
da
bf
bc
17
f9
e4
34
d5
0d
aa
26
dc
19
d8
92
17
07
ff
f2
6e
b2
f5
29
27
e6
d4
e3
56
d4
31
25
1a
47
f6
1c
15
e7
90
50
b4
2b
fa
6a
be
dd
fa
f1
d4
07
27
5b
48
f9
0d
f5
21
0d
fd
04
f2
4c
06
f3
12
f8
45
3c
d8
7f
04
e6
50
07
1c
10
cf
37
1f
10
3d
c7
ec
13
09
3e
01
d5
e3
33
cd
1e
23
f9
f9
13
2b
1b
1e
ef
07
f6
0c
ff
d6
27
eb
d9
0e
02
e5
c8
e4
00
e8
e0
43
1c
f2
1a
03
35
08
dd
d8
e1
f9
23
81
ca
0c
51
b3
ff
e9
b5
e7
08
f4
02
1a
27
c8
f8
15
01
16
38
bb
6c
4f
50
ce
f2
fb
f3
3a
dc
f5
c6
f4
49
47
1f
f0
dd
12
21
e8
c2
04
bf
fd
b2
01
e5
d9
f1
0c
cd
27
0d
fd
cd
c2
bb
07
ee
a9
f4
41
1f
c1
3e
e6
f7
1e
07
22
50
d7
bc
c1
fa
1e
db
07
0c
2d
42
25
45
0c
28
fd
d8
d7
7f
ff
22
13
11
ec
f4
ee
13
db
36
ed
e7
f9
de
1d
0d
b9
37
fc
2d
de
39
fd
ec
01
aa
4a
63
d0
29
3b
da
17
08
2e
19
f8
ec
30
37
6c
26
e4
11
fc
c0
f7
2c
12
77
ac
55
e1
e4
65
e5
f5
4b
bb
ba
69
ae
29
4f
04
19
18
53
c4
d9
d8
c1
ee
4c
1c
e6
32
71
dd
ad
b5
bb
0e
12
29
a5
7f
1e
33
16
48
1b
34
24
4e
00
3e
41
f9
01
bd
a9
fb
81
02
1b
01
45
89
29
32
ee
1f
35
f5
1b
18
14
12
0c
db
24
74
23
3f
e2
04
e6
26
db
12
f3
06
e5
3f
fc
85
0c
5c
f1
9c
f5
7e
13
19
b0
f7
d3
e8
e2
ef
3b
d2
e0
ee
68
3b
1a
d5
2d
cd
70
fb
e7
14
f3
ee
0c
04
1e
81
ef
41
f0
33
e6
2a
27
07
96
c7
e1
23
c6
13
08
1c
e2
e6
bc
c4
08
de
54
cf
d7
00
28
12
27
10
e9
ac
1b
05
ee
4b
3a
10
dc
dd
41
d9
26
43
2a
fd
cb
29
19
e1
81
1f
50
ef
11
e1
17
27
fc
19
04
42
1d
e3
e5
b8
ec
9b
1a
fb
f0
09
19
0a
b1
45
ff
28
f3
1e
1a
aa
07
fb
1f
f2
fb
e3
23
e2
22
d3
e5
fd
e5
05
03
fa
2d
bb
cf
fe
fd
12
0c
57
c7
3e
c2
48
2a
f4
2b
34
64
06
07
cb
f3
e2
c8
2c
22
3d
f6
24
ef
2e
4d
f4
03
4e
f6
03
90
02
03
05
cc
f0
f6
1b
28
99
11
29
bc
d3
15
f6
58
08
dc
ec
0f
ae
be
9a
b5
fd
3b
fa
1c
1a
c2
e1
18
11
7f
6f
25
10
ca
aa
e2
06
f6
f0
05
28
1b
d5
2e
d0
1a
ed
15
ec
f9
09
38
29
25
f9
e2
49
c5
30
ef
23
29
0d
07
f5
09
da
e3
9a
f9
0d
ef
dc
12
f6
18
29
54
10
bb
54
07
d0
1c
08
76
19
0a
1f
cc
da
c1
32
42
7f
3d
3e
c7
29
cb
07
0d
a2
d8
1f
e2
09
10
f2
e3
fc
20
c1
1d
e7
22
f8
48
69
15
f2
1b
dc
5c
43
bb
ca
5d
24
0e
ab
43
03
40
d5
ae
ad
dc
41
1b
4f
ce
fa
0a
09
c3
d4
ed
c1
1e
81
d7
0c
16
c1
3d
cf
08
47
b9
e9
e4
4b
1c
ff
23
f0
b6
e3
10
4b
05
a5
38
6a
f0
ca
f6
d9
f8
11
fc
a9
5c
53
38
00
e4
7f
4e
f5
1f
bd
4c
fc
d6
f6
38
ba
0b
1a
1e
d4
04
fe
04
00
6c
f1
37
fb
fd
de
24
ed
3e
20
da
08
f0
ec
ff
f9
31
1a
e4
e9
0c
f5
29
f4
e3
26
fb
c7
cb
33
5a
e2
ed
fb
d1
34
47
e2
3b
fd
04
f6
ed
db
35
c8
ed
20
ec
26
26
17
3b
14
0b
7f
c3
06
d4
04
c9
14
fe
00
12
e8
4c
e0
25
fa
f7
12
fe
c6
0d
01
8c
f1
11
08
a7
c7
e4
26
01
4e
cb
d2
dd
13
45
03
b6
ef
f5
ed
d7
05
c6
40
f6
d7
3a
17
44
d2
4f
11
7f
d4
4b
19
1b
f5
09
1e
0a
28
c9
09
df
e0
0e
fd
0e
66
35
d8
f2
be
e7
5d
0c
25
2a
16
44
34
d3
93
fb
dc
f7
30
1d
16
d3
4a
20
05
14
0f
f9
fa
d2
07
e8
c8
58
47
d9
53
50
58
dc
21
dc
7a
0c
f4
df
69
20
0b
1e
20
f7
0c
c3
f4
f3
0d
63
21
d2
23
2b
a0
4b
49
05
57
21
14
fa
74
18
04
7f
c7
15
05
bb
c2
f2
d5
62
05
e3
f9
9f
e0
e7
07
ec
33
f6
38
97
10
13
04
2f
bc
31
0c
24
23
2f
c5
d5
d3
23
db
f8
d3
f2
0b
af
bf
f5
2c
d0
f9
00
fa
4d
30
20
e7
30
42
1b
b4
cd
82
0a
b0
44
b4
1c
e8
7f
fa
9e
03
2e
93
a5
c2
ea
57
d6
1a
43
dd
c3
ff
dd
e1
c1
ec
ec
0c
26
4e
15
d8
e5
25
f9
3a
00
c5
34
d0
31
16
23
e3
03
e4
27
fe
fb
e8
f1
00
c3
d1
39
ee
ed
61
f9
85
1b
00
f8
ef
12
11
81
3e
fb
57
59
bc
3e
f0
d6
17
f5
20
cb
a8
ed
1f
3f
2d
98
06
52
1f
19
23
05
3e
29
23
4a
45
43
8b
d3
7f
23
ab
d6
32
fc
f8
ce
c3
36
14
dd
0c
d9
47
3c
1c
28
d0
ef
e7
ea
9d
39
0f
0e
ec
e3
d8
f6
03
7b
02
00
f7
ef
ab
19
5c
16
27
bb
1f
bf
09
09
be
a3
de
f8
24
10
07
1c
9f
07
11
fe
f4
6a
05
fb
d2
c3
16
21
17
10
16
f9
5c
cf
e1
2b
e7
13
26
e8
d6
50
3b
fb
a6
03
08
2a
81
5b
31
eb
05
ba
35
e0
d2
47
e5
f8
e6
aa
23
40
ff
1e
e3
27
21
d3
11
d6
cd
e0
02
e2
3d
07
fd
f1
45
2a
fb
c7
c9
21
e5
35
e1
e9
2c
23
f4
37
0c
d5
08
12
0c
e7
08
39
d5
05
1f
e1
37
4f
fb
48
7f
cd
11
3d
14
1b
0f
fc
e8
02
2b
ac
6b
30
11
d3
4e
29
d4
cd
c5
f6
12
f8
3c
93
10
f6
e5
19
63
59
fa
8c
f9
34
0a
3b
c1
f7
e4
41
5d
e3
1e
11
03
dc
b7
25
d9
04
de
23
f4
5c
9a
a7
cf
51
10
c8
bd
f9
41
23
4f
d1
a5
3e
02
48
41
e9
cf
1f
45
dc
23
40
15
a1
31
a1
2d
33
e5
81
c9
d8
01
27
d7
6c
0f
e0
d2
19
ec
bf
f1
5f
14
1e
2f
cd
f9
14
1e
f2
e3
1f
02
d3
d2
2f
15
fe
20
bb
cf
4b
20
ed
e9
24
1e
f7
16
f7
0c
d2
1e
e7
2d
f8
e1
b7
fb
dd
4d
ae
0e
55
e7
7f
fd
39
0e
3c
bf
67
16
eb
18
0f
fd
f0
7f
2b
dd
c3
3e
e6
03
f5
f7
1d
f1
04
3e
b1
00
07
dc
d1
1f
11
fc
09
c4
19
f5
1a
06
e9
12
0d
e5
2f
17
f4
10
ca
e9
ea
15
fe
1d
0b
0f
da
14
f5
11
0e
26
e0
ff
46
15
f4
22
1f
c3
45
cb
be
25
31
c6
f7
00
f4
e8
f3
54
0a
2c
15
0b
38
f1
1f
0d
d8
f6
1f
1b
24
2f
fb
07
ee
ad
04
f7
d1
03
fc
05
12
ea
34
7f
24
05
f7
01
e6
f0
26
d9
bd
1f
06
19
fb
29
22
de
e1
fc
03
1c
dc
f4
31
e9
fa
2c
e3
e7
eb
fe
17
30
06
f4
36
07
0b
a7
41
45
22
44
de
ca
81
15
19
ee
10
ee
d7
f9
fe
0b
e0
4b
e7
ff
cf
04
a6
dd
0b
f6
d8
10
53
19
4b
19
d2
c0
1e
f0
98
04
6a
38
db
cc
13
e6
25
f7
39
ba
37
38
be
50
3e
0b
01
08
24
04
06
10
b7
f3
18
fb
a4
27
ed
b8
13
ff
d0
26
2b
36
d8
ea
25
2f
d5
c1
ec
fa
44
c1
c3
11
33
f1
c4
f6
d2
f8
3a
de
00
2b
46
ed
1c
66
bd
24
cb
04
00
df
fe
81
0b
98
bc
b9
08
cd
89
b8
e9
26
c2
46
e2
18
e6
2f
dc
f7
9c
f2
17
10
0d
17
7f
eb
36
08
ce
ec
d2
ea
14
e2
30
41
09
e5
eb
71
3f
43
f9
23
2f
20
3a
e3
d5
31
19
9e
10
fa
09
ce
36
e3
33
ed
3b
e0
29
d8
b9
22
28
f2
ed
27
5c
1a
25
d2
d2
0c
e7
fb
37
0a
0f
f0
f5
16
0d
b7
0b
00
21
d7
f6
31
0a
09
3a
bf
e7
01
d8
e8
f9
49
d5
2b
58
d6
af
37
af
2e
21
b6
d4
34
45
58
2f
1e
10
fe
d5
0a
2b
04
b8
f2
21
bd
37
20
12
ca
fa
15
10
07
e8
26
c4
b2
81
be
07
e8
ce
01
14
eb
3a
b6
d2
25
18
25
17
e4
b8
37
ec
c0
18
ee
36
e4
d1
09
3b
b3
e5
d3
25
05
8c
c5
be
a4
7f
44
b9
ed
0e
e6
19
46
2b
3c
e8
01
39
10
04
13
ea
fc
ca
3e
4b
d4
c0
db
20
e8
ff
16
00
50
e7
01
f3
26
29
d3
dc
ea
47
cb
3f
16
ff
61
07
fe
e7
0e
1f
f6
36
b8
2a
c2
1d
28
0a
28
17
08
40
bd
cc
7f
22
1d
1a
e1
e5
1f
cc
fd
1f
df
f8
40
d5
02
10
2a
f8
08
ed
ff
0f
cd
1a
b1
b9
90
39
04
e0
e4
3a
df
3f
dc
08
55
b9
47
e4
16
d7
d7
4d
13
4d
81
fb
aa
f7
f7
03
f1
10
8b
ac
f2
3b
a9
c9
0b
3d
01
0c
34
5f
d9
d0
dc
ca
0e
e0
b5
2d
f7
dd
1c
bc
14
1a
d4
11
01
fd
e2
e8
44
3e
d6
cb
1a
3b
be
04
2d
10
98
50
d9
5a
0c
1f
02
28
38
c9
56
fb
1f
0b
6d
b4
f9
33
06
13
e6
4d
9d
52
bd
d7
2d
1e
0a
f3
2b
1a
00
ba
0f
c3
81
9e
7b
1a
03
18
3a
c3
3c
0c
0b
1d
a1
09
26
ee
e1
35
17
2f
b9
ca
bd
9e
11
d2
23
03
14
d6
47
df
f2
24
ec
11
18
d7
0f
1d
34
bf
ea
0f
f0
f5
f2
ff
c5
24
03
01
39
14
c5
37
c8
1e
60
f0
3f
1f
e4
ec
f0
fa
e1
d9
ff
34
e7
59
e6
b9
15
ed
ec
17
28
f9
f9
11
07
7f
16
fd
e6
ea
e8
32
11
07
0f
17
cb
e1
c8
10
e1
03
f6
e7
1f
fc
ec
a7
11
58
74
aa
be
d2
16
16
0c
f6
c6
cd
c1
a6
73
ed
0f
01
bd
e1
1e
53
52
59
47
81
02
5b
b0
2d
02
06
96
2b
37
54
4f
37
ea
58
cd
49
62
16
1b
2e
e1
c0
29
7f
bb
f9
0e
ba
fa
6e
20
06
1d
0e
0e
31
47
00
11
fe
0f
ef
16
ba
a4
4a
e6
f4
e1
1d
03
d1
1d
c0
01
ab
02
23
1d
2a
e8
34
c3
03
02
22
dc
15
cf
fb
13
6b
43
66
2b
f9
33
a1
cd
2d
1d
a0
e1
1e
c2
00
b3
e5
d4
fa
0c
b5
fe
a4
bc
fb
25
49
f3
04
73
81
40
02
e8
13
e9
f3
0e
f3
d5
d2
0d
e4
db
71
14
e3
f1
4c
28
ac
06
1e
35
b9
45
38
f1
4c
f6
10
f2
f2
1c
44
f3
f3
15
3e
f3
e1
d5
02
27
ef
16
03
ec
27
d4
e7
07
24
eb
d3
e3
eb
fc
2e
ff
b9
93
df
11
13
a8
48
64
dc
2f
da
dd
45
a9
c3
d3
f8
3e
bd
f3
60
f4
00
dd
e2
9d
eb
26
07
f9
81
ef
e4
b8
ea
30
26
cc
f0
13
0c
4e
24
be
42
48
ae
4a
b3
0f
f1
e9
29
ff
eb
de
39
28
ae
7f
09
14
40
16
e8
ca
06
fd
0d
00
f0
32
c3
de
df
cb
4d
ea
13
ef
20
d4
0b
ec
5f
de
c2
fd
53
d0
eb
13
1b
25
f2
d1
d7
ff
2f
07
2c
dc
0a
de
f5
42
2d
ea
03
24
0e
09
d8
fa
f0
be
c8
64
60
e1
95
f4
2c
0a
fe
26
1d
0f
c9
df
dd
16
28
d8
27
be
cf
88
03
f0
7f
ec
f8
d3
bc
36
09
14
e1
2d
dd
65
e6
0f
f0
d8
a9
15
f7
29
b1
b4
16
47
ee
25
1f
12
43
02
d7
22
1a
cb
fb
e8
dc
3c
ec
d2
9b
57
08
f9
0c
46
d7
f9
3b
01
01
8b
ef
cd
27
ee
2a
26
d8
ac
01
1e
16
3b
4c
dc
c2
fe
dc
10
d4
fd
c2
d5
d3
2d
ea
d8
7f
02
ea
d8
c4
3e
e3
9f
f6
d3
4c
27
0c
58
7f
e2
21
04
e8
09
f8
a3
bf
de
b1
dd
ef
03
6e
ae
2d
c3
0a
fa
21
f7
e2
3e
24
d7
04
1d
36
16
f2
b0
f6
bb
ee
fb
22
1e
cd
3a
29
07
f5
40
f9
40
d3
0b
cd
e9
d1
af
78
a3
7f
7c
32
46
fb
d8
f0
3d
27
ad
e3
fe
b7
92
08
ef
18
29
23
8e
22
fd
a9
e3
3c
fb
31
dc
d2
ce
07
c1
53
11
b2
fb
ec
d3
6d
c6
94
c5
b6
53
df
1b
79
25
c1
1d
16
25
4b
bf
da
28
cf
db
17
d3
e7
ed
15
6a
f8
39
2e
bb
71
f2
1c
c8
2f
21
f9
35
08
11
cb
03
ed
96
23
2c
02
7f
fa
fe
3c
d7
23
15
f0
b4
0c
03
11
07
1c
19
27
f3
f1
4f
fa
2a
d4
10
f3
fc
f6
f4
3b
2c
c4
2b
2b
ee
bc
f2
0f
fd
17
e9
13
b8
f0
08
11
eb
35
e4
11
d9
07
1d
7f
2d
ee
e7
ea
cb
15
f7
01
fb
24
0f
09
fa
fe
28
b9
d3
d1
37
2a
02
d2
07
2e
21
d7
21
e6
35
05
10
00
38
20
17
0d
56
25
bb
d8
fa
07
e9
0e
44
e4
9f
10
29
19
b7
06
f8
14
5b
e1
d4
22
da
fc
0d
24
06
1a
81
db
20
fd
b9
3a
fc
75
21
44
bf
ef
30
10
