ed
fe
14
37
ed
be
1e
15
c5
0b
fd
1c
d3
d1
15
1f
22
e6
01
ee
1f
f9
09
ee
c1
3d
e4
e6
d8
1e
fd
2d
ec
07
26
bd
4b
93
06
fe
07
16
6b
00
08
d0
fd
11
cf
49
fc
19
f2
b1
21
7f
14
0d
2d
e7
15
66
12
ec
dc
d3
b5
10
21
b2
e0
b5
e1
dd
fe
03
2f
54
c3
f6
f1
c7
17
f4
81
29
0b
0f
13
af
e5
37
01
2a
c9
99
46
cd
fa
47
f8
28
14
f4
1c
0d
e2
e3
f9
f3
20
32
73
06
1a
da
1c
ee
02
df
ef
d3
e5
01
13
e1
d5
15
f7
cd
de
18
3d
23
c3
e0
7f
24
12
de
5c
54
d3
cb
e7
30
2e
e5
a8
08
0f
05
1d
df
27
4e
54
e8
9c
d3
29
e8
0c
22
e4
45
eb
21
4a
ef
c5
0d
16
54
5e
2b
3e
b9
53
ac
02
3a
c9
8d
9f
18
8f
e7
2a
e2
95
33
0f
ff
d0
04
21
d9
d4
c9
13
e0
d2
f0
1e
34
d0
25
e9
c8
18
c4
89
2b
2d
2a
0f
d5
df
39
e7
0c
05
a7
19
da
df
3c
3a
fa
2a
b7
1c
e5
eb
e1
d6
ef
02
6a
7f
e8
ff
e4
1c
f9
26
0d
25
ea
ed
f9
25
cb
07
e4
fe
05
fb
2f
19
02
b4
f6
b7
de
1a
f2
0e
5d
c2
ea
3a
25
bd
27
e1
d2
33
0a
dd
08
2d
0f
27
ee
ea
90
28
03
e5
23
9c
7f
29
27
c6
19
c5
0e
f4
c9
35
13
44
c2
b9
a6
2a
6e
f5
b5
99
b9
a9
a5
ef
c1
da
3c
13
1f
25
38
e2
e4
fb
2d
d6
0b
17
1d
d2
b7
39
ee
23
d2
e2
1a
30
11
f3
15
e8
f7
f4
bb
c0
10
13
44
d9
d5
0f
b3
46
a8
2e
c2
e9
35
30
ea
06
09
03
12
d4
43
d7
4c
0e
aa
0f
7f
5b
d5
15
0e
f7
35
5a
fb
f0
2e
eb
05
01
23
e7
1f
fb
d0
fc
0a
e6
f2
17
ea
d6
1c
0e
0c
e2
b6
41
49
fc
0a
a2
e4
81
28
ff
da
26
ba
c3
10
cf
ee
62
a1
fc
a5
fa
eb
05
18
e4
2a
0f
22
04
57
2a
40
2a
f6
3b
e2
32
09
47
ec
61
bf
dd
07
1a
1d
e9
37
05
28
ed
fc
0f
0f
e2
9a
44
f2
ee
1f
de
40
3b
c5
11
b2
e8
ff
be
d2
ad
e7
47
43
db
ef
4a
fc
40
e6
13
0c
ff
20
3f
07
31
e6
cf
cb
d1
7f
dc
31
14
bd
12
46
56
09
19
07
b8
5e
11
fa
02
30
49
ff
e9
7f
06
32
1b
d7
26
a6
f2
2b
08
e7
c0
ff
e6
e7
d6
d8
fe
38
2a
08
dd
3b
02
02
f3
1c
0c
eb
42
29
e2
07
29
06
2b
85
fe
27
3b
28
e7
1c
0b
1f
48
03
28
c9
29
44
4e
e8
37
f6
cd
96
11
b0
df
ed
cf
47
0f
92
09
d8
c1
03
df
09
1e
09
05
ed
40
c0
08
f3
f8
21
00
ff
d6
fb
06
f8
3c
41
0a
fc
f2
1a
e7
cd
3c
10
f3
08
00
40
3e
25
f2
b3
64
f0
29
14
ba
01
10
d1
ca
fb
d9
ca
f5
ee
e6
3b
f8
7f
e7
dc
fc
23
56
07
bf
34
d7
29
9d
da
e5
5a
e9
a8
ea
41
fc
19
17
1d
bc
c3
ed
0d
56
16
04
8a
eb
f3
e0
38
e8
4b
eb
fa
ca
6b
2f
4f
ca
02
28
c2
10
d9
35
f7
0c
ab
18
7f
00
a1
c2
f6
d6
34
e0
2b
a8
75
bc
30
f8
ce
01
0b
e8
de
35
fa
d0
16
3b
f4
4f
2c
fa
26
11
18
be
f1
02
42
11
b7
e3
0c
d5
fd
04
e4
72
e2
e0
e8
cd
1a
e6
af
3a
bc
f1
48
81
f6
ea
3f
18
c0
df
2e
30
dd
16
fc
00
db
4e
e9
2f
96
00
11
de
f4
cb
e9
0b
c7
26
e2
d9
19
e7
09
dd
ec
fd
e2
27
81
03
c4
c0
11
fa
03
02
0e
d5
e4
cb
1b
25
c1
0c
d4
28
df
26
b2
22
f4
05
35
32
f5
00
e3
0e
4c
39
52
e7
20
1f
9e
17
65
2e
e0
19
f5
07
25
2b
e6
f3
e6
7f
03
f2
59
0e
42
09
dd
fd
03
1c
18
c5
fc
d5
1c
3f
3b
09
fa
ca
e6
6a
08
1c
52
0a
0d
10
27
0a
e4
f0
68
d6
c4
43
33
ec
18
54
1c
d3
27
fa
eb
fe
1d
38
ee
db
0a
02
2e
e1
1d
a1
47
cc
ea
0b
c0
c6
b0
fc
e2
ec
90
e1
df
18
07
2c
9a
c6
eb
fb
10
0b
89
38
81
86
35
09
27
43
c3
f2
27
03
e7
02
d8
f8
db
09
a3
6b
a9
26
df
2b
30
34
aa
9a
26
e7
0a
20
76
fc
34
fc
b7
3c
2a
2c
24
24
e2
63
43
0e
b7
49
37
fd
11
15
eb
dc
1a
cd
0c
0b
37
e2
d3
4d
0a
e8
6a
d6
44
25
e0
fd
27
9a
16
b0
de
c3
34
26
f6
03
ee
db
a7
c1
1f
f5
20
e6
81
b7
f5
06
f8
05
06
ed
bb
c8
20
01
1a
d5
14
0c
db
27
f6
f2
fa
49
fd
fc
0b
4c
d4
f6
39
f9
3f
dd
24
26
00
f2
b3
16
7f
f1
77
fb
f6
33
ab
16
d4
ec
21
0c
df
aa
dc
04
45
d8
54
eb
32
0a
d7
9c
21
02
b4
fc
43
14
18
4e
c6
d8
21
33
47
fc
46
b4
33
07
f7
3e
11
13
45
47
db
32
b4
03
5a
14
fa
db
1c
d5
e4
ed
f8
06
07
42
d2
0b
04
0a
37
1e
09
bd
c9
e2
cb
2b
e0
21
53
f9
0b
f3
0b
0b
dd
f9
d2
b8
ea
e0
cb
27
04
15
c4
26
ed
37
e4
d1
45
38
2e
e1
ee
f1
a0
ec
f2
d6
7f
02
53
11
ab
24
0c
59
16
15
5d
3c
ad
ef
15
f6
56
27
f9
ad
09
0f
ae
36
00
fd
e0
41
11
50
f9
03
15
12
22
c6
74
4e
f5
19
fa
25
5c
01
cd
db
33
20
1c
02
0d
13
f6
61
c9
f7
1d
bc
04
3a
c3
e1
fd
ce
fe
81
36
f9
19
e3
03
34
e9
ea
15
07
7f
32
dd
04
e8
ba
43
52
f1
ef
46
0b
2e
1e
47
ba
da
d6
10
e6
06
05
f8
0c
c7
aa
1e
08
39
fa
30
27
9a
e2
19
d4
ab
f9
6a
4b
b4
24
b7
c0
06
c0
00
82
1a
5a
2c
52
f6
e0
14
81
20
b1
12
28
88
f6
f4
22
22
3a
c3
29
b1
af
ba
47
24
18
40
a3
01
b8
49
e4
98
a9
da
05
1a
04
ad
14
88
da
01
f1
3b
e0
a6
ad
5a
c8
e9
9d
56
22
eb
02
35
b9
5d
e2
10
3b
be
ea
14
12
2d
15
1e
2a
10
db
01
b0
12
df
d0
63
55
00
e3
b8
ce
7f
c9
e3
2c
62
e6
14
12
cc
ce
25
9e
02
f6
1a
c7
e5
e5
f6
10
26
ee
b9
fb
ea
1f
20
c3
19
f0
bf
e1
0f
e7
72
40
1a
21
04
de
03
d5
c8
d9
9a
19
e1
f0
11
15
0d
36
18
cc
b6
11
f9
fc
0d
e2
04
69
f5
f8
3e
d9
dd
cb
11
f6
10
ee
e9
1b
b3
f7
a6
af
f9
f6
44
f9
dd
f0
f0
0a
bf
16
f2
d1
0d
87
d5
1b
e7
e5
cb
28
03
cb
06
3a
0e
7f
00
4a
d1
01
a0
94
d4
d3
29
1d
31
c1
de
23
e2
a4
0c
14
ff
ee
6a
eb
b2
f2
d4
1f
ba
0a
ca
04
18
10
03
ac
0b
6f
fb
b6
8e
a0
c4
ba
e6
f9
41
be
0a
1d
c6
24
4e
f3
e4
ea
44
dc
dc
f3
8f
18
e8
e4
aa
db
35
28
25
21
16
7f
0f
25
0f
f2
1b
14
1d
06
5e
d4
26
17
1d
cb
fb
b1
e4
4f
c6
7d
10
f3
aa
d1
d1
ca
d0
12
4a
0f
2d
0f
7f
54
91
30
f4
be
3d
38
4c
06
e6
1e
1a
71
13
8d
c6
2d
08
e6
17
59
74
db
1f
9a
37
ed
fe
13
1a
fa
d3
f4
05
e4
98
cc
d7
ee
02
57
de
c2
1b
f7
eb
5e
eb
ef
2c
e4
89
3b
66
27
49
31
f3
e3
e7
c7
81
e4
c8
13
28
19
c6
1d
1b
a1
bd
da
f5
be
09
99
97
78
23
15
b6
63
e7
ed
d0
0f
03
62
fe
26
f8
8b
e1
57
4c
41
e0
f1
f3
09
c3
ea
cb
6b
f7
27
f1
ef
f0
fe
e9
fb
2d
c3
29
09
72
1a
e2
7c
fb
b1
c7
e4
88
0e
db
32
0d
27
fa
44
48
1f
3a
1d
c8
ec
15
a3
b2
2c
0a
f2
bb
0d
2d
97
ce
40
b4
7f
5b
1b
f1
90
e9
c0
1d
0e
b1
d1
10
d1
e6
3c
f4
cd
53
7f
08
33
f3
ba
ff
4b
ac
47
66
18
8d
cc
00
b8
e3
28
68
32
38
72
54
e2
f1
e0
34
b7
23
31
77
f9
4d
15
09
6f
39
82
4a
25
49
cb
fc
53
4e
e0
f5
d5
7e
b5
0d
77
ee
05
ca
ea
fe
cc
e8
e3
e6
1c
f0
16
e5
e2
f7
13
dd
20
13
35
51
b2
5a
0a
54
4a
bd
4f
32
be
fb
0f
81
e4
ce
d6
e0
f7
32
62
e1
fc
c2
af
e9
38
ff
a8
c4
2f
b8
07
cd
f1
0d
96
df
dd
d2
71
e3
41
ed
ab
af
e4
36
d3
2f
d9
5e
e6
f0
c1
f9
48
0e
d2
2f
f2
20
1d
d1
e3
68
b6
fa
f7
13
12
f1
51
ef
db
c1
d5
9a
f0
02
2d
39
0e
2f
20
05
07
81
fc
01
b6
f0
f0
04
2f
3f
0b
24
f0
5f
dc
e1
0d
14
60
f2
0b
a9
d8
f4
e8
d1
26
d7
20
31
fa
43
f7
1e
08
24
5a
00
44
ef
df
db
7b
d6
0e
57
c9
06
1a
ce
c3
0a
0f
48
10
31
54
e2
00
da
2d
d6
01
e9
54
25
c9
22
00
44
2e
fc
ef
d8
3f
7f
c7
19
5e
25
14
1a
20
2c
19
04
4e
1c
cb
b9
c6
ed
ed
cc
ee
31
f5
12
4c
1c
32
00
be
d8
f6
d7
49
e2
38
0b
9f
e8
d5
e7
e0
2c
c6
fc
08
54
d3
37
1d
34
06
f6
11
21
23
1a
24
d0
1c
54
ef
07
c8
94
0e
4f
e2
0f
e4
16
02
da
26
7f
05
df
14
1f
e4
a2
13
ed
d9
cc
e3
cf
33
20
d3
a7
ce
04
1a
1e
c7
0c
0f
cd
27
15
ea
1d
fa
bb
10
e7
ae
ec
1a
c6
11
81
df
b7
0d
02
01
25
df
f2
cb
ea
e0
f1
c7
cd
19
15
ae
fb
ba
e0
2e
f1
e9
f0
f2
22
d5
4a
3b
5c
12
05
ea
25
fc
56
dd
ad
2f
88
e5
dd
c7
d8
a4
37
14
d2
10
f8
29
a9
10
35
e0
eb
ef
b1
08
0c
27
06
47
0a
27
05
50
c7
91
3a
1d
09
1a
f0
2b
dc
c2
45
e2
04
ff
fd
e0
52
7f
3f
82
b7
f3
18
cc
3e
f1
ad
e7
04
96
46
e8
d9
45
e3
24
e4
1a
0a
92
d5
bd
99
60
c0
1f
e2
1a
73
e1
63
e3
f6
30
53
07
ef
d6
c6
fc
13
f5
3e
53
54
f2
c9
2b
f6
da
08
e4
e0
20
bd
f3
26
18
1b
cc
26
16
db
19
c4
e2
fe
dc
d4
9a
ea
81
d9
ea
bb
6b
04
3a
e7
0f
fa
10
fd
fd
03
ad
fa
fa
1b
f9
62
63
f6
f7
e2
26
30
ff
c5
09
f8
fd
fb
18
23
03
4e
30
de
86
02
fd
d4
01
02
44
fb
e0
fc
0a
f3
01
ce
cb
37
f8
12
b8
d1
db
00
f5
ea
d5
81
fb
c3
04
24
ed
d6
40
3d
1d
ed
3d
0e
a7
7f
54
f9
fe
06
1d
b2
e9
07
fb
48
f2
1a
c5
23
b9
51
db
d3
ef
fb
98
a7
d7
bc
24
33
51
fe
d6
df
c9
19
0f
3d
d7
ec
bd
c7
c7
b6
f5
09
04
b2
d1
45
33
b0
68
30
3f
13
eb
db
36
16
f6
f3
c8
0d
38
0b
8a
e8
14
35
7b
17
e3
7f
15
c3
da
29
46
db
0d
ee
14
f7
3b
02
ad
e5
0a
0b
c9
cf
e9
29
1a
d0
3a
2e
d8
2d
e4
1c
fe
1a
f7
e1
16
2a
5b
de
1f
13
e7
d4
fe
b9
fe
21
f2
d1
24
eb
e7
f9
2e
f2
11
5a
35
bb
2c
0b
d8
0a
e7
7f
e8
d0
bd
00
05
06
01
50
c6
e9
27
f9
c8
29
21
22
10
29
31
d0
31
04
cd
4a
02
48
90
e6
1b
05
26
62
c9
39
f2
fd
12
e7
4f
66
d9
bb
a1
3a
45
16
4d
d4
f6
d6
46
b1
d7
1d
12
04
df
da
7f
cd
df
28
0a
10
12
4d
10
00
03
fd
5f
04
0b
11
cd
f2
ca
10
f1
c8
05
20
b2
cb
b5
d7
28
f7
65
cf
27
d2
18
f3
d9
e3
2d
04
13
09
d4
05
cf
01
fd
d6
29
24
9c
eb
e2
de
0d
e6
bf
b5
14
ed
42
d5
f1
e1
f2
af
f8
f0
54
f3
01
bf
28
b5
f7
4a
3f
e0
26
f5
09
2f
5f
b5
07
0b
9c
af
0f
ea
ee
38
00
e7
11
b4
53
6e
f4
e9
f6
21
23
df
ed
81
0f
fa
02
fe
4b
0b
f6
d6
e5
e0
e8
07
c9
3b
e1
01
ee
fb
ff
a5
f5
c8
a6
f4
27
af
1d
b4
60
ec
05
30
1e
df
f1
96
35
f9
23
f3
ea
81
e7
e5
b9
b8
e5
09
c5
41
14
e5
a4
dc
22
07
f1
1c
17
fb
14
00
db
e2
11
10
ef
cd
42
e2
24
24
1d
f6
09
4c
11
db
1d
5d
04
da
c7
b6
c4
c4
fb
31
b7
f3
b6
ef
81
e9
ff
27
f1
18
d5
e4
97
c0
51
c9
d6
57
1b
da
38
4b
d6
bc
e3
fd
f3
3c
34
6c
c7
a3
ff
c8
0d
60
3d
20
52
0b
9d
f3
24
17
cc
16
f0
32
f8
ff
07
fd
19
f8
03
bd
b1
0e
f2
d1
9f
c7
b0
b9
e1
a7
f3
d8
df
e7
48
fb
14
e1
f5
da
e8
c2
12
2b
34
d7
ff
81
d0
1f
0d
29
fc
f1
b7
e2
1c
11
c9
5e
2b
4a
c9
1a
02
b0
2b
02
f7
33
f7
ee
c4
ac
a9
f9
1f
1e
06
ce
fa
5f
e7
3e
dd
d5
df
01
1b
1d
e9
b3
35
23
15
2c
fb
29
f3
25
2e
ed
79
d6
5f
26
e8
0d
e8
c1
ed
e5
3a
0b
d6
f1
38
f9
fb
f3
35
b2
74
d7
37
1b
ff
c2
11
12
ef
23
05
fe
9d
d0
ab
18
49
f0
81
c6
22
14
ee
ed
b7
f8
4a
f6
da
c6
28
c9
ec
fb
63
78
20
d6
39
03
09
32
f1
b9
35
0f
bf
6c
ff
d8
9e
24
13
30
56
5e
7b
04
eb
42
d2
bc
20
20
ee
2b
df
f3
a8
10
e2
23
fb
26
81
3e
cc
30
5f
d9
22
ce
bf
33
c1
ce
00
2f
a0
c3
38
ef
05
32
00
ca
d0
19
e7
d2
3b
06
1a
d9
b2
4b
28
17
81
02
c1
ff
34
02
e8
04
e2
e8
1a
c3
22
d8
35
e1
14
14
d2
45
8b
3c
cf
01
31
7c
fc
18
c2
0f
23
15
79
0e
2b
27
a4
31
60
3c
de
5b
db
04
2c
14
e0
26
50
86
f0
00
cb
c8
0c
b9
4c
e6
fb
e5
c2
fd
f3
f6
b1
a8
7e
fe
fa
41
7f
1b
85
03
bc
af
07
e5
93
ee
0f
19
f7
f2
e3
50
f9
8d
1f
e9
4c
9e
e0
d6
0d
0f
ff
88
1f
1d
de
1c
30
d9
f1
19
e4
4a
21
71
e2
e2
db
14
dc
0f
f1
ff
0c
07
e9
30
c8
ec
33
f8
d9
cd
f5
2a
12
0c
d8
23
5a
40
f5
ee
e0
08
18
ed
da
f2
f8
18
02
db
30
38
d5
de
eb
1e
d9
e9
13
8f
46
3f
e7
f4
20
dd
e0
47
ee
7f
33
3e
ea
14
c9
dd
da
da
ec
26
44
0c
38
ff
07
d1
df
06
7f
38
e1
06
b5
e6
51
bd
4c
61
b9
ea
16
11
ef
42
fe
7c
fe
af
0c
0b
43
02
f2
c1
3c
da
1d
f8
12
81
23
60
e5
13
d6
07
d9
c3
5e
19
61
ad
b8
c3
fa
b7
f2
f2
b8
e9
11
32
81
f8
05
06
fb
ef
b9
3c
ca
05
ee
33
1f
02
a9
d3
ef
20
d1
d5
1b
ed
c9
33
8b
31
50
2f
29
f4
b0
d8
fe
b4
00
33
e8
fb
f9
23
40
f8
12
1f
1c
4d
cd
2d
2e
2f
40
23
d9
ea
20
c3
8b
9e
09
1d
ee
95
bb
ac
79
fc
d3
e5
f4
fa
37
1a
04
36
d2
b3
d5
c5
61
f4
08
35
f9
63
cf
29
61
0d
39
d5
cf
b5
bb
e3
07
db
01
22
fa
e4
1c
f1
50
07
d0
37
03
0f
fc
b0
05
de
b8
d9
d2
cf
dd
67
20
54
7f
42
03
11
f0
15
73
fc
40
c8
03
e0
c7
dd
3a
ff
df
e9
9f
a1
ef
ad
3c
d8
f9
f5
14
4c
a8
40
3c
e2
12
dc
d2
ad
1c
11
f1
03
04
2e
cf
c1
48
fb
5a
0b
d8
2f
c9
be
01
81
ba
c6
9e
99
ef
e6
c9
2a
23
40
3f
22
05
0b
4d
3b
ec
d6
86
04
18
d3
01
c0
d8
33
ca
09
54
7b
20
21
b3
2b
bc
fe
e0
b6
0f
a1
a5
13
f7
ee
09
35
07
fd
0c
0a
d7
07
3a
f7
8a
db
b2
0e
22
de
f3
25
11
46
e5
4c
4d
18
58
3c
13
d3
bf
83
93
9d
eb
f6
44
cc
81
f8
0f
9b
36
2e
ab
14
fb
df
e1
f1
1b
13
40
de
e8
17
c7
1c
05
c8
04
0c
ba
d3
00
1d
f3
2f
f9
17
d3
30
fa
fc
15
2b
16
fe
d3
ea
d7
b0
ff
e6
c4
62
e1
7f
f1
da
e3
39
16
dd
08
05
dd
e7
fe
0a
05
1b
4d
f4
15
11
a8
13
05
03
5e
e6
01
35
22
3a
fa
a0
43
fe
01
2d
b6
db
3f
2b
07
e8
2b
3a
f0
0a
03
ef
27
17
d1
60
fa
2d
14
bb
18
4a
28
5e
e7
09
38
14
ee
cd
2d
7f
cc
f4
18
33
ff
3c
1c
2f
df
e6
3b
16
2c
ec
00
ea
3b
15
08
2a
d3
0a
26
e8
7f
0d
14
25
b3
f0
f1
c9
f2
0f
14
f9
ba
fa
14
26
30
44
32
0e
10
06
fd
f0
27
d2
00
eb
b9
1f
da
d2
02
4c
fd
2b
dd
08
fe
f2
30
44
08
be
00
c7
8f
e1
d5
c3
0a
c1
2a
10
f0
e1
ea
d8
d6
09
df
ed
09
01
08
ff
81
08
56
f3
cb
c9
b2
11
54
1d
00
ef
15
ff
b9
04
1a
da
0f
1c
c2
fc
0a
39
f1
fa
58
42
db
6e
ea
0f
f8
0c
f9
bb
20
f7
cc
e5
eb
3c
2c
e4
2c
0c
24
ef
2f
fc
22
0a
e9
dc
34
fb
df
c3
00
f8
1f
e7
40
7b
31
29
9b
0e
45
dc
1e
01
0a
e2
fe
c1
c2
12
34
30
fc
12
0a
4d
dc
a6
11
ad
f5
35
bc
07
22
af
19
e4
11
25
1b
28
e4
08
6c
32
41
c3
81
d5
d2
ba
b6
49
ad
1b
04
0d
52
02
e4
a6
05
05
1e
fd
fa
37
f7
a9
e6
2c
2d
d3
15
0e
1a
4c
2e
10
3e
0c
4b
dc
b0
1b
f6
49
13
d3
05
35
df
27
cb
da
6e
fb
03
41
13
45
11
af
e3
9f
16
ef
f3
b3
81
74
18
f5
69
40
40
e6
1c
2a
f1
1d
5e
d2
b6
3c
fe
af
ff
08
35
df
e7
da
1a
de
54
f5
3a
bd
ea
1c
08
e4
31
27
28
02
0a
da
c8
39
15
39
c8
3f
66
3b
38
dc
7d
4f
bf
43
f9
34
09
f2
dc
cb
ae
f2
81
c2
27
1b
eb
d7
5f
49
07
02
e0
e2
1d
de
e2
d5
e2
2f
c7
1d
d5
e2
28
fa
c5
c1
20
cb
fe
f9
81
21
b3
cc
33
21
3a
43
09
1e
34
ce
13
c5
d7
1a
da
2a
f2
20
e1
6e
0a
32
23
11
d2
e8
0b
04
56
34
1e
24
d1
13
d4
23
1e
1b
23
db
bb
40
15
07
c0
3f
81
f9
53
0a
1d
1c
20
d9
2c
24
cf
03
dc
55
ab
3a
d0
be
09
4d
17
c7
c7
0d
dd
6a
0c
56
23
5d
05
13
2b
d9
a7
60
a6
48
ba
fc
09
1e
fe
76
b8
f1
b4
f0
2d
43
73
f3
3f
b7
3d
34
97
d0
d8
ca
01
e2
ff
de
9e
09
0f
1f
ee
21
09
66
fb
84
f8
74
22
e8
47
5b
dc
da
d7
ac
35
d6
fa
b9
b6
0b
62
2d
e7
f3
32
10
fa
f9
4c
08
d5
46
de
47
04
cc
ba
f3
c2
7b
f9
57
18
08
2b
7f
51
97
fd
15
a0
b2
8a
36
0f
0c
e5
