d3
32
23
25
ec
23
e0
39
19
48
3a
4d
18
2a
0e
c0
0e
34
b9
ae
fd
e1
16
30
0e
98
d7
f8
81
15
49
0d
4c
20
8e
f8
f3
28
e1
18
04
19
43
fa
d7
06
df
25
f1
0f
09
32
09
05
22
09
dd
02
39
e3
f5
ed
e0
0f
cd
bc
0b
2c
e8
fd
f2
26
03
60
95
48
bd
e2
e4
29
00
81
07
fa
08
38
d9
cf
0b
23
22
32
c9
5d
ec
07
f7
1a
58
0e
c5
0d
43
b3
27
f5
df
c3
27
b6
27
c8
11
de
1d
e6
df
23
96
28
a9
14
04
1c
32
b8
52
26
b7
04
27
0b
0b
dd
0f
5a
cc
a4
59
7a
1e
fb
1c
22
f0
16
09
6a
56
be
0d
3c
34
1a
f4
ff
cf
12
36
e9
02
01
17
21
21
ba
23
e7
22
2d
0a
f5
8d
18
a9
26
0c
bc
e7
12
1f
6f
20
5d
b5
16
94
a8
81
0b
fe
56
81
fe
dd
0f
ec
ed
95
de
fa
e6
e0
fe
55
13
3e
16
06
d6
1b
c2
ea
c3
fc
9c
14
28
3c
44
27
52
16
f1
90
2b
cf
fb
e2
e2
20
d0
19
e4
30
56
0c
f9
1a
cd
18
1e
b0
ea
dc
b1
1f
ce
06
c9
fc
10
b5
0d
1d
19
e7
d5
df
ee
ca
ff
e2
30
a8
14
ce
43
d4
e6
e1
bc
e8
97
dc
fe
04
d5
49
eb
1e
00
a0
ae
e1
81
0d
e0
0a
0c
1c
fd
d5
29
eb
fb
b4
04
1c
da
27
2b
5c
32
04
ea
fe
c1
10
4f
18
11
f2
fd
ed
04
1b
c2
0c
0e
d8
23
f4
de
18
5e
1e
12
13
95
09
71
dd
f2
22
ff
d2
28
09
ad
29
22
dd
2d
1d
20
bc
05
d6
28
25
41
23
e5
fe
05
cb
ce
2d
c8
d9
11
53
f4
05
7f
e5
e1
00
13
ce
fb
f3
c4
d4
ae
db
46
cd
cf
29
11
09
d5
4c
90
f9
de
e1
e1
52
41
ec
37
e1
ff
e9
57
c0
dd
18
04
1f
de
d6
0a
b7
d3
93
bc
3b
00
00
e6
3b
db
2b
fd
e5
1e
db
37
fb
1e
0d
1e
bd
0e
f3
57
74
e7
f2
f6
11
13
1d
cc
60
f9
7f
ee
0b
02
ba
04
11
1a
29
14
ad
fb
b9
ca
ff
f7
e6
4b
23
eb
f2
a0
1d
03
11
f0
ed
06
dc
ee
19
03
2f
2c
0e
2f
b0
e2
d4
1a
f8
0a
da
29
0a
05
1c
1d
1a
eb
c4
72
26
03
29
c0
05
23
fd
0d
09
0f
1a
fb
08
bc
da
1c
81
c9
a8
41
04
3f
08
13
c6
a1
03
88
a7
0a
1f
df
ba
4b
27
0a
da
be
3e
ec
fa
f4
be
eb
d0
03
3a
34
07
fc
1b
0f
95
18
81
c7
f0
fa
30
f4
fb
0f
ea
0a
1e
ba
e9
27
21
38
4a
f4
e1
74
d8
39
3e
5d
19
13
47
13
af
69
ef
18
19
ce
ce
ef
ea
ab
c8
4e
de
1e
dc
14
04
da
0e
9f
e2
2d
21
19
b5
d1
17
d8
0f
e8
1a
f7
18
01
ca
cb
ef
0b
1c
3e
81
0c
1e
2a
bb
66
ce
c2
30
1f
da
ed
f6
11
03
1f
db
31
d2
35
f5
b5
f1
cc
dc
04
1e
02
05
db
b8
3f
df
23
c6
45
e9
d7
2a
36
1e
f4
ca
67
64
02
d7
25
1e
d2
c1
ec
0d
01
c6
7f
df
a9
5f
d5
21
9e
9b
c8
24
0a
b4
02
3b
58
59
4e
45
07
25
0a
2a
1d
0c
2c
50
f2
ef
d8
06
34
17
41
2e
1c
f7
4b
06
05
ce
19
0b
eb
94
03
f6
fe
d1
48
51
d7
57
7f
d5
36
d2
ea
c5
36
9f
7e
ee
c7
eb
0d
e0
a1
ef
fd
14
c0
3b
1b
ed
a8
59
fc
e7
32
fe
a1
0b
a5
32
b9
e2
35
8f
0c
d1
fc
0a
b5
0a
2b
be
ac
e5
1b
61
09
60
f9
cf
f0
dc
a4
1d
b0
ef
00
4a
fa
bc
25
54
2e
09
db
26
c6
a7
fb
81
cf
5e
f1
fc
26
21
d8
e0
e4
af
2f
26
0b
18
b3
39
89
36
1b
23
1b
20
1c
ff
bc
e0
2b
bd
fa
15
20
0f
fc
20
44
97
31
13
fe
3d
02
d4
e8
24
d8
d0
12
fe
0b
81
0e
d5
f8
34
09
3e
f9
36
3a
2a
4d
30
1d
eb
08
c1
eb
17
10
35
04
ef
63
ce
46
ea
fa
d2
de
12
e4
8b
e9
f6
04
48
fe
d9
f1
25
fc
8c
b4
f6
28
ce
0c
3b
c1
02
e0
26
44
ed
04
06
0e
1e
e0
b6
04
26
a4
e4
d3
73
3f
7b
fa
14
e9
d6
34
db
bd
1b
23
81
cc
d5
eb
d5
5f
04
44
14
e9
31
e4
44
13
07
cb
24
bc
5b
e8
f1
3a
e6
00
f0
b8
ba
15
de
f7
f7
eb
1b
50
1c
cd
8a
ec
fd
e9
04
ec
df
0f
e7
d6
23
eb
c5
f5
f3
d3
0c
21
ee
c0
31
05
01
21
81
1a
18
bc
1c
fb
05
28
cf
4b
18
0e
2f
63
35
0d
eb
f5
b8
f1
bc
14
2e
df
c1
4f
22
21
23
23
ec
31
4a
c2
d0
ed
cc
36
35
fd
24
28
d4
32
13
22
1b
03
f9
ef
c3
fa
f9
df
0a
c2
35
f6
03
e1
1c
ef
e2
48
61
10
df
b2
16
27
d8
c6
aa
e4
c3
39
08
23
29
f6
21
1a
3c
3c
f3
c4
cc
33
fc
fd
f8
01
f1
1c
81
d5
06
49
1d
f8
ea
1b
33
09
5e
2c
d1
46
f1
1d
02
1e
e2
65
f3
1d
81
ef
cc
10
0e
0a
b5
df
02
18
01
25
1c
a3
3d
fe
14
0f
cf
dd
e5
fc
24
f4
a5
15
20
ec
1c
38
2c
1d
12
28
d3
03
0e
fd
f3
f0
03
ba
b4
16
f6
1f
c4
3b
31
e7
ec
3e
3d
fe
1e
2d
bb
c5
12
c5
fe
4a
7f
c8
23
e8
2e
ec
fe
14
ff
71
21
ca
c9
fb
4d
ae
4e
0e
db
18
05
90
24
2c
7a
1f
fa
1e
fa
07
cd
68
f0
10
1c
0d
19
c2
be
fa
dd
fd
df
c1
ca
ee
dc
e1
0a
b8
d2
03
fc
08
4d
ff
d0
0f
e4
5c
f8
1b
a2
e9
da
d7
0c
d9
4c
32
e0
18
7f
e1
61
0d
df
fc
c4
06
a8
3a
ba
2f
20
14
22
ec
66
1c
0f
14
c3
1b
f3
c2
35
7c
d3
e5
db
27
02
26
09
e8
30
eb
42
ea
c9
05
fd
ae
fd
25
4d
14
fa
e0
f1
e7
e4
bd
21
e9
15
f0
45
fd
16
38
d7
44
fb
01
a8
09
aa
e4
ea
9a
f5
c5
d8
99
0a
7f
b9
f1
10
0f
5c
3f
b7
ee
f8
01
e1
24
de
04
a2
e7
41
e3
9d
fc
26
18
10
d7
f3
16
b4
1e
02
2e
3f
1b
da
fd
1c
0c
f3
49
1f
2a
c8
c0
24
f1
9e
0c
ee
fc
f4
09
fe
c5
eb
04
e3
33
fa
0a
f3
02
31
fa
10
16
11
d0
c1
ee
12
03
f1
e0
3d
04
b2
02
07
01
b8
e9
f0
a8
14
d5
f6
92
35
e5
2b
1f
13
40
38
4d
28
0f
4f
0c
b7
81
15
bd
4a
09
d1
e9
e5
fc
12
11
72
4c
81
1d
41
2b
e6
19
22
e8
c9
eb
15
d8
ac
03
db
05
23
bd
77
8f
2b
df
e9
fe
e4
46
85
45
0c
ec
e4
0b
7b
e8
6c
69
21
cd
3b
98
af
c9
24
fc
c5
4a
f4
ec
84
ab
c5
a0
59
ca
09
e5
17
6d
2d
9d
b4
1e
f9
f9
82
32
d7
b5
fa
e1
0b
cf
f3
0f
d9
ec
ca
af
e3
25
17
71
fd
27
52
5d
81
46
8a
eb
38
34
a3
b6
6a
b4
5f
06
7c
10
4e
f7
47
fc
31
fb
1d
2b
f1
fa
30
f2
16
7b
ef
e9
f3
26
db
0b
40
0f
e2
21
fc
0a
da
ff
09
f5
fb
1c
ce
20
f8
cd
f1
ed
11
03
29
23
c7
34
0d
db
38
19
e3
21
bc
32
dc
bd
b9
f0
db
12
c9
25
12
3b
0f
24
85
f2
56
81
fb
d4
2c
ea
f1
13
30
21
b5
f9
0d
b7
0e
fc
e1
19
98
ac
e1
ef
ec
14
75
24
13
06
0d
db
23
04
1c
15
ba
9f
2a
fe
33
0b
e1
c7
b9
bf
e5
10
f8
e4
b8
15
f3
f4
f7
fb
01
fb
59
c0
e8
11
42
66
f3
c3
0a
1d
60
7f
18
12
31
f5
3a
d5
ac
ef
39
02
0b
f5
35
df
d2
d7
15
cb
0f
41
cc
1c
d1
10
01
26
33
ce
1f
03
de
b9
12
f1
e8
fe
85
50
0e
03
b2
05
d4
f1
d7
1b
4c
dd
cb
34
f5
e7
40
1e
f0
0e
22
05
cd
0a
da
81
f1
fd
fb
fa
f1
c8
dc
0f
f0
0b
11
cf
1a
d8
f6
47
bd
e6
af
b0
b8
30
c6
aa
11
2c
24
04
23
37
5d
d3
1b
01
c6
e4
39
23
df
e1
f5
41
04
ca
1f
54
09
5b
b8
81
de
16
07
14
03
22
09
f5
5f
e2
03
14
0d
f9
39
dd
0e
24
02
ff
ed
4e
02
1d
e1
21
8b
3a
f3
17
e6
8a
fc
25
da
f0
4a
2c
f8
bd
0d
f9
61
03
09
ec
fb
e1
b8
0d
d9
f0
de
fa
f1
05
e7
fb
1b
ed
09
c4
15
e0
e3
ef
ef
1d
dd
e0
00
ed
e2
26
03
0f
1e
19
1f
ed
eb
82
13
0a
03
52
be
01
81
df
dd
cb
d6
ea
7e
c5
0e
13
b6
7f
69
3c
0c
1a
2e
ba
f8
46
50
3e
b8
33
f9
f9
e6
db
b4
a1
c4
8c
1d
d6
d2
1a
07
be
16
f2
b8
d5
89
70
06
cc
3c
03
33
0e
f6
e6
d0
10
fd
f3
62
5c
96
38
07
d4
b8
17
28
f8
19
f9
e0
37
0e
bb
0e
fe
39
24
a4
fa
02
61
18
d6
27
ff
ce
7f
ea
3a
c9
b9
3c
03
f4
23
b0
06
d3
f1
68
d2
12
45
fb
09
94
08
36
f5
e4
0e
fb
f0
74
e4
d3
d7
17
19
ca
43
a2
05
f7
e3
1e
e1
0e
17
a9
a3
09
d6
e0
eb
2d
db
d4
88
22
d3
3c
2c
96
d1
ea
61
16
11
c0
02
15
e7
fb
f2
60
24
bc
f8
07
10
2c
20
45
e1
81
d5
e6
08
e1
f5
e7
09
37
fd
54
05
bf
a8
ff
08
01
f0
d0
4f
ee
05
c2
2a
17
00
b2
b8
38
fb
0c
c2
ca
73
37
fb
dd
16
a0
1a
0f
0f
0a
20
e4
c7
09
7f
03
13
e8
d4
e1
0d
0d
15
d6
1a
c2
ee
ec
d9
dd
20
16
aa
1d
1e
d3
1d
13
45
47
de
0d
e8
e0
d9
df
ea
b9
21
2d
97
4e
7d
35
4b
20
21
f6
48
0c
12
6c
2f
e3
f7
fc
34
38
38
5f
fb
a0
14
4b
46
01
f5
02
26
c1
c5
e5
22
12
c3
18
1a
dd
f5
a7
ce
e2
51
29
88
c2
f7
f1
04
46
98
11
0b
60
31
25
e7
ca
7f
41
d0
fd
20
e8
11
ed
f1
c7
fb
f8
d7
df
d6
5f
d6
8d
f9
f4
fb
eb
1a
52
2a
1d
09
22
de
f3
7f
34
8c
5e
13
28
36
cf
ac
00
fa
0c
ff
09
0d
c5
37
f1
5a
f5
23
03
fa
50
8d
01
05
d1
1d
fc
b6
fa
08
b9
b4
9b
19
f9
d5
04
55
af
4b
db
e7
0e
6a
18
96
66
13
f7
f2
d0
36
e1
24
23
42
12
ed
81
ef
e5
dc
f0
d4
02
07
d6
03
13
30
f8
c1
e4
f5
d0
73
1a
e7
0e
b1
d4
fc
e3
f5
c9
12
01
fd
cb
f6
1d
be
21
cc
ff
bd
2b
55
eb
de
dc
00
f8
22
c9
18
b2
3c
1b
e7
cd
00
eb
f0
0c
f2
e3
64
e5
2e
1c
1c
30
ec
a8
19
dd
14
18
0d
5a
75
14
fd
f0
a7
4b
dc
d7
f3
01
07
40
d5
20
d6
1a
4e
f1
3f
9b
0f
1e
9d
09
19
31
e8
16
db
b8
04
ad
7f
cf
ee
e2
06
e8
37
58
f4
11
31
f0
c3
b0
28
61
0c
ef
09
e8
fa
f5
ea
1b
a4
4d
f2
33
be
df
27
12
17
07
5e
34
40
cf
cd
e4
05
da
f5
db
29
28
c6
18
1b
d2
ea
f6
00
24
d1
25
aa
da
3c
47
1d
28
c9
df
da
e0
09
7f
eb
03
d5
af
28
0c
aa
1c
df
d5
e8
0d
8e
ff
a1
f3
d7
af
5d
11
0f
d7
00
c7
3b
1b
c7
2f
c5
e4
d4
c8
31
65
31
f8
a8
fb
e8
dd
fa
ef
de
1b
2e
cf
ec
99
f0
1b
10
2c
66
fa
ec
08
0e
f3
e0
21
7f
00
fb
d8
23
13
18
cd
53
31
48
4d
f6
e7
32
f9
e5
e3
db
cc
ab
b0
f2
26
26
13
37
3d
f7
01
49
d4
20
34
9e
a1
7f
42
b7
20
55
f2
97
3d
33
0e
dc
e7
1a
1d
1c
3a
ec
1a
1f
2f
57
6f
df
16
f3
ea
e4
47
ee
39
22
f9
1c
3d
35
d7
18
f3
e7
15
0c
8e
40
0a
0c
cf
1a
b4
d1
5e
43
18
05
56
43
19
2b
32
5e
e9
47
95
fd
e9
0e
7f
34
d7
af
f3
19
f8
06
16
0a
d2
f4
c5
20
f8
d2
31
56
cd
26
cf
0d
cd
f2
0a
ef
44
ea
e9
5b
c9
d9
ec
3b
06
33
e8
48
5f
2a
ec
c4
26
f6
e0
f8
1c
ec
05
fe
27
c8
d4
26
fc
be
ff
f4
e1
2a
08
01
0b
d5
b4
25
fd
23
c3
04
e7
37
55
09
81
15
c5
d3
d6
d3
0f
12
b7
b2
1b
11
de
68
d4
37
f4
a4
fa
0f
01
3f
12
01
75
d8
fb
f9
a5
08
fb
1c
0f
3b
1b
de
43
1d
f3
e5
36
60
c6
19
3b
81
cc
07
f4
e5
09
cb
d4
03
b6
d2
f2
aa
12
57
11
35
27
e1
d6
5a
30
c4
d0
a5
fd
14
de
1b
43
e6
f8
fb
63
01
24
cb
e2
12
de
ff
09
1f
8a
f1
3e
01
ae
d4
c2
30
c2
b2
0a
3a
dc
d8
ad
d6
03
45
39
34
d4
39
18
3f
f1
6b
34
d8
5a
09
1a
ee
65
d0
25
20
d8
ec
25
66
16
f0
e9
02
21
1d
2a
d7
15
11
33
aa
d5
22
d8
f5
d2
22
e7
f1
47
c1
c0
01
37
0f
ff
f4
81
2f
e8
a9
da
bf
28
23
19
f0
ec
59
4a
39
b2
e1
66
f2
f2
f1
ef
b9
fc
f1
00
ed
ec
f7
36
1f
c0
3d
eb
fa
e7
ff
40
0f
31
53
81
8b
13
ee
0c
f9
de
fc
75
ab
47
1d
e0
65
25
e6
e8
92
f3
03
e7
fb
1a
26
c8
fc
27
25
ff
15
19
1a
cc
f7
19
de
14
12
c3
b7
0d
1b
47
23
ec
af
4a
2c
3b
fe
da
89
81
04
22
2f
07
0d
02
0b
c3
0d
9c
19
52
29
08
f4
62
f3
3d
5f
14
d2
e2
16
33
c7
f5
3b
3e
fe
f7
d8
28
2d
b0
fa
50
b9
13
34
0c
3a
1c
fc
f4
19
13
ea
ea
2e
07
01
55
ed
ec
08
df
12
95
e4
e3
f5
54
03
da
15
e1
de
1a
f2
03
ef
0d
1c
ed
9f
3a
7f
ed
ec
fb
07
42
f2
d7
22
12
ef
ac
e3
d8
e7
22
a9
87
1b
f0
14
ce
02
30
56
d2
1e
fc
8e
09
5c
fa
0c
ae
2a
d4
55
3f
6e
03
46
29
dc
07
1d
0a
30
1c
aa
81
0f
de
ee
2e
fe
09
96
f9
1c
35
1b
ea
e8
eb
41
d6
1a
25
1e
fd
fe
9a
1b
2d
10
38
f0
fa
ef
c6
ef
ff
51
1c
75
2d
af
ef
49
2f
70
1e
24
0f
1b
34
12
d3
fb
c2
2d
05
19
9b
21
f9
2f
36
31
50
93
09
05
c7
81
e2
29
21
10
4a
06
08
d3
fd
03
e6
13
cb
ba
d7
dc
f1
c9
09
28
fe
5f
0e
23
e9
0e
fc
2e
de
d2
1f
e8
e3
bf
f3
f5
06
d0
ce
e8
15
0c
5b
18
11
1c
f0
cd
04
6c
e1
29
e8
e7
4e
1c
20
f8
25
b7
af
fb
a0
de
10
40
2a
7b
30
e6
99
8c
30
b1
4c
91
24
d5
da
b6
37
fa
43
1e
cb
7f
38
81
14
cb
eb
27
fa
f4
46
2a
2c
ef
5c
b8
e7
33
01
45
d7
2d
06
0c
df
c9
f3
33
be
4c
da
3e
03
cf
18
0c
f3
68
1d
fe
e0
30
d6
a8
ce
be
ee
e1
8c
33
38
3f
d0
3f
e9
d6
c0
2f
e3
bd
b2
aa
02
47
54
ea
20
29
00
e2
08
0d
15
fd
4e
13
0d
14
b0
d6
32
81
f8
58
2c
fa
28
f7
1a
de
95
32
81
ec
e2
0e
49
32
09
2d
28
1d
21
68
16
09
e1
db
02
6b
27
f7
0b
f5
02
f1
36
c7
02
e2
1c
3b
ea
46
f2
bd
00
0e
b1
4b
1e
db
da
5c
f7
53
ae
f3
40
26
1f
f9
e7
fc
ca
b8
fe
f3
90
78
0d
8f
ed
c8
3a
54
f7
bf
4b
26
2f
d1
16
43
21
f4
fd
a6
13
50
e9
0a
ce
51
e5
08
e3
11
be
31
17
fc
da
ba
1a
60
dd
e2
12
e5
44
f5
df
f6
7f
af
42
28
e8
b1
e5
bf
e4
0d
30
53
f4
f5
d8
f9
c8
ce
f2
97
2e
e1
bc
c8
0d
fb
e1
03
e5
fe
03
c1
1b
bb
ab
d6
24
3b
f2
8c
18
4c
2e
46
35
ff
86
43
1c
d0
16
3b
d4
cf
0f
49
2c
48
08
cf
a7
ca
d5
15
b5
1b
f0
ed
e1
08
c6
7f
0c
19
5e
18
d9
02
1f
f3
6f
e1
9c
ea
bf
d6
be
ff
24
f2
1e
e0
13
ed
dc
56
e1
49
34
6a
e3
bf
f7
bb
29
27
f2
b8
e0
93
3b
33
db
08
4b
7f
54
1f
b7
25
2f
15
b3
20
d8
f3
e2
e5
c6
3d
1c
c8
d1
e8
e0
19
e5
5c
a5
4f
8c
cd
ef
53
43
4a
0e
1f
c4
c3
03
2a
ec
13
03
fb
f9
f9
50
c9
f5
d9
c2
ea
ff
51
7f
12
ef
bc
d3
23
d9
14
d2
c4
c9
be
8d
25
b4
a8
09
fe
29
16
cc
0c
29
96
ea
f0
0d
e2
6b
01
44
03
32
28
e5
36
34
1a
dc
04
db
ef
e0
1b
e7
dc
37
0e
77
c7
d6
10
b8
25
e8
fe
e5
25
11
16
1b
fd
ff
cd
e6
6b
0f
1a
02
81
17
2d
63
42
ec
3a
f9
f4
ac
84
0a
0d
41
2f
48
6e
e5
05
15
e9
d1
ea
06
a1
41
d5
10
fd
1f
d1
99
28
1b
e4
33
1d
0e
a2
61
83
f7
6e
44
d9
17
0f
24
5c
03
ca
22
20
fd
5e
a5
f3
09
b5
44
81
15
12
c7
ad
09
4d
c5
52
19
48
fd
be
e3
16
b7
71
f8
00
d8
02
ab
f6
f4
a5
f6
c9
f0
4d
df
0e
f5
da
da
00
7b
fe
07
85
47
c5
fd
fa
5d
47
c3
05
9b
0f
03
0d
1b
a7
f2
d9
51
e4
25
f1
2e
13
1b
1b
fa
3b
d2
27
ed
16
0f
7f
af
14
f4
e9
8e
00
2b
15
2b
2f
04
08
42
d8
d2
1a
09
0a
5e
e3
e0
e0
e1
24
23
c3
0e
09
32
0c
eb
25
27
0c
56
09
59
52
c6
e3
d2
8b
05
39
4a
81
ce
e3
68
08
06
03
f0
02
ef
f9
f9
19
91
d7
d2
11
00
5b
97
20
04
0e
4c
c9
6c
e9
3d
07
cd
1e
15
29
f0
30
7a
e2
18
d7
25
3a
1e
5b
0a
5e
9e
22
30
3e
df
42
ec
3f
ef
fa
23
e4
05
0e
b5
19
04
44
25
d2
2b
41
da
09
da
2e
ea
33
16
09
13
46
f5
14
81
33
03
09
f5
02
fe
10
74
43
b6
eb
3e
29
26
02
df
c1
2c
00
cf
1b
e1
0a
0e
b4
11
f9
d6
f3
32
e0
e7
e8
a4
0e
a6
e2
21
da
21
35
32
e6
21
d7
d6
ff
40
20
f0
1a
df
e6
fe
e9
e2
55
a7
c6
23
1b
c6
0a
c1
e3
4c
c7
20
ec
fe
07
1c
b6
54
19
c7
2f
81
f0
e8
ae
00
e3
d8
f4
18
e5
44
1f
ca
3d
eb
d6
e0
e5
9f
c1
6f
f7
02
af
e6
bb
dc
0b
b0
0b
ad
ca
45
0d
26
0a
28
41
be
29
05
d4
15
22
e6
1d
ec
38
e8
4b
d7
d7
e6
46
cd
ff
0c
0b
7f
4c
4a
32
24
cb
01
04
35
0b
0c
37
89
10
42
e9
e9
bf
b5
ff
b2
0b
33
fe
bd
b1
20
fb
2e
1d
dd
c9
2a
09
ec
dd
01
fc
9d
f5
e7
ca
26
0d
0f
dc
1f
d6
3a
f9
0d
ec
ed
e7
14
33
bf
d5
ba
14
4b
bc
1f
b5
81
f4
24
aa
37
fb
38
f6
f9
15
cb
00
c9
65
2b
42
12
3a
40
f6
26
dc
1e
5e
1e
05
b9
18
bc
32
f4
d3
f5
29
a1
db
67
e1
e7
19
09
e3
19
f6
28
5e
d3
04
10
06
de
14
d8
2a
66
d7
18
00
cc
01
fb
d1
f1
f6
04
11
a9
41
ec
e1
27
da
06
5a
65
4b
6c
b8
02
c9
15
38
d3
ce
ee
ff
21
45
7f
f8
72
f1
bf
cd
fa
e2
08
c7
0f
fc
cd
c5
1d
8f
e7
4a
3c
0b
0d
1a
f6
1a
72
b8
81
a1
39
fa
2f
ac
f0
e1
e6
11
9b
45
f0
00
ee
e6
33
d2
e1
db
d8
1e
13
b7
df
fd
81
5b
29
fe
e0
24
49
0f
a9
a7
27
e1
ec
bc
2d
12
3e
e9
ec
3e
5f
37
45
9f
0a
d0
d3
2b
d1
19
05
71
7f
f6
eb
51
e7
4a
f6
37
ba
05
d8
0a
04
c8
03
bc
3b
2c
e1
f3
2f
c0
23
c4
07
12
da
21
0c
30
af
28
33
e0
8f
0c
ea
0d
2a
0f
1e
aa
19
fb
88
14
d1
f2
cb
06
36
05
cf
02
1f
00
26
cc
07
15
08
d3
f9
3e
d9
d4
14
e3
ea
00
05
05
0c
81
10
e9
e0
0a
e9
fe
ef
37
eb
e3
f2
16
f2
ff
ef
09
16
cb
2f
dd
1e
ef
04
09
0c
05
ad
b4
dc
f6
09
10
ea
22
ef
f8
10
ee
f4
f8
12
ef
eb
37
94
da
c9
19
f7
d9
02
ba
7f
03
02
d6
51
f7
21
02
db
1f
ff
03
09
42
10
02
ed
fb
28
dd
be
c5
e7
47
e3
b5
f0
2f
be
20
0c
e3
0f
0e
9d
0e
c3
da
ff
f5
1e
24
e9
f9
cb
1a
e3
e0
e0
e2
0e
2b
e8
1a
b8
16
10
04
f8
09
f1
88
1a
11
5b
10
40
21
3e
89
c6
c5
f3
c0
29
40
d8
66
a9
43
53
d5
26
1c
3c
fd
7f
09
fe
f7
99
ea
89
fc
3b
38
24
55
30
48
03
41
9c
e1
24
01
da
e4
df
e1
8c
ee
cd
e4
5e
06
8b
d9
0b
d9
15
ef
01
ee
bf
f9
e5
f6
ed
f3
ac
01
bf
da
38
f7
44
c6
1c
1d
2a
04
c1
2f
a8
20
1c
20
e2
28
c9
bd
0e
08
32
3f
db
b6
7f
de
c5
38
35
fb
5e
e3
35
1a
1e
fe
dc
cf
15
06
ed
03
c0
e5
07
6e
4b
17
06
ac
66
a4
c9
0c
ee
41
e3
f4
0b
fd
26
f6
45
40
4f
32
ea
2a
e9
01
07
d1
bf
0a
fa
f8
e2
e6
ed
62
b7
4c
f5
ea
fa
c4
f4
fc
10
36
f9
19
de
1f
45
e4
e3
dc
4e
39
ef
24
81
fd
fa
92
05
a8
0f
f5
0e
eb
c5
06
3f
38
bb
f2
b1
c1
dd
11
a8
f5
05
be
0f
31
f3
12
02
11
06
fd
02
e6
0b
05
8a
26
ae
da
29
e5
de
15
c6
f9
0f
0f
f9
dc
2c
c8
0f
ae
cb
2c
12
6c
01
f7
c4
4f
1a
da
24
5a
7f
1e
f5
d4
e1
bf
08
f5
11
4e
1e
f1
36
e0
47
ee
f5
a2
c9
1a
05
08
34
cd
fc
fc
f6
43
c1
e8
01
0d
bb
5f
14
3e
14
45
98
fa
ea
11
07
c1
18
ec
ab
da
25
df
da
08
b0
e4
04
ea
d7
f3
c4
ed
81
1d
f8
15
f2
ca
0d
04
cb
e5
0f
25
1d
21
e0
14
30
34
9a
32
fc
e6
b7
fe
dd
eb
27
e8
fa
46
0e
3a
10
fd
b0
0d
0b
00
27
cb
2a
03
f1
40
02
15
f7
23
fd
31
f0
28
34
08
e8
d9
36
3f
36
e2
08
d3
e7
e5
f3
ed
2a
d5
13
0c
05
d9
81
23
30
13
23
0a
21
3c
39
f0
f4
ff
c9
1b
d1
00
d2
ce
f8
b9
02
cf
08
32
ac
a8
ca
9a
b5
1d
e4
52
f8
dd
04
1b
7f
5b
e4
47
a7
21
91
f7
ec
2d
4f
6a
07
99
a7
17
0b
33
f4
b6
be
19
ff
51
a6
ed
d5
bf
c7
cb
d4
ec
45
6e
13
e0
eb
1c
bf
48
ae
d1
52
d6
09
99
1f
f7
c7
30
aa
77
28
e9
67
22
e1
22
b4
c8
99
e7
13
f6
45
d0
81
ef
2d
2e
fe
b5
03
0b
19
0e
32
f9
29
ca
46
e1
e6
32
de
b8
04
10
09
11
c4
fe
f6
e4
de
29
f5
3e
4f
ff
bc
24
92
04
a3
05
51
27
1e
e9
2a
26
63
bf
08
61
b1
08
e9
81
85
17
59
66
b8
2b
fc
6a
a9
18
b8
1c
f7
1c
1f
ce
4b
c2
d3
cd
a6
a1
dc
c6
fe
48
6e
1a
7f
7c
fa
0e
c7
95
82
19
35
4e
68
22
e2
fe
0d
d8
25
17
ff
e8
1b
1e
d1
44
3e
e1
81
0e
f0
cb
11
07
1f
fc
1a
02
f1
ff
e8
ca
38
f2
2e
2f
df
26
06
1b
f7
10
e0
d4
e0
2f
2b
11
dc
0c
21
0c
f5
ea
1e
cf
54
f5
e1
2b
4f
1a
fc
14
d3
38
c1
d9
02
02
d2
d2
e6
1d
da
fc
96
f6
45
f5
18
1c
ef
25
e7
15
ef
d9
0e
ca
ed
19
e1
29
0a
4a
f8
0b
32
f2
3d
e8
bb
e6
c8
0f
fc
1c
f3
19
bd
7f
14
e1
ac
10
d1
d5
d9
12
f9
f0
fd
08
ee
f6
03
c5
4d
02
f0
1d
c9
f1
07
fa
e9
e5
c1
23
a9
5e
e1
d8
05
6c
da
b2
3f
e8
df
a2
03
1b
78
f1
db
97
fb
68
fe
b2
f3
d2
d1
27
04
fc
ae
10
03
25
09
5d
3d
71
31
18
30
d7
d6
57
1c
9c
0f
29
f8
27
2e
c7
f4
ea
90
3b
03
7f
16
2d
2a
b3
ee
44
b3
3e
12
47
24
08
19
c5
e0
3f
1c
3d
09
30
ff
e0
48
bf
1c
cf
92
4c
c7
d8
96
2a
e0
eb
ca
4a
8f
16
ef
7f
40
d4
23
f5
ee
f3
08
35
ca
11
47
aa
f8
67
2e
16
2f
67
f3
3b
e5
cc
1b
0a
7f
27
4b
2e
1e
ee
e0
60
d2
b0
1b
fa
4c
25
2a
11
58
b0
32
52
ab
12
5d
0f
a8
d4
5b
38
ec
0f
05
f1
36
95
c9
bd
ec
33
f7
ec
6a
2c
25
14
ad
24
35
9a
cd
9a
d1
69
dc
c1
ea
6a
08
2e
2e
12
38
fa
87
1f
f5
fe
61
0d
d6
c8
3b
14
7f
25
ae
00
22
6b
4a
ba
fd
bd
d9
1a
f7
cc
3c
d7
d6
e8
08
d0
e5
1e
c9
2e
13
0a
01
db
8b
cd
c7
c4
0f
ea
1b
d2
e3
5b
f2
00
20
db
e7
04
fb
ea
f2
02
1e
00
f2
2e
d8
2e
3f
4b
30
30
07
f0
30
e0
24
21
d1
da
61
7f
0f
13
f8
fa
28
06
f8
eb
35
d7
1f
2f
af
4f
00
fb
57
f7
05
23
39
e7
02
2f
20
ed
42
1b
20
05
fa
53
f2
d0
ed
e6
22
b8
ea
1d
cb
61
dc
b3
d1
26
c4
e8
01
3c
11
1c
78
06
f9
fd
29
13
55
e0
ed
43
be
f4
e0
da
06
37
d1
14
08
ac
27
05
24
ff
c2
d6
c7
45
dd
ef
35
0d
22
d7
f6
11
0e
f8
2d
f3
1c
ef
11
e7
3e
55
09
29
dd
04
eb
06
f1
e9
de
a5
47
e5
1a
e6
ef
01
07
81
f5
d7
37
18
eb
1a
02
d6
d7
b9
1f
e8
e3
62
2b
d1
1c
01
18
ff
d7
b2
f5
7f
fe
16
9a
1e
fb
ef
da
0e
20
bf
4c
f9
e4
fd
ef
fa
fc
0c
da
fc
ff
ba
c4
ad
dc
c5
fb
b1
fb
f1
46
d2
31
15
33
f1
eb
bf
e0
6f
c4
46
22
8d
c4
b7
e5
81
e0
23
fa
23
c0
23
70
33
a4
db
f3
ef
f8
cf
07
d4
ef
ef
d7
59
f3
c4
0b
fe
1a
d4
ca
08
28
e6
f2
d5
39
ff
ae
30
20
d2
19
f6
dc
30
fe
e5
b1
38
76
23
c1
33
18
31
2d
1b
f9
14
13
1a
04
0f
fb
05
f1
d5
1a
fd
31
2e
da
b4
d8
1f
1c
55
cc
19
f2
f7
0e
10
05
42
10
81
07
ba
3a
d6
f5
05
1c
31
cd
04
f2
d0
3e
ea
d9
01
ed
23
cd
29
0a
fe
1e
2b
f8
f7
04
e8
f3
00
f5
d4
dc
44
ac
03
e7
37
d7
11
3f
1a
18
f3
05
3b
25
cb
16
30
0d
b2
ab
f0
f1
b8
52
af
f6
ab
27
20
ea
ac
32
f9
21
0a
3f
06
f2
56
ab
ee
db
3a
f1
13
41
ef
b9
e2
5f
bc
14
13
23
15
dd
c4
d8
db
f5
81
2a
f8
da
e1
e4
eb
b6
fe
ef
26
e9
dc
a8
fa
42
e9
0e
25
05
fc
7f
d7
e9
ec
18
cd
1e
97
f3
07
2e
06
43
b4
bd
dc
2c
32
a5
e1
fa
12
fc
4d
1f
12
d1
52
f1
39
32
b9
11
1d
e1
df
42
da
d7
41
41
fc
0b
db
26
f1
ec
c3
f1
e6
7f
a3
01
c3
cc
11
ef
1d
b9
23
00
4f
e4
fa
4a
02
cc
fc
09
eb
4c
9a
1b
29
cf
00
68
5b
26
15
dc
15
2a
d4
e0
06
9e
ee
67
cb
e3
e0
81
4c
51
b5
c9
f1
25
13
1b
70
b8
4e
46
da
aa
26
d3
3d
42
53
9d
f5
41
e9
05
f3
0a
15
d9
42
e9
01
f1
23
eb
d8
32
17
00
fa
18
20
fb
08
c7
f8
df
1f
0c
ee
1b
eb
e8
04
02
ea
d3
f1
f9
31
e6
10
cd
bf
2c
81
d9
f3
ed
0b
15
2c
28
be
11
06
44
f2
22
fa
d3
fa
0d
eb
16
ff
28
7d
42
f0
4e
09
d3
47
b5
01
f6
ee
2a
dc
ab
ff
62
f6
1e
c7
f9
4e
f5
ae
f5
f3
f0
3c
7f
1e
26
e7
02
a5
f1
4c
fa
d5
c2
f7
f7
9b
5f
11
f6
33
10
39
e8
e1
fe
59
f0
c0
ed
27
95
c5
a5
b9
28
e7
f0
ee
ed
b8
f5
2a
e5
ce
4b
41
bb
25
cc
ea
c5
ff
3e
2a
95
77
da
51
1c
4f
d3
4a
52
16
b9
0d
07
ec
fb
f9
3d
4d
ff
f3
ee
1d
bf
ce
7f
e3
e6
52
26
ad
19
ff
04
c1
12
45
e2
e8
e4
93
20
cf
e5
1d
3b
5f
29
3e
1f
06
be
ec
b7
34
e4
d5
3b
3c
e6
02
24
0a
08
d0
d5
12
07
46
cb
c2
e7
f9
e3
5a
f9
b2
3f
3b
e3
c5
0d
28
7f
db
fe
c2
10
c8
0b
d2
2e
08
29
56
44
26
0d
d0
de
24
f9
eb
ff
0d
c6
2b
0b
ff
f2
1e
98
47
0a
18
07
f3
ca
2e
d6
32
15
20
f6
f6
39
81
ff
dc
e3
1c
0a
cf
11
f9
fc
58
e9
37
3f
97
f8
bc
ec
e4
44
3c
fc
ee
c4
3c
cb
23
e9
ef
f4
13
c7
68
20
0c
e5
fc
d4
d9
20
d0
f8
ef
01
f5
07
4f
e1
18
0f
10
49
f4
28
34
d8
10
c7
71
90
f2
f9
e4
28
05
d9
fe
a6
ee
f2
12
42
cf
11
44
c0
c2
cf
bd
39
04
10
0f
0c
02
11
f6
e0
15
d2
1e
be
f4
ec
ee
ec
ff
fd
df
c5
c0
0f
e5
ea
81
c0
d3
33
a3
0c
44
24
f0
bf
1f
1b
35
25
ea
4c
d4
26
5c
ca
bb
c4
f7
7f
f2
23
d0
48
4b
16
1d
d6
36
a1
fd
2b
14
fc
a2
38
7e
7d
0a
e6
43
d4
0d
fc
46
cf
57
cf
e8
05
e1
c4
ce
25
0e
f7
5d
f6
0a
c5
fc
22
26
27
e7
e9
05
3f
de
ae
e3
dc
a7
12
ca
04
c3
3e
f7
a7
f6
22
f2
11
46
ae
26
c5
c5
4c
e0
2d
cc
ef
10
b1
04
06
ff
56
08
a9
24
36
46
7f
e6
02
e9
f6
1b
e6
b7
e7
28
9b
47
f3
03
fb
b8
f2
33
2a
ea
13
c9
c4
ea
01
13
de
4b
33
3a
1f
3f
1c
20
f4
f5
c8
3d
ec
22
e4
23
07
06
2a
f6
41
00
10
07
ed
fb
01
1f
1b
d1
b1
58
d8
08
17
c0
eb
30
1a
f9
13
f8
81
e5
ef
e2
f8
66
98
27
fd
e4
f9
31
ce
2e
f7
ac
d5
ec
e7
cd
c7
2d
11
14
df
1a
18
1d
fe
ab
dc
32
0a
1e
dc
d6
e2
c9
2a
28
3c
5a
a9
f8
ea
05
ce
c1
e2
5c
31
75
07
17
e4
07
c7
03
55
bd
ac
14
a4
d6
1f
e0
33
21
d3
d1
09
f7
fc
55
18
df
f0
2d
06
1d
7f
1a
2a
de
44
2f
bc
f6
6b
9a
c8
47
8d
1d
55
22
b8
15
25
19
14
60
aa
3e
5b
0c
ed
32
94
ff
5b
19
0f
fb
e0
53
d6
25
0d
16
36
cb
f1
f7
fa
45
0c
56
e1
01
05
81
8d
e2
32
ae
15
c5
d1
16
f1
ed
0e
2e
44
24
c6
2a
11
02
d5
c2
31
10
18
3d
fb
cd
bd
69
32
a9
e7
ef
e4
f2
bf
7f
eb
f8
e8
d1
cf
df
fe
f3
04
0c
d9
eb
ac
da
f4
b4
0f
1c
56
cc
fd
13
46
41
38
a2
15
f3
f6
03
c9
16
2c
ab
ef
4c
27
11
bf
19
f0
07
15
2d
0d
d5
4c
fb
46
df
e8
36
00
10
0b
d3
d9
4d
7f
e0
ed
43
08
ec
c1
da
00
3b
c2
07
00
f9
38
28
15
c8
f4
c1
93
cf
c6
fb
23
4c
ce
00
f3
f3
1d
2a
c8
d8
21
fe
dc
da
f4
f9
08
03
c6
35
2e
ca
d9
00
04
0a
26
01
3f
01
12
bf
f3
06
d9
eb
e3
e4
7f
0e
be
05
11
3a
c3
55
1f
11
fd
ef
41
ee
db
3a
b2
17
af
fc
30
41
e6
c4
da
15
03
d2
ad
aa
32
f9
aa
f0
4f
fb
2c
e5
fe
37
04
f0
27
e1
02
dd
ef
e4
d1
27
0f
0e
f5
f8
1c
06
34
3e
f3
e9
04
ae
9f
09
1f
15
f7
e9
12
24
f4
96
ad
ff
db
21
de
46
ea
c5
df
df
21
fa
f7
f5
3b
7f
12
f3
55
f2
fc
3c
fe
ff
21
e4
3d
b5
17
e9
f9
c4
2b
fb
19
eb
3f
2d
e9
c8
3f
1a
ed
02
f3
1f
02
8a
22
e2
e2
1c
d0
fc
d0
4e
ea
ee
ea
f7
f9
05
f0
f9
0e
02
00
4c
f3
ec
10
e0
c5
b3
11
75
04
27
26
1d
02
0a
c7
1d
f6
14
c3
48
e9
0c
7f
13
03
f0
fd
e1
cc
ef
11
f6
f9
bd
eb
17
16
ff
40
2e
01
03
fe
22
da
19
f8
1b
29
cb
0d
b3
fb
47
07
de
39
d0
16
36
25
0d
18
04
2c
c6
2c
bc
1b
43
08
20
23
c0
02
f4
d8
cd
dc
3b
e5
e2
13
22
0a
27
d9
18
3e
d6
58
11
cc
d8
6c
e6
ec
05
10
04
f0
bf
bf
da
7f
1d
bd
c9
f0
22
d8
8e
e1
d5
32
f5
cd
11
14
e8
f5
7f
fd
cd
97
1e
b7
21
2c
23
05
bc
d3
0e
18
11
cc
de
df
ea
d0
48
f0
ba
a0
f2
df
fd
e5
39
ce
bc
bc
3a
f9
cc
29
21
5c
1d
dd
37
f3
00
1e
21
c6
d3
2b
2c
cb
dc
2b
f7
f1
06
be
fb
11
d3
12
d1
68
02
39
34
53
c5
24
f9
e0
fb
9e
be
ff
3b
02
81
10
83
15
d0
db
e0
3a
dd
c9
09
ef
0e
cb
0c
fc
05
25
e8
13
fa
06
66
1a
4b
e4
27
0e
35
1c
e1
00
dc
ad
02
2f
f3
87
30
39
5a
9f
4b
27
3a
91
4b
4a
be
e3
1c
0f
3c
20
49
3e
f9
93
3a
38
29
f5
3e
fb
b2
26
42
df
81
e0
cb
46
fb
b3
c5
d8
0f
9e
05
24
ac
a1
27
fd
ef
78
f0
d3
24
dd
19
e4
ad
d7
e6
fa
75
5d
f3
d6
03
2d
8b
1b
9b
57
cb
d6
4b
51
c9
40
fb
fa
35
e9
f6
39
1f
45
38
00
ee
7f
f0
08
de
20
ea
d5
54
ff
12
e9
ee
d5
6f
9f
c1
e4
25
d1
bd
02
e4
32
a3
fb
c5
f7
cb
eb
7f
0c
4b
15
1e
d5
12
ec
17
15
03
2c
1e
a2
d5
a8
e2
06
d3
34
13
03
33
ef
d0
28
eb
12
23
d6
e8
1b
1b
d8
2b
cb
20
38
23
fa
ce
ec
31
cd
cd
c5
fe
05
0b
be
f7
81
e7
dc
18
39
e4
40
10
06
06
13
ff
df
1c
d1
cf
d4
ec
47
ae
ef
f6
c5
05
67
36
0a
df
05
54
d8
19
cd
11
08
08
c3
10
1b
2d
81
21
e7
0b
05
3d
f2
14
f9
08
ca
46
e1
08
0b
5b
09
6a
19
ea
f1
4c
0f
27
f3
0b
f2
f9
c3
0f
f3
fb
2c
36
db
d4
f2
35
e8
bb
04
e5
16
0e
3f
e0
1c
17
d2
f7
ad
64
2d
40
07
09
ce
ea
a9
8f
81
34
b8
6a
ef
01
fe
5e
4d
cc
fc
09
48
da
3e
1b
f8
e4
35
de
89
df
f3
b7
2d
06
d4
11
c3
df
a9
11
70
1b
fe
16
5e
c1
e9
fe
27
53
8d
41
4b
13
36
4a
c5
39
dd
f2
fd
1c
09
1e
98
ed
2d
0e
d4
f2
b6
9f
db
58
e2
df
46
c8
43
de
6e
f3
1f
08
ea
cf
0a
2b
e2
16
fd
fd
34
51
db
38
1a
d8
30
d9
ae
7f
43
0b
cc
f2
49
d8
e5
22
b8
a9
26
51
e8
e3
c7
02
ec
f7
ea
98
24
31
0c
9b
40
5d
9b
1e
31
57
09
cc
2c
06
b9
e1
11
46
ea
d3
bb
ec
e8
ed
01
20
d6
ff
dc
11
de
84
8d
00
12
69
e1
0b
9c
f1
0a
fc
08
e4
c7
11
e8
d3
dc
06
ed
ba
7f
d7
11
2f
e8
6c
8e
df
e8
31
f7
20
a0
dc
61
bb
be
f9
a4
d1
33
f8
10
13
c3
0f
f0
2c
3e
31
b1
da
04
c3
f1
ca
bc
00
0f
f3
41
c0
85
13
d3
63
32
32
b0
81
9c
45
02
54
33
20
18
10
f4
b2
04
be
e7
e8
3a
d8
b6
27
14
d8
fc
23
00
21
ce
d8
35
17
d4
4d
ec
06
15
e4
ae
0f
40
dc
3d
03
47
67
db
26
8d
15
c1
14
ab
14
a2
cd
9c
cc
df
fd
47
ca
fc
fb
e4
24
06
6a
28
b2
12
fe
bb
ef
81
31
00
2c
08
42
f7
0c
1b
f4
85
0b
02
22
2d
3a
e7
fa
e2
cf
ef
d2
18
ac
ea
0b
da
c1
e3
29
20
02
e4
c8
e7
7f
14
36
36
15
f1
bb
e8
f0
0c
18
fa
1c
f9
d4
44
0e
dc
34
0b
11
b0
0c
f7
0b
31
f8
cc
2c
b1
0f
05
22
61
dd
f9
f3
08
d7
d9
f8
18
13
0a
fb
08
31
19
fa
27
ff
f1
2b
cf
d7
37
13
34
71
4e
0a
d8
0f
fc
ec
d8
2d
be
f6
d3
b4
28
ed
51
de
0c
5c
43
bb
3a
89
24
f0
d6
18
bf
04
ec
05
aa
ea
8d
42
e3
f7
e5
e5
0e
81
18
48
01
04
c9
48
b6
eb
ca
09
33
e2
94
c8
9c
ef
f0
eb
28
f4
1f
ee
06
7f
36
1a
c3
2b
92
01
e2
0d
7f
25
3c
14
49
2a
c3
16
e2
f3
01
24
fa
02
a1
31
2b
2a
f3
7b
44
3f
e2
eb
2a
da
01
40
15
f7
3f
fc
1c
75
d3
39
34
e0
8b
00
05
21
d8
23
22
10
01
21
d3
22
45
b7
d3
42
0e
f8
db
f3
dd
de
dc
51
14
c5
53
09
fc
5e
24
20
fa
81
0c
46
29
03
00
cb
13
0e
12
e6
77
4c
ff
f5
f8
1c
f4
06
d1
5d
d9
30
d5
4c
00
ff
af
24
0a
2d
f2
f6
e4
fa
e3
01
d8
e6
d8
03
b4
f5
f2
ef
18
ef
ff
90
eb
d9
1c
05
39
e7
16
06
a8
e0
06
27
97
9a
de
04
f0
09
e6
d5
45
12
b8
39
a9
e8
f5
10
e7
db
18
dd
e6
b8
24
56
ee
f8
30
01
aa
cb
1c
ae
d5
e5
e4
20
d9
f2
2c
81
3b
0f
04
0f
06
02
44
eb
e7
ec
01
35
4a
ce
e0
a1
05
37
4f
f0
04
e1
e2
0a
fb
e7
03
16
db
07
eb
08
81
cc
db
0f
bb
f1
1e
dc
36
b3
ad
2d
05
e5
b4
46
1a
fa
f4
8f
2e
44
20
17
15
4b
c5
4b
f1
ee
5f
0c
eb
b0
06
c1
2f
0a
1e
29
0d
00
11
ef
e8
e9
c8
44
d6
b2
0b
ee
23
17
11
f1
a6
7f
3d
d3
29
2e
9f
68
c3
19
07
c2
e9
ed
b4
6e
12
61
24
32
d4
1a
aa
00
ca
f2
50
06
0b
39
0c
5b
f4
3f
02
48
ce
3a
c3
db
e5
57
fb
48
d3
0a
c1
cb
fb
01
2c
f7
e5
b8
f0
f2
da
24
1b
0b
b4
e0
2c
2a
66
ff
ff
05
35
22
f7
15
f4
ed
0a
14
33
cf
21
f0
e7
f3
11
23
b2
c9
81
1b
d0
dd
fc
92
f5
01
f1
b0
be
18
ce
fc
f6
40
f6
de
e4
cb
ee
40
e6
bc
54
d3
47
c9
b5
1f
3e
b9
08
fa
e5
f9
a9
46
ca
6a
12
23
e3
ca
46
0f
fe
4f
27
ec
f5
e0
32
3f
f1
fe
1c
29
ae
f0
f3
13
fc
ce
e6
f4
c0
ee
c2
18
1a
cc
f1
07
e2
17
03
da
cc
c2
12
de
cf
12
81
03
e3
f4
a8
ec
e9
44
22
1f
13
de
04
05
7d
18
c2
fd
f8
dc
15
17
07
7f
99
d5
01
63
17
2a
e8
ec
d0
15
56
c6
20
07
cf
04
eb
0f
00
d6
bd
49
e7
2e
bd
e3
f6
13
d5
0d
0c
f3
bb
bb
e8
18
43
2d
ff
f9
b2
d2
20
04
dc
fb
10
37
25
e3
03
09
a8
fa
cf
0a
25
0f
49
f3
7f
23
de
fe
08
d9
ea
eb
c7
c0
de
10
0c
15
10
53
e3
3c
63
0a
df
06
d0
d3
27
c6
05
43
f9
d5
0a
f2
c6
16
f3
12
2b
d2
d9
e4
e0
22
2f
10
0f
e8
fd
fe
ec
53
fd
ed
2e
28
17
5f
05
1d
ea
fe
f2
2c
15
34
fe
02
16
f8
01
48
2b
0b
87
21
f4
eb
b9
a4
51
3d
18
e5
1b
cd
b0
3c
d7
fc
dc
15
dc
37
25
ff
03
32
37
a9
fd
88
3e
2f
81
ce
c8
d7
f4
0e
1a
0f
b4
24
de
d3
3c
c4
2d
1c
8d
f2
27
f4
1a
4b
4f
e9
6d
2f
5c
93
df
d1
07
ab
db
eb
da
9f
c2
a8
c2
1c
f6
2e
c6
41
ac
e6
f2
2c
0d
c3
1f
0e
86
da
47
81
19
0d
43
9a
e9
45
c5
01
e0
ef
e0
11
f6
d4
93
fc
ce
89
03
8f
68
77
bf
02
4a
2c
d6
10
19
e9
ec
12
ed
7f
a9
05
35
d9
fa
b0
4a
46
ed
3e
e0
de
fd
f4
f1
69
ab
ee
0e
19
2b
0a
de
f9
c1
06
e5
17
11
3b
f7
43
cc
18
0e
f4
01
13
ef
13
dc
f5
e8
f0
35
f9
d2
2d
ba
30
eb
fd
2c
17
4e
23
de
c3
e0
4a
6f
d5
f2
6c
0f
b3
38
d2
25
04
a3
18
7f
ec
fa
ed
2b
05
fe
93
59
00
c7
ef
f3
2e
a2
48
a7
1f
d6
e0
1b
1b
78
3a
f7
fd
16
52
48
de
f1
f9
39
1d
ad
f7
d8
48
70
18
4e
09
df
09
d7
76
1b
44
2a
11
ab
1d
f4
ff
ad
f0
1d
08
0b
5b
32
f1
a3
7f
04
d7
16
03
01
d7
0f
3c
4a
eb
01
fb
37
05
0a
05
eb
f0
bb
0c
ed
fd
75
22
e5
23
09
4e
f2
b3
8d
1e
2a
d0
ce
ee
b8
e6
29
f7
b8
12
33
db
09
ee
38
2d
ad
15
12
32
1a
e1
e3
e0
6a
15
f3
df
e8
c6
08
e8
f9
ad
50
07
e2
d9
db
ef
28
35
05
09
2c
fe
ae
00
de
4e
d4
2f
ff
f4
2d
47
81
da
e0
27
3c
05
e5
49
bf
af
dc
23
15
f3
50
fc
7e
ee
da
e1
ee
3c
12
35
17
a6
b4
63
9d
f6
fb
48
17
1a
56
03
30
df
07
29
fb
f0
1c
16
36
49
00
25
f0
0c
ff
11
11
e6
13
02
a8
35
e3
9d
63
26
0b
34
cd
fc
a4
a9
f2
be
4e
44
d3
17
ee
58
7f
30
b3
a0
20
a9
02
77
03
a4
b8
05
3c
0d
b4
2c
49
eb
14
e4
ee
03
0d
30
08
f5
3e
f9
36
0f
16
30
cc
46
16
3b
0f
09
32
26
b6
25
e9
f7
22
ca
1e
11
ed
b9
ee
c6
09
ee
60
ef
49
df
02
b3
d8
e8
f1
a1
f6
bf
23
26
c2
7f
09
e5
5b
14
23
ba
7f
0a
c0
28
d2
1f
20
28
33
20
0f
c2
e1
f8
dd
f3
c8
42
ee
0f
e0
b3
11
f3
34
04
74
3c
d2
cc
cd
1f
d8
0b
f1
23
17
2d
b7
0e
0a
10
c0
04
f2
5d
d5
60
16
15
f0
e8
61
e7
17
9f
0d
e6
ba
af
b4
62
e4
ce
35
2c
e0
e1
d5
52
18
36
17
0b
10
df
dd
28
5a
a0
03
13
de
d1
35
78
00
cf
3a
b9
e3
fa
07
18
57
0f
13
da
81
e0
3d
1d
a6
4f
bb
12
e5
0c
1f
0b
cb
1a
de
49
29
2a
ec
db
e0
c8
eb
04
3c
2f
1c
1a
43
0e
7f
13
01
09
dd
24
33
0c
05
13
2c
d9
e8
0b
1c
fb
2b
ea
d2
15
e5
9d
0b
aa
e6
0f
05
38
08
f0
fc
e5
e5
de
0a
e3
eb
ff
00
0e
97
06
20
f4
19
0b
15
26
ec
e0
22
ea
d8
e0
f4
06
03
0c
d8
15
fc
e2
0d
10
ba
25
f5
f8
ab
48
c6
58
d4
ef
f9
1f
fe
d0
f3
36
fb
35
5d
7f
bf
ed
cb
51
19
18
e5
13
bb
1a
d5
28
e8
a0
f9
a4
12
f7
46
1b
15
0a
5a
c6
41
c7
2b
ab
d2
e7
22
d7
3f
e9
dc
24
e9
fc
14
64
4f
e8
17
ef
f4
44
1f
1b
10
eb
a4
b3
2a
f6
af
0d
f4
13
19
ff
00
e5
10
c4
e6
17
d4
8d
e1
05
ee
40
1f
c2
fd
fb
d4
ef
dc
ca
28
1b
19
7f
14
f1
e8
f5
de
07
bc
44
2f
1c
e0
01
fb
dd
f0
fd
fd
d8
b4
17
11
25
ff
1e
e3
36
db
0a
07
62
14
45
dc
c9
ea
19
20
2d
da
40
20
2e
f3
16
ff
37
df
38
20
c2
57
14
e3
ff
c2
fc
ec
15
df
5b
ae
ec
bd
32
06
03
00
42
0d
ce
de
f0
c0
ee
04
68
00
e5
fa
e2
19
a8
16
81
23
36
ed
15
05
09
00
fb
ee
08
02
42
19
12
2a
0f
fb
47
d7
06
f0
ab
16
14
1c
dc
be
38
3c
e0
21
09
34
30
02
06
1c
cb
b2
25
cd
30
24
08
af
f9
f8
e7
09
d9
0c
3f
0c
8f
01
81
f3
bb
fb
f6
c5
06
24
9a
7f
d4
e4
8f
f0
28
32
e0
aa
02
9c
e2
fe
02
34
fc
0e
39
ea
f5
30
db
1d
f7
fc
d0
e7
12
27
2c
e8
14
1a
f2
e2
fd
85
38
24
f9
c5
24
f3
0c
30
e4
43
e4
23
01
2a
04
ea
c6
24
fb
d2
25
4c
38
bd
d4
4d
f9
cd
1c
16
31
3b
f1
e0
02
ae
43
1e
dc
0e
d3
3f
b9
fe
e8
ee
1f
c0
24
36
db
40
0b
4b
0a
e6
41
ff
35
e5
1c
3a
d4
d6
09
87
1b
e0
07
ea
7f
d0
15
0a
5e
14
c9
ed
25
9b
45
07
e4
27
10
2a
e5
c7
fc
1a
e8
e3
bd
26
09
2f
1c
0f
e1
9c
15
c8
37
a3
f4
f7
01
f4
ff
c7
61
3d
9c
03
66
e3
fb
d3
d3
ec
81
1e
59
b6
00
09
10
d6
4e
45
00
ff
0c
e7
14
bb
f5
d7
ee
fd
19
ed
a3
b0
d3
bf
e1
e6
3e
2a
c2
e2
f1
26
c2
55
da
30
ee
3c
03
e7
f9
31
17
05
ee
1d
1b
0b
0f
c9
cb
c8
43
60
d6
29
22
07
ca
10
f2
c7
27
44
2c
1e
c2
d5
c9
81
1c
13
f7
d7
ef
1d
05
38
f4
32
fa
0b
43
24
f9
eb
40
04
d0
10
f3
f6
17
f7
f2
35
59
f4
09
1a
eb
95
81
33
eb
a4
ea
1c
0a
ce
24
4f
f8
f5
fe
ff
0e
e8
0d
03
15
d0
e2
e5
38
f2
e0
f0
e0
e4
0d
c9
d4
14
18
e8
02
18
f7
0b
bf
04
d1
35
f4
ba
f6
2f
f3
21
42
f6
14
3e
f3
0b
f6
a6
e8
01
1c
da
52
4f
06
f3
33
cd
c8
e2
4e
8f
c8
bf
f3
15
11
18
0f
e2
e4
59
f8
02
eb
29
32
b8
04
14
bb
74
bd
06
4f
b6
31
1e
1b
02
69
83
59
fa
25
d3
bf
d3
81
3a
9a
ea
f7
16
09
ee
e5
f7
9a
23
1f
0c
0d
12
48
b9
42
4f
ea
05
2c
f5
05
fb
f0
ce
55
ea
3d
af
dc
0a
81
19
b0
30
d6
f4
e4
ae
2b
ea
bb
26
0a
e0
c9
08
07
32
64
b1
e9
da
04
fc
53
17
e2
e3
65
49
3d
c7
9e
ec
36
bc
f9
9f
0f
cd
37
10
f7
9a
de
da
f5
3c
da
49
31
09
00
ef
23
08
f7
01
ee
e9
da
e9
d6
bb
08
9c
02
3c
4b
5e
42
eb
d2
9c
ed
ee
54
3b
3d
81
f5
33
19
b1
33
ea
e3
03
f7
cc
2e
ec
cb
08
1b
05
e7
42
43
ff
1a
f2
f3
4a
d2
4d
35
ef
b3
6f
03
37
b5
44
b0
1c
ca
c6
62
6a
25
d0
c3
34
f2
1e
e9
97
2b
5b
1e
06
f9
08
1a
d9
23
d7
ac
11
81
5a
2c
f8
01
10
2f
dd
06
45
c0
a7
97
38
22
f4
c8
dd
f0
1f
8d
a4
d6
54
96
52
f4
eb
c4
f9
52
41
c8
5f
d8
44
12
f7
d7
09
0e
b8
7c
4a
f0
09
dd
f6
93
ca
f5
e2
ea
17
b6
fe
81
02
c5
c0
5b
11
df
e3
2d
a9
ae
26
41
9a
e8
a4
a6
2a
3f
17
b6
e6
ef
32
b4
c2
c1
11
a6
ae
b8
4e
0e
ea
cc
29
2e
fb
a6
f8
f4
bf
07
bb
d0
3f
17
ee
ee
bd
e9
d1
2a
cc
0d
34
12
70
12
9e
0d
fc
fa
6a
3b
cc
99
d5
d1
90
16
e3
e8
45
04
92
4c
db
c9
86
05
36
23
13
08
49
d0
7b
c0
d0
7f
2f
0a
01
f6
fe
76
1b
bb
43
2c
f0
dc
15
10
4c
24
e6
b0
3e
09
fb
cd
e5
f7
c2
23
10
45
b9
3a
2d
14
97
a3
02
8d
e9
cd
b7
f9
d2
ce
e1
f0
04
b9
0f
19
01
c5
2f
fd
c7
ef
f7
dd
2a
34
eb
fe
e5
3b
e6
23
f0
01
dd
33
93
dd
1c
d5
2c
e0
ec
14
d4
81
0d
a3
1f
65
1d
da
1f
fa
df
e3
13
25
e5
60
22
02
28
fa
08
21
2e
4c
ea
56
0a
81
16
fb
0f
06
f1
bf
0f
f6
fc
32
b6
b2
cd
0a
04
b4
e6
db
10
51
48
d1
4b
08
ce
06
db
15
c6
11
ea
11
f0
1a
e0
ee
ba
07
25
11
f8
0b
fb
be
08
ee
23
2e
12
e8
b5
15
0e
e1
f2
42
f6
d6
ef
ed
1e
17
25
cb
d3
ce
11
16
36
e0
2e
2a
12
ff
e0
25
81
fe
2c
c4
39
17
02
0a
0d
29
36
21
f6
eb
13
0e
de
1c
49
3d
ec
37
fb
bd
23
1f
07
f9
f4
09
e5
01
24
ba
35
5c
5e
cf
c2
09
d3
e7
d4
c2
e6
34
10
02
46
ca
7f
cc
be
d4
0a
b6
25
de
13
fd
e1
16
ca
25
da
11
1a
6e
2a
11
af
10
3b
a5
20
19
f9
0b
e1
22
5a
10
bf
ce
d0
fa
0a
20
17
09
20
fb
61
e9
da
e4
1d
08
e9
4c
db
d1
08
50
1c
f6
da
4e
57
56
28
81
1f
bb
f0
04
28
44
99
b3
19
b9
e8
d0
3c
63
48
5e
5b
fb
d0
d3
92
2a
13
1e
ed
25
67
e4
d3
e5
e3
b0
70
ba
61
bf
d2
2b
cd
e8
a9
d0
32
08
cd
20
58
ea
e2
1d
25
f7
b0
c4
06
fd
26
ef
eb
ec
b0
0f
1f
34
0d
1b
ec
0b
e3
29
f0
17
42
3d
31
17
32
e2
24
f5
b0
ef
28
2d
94
08
08
19
a9
f6
55
04
bf
10
e3
2b
d4
81
90
d2
49
10
a7
f6
cc
e6
ed
eb
f9
10
77
a6
d9
1d
f6
41
23
1e
41
d6
1f
09
d0
32
ec
7f
1d
27
1b
dc
1f
e7
18
fa
c4
41
f2
b6
d8
26
cc
0c
f3
2f
d4
08
ad
67
2e
f6
34
1f
ed
3e
e4
05
d0
bb
58
a9
aa
4d
1c
d9
f0
4c
0a
1d
f8
df
d6
1f
ff
7f
de
e7
36
d5
0c
34
df
b5
16
d3
0a
d4
1b
de
fc
a5
e2
41
18
e7
0d
1f
fb
1b
b8
f5
4c
fb
41
c8
2b
ee
49
a4
e0
12
af
d6
1a
f1
ec
d6
12
ed
1f
55
27
d3
10
25
de
13
d3
16
c8
a2
37
d0
6b
ec
fb
2b
d5
10
2d
c6
ea
14
44
ed
0b
df
7d
f4
d7
07
49
db
87
c7
57
cc
12
26
d7
99
f4
08
81
15
1c
e6
3f
89
4d
dc
b6
f1
e8
18
e4
2e
51
da
da
db
0f
b0
8d
ff
fa
05
04
73
32
34
99
e0
cc
be
57
fb
e7
6b
05
dc
54
f1
e3
d5
dc
98
e1
6e
dd
33
3d
2b
fe
3c
7e
1d
6c
0e
d6
48
bb
df
f7
39
dd
fe
cf
15
d3
4b
ff
c5
1c
d9
1a
11
d3
e7
df
dd
06
81
e7
8a
ff
13
b9
64
53
08
22
c1
b7
f8
2e
3d
0d
f5
1e
2f
35
9c
4b
df
ff
28
fe
30
07
fe
15
15
d8
ff
ca
f7
e9
21
72
d7
d4
3a
ae
17
3d
f2
c2
08
b9
f9
fe
2d
0a
0c
23
17
cc
b3
f4
81
ee
35
3c
61
27
06
ff
3c
b9
12
bf
f3
f8
44
72
ef
06
2c
e1
32
fd
03
1c
18
2a
01
fc
1d
a4
ea
51
da
c3
f9
f0
f8
5e
3a
f0
76
4e
fa
df
4b
f3
fa
e8
38
0e
e9
c8
09
ef
0d
e9
4d
14
3b
22
f3
44
31
4d
81
8f
d3
17
1b
d3
0a
42
09
54
54
cd
fa
1b
1d
d5
11
f8
0c
cd
f4
eb
1a
d2
d0
e3
ea
2c
cb
29
d8
f7
cf
a2
e9
cc
ee
11
08
d2
eb
16
f1
e7
fb
f4
ee
d4
f4
f2
19
dc
2f
04
c5
fa
19
81
fd
f3
fb
4f
1b
de
0f
0f
e6
ff
01
15
fc
33
e9
0d
28
05
e1
12
25
e8
f6
03
dc
f5
fe
1b
2e
fc
21
fb
f7
0a
ef
4e
53
02
eb
e4
b9
46
b4
15
06
da
23
38
e7
eb
64
fe
29
d0
3a
18
b6
81
f0
c0
1d
55
fc
e6
e4
16
55
f0
1f
f6
e6
ea
16
df
ef
ea
c1
30
2e
4d
77
fa
f4
e7
ce
9c
ca
0a
10
fd
1d
c6
ee
e0
03
ee
f5
02
10
04
3f
39
e4
ff
1b
d2
eb
1f
fe
e1
04
e8
24
14
f5
2d
e2
40
03
7f
30
ea
f9
e7
fd
09
d6
44
fb
5c
4a
d0
0b
b7
1a
d3
06
c8
ce
51
58
f6
ee
e5
02
34
09
36
c8
e6
d7
18
0e
14
00
04
01
e1
1b
f6
0e
fe
07
0c
a7
39
84
de
e4
4c
f0
9b
55
11
0c
fb
05
dd
14
df
be
a5
32
3a
2f
eb
30
52
00
00
e7
ed
fa
eb
95
15
0e
cc
ef
bb
42
7d
52
28
4d
f8
d3
cb
c4
20
c7
ed
af
f9
d8
07
fa
17
81
01
0f
1a
b8
f5
57
2c
e8
1c
1e
26
01
4f
c5
11
85
07
f1
04
04
f7
0b
04
1a
15
58
0f
ff
a6
29
40
1f
07
f1
e6
dd
b3
11
42
00
c8
dd
09
18
22
11
fd
f4
f5
5b
1b
35
23
11
20
30
ac
00
81
d9
f5
f1
f2
d4
37
39
20
ca
fd
eb
f9
ea
09
fd
25
ae
19
c1
17
ba
c6
04
ee
19
c0
51
29
09
26
fd
f4
3c
10
a0
e9
fe
28
d4
c4
57
ba
ec
38
fb
fa
1c
a1
df
ac
1b
3a
1a
10
e7
33
20
c7
e4
19
e3
cb
0c
c6
e9
0e
3c
04
1a
cf
bb
08
33
81
ed
5b
15
18
c6
f8
dd
f2
12
e4
d7
d1
22
c9
2b
15
9e
0b
b9
11
38
01
c4
4c
fe
7f
cb
fa
01
e0
f1
07
1e
8a
df
13
fb
45
ff
ef
0c
13
cf
11
fe
14
11
44
f4
40
c1
f0
f9
ff
1f
d7
e4
b8
dc
5e
32
c2
f1
e8
cd
44
24
e4
f7
2d
eb
e3
e9
14
f3
b1
ea
cd
f0
2f
78
c0
f2
68
31
c0
0c
fc
03
09
3d
02
7f
d5
2d
ce
42
e2
0c
2e
3b
e2
d4
1f
ac
f9
ba
51
1c
f3
38
06
b3
f4
25
b3
07
11
d5
c3
e8
03
20
4a
6c
d7
07
3d
3d
d0
5c
f7
da
05
d3
d8
0f
e7
20
03
02
ce
19
37
e9
04
24
b3
f7
f0
de
07
fc
b5
33
08
27
1d
3e
22
f6
7f
01
d0
0f
f6
cb
ea
39
e4
02
eb
f9
00
be
02
17
d2
3b
21
18
fd
43
f1
05
01
cf
fb
f4
25
05
e6
87
30
f9
1d
c4
45
d8
0e
b8
af
fe
26
1d
af
05
b2
f1
37
ad
ba
c1
e7
bd
b5
03
a8
58
9d
fe
b7
7f
ef
28
f2
e4
3b
07
2a
3b
e0
e1
22
26
ff
1c
e3
27
25
ad
ef
56
fc
10
1a
17
86
74
19
4b
09
47
09
ae
f6
e7
0f
f0
fc
4b
da
2c
05
34
c1
25
3e
0a
dc
1c
e4
e1
2c
d2
17
06
de
cc
bd
8b
f3
df
19
0a
16
fa
81
ec
ed
a0
df
03
de
b6
e3
87
81
01
50
0b
e3
2d
09
f8
eb
d9
4e
b8
cb
3f
08
2b
9b
53
c1
38
11
49
f9
d5
04
0a
d8
e5
c0
df
c4
10
07
59
ee
b9
7f
e8
f0
f0
19
09
0f
2d
d2
e1
fd
24
3a
44
cb
14
1f
ef
33
a5
48
d4
54
f9
24
05
ea
2c
dc
f8
f1
fd
17
f3
fc
f6
0f
bb
4e
06
34
17
eb
e4
4d
9e
33
f4
df
2c
6b
c6
6a
8f
65
e1
f3
cb
c2
02
33
ff
e3
0f
10
00
16
ed
29
c7
da
25
fc
08
eb
30
3b
3f
81
e6
2f
9f
07
c5
e9
a3
01
00
3b
c2
df
0c
ee
e2
bd
c3
cb
64
18
49
27
f3
18
0e
42
0e
d7
29
12
fe
b1
15
0c
e6
e2
f8
27
6f
fb
2d
d4
ef
0c
7d
af
fd
26
63
f6
36
24
db
1a
5a
15
cf
0a
0b
0a
0f
de
21
20
19
df
3f
f1
ed
df
d8
08
0f
b5
18
e0
51
f4
7f
30
bd
6e
f3
54
d3
f8
c6
2a
0b
22
14
a9
31
59
06
11
33
f2
48
b5
e4
3c
60
f6
fa
5c
cb
21
15
df
39
21
ef
e8
97
e9
21
04
f3
bc
e5
1a
5b
ec
0b
ed
3d
b8
e9
0e
02
08
f8
2a
fb
06
3e
ff
c3
dd
c8
f4
06
f0
11
19
28
2d
1c
e4
f2
2a
db
67
ed
ec
42
42
e5
ca
7f
2c
d5
45
dd
a7
99
b8
9e
0e
f8
c7
e2
06
fe
0e
b7
1b
fb
88
51
3e
3d
e4
11
77
4b
f1
94
f1
c9
d9
b2
10
19
38
0e
26
eb
f0
36
85
a9
f7
10
16
34
d2
c7
32
c8
88
34
dd
05
f3
cb
81
ff
07
15
08
2e
f3
92
d2
40
0c
46
fb
f8
d7
c2
38
13
1f
88
d5
33
93
02
0b
15
f5
14
f0
d8
de
ee
4b
35
3d
e8
3c
d2
f0
d0
fc
65
ef
2c
eb
50
dd
2c
e6
ea
7f
29
32
41
0b
b2
ca
e8
19
e5
2f
e0
5a
a4
10
72
f2
0e
40
e2
4e
fc
45
2a
e4
07
5b
b8
f5
2c
ef
e8
e9
aa
d9
f6
c9
6f
08
32
03
18
54
14
e2
7f
32
42
04
4f
ec
e9
0c
1d
51
60
63
19
c1
12
f0
67
32
c9
b4
54
ba
a9
1b
36
c2
34
bf
8a
6d
07
e6
f0
cf
14
02
02
ce
3f
2b
1c
5f
34
ce
fd
cb
cb
2d
22
a7
32
04
65
5e
fc
6d
ad
bb
e0
bf
2a
03
29
f6
7f
b0
2a
fe
08
7c
1a
eb
3f
53
a2
c6
cb
ab
e4
12
3a
01
e8
e9
c0
dd
36
be
9f
db
9e
a8
2a
b0
04
93
b8
a8
6b
c2
d2
10
15
2b
a1
5b
4a
63
e0
f5
c7
40
f1
b6
19
c2
b9
ae
0c
1e
1d
11
60
48
c0
71
06
ac
b9
23
d4
27
3c
4e
21
f1
fa
5a
ed
ad
b1
eb
f4
bb
3b
cb
2c
f9
ae
9d
fb
ae
92
f2
09
10
7f
00
08
56
b9
68
f9
00
24
37
28
ea
57
de
17
21
e2
78
61
0b
33
0d
0e
33
f8
25
e1
cb
b0
3f
49
3c
22
11
a7
21
f9
06
01
f1
3a
e5
a8
26
fb
c5
3c
24
81
ce
39
38
f5
24
e1
1f
ee
f8
2d
2c
4e
54
63
dd
1a
ef
12
ee
fb
38
e2
df
e4
41
3d
d1
23
3f
18
e8
f0
0f
da
55
0e
1b
db
f6
b4
ff
3d
e5
dc
3d
20
e9
e8
20
e4
fe
cf
04
43
2f
f3
ae
c5
e4
19
22
2f
10
7f
08
22
5c
10
c7
06
2b
0b
20
29
e6
d0
dd
e3
b8
06
f3
ef
1d
f4
4e
e7
b5
26
18
e4
fe
d5
eb
11
a1
a0
07
f7
e5
f5
d7
d2
e9
41
92
18
49
c6
72
0c
4d
7e
e1
29
27
30
ee
bf
ea
c4
4e
5d
4a
4e
f1
cf
33
f9
f8
bb
1d
e4
ef
da
00
21
fc
b7
04
eb
45
5b
b6
b8
81
dc
c3
fa
fc
f3
e4
e2
e7
ff
aa
1f
b4
f7
f4
08
28
dd
e5
13
2a
ca
34
02
ee
0e
45
e6
e8
02
f6
26
2b
7c
fa
09
d1
dd
20
23
ea
05
d8
7f
01
fd
e1
8f
01
0f
53
e8
f6
3a
b7
cd
00
b7
fd
05
f3
25
2f
fe
3d
e1
da
49
44
da
e9
50
de
40
00
09
2e
b7
f9
d9
e5
30
81
11
25
ec
e2
02
91
0b
2e
ef
fe
36
e7
16
20
29
14
e1
0b
12
e1
98
e2
11
38
dc
28
36
73
04
d8
b8
fe
4a
e3
d8
be
27
04
37
b6
f8
31
3a
eb
bc
d8
e9
20
12
06
19
da
d5
a7
ec
d1
48
28
f0
2f
39
1a
12
29
f4
e0
ea
f3
14
ef
3e
0e
eb
ee
0d
4d
0f
f5
f5
2a
d3
05
d0
20
bc
df
03
e5
e6
0a
f0
19
f4
4a
10
21
dc
f6
04
ef
cc
2f
70
f4
f1
26
cc
ec
19
17
e2
19
09
fc
2f
df
12
c8
0f
18
ee
e5
1c
de
d8
e1
7f
47
31
e5
64
6c
0b
18
10
cd
06
27
28
3d
be
35
af
0d
7f
cf
c1
eb
18
ee
dc
33
06
e0
2a
29
24
dd
02
3d
35
2f
2e
ce
e4
05
e2
10
f5
f5
f3
03
04
ec
f8
cc
01
ec
e2
ee
ed
c3
09
ea
e6
3c
ed
d7
44
12
42
49
fd
f8
fc
52
ca
02
52
d4
d9
01
fd
bf
d3
69
1b
64
06
4c
f7
42
89
21
ad
fa
23
f8
12
d0
56
0d
ff
c3
40
bf
18
fa
56
17
ea
10
de
2f
c7
eb
47
ec
15
1a
4b
ee
e9
04
7f
28
e5
18
06
d0
04
d6
28
ed
36
cb
18
e1
01
dd
42
ff
f6
f6
d7
e8
1f
38
be
21
13
5c
10
3f
bc
24
e1
c6
f6
0a
2f
1a
15
e2
ef
ed
ec
de
bd
2a
18
7f
ca
e9
9d
dd
d9
00
da
12
07
64
12
17
bf
a2
c5
d3
b4
3e
48
3c
16
08
14
15
cf
e3
19
c6
05
c8
7f
73
ed
c5
37
9c
03
1a
d7
dc
c9
c4
d7
fd
07
12
e8
35
0e
6d
e9
b3
a5
2b
25
40
0a
f4
22
4a
3c
5b
fe
02
12
d9
1a
b1
d4
fc
1c
17
0d
4b
f4
e4
b5
ef
ee
2e
c9
a0
ae
5f
c7
ad
b6
bf
2a
03
f6
1e
0a
de
f5
fe
2d
b8
1c
2b
2b
04
df
1e
b9
af
f3
d5
24
db
24
61
b4
05
cf
fa
5d
eb
3e
81
31
0c
02
dd
2c
19
e9
b9
cc
21
17
95
85
d7
1f
fa
c4
b8
e2
54
63
c6
06
29
3a
cf
ef
b6
16
fe
ca
0f
be
3e
f0
08
3d
6b
b3
4c
f2
db
bd
e0
1a
4c
40
ac
0c
b5
b7
10
c8
60
5b
0e
b8
d5
86
81
bc
f2
2d
3f
35
37
cb
c0
09
a7
b2
03
0a
d1
9f
b1
83
d5
c9
60
d3
53
48
b6
0d
05
da
06
45
c1
f8
4c
25
f9
b1
e8
e8
1f
40
d7
f1
20
37
2a
b6
d4
06
f2
34
d0
5a
48
bb
38
72
3c
47
b1
03
1a
fe
e7
0b
81
29
10
0c
fb
01
01
2c
ed
19
cb
f3
fa
33
ef
33
f2
fb
21
01
f3
e2
32
f3
26
05
e7
e1
0b
61
c8
2d
fc
c1
ce
cb
12
fa
ef
64
de
d2
e0
c1
15
29
f1
1d
2b
4b
d3
c6
39
f3
2f
23
2f
7f
17
39
0f
fc
05
c0
a7
2b
37
07
fc
23
25
15
fc
3c
de
f2
61
da
08
27
db
1a
17
20
e0
1c
27
2d
43
e3
e9
ea
ce
08
c2
d7
c9
c9
12
b0
1b
0d
10
f5
1d
23
f6
12
4d
52
59
f0
18
43
c9
5e
36
68
c1
69
3a
15
2b
22
c6
2e
a5
81
df
36
60
8c
fb
f0
45
2a
ee
76
e0
f1
eb
29
c9
14
8b
30
1c
f1
c9
f4
41
21
b8
cd
9b
e5
00
00
0a
d1
2f
7a
06
d4
d3
2e
a8
41
fa
d7
1e
b8
e1
be
30
f7
e6
c1
0d
3f
06
d9
29
e3
d8
dd
48
ce
bd
d9
1d
2d
1c
c9
f9
fd
1b
d6
fd
c4
f5
08
e0
81
f6
08
d9
ea
f8
23
ec
db
f9
38
30
0b
e4
fc
05
ec
1e
f1
1f
29
e3
18
0d
0d
da
ec
26
e4
76
f1
58
00
f7
d6
f7
42
c7
2b
cf
3a
51
44
02
f4
1d
2d
32
22
05
24
ca
f4
2e
ca
0d
b8
d9
f1
2f
38
7f
1e
a1
46
b3
17
32
3f
c1
0c
f3
3b
3a
d5
06
e2
ed
e2
fc
01
eb
da
06
e6
f9
18
04
26
ff
39
1c
24
16
12
0c
4a
b5
ed
20
15
58
01
53
13
c7
f3
1c
2a
bd
e3
0a
81
1c
1d
ff
ce
0d
a6
ed
e3
e7
12
0f
21
02
df
d0
e6
02
d2
ea
f5
df
fe
b1
fb
a0
34
23
c3
23
f1
b6
0c
02
fe
95
25
e0
16
4d
cb
d2
ca
8f
33
ff
e1
ee
2f
35
b6
2e
09
ed
5e
b7
2f
fe
8e
57
49
cf
1d
07
18
37
0f
00
20
bd
0c
0d
33
64
18
e2
3a
d6
21
05
8e
e8
0d
81
54
3a
cf
11
32
19
16
53
f1
f5
aa
a3
fc
58
4c
a0
bb
f8
fc
f0
e8
f6
fe
3f
27
f2
c2
f7
b4
04
2b
34
f6
bc
1b
f2
d2
d9
e9
0a
ca
a8
7f
cc
ed
27
99
f0
0c
07
c4
08
1c
df
f6
43
cb
7c
cf
94
e8
85
c1
de
f5
a0
01
d1
f1
f1
e0
cd
0a
20
17
d5
1f
d4
10
d8
6b
4f
d7
4f
21
f3
0e
f3
11
59
e6
01
1a
ef
81
2a
3f
12
f2
ef
d3
f9
f1
f4
e8
04
19
dc
2e
fc
cb
f1
ea
ff
d9
e8
28
ea
37
2f
18
22
2d
a4
2f
ce
ee
4b
5e
c4
0d
db
f8
05
d4
bb
e0
eb
1d
03
cc
2d
b7
f0
12
f9
d8
db
07
4a
09
d1
fb
91
c7
ed
30
9d
38
f4
8a
7f
c7
94
8a
d2
08
6f
a3
ba
d3
39
e1
b9
d1
1d
4b
a8
f5
b9
ba
43
09
cb
22
9d
3d
35
b4
88
1e
eb
dd
70
06
52
5a
a0
19
29
8a
ee
3b
27
b6
84
a5
45
44
0b
bc
d9
b8
53
34
f6
e9
e3
f5
5a
11
1e
de
26
1e
c3
3d
fa
a3
1b
7a
d7
3b
07
f3
2b
ee
e6
24
c8
fe
d0
e8
f6
d7
61
05
24
d4
b2
d4
79
c1
27
4b
c0
06
0c
52
da
25
9a
e7
fa
14
00
c6
db
35
10
dc
02
3f
cb
d4
1c
0f
3a
1c
94
81
12
0e
2a
fe
d1
0c
f7
16
24
0a
d1
0e
2a
cb
07
ea
20
28
6e
24
34
e7
35
f4
fb
32
fa
45
14
64
43
fd
ce
b1
fa
ac
f9
4b
b7
53
ef
b2
f1
2f
bf
b2
ea
e1
2e
81
c3
14
2e
f1
f1
4e
c9
ce
ec
65
05
27
06
21
f7
41
d4
24
0e
22
b4
19
b6
bc
1e
f8
43
1a
42
fb
fd
b6
42
1a
45
9f
e4
fd
f5
7f
cf
32
19
19
d1
1d
c7
16
d9
c6
fe
21
de
2f
ec
47
c7
2c
ff
1e
f2
0e
12
de
1f
38
39
cf
b3
fc
19
38
07
e9
19
ff
cd
fe
0d
7f
0d
f4
d1
01
c8
34
f2
38
01
34
e6
c1
1f
66
e0
10
fe
f0
39
f0
1f
10
b1
45
d4
eb
0a
fe
08
03
f8
ee
02
ed
ad
24
d1
72
31
b5
43
0a
0d
df
e8
f1
8b
f4
e4
d4
01
1c
40
3c
ee
47
c9
4a
de
12
4a
43
5e
ae
3e
ec
39
a1
df
00
cb
eb
26
e7
43
55
08
46
2d
ad
11
8f
8a
c1
44
41
46
fe
f9
eb
62
95
4c
c6
bc
1d
f1
08
de
e1
28
ec
36
33
5a
2c
f4
d0
bd
c1
ae
eb
9e
64
99
9c
01
c5
cb
b4
14
b9
7d
2a
81
38
11
37
c7
35
19
ae
66
c1
f8
fb
e8
15
c4
00
21
84
04
04
52
7e
08
b2
ce
81
ac
cb
fb
2e
09
18
0c
e8
40
1f
d8
34
f3
ea
84
bc
ea
0e
27
9f
44
fb
da
30
4f
34
94
4b
e0
58
c5
3a
e8
38
3d
c0
f8
ca
b1
24
69
21
10
d3
d9
1d
0f
b7
40
60
2e
24
cd
fd
2f
e4
37
19
13
2d
0f
16
a7
83
ee
43
19
d9
0f
40
e9
0b
c4
08
47
c6
07
0f
e3
0f
fd
81
8c
67
dd
c3
ce
90
03
84
bd
23
d3
6b
fb
15
d4
d6
0c
0e
20
e8
32
0e
71
05
06
f1
d9
fb
e7
20
2a
30
01
07
5a
bc
35
f7
38
a3
fc
58
1e
39
dd
46
01
00
f7
05
30
af
1f
67
38
c9
24
1a
0f
59
b5
29
3e
f5
cc
26
32
f6
4d
2d
ca
dc
b4
9d
db
0f
38
bc
01
b5
11
c0
4e
f9
7f
02
b4
eb
ac
24
f8
0b
e8
fd
23
41
2b
45
23
14
38
f5
18
f4
98
f6
0f
af
bb
ed
28
14
9d
19
94
15
7f
45
ce
04
ed
64
cd
e0
1e
2e
f2
06
eb
fd
52
f6
39
38
f0
f7
18
02
02
07
25
b4
f3
1b
16
bb
f0
26
e2
0e
fd
0b
3e
0b
39
b8
c8
0f
12
f0
e1
06
f6
41
f6
15
8b
fb
e6
7f
18
b9
ff
0f
c6
b4
0d
c5
1b
1d
e4
17
f0
46
19
e8
d6
2a
f6
f9
e5
1c
07
06
1c
0b
0b
25
c2
e7
d3
09
f9
bc
3b
f6
dc
eb
31
e7
46
cd
1c
bf
10
f1
19
31
1e
f8
bf
4a
ec
0e
f2
26
c1
e8
03
5e
05
05
f9
07
df
ae
f3
f7
15
16
0b
fc
d7
ef
fb
0e
01
13
c8
14
81
e7
ed
0a
51
ea
cf
0c
e4
1a
f5
0e
d4
c4
e9
48
e3
0f
24
fe
26
0c
1b
fa
e4
13
d0
12
ff
e8
cc
ed
df
e2
06
3e
d3
35
c1
09
3f
d6
fd
e6
07
f2
01
31
4b
0a
2c
c3
c4
f3
01
e8
04
d3
c4
e2
42
2d
fa
6c
1f
d7
f1
15
f6
81
e0
de
df
33
ca
02
c9
d6
2f
eb
31
d7
f8
64
c2
e1
1d
fe
c8
c4
fc
35
fd
d0
81
ea
eb
03
c1
cb
2e
c0
d9
30
21
c2
db
22
1a
44
b5
31
7e
48
1c
29
f7
03
2a
bd
36
c2
1d
ec
de
29
ec
f7
e1
bb
22
5c
15
3e
0e
1d
14
c4
4c
d1
f2
ce
b9
fd
cb
2d
cb
6a
ab
f7
aa
1f
eb
eb
01
02
15
2a
14
f1
b8
c6
34
43
0b
71
2e
12
0a
5b
0e
e5
c1
7b
4b
43
c9
1c
50
ce
31
00
18
ec
0d
0d
4a
21
fa
f7
3b
c0
18
e8
2d
06
d9
ff
98
17
f9
0b
20
fa
39
df
81
59
36
0c
0c
04
2e
f4
3c
2c
41
2b
11
1b
28
db
2e
f0
ff
3b
ea
81
ff
f2
02
08
f9
c9
4f
34
b9
fd
08
0c
b0
37
f1
23
1d
41
eb
07
05
47
d2
cb
14
e1
ee
cc
15
5a
c8
d3
c5
27
ee
2c
28
bd
1c
03
45
c9
dc
75
86
00
25
c1
11
f2
1f
17
ce
f2
3f
00
1a
fc
23
44
d8
67
b6
37
17
0e
d3
40
ed
db
e7
37
1e
5f
b5
ff
ea
2b
02
ef
9f
1f
bf
b0
f4
de
b0
00
36
2e
d2
1b
81
d6
f3
27
df
2c
ea
dc
f4
28
67
0a
be
f6
31
f1
41
30
d8
ca
fc
ab
ed
18
99
eb
5c
e2
40
18
02
ef
d1
0d
1e
08
21
19
16
ed
32
f1
1e
b9
e4
5c
25
0a
2b
90
46
51
d6
48
f9
87
52
30
44
32
3c
11
7f
e2
d9
66
59
52
99
0e
c9
6e
e6
64
d8
01
22
97
1d
28
12
f6
cf
d2
0f
28
e0
ca
ac
15
59
be
c5
0c
e9
34
c9
01
47
3a
32
1c
9d
31
c9
71
1a
fd
df
4e
1f
b4
c8
40
cc
d8
da
1f
cc
84
f5
ce
f9
0c
1e
6a
bc
df
4e
f5
e9
35
08
ee
ab
0c
29
f6
75
5e
48
16
b1
7f
81
2b
ae
05
b7
04
14
67
a2
e2
2d
de
34
45
db
2d
e1
28
e5
c7
ad
da
da
a9
e1
f2
45
f8
3c
4b
fb
0b
22
82
89
37
df
2b
f6
2f
27
6a
fd
00
2a
1e
12
76
ed
35
a0
fc
18
d4
0f
0f
25
10
b4
dd
12
c3
09
a4
b3
1f
f0
3f
7f
d1
c5
dc
0e
ab
6b
fd
48
06
16
67
16
f4
dc
ef
f0
7e
1d
d5
23
1f
da
7e
c2
5a
86
a0
4c
e9
b4
b7
ef
db
1c
47
e9
d5
c3
7f
b2
e3
e8
b7
c5
09
cf
b1
e0
94
44
e3
9c
57
b9
15
65
09
92
1d
bd
ec
11
51
31
27
01
83
a0
02
08
e5
26
14
de
25
e4
2a
e3
dc
33
2a
f7
26
e8
0c
0a
4a
f8
d8
4d
bb
29
1d
e2
9f
2c
ea
a4
1a
19
e8
36
fc
fd
39
11
0f
2c
e7
81
f2
36
46
4d
eb
ff
2d
f5
e2
30
f1
2d
23
fe
e1
eb
09
ea
fe
ea
24
33
32
02
19
19
a2
03
24
df
ed
dc
1f
e3
55
e8
b8
47
2b
b8
e0
37
26
16
0f
e3
3f
31
3d
de
c9
e9
18
ed
f2
0d
4a
da
06
42
23
ee
09
18
1e
0f
f8
f1
7a
81
ed
fe
9f
48
1c
aa
cf
30
9b
6b
2a
1a
c6
ed
4b
11
14
eb
bd
08
1b
11
ff
81
1e
cd
3b
aa
40
28
85
e8
31
99
06
0a
f9
5d
d7
ca
01
e9
0e
eb
e0
ef
2b
4d
0d
14
26
d8
1b
ee
58
a2
f2
3c
38
da
a9
ce
16
e0
20
98
47
ff
c9
d0
d6
7d
0e
7b
31
02
db
a8
e0
42
f4
15
1b
10
ec
e8
33
0b
fd
3e
e3
6b
7f
e2
ed
cb
fb
b7
b4
20
ef
1e
e2
eb
fb
71
b2
d6
23
b8
47
81
6e
a3
f6
bf
47
12
96
ac
cf
d7
1d
a4
0a
10
01
fe
0c
fa
3e
bb
6c
d2
e8
04
35
6d
7b
14
a7
cf
49
34
f9
52
5f
0b
fc
0d
2e
44
fa
d7
41
1e
7f
d5
41
b1
ca
c8
09
17
18
1f
ee
27
e3
3a
b2
23
38
f8
04
32
ff
d3
f7
a2
49
11
48
ef
32
cb
d1
1e
10
13
1d
42
b5
4f
18
e7
ee
ea
f2
ca
0f
fa
e7
10
dc
20
0e
0e
f8
1b
40
60
fb
ae
c0
01
d4
6b
5a
b2
ec
fe
ea
81
30
27
f8
f1
28
b7
f3
ce
99
cc
18
b9
f1
ca
08
20
af
e8
e2
59
75
07
cc
41
50
3e
ec
be
0c
24
f4
b7
28
1a
22
e3
89
2d
ca
cc
2f
36
f2
c0
db
a9
20
ba
26
1d
00
d8
3a
b2
f2
69
0a
2c
7f
10
1d
6c
16
0c
00
0c
bc
14
db
cf
39
d8
c6
52
d8
f3
af
ff
c5
c1
61
2b
b2
2c
3a
09
0a
d1
ed
db
f9
c9
c0
3f
bb
c7
2a
fe
f0
cf
f6
35
0c
00
c8
9a
9c
fb
e0
5e
cc
17
4b
af
1a
14
dd
60
e6
27
da
16
d3
e7
b4
14
ff
c7
df
c0
d9
df
f7
df
0f
5e
cd
78
33
e2
bd
e6
cb
ed
c7
22
b7
e6
c9
f8
ec
1b
e2
68
d4
0a
1b
17
0d
81
f5
fd
e9
02
bd
0f
2c
09
c6
07
f2
3f
d7
e5
0a
24
40
e6
af
0a
29
5e
57
dd
fc
38
e0
8e
ee
0e
f4
25
13
09
16
10
31
5f
ac
a1
ef
ec
fc
e5
f0
f2
eb
05
ce
fe
04
13
0c
f4
81
9f
21
eb
ed
11
fc
12
af
de
12
14
f7
f2
2e
0b
2d
d9
c5
fa
61
4b
01
37
e4
1f
df
ce
f4
2d
44
fa
10
ff
dc
f7
46
e5
db
e2
30
7f
d6
d3
02
e7
48
dd
24
f2
e7
2a
27
ef
f4
16
ff
63
d9
2d
29
fb
34
e4
e8
fd
fb
f3
e4
e7
2a
ca
01
f4
fa
27
21
f0
d8
22
f7
d4
c1
34
4a
11
ed
29
f0
c1
e4
f4
2e
e2
f1
52
a5
c0
db
e6
d9
dd
39
ec
fb
d4
22
f6
ca
e2
41
f5
03
57
ae
d3
1d
0c
0d
d0
14
fe
0a
2c
f9
b3
dd
ce
ed
12
0a
e8
8a
e2
0a
f9
e9
36
b7
3a
38
06
e6
08
d5
db
25
13
15
13
f8
d6
fa
e2
c7
fa
7f
c5
d5
e3
fb
d3
18
cb
81
73
19
96
c7
aa
2f
cc
3f
fb
e1
2f
c4
21
10
21
07
c3
30
ea
11
e0
f3
f5
06
a5
22
02
13
d7
23
e7
38
08
f5
12
62
32
d0
47
e8
d9
43
dd
43
32
14
fa
02
df
28
0f
de
24
c6
0a
16
1e
05
05
9c
dd
77
11
09
db
23
15
58
d1
31
c3
3d
93
63
e6
3c
d1
ac
16
74
ad
de
e4
ba
c6
e3
f2
c6
f3
cf
13
82
67
37
5c
23
f0
11
dc
81
38
cb
96
fb
c4
ab
99
31
06
44
f2
fe
64
f3
07
e9
6c
df
49
1e
f2
48
c6
12
22
0f
a8
a2
02
fb
c7
f2
15
d3
7f
03
eb
21
f5
09
32
b2
48
52
e3
01
20
f3
9a
4f
e2
13
42
74
92
ee
df
c5
95
27
46
17
ec
24
40
33
49
18
27
be
e3
3e
a1
01
38
d2
8f
15
2b
d5
de
21
14
ea
07
33
20
20
f5
db
25
1f
ef
36
da
f3
ec
01
25
1b
e0
5f
bb
7f
03
09
e5
f6
35
da
ca
e0
3e
45
e1
d0
30
33
17
08
00
19
0e
ed
14
fd
0a
28
2b
f2
e5
1a
08
da
ef
46
c5
3e
d5
2f
42
f5
eb
f9
a2
ae
14
f4
75
13
01
f5
06
2d
e6
20
ce
81
12
69
73
b4
50
13
c9
ef
2a
54
65
1d
8a
d3
f5
51
1c
dd
1e
b9
cc
cb
d2
34
29
ef
d9
0f
ec
21
dc
0f
4d
fe
bf
b9
ff
77
ea
c5
c8
33
cd
0f
08
ac
4e
38
24
3b
20
de
ea
fd
e5
3f
3e
c8
ca
f0
e4
14
d4
06
18
21
21
fd
34
78
17
4b
f7
fc
b2
11
22
fb
9d
e8
81
0a
b6
14
f5
57
b4
ed
2f
0f
17
e0
df
1c
1d
f0
2e
e8
cf
f1
16
e8
9b
91
a9
f4
12
33
f8
1a
07
da
18
10
eb
17
32
3d
00
b3
fe
39
49
43
f8
fd
d8
fc
cf
f8
01
44
1f
fb
dc
d1
de
2e
f8
e0
b5
0f
94
f5
f4
9f
3e
2e
0c
e8
de
17
0b
15
a1
b0
a8
16
1d
34
1d
28
f5
30
ce
10
0c
f9
09
c5
32
fa
be
05
e6
02
28
64
81
fc
00
d7
b1
19
c4
1d
1f
ed
e5
03
17
0b
18
1c
ec
32
01
1b
16
3d
10
cf
3f
2e
1c
d1
c6
5e
21
01
fc
fc
b2
f1
c7
5c
ec
33
dc
d5
26
fb
1c
1f
fd
21
34
fc
ed
e7
0c
0f
fb
05
ef
34
ee
f9
ef
1d
20
f4
81
c8
d0
a6
b9
07
22
45
08
94
ad
1c
b2
19
f7
79
12
18
20
48
28
ff
f2
a1
d9
c4
fc
0f
e9
26
f6
e6
04
63
27
ee
16
07
da
e3
cd
3f
12
4f
3d
19
0f
f5
09
f6
1e
d4
f5
06
de
af
15
dc
3c
32
ef
f1
37
13
fe
07
f4
7f
d0
0e
32
bc
b1
f8
3d
27
3e
fd
b5
15
3f
0e
c2
3e
a6
86
18
44
39
b6
0b
cf
d9
26
d0
81
15
a6
bc
40
a1
db
00
e5
ec
ef
f6
5e
07
d5
12
19
a5
5e
2e
ea
4c
ed
82
15
18
a2
32
06
0d
0a
e7
cf
67
5c
c4
45
fb
1f
21
c3
81
b4
d1
fd
28
ce
c9
1a
25
ee
49
fc
fd
ba
de
c6
e1
fb
53
99
23
9b
cd
1c
f4
ea
ef
2b
16
18
af
be
f6
37
18
dd
22
53
c7
16
f9
bf
49
22
06
24
0f
0b
c1
bf
2d
b2
20
0f
17
11
f3
d1
c1
53
c7
08
ef
05
d9
f6
13
07
90
e5
14
19
db
0c
0e
00
e4
1c
fa
e7
0d
2b
f8
81
f4
09
ff
39
ee
e4
ea
2f
e0
1e
da
f3
db
d0
03
df
f2
f3
fa
0c
14
05
f5
f4
35
fa
e6
fb
fb
07
1c
f1
2f
00
05
10
da
0c
0d
fc
f2
1a
10
f1
46
e1
81
02
d8
19
1a
f0
09
1d
19
f1
19
2e
2f
de
34
d0
f5
1e
0e
d8
ee
df
1c
0e
36
f8
bd
e0
19
04
f3
4a
f2
f4
4a
41
25
c7
0e
05
3d
41
13
15
25
5d
d6
e8
05
2d
e4
f0
08
df
01
d6
1a
e6
7f
e7
fc
f5
4f
e7
60
cd
20
bd
eb
08
5b
e8
36
02
08
10
0a
1a
b7
1c
d2
24
94
0d
c8
0d
b9
37
19
e7
05
f2
db
b9
13
eb
e9
10
c4
aa
4b
e1
fa
2a
b2
b5
47
b8
e0
17
00
2c
49
41
55
f5
bf
16
02
ed
31
ad
