c2
18
5d
ac
c3
3f
dc
15
16
fc
22
14
32
fe
1a
59
24
4b
d7
1c
da
25
0e
01
d0
0e
e7
d1
d6
06
ef
3a
ec
fd
1e
16
d2
e0
18
fd
15
40
d2
cc
fc
28
13
df
fd
20
45
e3
41
7f
e5
04
23
c2
e4
c9
ec
fb
3b
07
da
f2
92
64
fe
91
72
02
e3
31
d5
e8
e5
f1
b0
bf
28
f0
2e
72
0d
20
11
f7
ed
fd
08
da
0b
19
24
e3
e4
f0
cd
be
e0
2f
e0
9f
da
4b
f0
cb
04
1f
fa
f5
22
c7
e6
18
ac
81
ee
cf
f0
2e
42
2f
d6
e1
29
f4
1f
17
4a
81
e9
2b
d3
3a
ea
0c
da
36
e5
f4
5a
6a
32
13
e6
04
f9
1a
14
d4
c6
49
08
f6
bb
e8
1b
57
d2
3f
f9
eb
e8
e6
12
4e
45
e7
49
f0
f2
f6
4c
00
dd
d7
3e
e2
22
fb
e6
47
f2
ca
ff
e2
2a
09
37
e5
19
09
09
4e
fc
e7
41
14
03
06
06
f2
95
34
35
1c
c1
dd
15
24
2c
fe
46
b8
d5
46
2b
65
df
a2
f8
db
d6
1a
11
c6
04
be
c1
65
10
81
76
03
35
fb
d7
1e
22
c7
e5
b6
a2
cc
76
0b
2c
71
dd
39
82
fc
b4
4b
da
d5
9b
60
16
b9
27
bd
32
12
17
91
1c
cf
9d
81
07
f3
50
ee
e6
2d
cf
14
32
8f
d5
24
18
eb
dd
df
05
ab
bb
29
0f
15
24
83
e5
52
fc
c6
e5
34
a5
e3
dc
16
e2
0d
d2
1e
f1
9f
f3
37
27
3f
38
19
d3
ca
e8
bf
3a
eb
29
11
ed
2b
31
0c
e4
d5
4c
bd
09
03
40
0b
e8
0f
81
db
f2
c2
c2
fc
dd
2c
e3
ee
a7
58
f2
f6
ce
f1
f6
d9
cf
fd
17
52
d2
eb
c5
15
65
c4
ff
44
27
d4
ef
3e
99
23
15
c7
df
d1
10
94
44
f8
e4
7f
e4
26
2e
f3
bc
01
0d
e4
f1
61
a6
01
dd
32
3c
ff
d3
eb
b5
21
2a
e9
48
fd
27
09
be
b9
d9
e9
10
b5
1e
60
06
1c
25
32
0d
d0
ed
03
1d
a4
de
53
4c
2c
4f
86
4b
25
40
53
53
2f
08
52
cc
f0
33
43
e3
c9
b6
40
2f
0c
34
c4
15
03
07
e0
28
44
c1
81
e0
d0
26
1b
2b
08
25
38
37
d9
e9
ff
17
0f
20
c1
59
f7
f5
06
07
1c
2a
ab
e8
0f
f2
01
04
3f
ee
e9
f4
e9
e2
15
13
f6
0d
da
08
25
06
1d
07
fa
b2
e5
16
26
16
fe
d5
1a
b9
f7
10
e1
f6
1b
03
f3
3a
35
ee
d8
cb
b0
e9
23
1f
0a
02
2f
e2
06
f2
f8
e6
01
2b
eb
2d
49
d7
0e
4c
65
29
be
e9
dd
3c
d4
ec
ea
0b
3a
e5
cb
7f
19
ed
50
10
ab
b1
04
f0
de
0c
16
20
53
33
c4
ff
15
fe
18
f9
fd
f2
18
c9
fc
15
46
e4
f8
08
eb
08
17
1f
0b
09
2d
1a
04
c8
0f
1a
fc
eb
12
37
e9
0c
1f
e2
7f
3e
ca
3c
06
0a
eb
f9
34
0b
e2
15
aa
e6
e3
19
58
09
25
f0
18
f4
fa
ff
19
f8
a3
67
e1
c0
e2
e5
53
e8
1c
5f
d0
19
d9
ef
fe
2c
23
41
13
da
03
0d
fa
ff
0f
04
e2
a8
d7
0b
3e
e7
28
3c
09
08
81
47
0e
d0
14
ee
42
dc
e8
c2
ec
10
f8
47
f5
d3
e9
95
c9
ef
de
1b
fc
f0
07
18
b4
e3
f4
1d
09
28
4a
ed
16
0d
f2
3a
32
ed
24
07
c8
04
ee
e1
e5
27
36
eb
42
7f
0f
09
af
3f
ba
b1
0b
de
f4
1c
e1
dc
07
1b
4c
1a
f8
fa
f4
2a
f0
1f
05
f5
0c
e4
cf
3d
11
65
fe
1a
3b
d3
1a
e1
19
dc
13
f0
2e
7f
09
8c
33
59
f1
0d
cd
d7
c1
21
b3
fa
42
05
f7
05
cb
eb
b8
1b
ea
f1
f2
23
58
0e
de
f6
58
07
01
ec
42
a8
d4
21
f7
16
33
fd
1a
21
fa
f6
db
36
e0
da
ca
1d
f4
2c
0a
e8
6a
10
fc
ae
3a
3c
32
c6
c7
d6
3d
c6
11
40
da
a2
32
b4
06
39
f0
fb
e9
60
38
b7
2a
b2
a8
eb
ee
90
3b
1a
1f
17
d4
d7
07
90
45
da
e3
fe
09
23
81
a9
34
c3
05
c2
fb
29
ff
45
a4
14
6a
e3
27
d9
b5
29
8c
0c
df
23
21
a2
b2
ec
33
f4
f2
18
1d
b4
2c
f1
02
25
67
0e
08
27
36
bb
eb
aa
c4
ee
20
01
22
e9
22
c6
0a
ed
08
fa
39
31
e1
dc
fa
d7
f1
ec
ff
4d
c3
02
26
d3
ae
13
1d
0a
2f
15
0c
1f
12
00
26
7f
10
eb
0e
21
ef
16
20
ea
cb
b7
3a
1c
e5
27
cb
2a
fb
07
d7
29
f2
b9
81
07
12
10
ff
04
f5
e0
17
2b
c6
ee
16
36
2b
e4
ee
fe
08
c9
12
01
14
15
aa
be
2a
c4
db
1d
29
d5
dd
03
18
de
52
fd
db
12
bd
fd
20
09
19
0b
ec
d5
e4
03
3a
22
20
00
e7
54
a1
e5
a6
27
a1
c6
89
00
f7
b4
0c
df
39
e8
72
7f
fe
f7
9b
ed
18
48
f9
3e
16
f9
ec
75
10
08
fb
bf
ec
db
ea
57
73
f3
df
e8
44
dd
da
a6
0c
c9
86
a3
df
fb
34
06
0e
0d
13
f2
a7
cc
02
00
cd
47
18
24
00
3e
0d
45
b7
05
22
d9
ed
0f
6a
26
1f
c0
fd
42
ed
44
c9
f2
7f
d4
ec
a6
28
1d
c9
fd
30
08
25
25
c0
17
5f
d6
0a
1a
3b
e9
16
fd
f2
47
bf
ce
70
18
ae
cd
2b
2a
fc
21
24
ba
d0
eb
23
c2
3f
1c
d9
00
90
d8
fc
81
37
8b
4a
c5
3a
fa
b4
1a
5b
e3
c5
bc
de
e0
0a
24
12
db
3e
56
d2
1a
17
f6
cc
04
35
28
e6
e8
dc
b7
de
e6
a5
31
07
4a
b3
da
f4
05
27
e5
f4
c0
ec
c6
f7
4b
c0
27
0b
f7
e3
b9
0c
2e
1c
c5
e4
44
1e
c4
df
17
37
81
ca
2b
37
02
fb
cf
c9
2d
63
28
ab
d0
2c
e9
d4
b5
b3
ee
e7
16
37
04
08
08
f4
f2
e0
be
eb
32
3d
02
26
49
d7
48
d1
ed
fa
dc
b4
24
35
38
fd
05
b5
a8
09
27
00
01
01
0f
19
4d
e8
ea
3a
ec
b2
c7
a7
e2
e6
e5
c7
09
f4
09
40
fa
ef
14
30
53
cc
de
0a
3c
06
d3
85
67
14
6b
b4
fa
2d
df
10
10
e1
eb
0d
c4
54
d3
2e
23
e1
81
90
97
d5
fd
12
f7
f6
05
61
4e
02
15
bf
45
13
ea
3c
75
07
1e
c6
3f
81
e0
04
de
b3
8e
21
34
30
58
f8
1a
e0
59
21
14
40
2f
d8
09
ce
b9
25
ff
05
fe
08
a5
45
e5
c8
0c
2b
0a
50
bb
1b
e2
df
fc
ed
8e
f6
12
c3
d1
54
f9
0a
e9
ed
ab
ed
fd
18
f7
f6
22
a4
39
14
11
f4
32
cc
ec
f1
ce
e7
e0
f2
51
2a
45
01
f4
10
35
f5
2f
01
e5
35
23
e3
df
25
09
ce
09
0f
e1
27
f4
29
2c
16
02
23
c9
2a
16
d8
f2
fc
81
b5
1a
f8
07
35
27
22
c9
07
ee
e9
bd
4d
5b
32
39
0d
e3
d4
0a
e1
f3
63
1f
de
d7
0c
ce
4c
d3
24
81
18
1d
24
07
e6
46
0b
fc
2a
f0
20
ea
ef
2f
38
2c
2c
36
fd
22
10
f6
e7
f5
f7
48
23
cc
d9
e9
07
1f
02
18
09
24
8e
9f
e7
02
f3
0c
34
3a
a4
33
00
33
f5
a2
e8
b5
ff
ca
01
19
bd
f1
c7
40
ef
1a
9d
e7
31
b8
cd
25
f6
30
fc
eb
24
bc
fc
46
fa
06
f1
f1
07
25
af
14
0e
ac
00
24
db
26
e0
36
41
a9
7f
08
48
d5
d4
e7
c8
e1
d6
12
09
0c
11
14
f4
40
15
d0
32
d7
4e
25
0c
b8
3a
26
a7
6e
2f
e4
e9
c4
20
28
e3
02
10
b7
50
f7
05
7f
21
6f
f0
af
23
c3
8a
dd
0e
9d
f9
a7
bc
00
e9
2e
34
77
db
c7
c3
ea
56
fe
05
f6
ff
bd
f5
b4
bc
de
ff
3a
e9
e3
e4
dc
fc
22
e1
e8
f1
42
c9
2f
e4
1a
f9
ed
da
03
cb
f3
db
e6
48
cd
10
48
a7
d0
0c
fa
bf
0b
c9
fa
ba
f7
16
0b
f5
f8
00
f0
f7
17
c5
1d
12
f1
01
40
17
14
bc
7f
32
dc
30
0c
1e
f3
00
28
dc
b6
cf
18
10
81
45
0d
e8
44
fd
dc
02
db
25
aa
eb
41
bd
24
82
c9
0e
36
dc
e1
41
e6
1f
0e
ca
31
65
49
f2
fe
2f
ef
bb
1e
b3
55
c4
bd
10
27
f8
2d
dc
ff
f4
e5
25
96
72
44
82
11
49
d6
c9
09
de
11
54
25
da
fe
f9
19
06
81
ce
d5
11
02
d5
fc
06
30
ff
03
eb
00
37
f3
f4
d0
ff
10
05
19
e5
c3
eb
53
19
ff
28
03
ec
f6
10
f9
d0
13
0a
de
ff
ed
32
00
de
f2
ee
f0
fb
2a
03
1c
ef
bb
de
34
dc
d3
c9
01
0e
f1
07
3a
ef
dd
31
07
f3
3d
0b
40
3d
f8
f3
ba
25
bb
dd
18
a3
24
eb
29
1c
ec
d9
4d
ae
57
1d
f1
e5
df
12
f7
21
1c
ce
3f
ce
51
17
ae
0f
1e
2c
16
05
81
38
fd
4e
21
ee
de
9c
de
1a
4b
6d
2f
e4
02
f1
fe
47
27
fd
01
ae
32
d9
16
32
b5
43
d1
cc
e1
33
a0
51
42
59
45
1c
34
fe
df
03
db
e3
0d
d7
be
0c
23
30
f3
44
0a
a3
2a
f9
f3
07
ed
eb
51
1a
31
07
d3
0e
16
d7
3d
d9
81
94
fe
02
07
0e
25
d7
eb
28
b5
38
f2
c9
1e
fe
2f
27
45
d4
12
ee
29
be
06
2d
8f
d9
1f
7f
6c
1d
17
f1
04
01
75
ca
f6
4a
f9
ed
0b
1a
c0
13
97
42
3d
29
a7
06
df
25
56
12
04
47
98
c8
a2
1f
1f
d0
d2
06
e0
da
2b
75
c3
50
f1
12
bd
2e
dc
cd
bf
0e
f9
d4
f6
4f
24
28
dd
f9
00
d2
11
45
51
23
2d
33
e7
24
dc
c6
81
16
41
d3
b8
0f
fb
08
1f
e1
f5
bb
eb
e8
07
91
11
2e
fd
c4
e7
2b
fe
06
3d
29
37
0b
ec
2a
f2
0e
d9
b8
62
fd
ea
10
38
eb
f2
1a
b5
4d
40
ed
40
ea
2a
f1
14
f3
c9
33
aa
af
b7
e3
27
d0
4f
fd
05
43
44
ce
0b
f8
23
2a
16
9d
28
d2
10
f9
1a
31
03
19
f3
e9
16
f5
31
11
b4
1e
0c
19
be
e3
ac
b5
52
e4
f6
7f
18
5d
e4
06
c0
11
5d
bc
ca
1c
23
e7
78
d8
ef
d9
d2
fb
f2
4d
1e
82
c6
d5
29
31
2c
1b
e7
d9
66
ff
42
05
17
eb
02
df
fd
60
33
e7
1b
fb
fb
f5
d3
bb
ec
2e
1d
14
ec
2c
65
cb
e4
20
d7
aa
eb
22
01
e5
da
fd
e8
da
81
de
67
dc
3b
d5
be
0e
f1
09
ec
e3
f1
29
bc
26
64
66
dd
c8
ed
36
51
bf
2b
0c
e3
5f
41
42
19
30
61
c9
ce
76
d4
d3
f3
3f
da
33
33
a1
37
7f
29
eb
39
4e
e5
9a
c4
27
bf
98
58
3c
ff
3f
b5
d3
fb
fd
f7
17
d6
05
40
fd
25
10
26
40
0b
24
f3
d6
52
02
08
7f
46
11
4c
15
d7
e6
eb
d2
ad
c8
06
cf
ee
1e
d6
1b
f3
42
16
e8
1c
ad
0d
21
1d
d7
32
fc
bb
2f
39
0f
08
a4
0f
0e
b8
2f
b6
07
08
cf
26
e8
fc
09
49
09
f4
ae
0d
0c
1b
14
23
ee
22
0e
16
c4
d2
27
24
be
10
d0
1b
62
00
f3
f1
e3
2d
f2
29
fa
c7
f6
f3
c5
b6
10
10
c1
55
01
d7
fa
f9
36
1e
66
8f
1d
ea
4c
e0
f7
3d
03
ae
81
a0
ea
41
12
2d
f6
41
dc
fd
f6
1f
26
ea
35
b3
d1
14
ed
d4
f5
e3
d9
f5
37
0b
b5
8f
06
58
01
26
07
0c
41
0e
f6
f8
0d
3e
06
37
cd
ba
20
d7
ef
03
29
df
5f
bb
db
25
e5
0c
32
f2
25
da
d3
b9
07
d3
81
0d
b9
f2
25
19
7a
e6
fa
af
3a
e7
7f
d6
0c
17
de
ea
11
11
2d
ee
01
bf
b8
eb
29
f3
ee
0e
f3
22
1b
fe
1c
11
12
f4
d5
f2
05
f0
d8
27
b7
03
0c
f1
36
ea
29
25
f3
1e
c8
0b
f9
f2
ff
cf
0e
06
ae
14
02
5c
39
16
5d
f5
5a
e9
24
4f
39
12
be
21
b6
f9
da
08
2a
be
00
30
f2
c8
f1
ec
14
ff
29
16
1f
fb
1d
fa
f2
e3
e4
fd
f2
bb
de
16
60
ea
fb
23
dc
04
ed
f3
0b
fc
7f
49
17
f3
2c
11
02
0f
0e
4b
f4
b7
f3
cb
f5
e8
0a
34
ce
08
00
40
e1
29
8c
67
a2
ea
52
21
43
b8
cd
d9
49
43
3e
72
0f
fc
07
bf
fc
1f
da
df
c9
af
08
1d
09
3c
00
f2
3e
e7
76
ea
eb
14
cc
f1
e0
09
f3
d9
13
f2
12
40
f2
1f
da
d8
7a
fe
ea
d8
f3
cc
81
f1
a9
11
07
cb
d2
0d
ca
23
0e
ff
33
e5
f3
2c
e6
0f
f6
3b
eb
20
ef
18
f1
fc
dd
11
d9
03
fe
1d
f7
fb
2e
2a
03
af
30
f9
e9
f5
25
ed
03
fd
ed
3f
23
19
3c
e8
01
29
e7
ec
44
22
4b
3d
7f
39
0f
24
dd
c2
f6
f5
e0
de
fa
43
e6
47
c5
f6
2f
15
20
ea
03
e1
08
f4
1d
58
de
eb
14
d1
da
41
a8
f7
f0
d7
43
f2
f3
13
15
2b
35
ad
48
24
d7
11
c9
db
1b
f4
d7
24
2c
02
f8
41
08
0d
f2
ef
7b
f5
b0
e3
0e
0a
81
e8
86
1b
de
9a
c0
e4
c1
3b
dc
bd
62
10
37
10
ea
4d
81
e6
d9
03
09
2d
27
f8
36
1f
b5
d6
de
47
2f
ff
40
f1
ea
f2
12
c5
22
df
21
2e
02
cf
27
ff
e6
f8
b9
2f
17
c7
c6
e9
da
2c
23
3d
7a
cf
0f
d8
d1
f4
0c
e6
e0
38
f9
d1
7f
d3
25
f7
bc
e8
18
2f
07
fd
35
ea
c8
b7
43
fc
01
22
f5
f6
5a
e2
b9
e9
01
e5
b7
1b
e7
ef
f1
1d
ba
d8
0f
b8
13
d6
34
f2
0e
35
f1
05
bb
ac
eb
bf
ec
c1
a5
fc
68
43
27
e7
5e
1f
4f
0e
f4
75
26
19
33
c6
d9
29
ad
28
02
e9
19
c5
db
fd
10
d8
f0
f8
1b
45
fd
01
eb
16
0a
ec
ea
f7
40
e9
2b
14
e0
c8
1a
ec
e5
17
11
a5
ef
f4
ee
22
18
f4
f9
f4
19
25
d2
f9
b1
96
bb
3c
c6
fe
7f
05
17
b2
07
da
27
d3
7c
eb
2e
e8
f2
e3
04
0a
12
05
2d
f4
e1
d8
4b
eb
18
0f
ea
f8
12
05
f3
d6
2e
e5
eb
fb
e9
1f
ec
ff
a0
1d
f6
d7
22
ea
5c
2a
df
19
f0
f1
d3
c1
f6
d5
15
19
84
eb
48
2e
12
f0
51
e9
7f
e8
f9
50
39
bc
2e
88
3a
eb
a2
0c
e8
03
f3
fb
c7
12
d7
a6
f9
0d
3d
50
0c
e7
ed
c0
23
fc
d3
df
a5
24
12
22
da
02
81
d7
dc
01
30
f4
a0
f4
2a
c2
d6
f5
2e
bf
1e
c9
0f
f9
1c
b8
f4
27
8e
bb
7f
28
42
29
1d
64
fc
e9
dd
ee
da
1b
db
5f
04
37
81
d2
fc
1c
5d
fa
e8
0b
c4
da
e1
cc
0d
42
07
f6
f5
58
f6
f3
3e
19
b8
fb
fb
1b
15
61
e9
00
11
4e
bd
ee
d6
c0
07
5d
ef
5c
26
42
d5
2a
cf
93
d6
01
f6
f4
e5
4e
d4
c8
f4
08
3f
c3
17
27
86
3d
fb
e3
ec
fa
f9
c0
cd
da
27
e4
e2
0d
1b
41
11
13
0c
c1
36
f5
e3
09
13
1d
c3
ee
da
f2
a6
04
32
e8
01
c6
df
37
0f
e9
ea
fc
ec
df
ce
c1
ea
9b
c1
47
00
d5
7f
ee
3e
0a
f4
08
fe
09
17
3f
bc
00
15
f5
fc
50
e1
39
e0
14
fc
24
ed
20
1f
d9
df
b9
39
25
44
23
f1
34
00
27
e4
ed
06
1a
d8
63
29
41
d4
2a
32
f6
20
ef
29
f7
0f
e6
e4
c3
7f
02
12
2f
f9
d7
30
09
d4
07
d5
16
e1
14
ad
e6
f4
2e
b8
aa
19
fb
3f
cd
19
e8
2c
2e
ed
4f
66
f0
46
e9
29
16
a7
e9
b4
81
31
f7
cc
2d
fc
08
32
d1
20
ee
d0
fb
eb
c1
1a
24
f5
ea
17
bf
17
53
bc
b1
d6
eb
23
fd
24
f1
f1
cb
d7
e0
e7
30
fa
49
e5
5a
ca
25
ea
42
47
3c
c7
10
bd
dd
25
f8
55
37
b2
d5
de
10
00
f8
fa
15
d9
7f
0d
51
40
c1
f6
05
1e
0f
47
4d
18
53
12
04
16
17
bd
10
25
3e
1d
ed
32
5d
f7
0b
dd
f0
de
d4
19
3f
e9
ef
dd
e9
99
86
12
fa
5d
bf
52
f9
15
ce
b2
15
f0
e2
5e
31
49
0e
10
c6
e7
d3
df
c6
24
cf
fc
de
14
dd
ef
47
03
09
dd
6e
ee
ee
3e
e6
5b
0d
1a
33
81
c9
fc
22
bc
31
fd
02
eb
b1
ec
51
3c
69
fa
e2
1f
c1
03
12
ff
bd
f8
59
ff
22
ff
08
1b
ea
18
23
ce
e9
08
da
28
46
ae
a5
b4
e4
a3
34
11
1d
62
7f
06
36
24
1f
2c
14
e1
f3
37
1b
fe
20
1b
f2
5f
02
86
03
38
57
e7
e0
40
2c
1a
a2
44
30
86
23
47
17
e5
d5
cc
e2
f4
af
22
f9
e5
7f
e9
ae
f1
df
1f
cd
da
13
1a
5e
ca
26
0b
21
27
eb
f6
bd
df
06
e3
c1
d7
09
2c
f2
ae
fa
6d
ea
d1
cc
26
0b
02
2d
e4
0d
19
d2
fe
cd
17
0a
f6
07
db
45
02
17
57
d8
17
da
d7
ee
c2
32
d0
17
f2
ea
f6
fb
1c
d9
06
c0
fd
d2
f9
ea
22
1b
bb
15
3a
46
de
c1
08
c2
10
d8
d9
c2
10
de
cf
01
07
d3
2d
0b
b6
d8
04
dc
e7
21
9f
e1
2b
b2
e8
f0
fa
3f
c8
e4
35
0a
28
49
5d
f3
ed
f2
b9
d9
fa
07
05
7f
1d
e6
f6
ca
3c
f3
05
d9
c4
26
2b
04
43
23
06
01
9a
88
f7
21
cc
46
fd
f7
72
2d
07
a2
0f
53
ea
a8
bd
5d
c6
d1
3e
de
0c
49
ac
10
14
d1
0c
0c
29
b0
9c
9c
7f
9a
28
57
20
68
fd
0b
2b
ce
69
35
a5
af
dd
f9
0b
dc
23
e7
e5
17
f1
f6
4a
f1
17
21
32
ea
09
cf
e0
07
17
46
e4
f1
0e
e3
08
22
04
33
0e
fc
d4
ed
d9
de
05
dd
0e
f1
25
fc
ea
10
1f
1f
fd
dc
fd
e4
0c
c9
df
d3
0f
7f
e7
15
45
fb
34
d6
fb
29
30
ed
12
07
40
e3
a6
2b
0c
c4
f1
20
e8
c3
33
e7
bb
cb
e3
50
4d
ba
fe
00
f4
17
ca
13
f7
fa
38
19
bb
01
1d
f2
9e
04
33
f6
fd
d9
32
0d
07
dd
04
db
27
f6
e0
ee
d8
81
a3
f9
d1
eb
ce
37
06
fe
07
0a
21
f5
22
f1
14
cd
a8
eb
1d
07
4c
0c
f2
2a
c6
0f
3c
31
1f
00
3f
01
16
d6
fa
81
13
f6
cf
0c
12
40
4a
da
0e
b9
e6
dc
d2
05
ee
f0
26
28
0e
dd
f7
ff
ed
dd
e4
fc
20
d0
26
12
c7
bd
d7
3b
dc
f5
f4
4d
f9
32
bb
31
c9
22
3c
17
da
d9
bb
1f
12
e3
6d
16
f1
ef
fe
e0
e2
df
fe
29
2c
5d
ef
25
2c
db
eb
e8
e0
04
2e
4a
1f
36
f1
1f
0d
1a
d1
e3
1f
20
f1
3b
42
6a
f4
10
f8
31
d3
00
29
0d
f1
ec
9d
0a
ff
81
cf
97
c1
f2
ed
36
e4
b0
e9
2c
1f
e5
68
2a
f5
e9
2d
32
fa
ef
fc
eb
41
10
e8
15
ca
e0
f8
99
be
81
4d
cc
df
f8
de
99
01
46
02
00
48
f2
e8
99
b7
f8
17
78
d3
3d
d2
54
5c
af
ed
00
93
1c
d1
53
da
30
fb
