2a
69
1d
d9
d1
81
19
1d
02
1d
ff
0f
0c
d4
16
dd
46
1b
f4
0e
2d
23
de
e5
0a
22
0e
28
15
e5
e6
f1
09
19
5b
37
cb
e1
ed
df
2e
39
d3
90
f0
c2
0c
04
5f
44
3f
06
37
ee
e6
da
22
fc
e2
bb
fa
e9
2f
14
00
41
d9
f8
fa
30
c2
06
e6
f1
ed
07
a9
29
c0
2f
06
1e
09
db
14
f1
f4
09
ef
f6
c9
f3
1c
1f
e8
f6
14
01
ee
f5
15
12
ec
c8
d7
2f
54
db
bd
4c
de
19
cd
0a
eb
1a
da
cb
09
d0
16
f4
ee
38
ee
eb
3a
ea
ee
2e
0a
ce
e3
28
fa
47
d0
09
cc
d2
75
0a
b5
ff
f3
d8
05
fa
17
4a
bf
13
e3
58
ee
e5
12
1e
24
56
c3
22
62
e4
05
a4
1a
dc
16
3c
3f
0f
10
40
ea
e6
ce
c8
f1
27
f5
22
22
31
ca
eb
37
27
1c
52
18
f9
00
d0
09
0d
11
51
4a
fc
f5
0b
f6
3c
ca
32
ca
b0
17
00
e5
83
0b
bb
fc
12
db
01
d0
2c
f9
23
d1
fd
61
14
16
f5
22
8c
d0
e8
e2
9e
af
d5
41
4c
e9
42
61
2e
47
18
f5
ee
02
2f
f9
14
07
01
f7
fb
bf
20
10
b2
0b
d1
ce
42
26
ff
5a
34
41
c3
15
21
f6
16
f5
13
2e
ce
05
13
e7
f0
e7
f7
fe
1b
06
13
0d
06
21
dd
d8
d6
01
31
90
fd
4f
00
17
f8
e9
a9
1f
29
b8
a5
31
d1
da
1e
bf
bf
c3
43
55
f6
2f
f5
2f
1d
44
14
ab
0b
5a
ec
cf
f8
fb
ed
36
36
dd
45
1c
30
ce
2e
e0
f1
22
52
b5
0a
f9
07
08
11
d7
16
09
2e
05
60
ff
20
cf
55
fd
df
09
cb
ab
d3
11
12
f9
0b
aa
36
da
6f
26
36
09
d5
7c
d4
17
ef
e4
e8
30
c1
da
e0
f2
43
e7
ef
e6
18
f8
ee
19
2f
df
45
bb
3f
49
36
1f
2b
35
21
24
13
14
0b
3d
c5
d3
44
3f
99
32
13
72
d4
94
3f
b3
0a
7f
06
fe
1a
d0
b9
23
ea
d9
f8
fa
14
f9
09
52
2b
0e
13
17
e1
0d
fa
eb
5f
0d
0a
ce
25
e8
d9
b1
0d
e7
0c
11
2a
ee
12
44
2a
60
36
2d
4c
cb
ac
cd
29
f4
5f
d1
10
8a
22
53
f7
3b
0f
16
58
8d
3b
bd
d0
c9
3d
e6
08
07
e0
d8
49
0b
d8
2d
a1
06
51
ef
ba
ee
d7
c6
f4
c5
ea
35
02
28
14
f2
0f
ee
fb
12
e9
0a
0e
fb
fb
04
08
e9
fa
db
e5
19
cd
c1
0c
f2
1d
f2
cb
ff
fa
f9
f4
f7
04
07
10
f8
f2
0e
12
12
0f
ee
02
1c
03
ec
fa
08
e5
e8
18
ec
d5
24
fa
f5
0d
ec
0d
1b
ba
10
df
09
03
f4
05
f4
d9
f4
ef
43
3a
1b
db
e2
f8
2c
ed
df
e6
04
fe
11
0a
e9
e0
fa
e4
01
01
1c
e6
11
08
ff
ee
18
e3
1f
f3
1d
ed
0a
e8
fd
33
2b
0c
f9
f3
d2
eb
f5
db
1c
11
0c
0e
f1
e3
1c
f3
02
0e
e0
f9
f3
cc
2e
1c
17
df
0d
f6
1c
f2
fb
e0
01
23
2d
ff
f0
3c
06
f1
f2
fd
34
ed
e8
16
eb
f7
0e
0e
dd
f7
34
f0
09
ec
e7
f9
eb
f1
ee
07
36
13
ea
d7
fb
1f
0d
e5
fd
eb
f4
03
00
09
f3
f5
17
bf
ee
e3
1f
fb
c5
d5
14
05
ed
fb
0c
07
ec
04
ef
54
e9
04
0c
20
1a
bc
f9
f5
4a
7f
01
d6
2a
fa
c8
0a
ec
fe
1d
df
14
fb
fe
f1
de
f9
0e
1e
08
f1
14
cf
fb
e1
eb
ec
26
e7
f0
cc
ec
eb
e1
e7
da
ec
29
e8
ed
fd
f2
07
04
28
08
fc
d4
46
29
10
ca
f8
da
1d
de
11
01
9e
03
d7
e1
06
14
a1
00
be
fe
37
12
e5
f1
f7
fb
fc
bf
10
31
de
f2
64
fd
cb
da
c9
e8
38
01
28
04
29
23
e9
ec
f8
b1
43
19
09
25
dc
e6
a7
18
35
e8
f9
f2
be
81
3a
e2
ee
3f
1a
00
d7
0a
16
e8
00
d2
01
15
08
21
fe
10
cc
1d
fa
07
e2
07
5e
d9
9c
f2
fb
2a
27
cc
1e
89
25
20
ed
03
e5
e3
15
0e
0a
25
ec
20
f6
12
2e
1f
0d
0e
ce
a0
e8
28
05
e8
0f
01
20
10
54
f8
e4
11
1b
f6
3c
ac
c2
2b
2f
c8
c9
f4
fa
11
e7
fd
fb
0d
c9
fd
c4
f1
26
f2
c3
42
ec
fb
e8
0f
de
f7
4b
d1
ec
17
b4
21
d2
0a
d7
f4
d9
e7
ed
f5
05
0f
10
e8
09
e5
3a
0e
36
fc
20
c2
37
d3
38
2a
de
e4
05
be
f5
e2
b7
12
35
40
cd
d1
10
1d
df
f7
67
08
dc
f5
df
fb
89
df
31
d6
27
c1
14
51
d9
d7
20
0b
ea
fd
11
1c
a2
08
e1
f6
14
f6
11
08
21
cb
2b
0f
f0
25
0f
06
05
ee
04
dd
30
00
d1
45
cc
05
04
f3
fa
06
c2
fd
0c
1a
db
26
06
ed
16
fa
f2
06
25
d0
04
00
0d
f6
13
1d
d1
18
23
f3
c4
fc
ed
14
fd
f6
0c
e5
09
c8
e9
34
de
32
f3
06
1d
ab
0d
fd
0a
5d
24
0b
20
38
ff
3b
19
0f
ec
eb
f2
38
d1
1a
ad
01
fe
b9
ec
cd
d0
5f
14
db
fe
f8
18
26
d0
d7
2d
f8
10
ec
31
fe
28
26
25
1a
37
1b
fd
d8
0b
23
08
d5
0d
24
0c
ea
04
dd
c6
5e
02
d6
47
26
f5
26
17
2b
10
ac
e6
ea
02
28
0c
1b
f2
a6
27
e4
f7
06
d9
01
cf
f1
24
f0
df
ef
22
21
12
0e
07
e6
08
f8
f0
f6
fa
24
c1
ff
f4
e1
1c
d9
11
04
4a
05
30
7f
f5
01
eb
a1
18
14
df
f4
e2
f8
32
e0
0c
17
0e
11
12
e5
e9
3b
f8
f6
14
f8
06
b6
05
d3
e5
e5
1e
ec
04
f8
e0
fb
39
30
f4
44
05
ff
42
55
16
05
05
f9
2d
d8
26
fb
59
f2
76
f2
e6
f0
13
42
d7
e0
10
fa
f2
48
fa
31
0e
02
3b
0c
5a
f0
a2
11
35
d5
2e
e0
fe
e1
29
c1
d5
c2
0f
e7
17
e3
09
a5
1c
d9
39
0f
17
03
eb
ad
11
40
3e
fb
ef
02
f8
fe
b6
1d
30
25
d9
20
51
fe
06
4c
01
f4
f2
0e
41
fe
f5
f3
dc
26
cb
e7
08
0a
2b
0f
d8
39
0c
26
20
a3
06
de
fc
32
e2
5b
0c
39
f9
5d
ee
12
bc
1c
ff
df
d9
e2
db
09
f0
df
f4
16
e6
20
fc
d8
16
56
f1
ff
34
e9
43
25
da
d0
db
05
c1
fd
92
30
23
0d
04
e9
ee
14
e4
28
b7
f0
da
db
fd
df
07
0f
2b
23
2a
fd
e4
12
27
a7
0e
9a
ed
14
fa
e7
dd
13
32
26
eb
d6
1e
0a
ea
15
c9
0b
f6
21
da
27
c1
42
29
f8
e6
cf
f0
53
09
37
19
c3
ad
1c
50
6d
f3
cd
f9
f4
d8
69
f5
f3
b3
e2
fc
e4
df
58
fa
e6
e0
0a
7f
d0
2d
f5
e5
35
d9
20
14
d4
1e
09
10
c5
1b
15
f6
00
eb
ec
f1
13
e7
85
3b
13
30
dd
ed
cb
3f
f6
04
b2
36
ed
12
b1
29
1d
c9
0d
0d
43
32
0c
63
19
09
01
2b
14
36
28
16
e2
16
e0
5e
03
dd
cb
b0
f1
56
f2
e0
13
27
25
39
33
f2
0e
3e
f3
cd
1c
03
c8
e7
1c
50
1f
23
06
3e
d3
c4
04
20
cf
ee
0e
f9
de
cb
cb
e2
dd
20
00
0d
a5
d3
08
f6
f7
bf
45
b7
1b
1d
b6
0b
10
09
e1
e2
1a
1f
11
d2
31
c7
f9
00
17
cb
ce
12
f8
f8
e2
1b
dd
fb
f9
2e
49
17
f0
d7
19
e6
0a
e6
e5
29
ef
39
1d
ea
ef
eb
fe
01
27
b4
14
20
49
dd
09
36
2a
10
ff
24
36
e8
0f
b4
d5
f6
14
f5
f3
00
fa
f4
16
fd
d6
e5
d6
2c
0d
a2
32
e1
01
ed
b7
00
e1
0a
37
09
26
01
18
4f
d2
c7
f9
c4
10
fd
0a
07
2a
f9
fc
d8
e2
05
02
fc
0a
f2
17
f0
f9
e6
0f
1e
ce
f3
31
e2
f4
1f
cf
1e
f8
08
cf
24
24
fd
ec
1a
00
18
0e
10
0e
e5
0f
2d
ba
d2
06
24
21
06
07
0f
06
ca
c9
07
1a
0f
f4
f3
21
ee
d5
07
fa
1f
1b
fb
0c
df
1f
05
1c
f4
d8
e7
17
1a
01
20
1e
e9
32
4e
21
f3
1b
e9
24
d6
ff
2e
21
36
1c
c9
11
28
21
1b
03
13
0a
fe
f7
eb
e8
3b
e2
c8
16
4d
30
21
2b
e3
1e
f9
bd
fe
f4
f9
1d
0a
de
15
db
2f
db
20
7f
cd
ff
1f
e4
18
1d
ec
0f
3f
c9
07
ef
c0
08
36
f1
f7
c1
0e
ff
d8
04
2a
ef
2a
05
c2
f5
40
d3
3a
34
78
d7
2d
14
52
f7
53
d9
ea
45
dd
ef
02
ad
2a
1d
e6
1d
24
f2
22
15
5c
f7
30
07
d1
27
19
e4
de
f4
05
fe
1c
14
30
0d
f8
fd
15
f0
ee
01
12
f5
e2
d9
c2
f3
2e
05
da
43
fb
30
3a
b9
fd
3a
38
ec
1f
d8
ad
48
1d
02
aa
e9
ec
dc
23
ce
e9
aa
fd
0e
d1
00
00
0a
0d
09
ea
48
23
f6
bd
e7
12
19
d2
06
01
08
e9
f4
d6
de
d3
e4
22
05
07
fc
d8
f6
c7
ef
fa
06
16
3a
fc
f4
a3
f1
18
3d
cb
02
1a
0c
3f
40
14
2c
ee
c7
b8
10
d2
0c
7a
d6
24
07
03
11
05
d4
01
f8
1b
f6
f5
b2
03
e4
cd
f3
ec
9a
f0
2f
ca
e2
1e
c7
fe
d9
f7
c8
1a
21
d1
07
e6
39
fe
26
0e
44
2c
00
f6
c7
e8
08
0d
1f
0a
fe
10
f2
5a
20
b2
02
2b
96
f2
f3
fd
d7
b7
01
bf
da
cd
13
13
eb
7f
56
00
fe
f1
0b
f8
06
32
f3
09
d7
f5
d4
cc
e9
a2
e3
35
32
fa
da
ec
fd
f9
f9
29
f9
0e
cb
01
1a
e2
e1
de
16
2c
01
11
ed
13
0a
23
b9
0a
34
7f
0d
63
ee
e8
2c
e4
18
fe
f0
03
dc
eb
b5
00
14
33
21
f3
03
0d
f5
1d
fd
32
18
ef
17
e0
41
05
0f
ee
49
fa
ee
e2
0b
d2
d5
f2
d5
d9
f0
ea
30
13
34
d5
f7
d7
d7
f1
ff
1b
18
df
fc
5d
e8
fb
f9
00
f9
1b
c2
eb
19
f1
ea
18
1d
bc
18
e6
43
d6
e4
2b
26
fa
09
df
14
01
ed
1c
f9
04
ff
da
08
e2
04
12
25
1c
2e
19
dd
ef
c6
b9
1e
f9
ba
fb
17
e4
29
bd
01
16
1c
cc
13
3a
ff
12
d5
f6
e6
ee
24
dd
db
32
c4
0a
03
dd
d0
01
1a
e9
fb
cf
d0
e4
17
48
2f
d1
fa
f4
39
f0
18
f1
f1
3e
42
02
12
2e
2d
fd
69
c0
23
f4
1d
33
e1
07
37
27
ed
e1
1c
ee
b3
21
05
fa
1f
f1
4c
0b
09
22
fd
08
23
17
0c
f2
05
fb
f9
c2
28
62
06
79
ee
0d
bc
f9
15
04
42
1b
41
e6
32
2d
26
08
f3
36
0b
35
00
ff
44
4b
c2
e6
12
3a
e5
f3
ee
f6
0a
ed
e0
dc
ee
1e
e6
e4
13
f0
f7
09
16
3d
26
e4
36
81
14
e8
41
db
cf
e8
f2
fa
0c
f5
f7
1d
0d
05
06
08
02
dc
1e
1a
ed
0d
25
0b
eb
d7
15
10
e2
13
fc
09
c2
1d
d6
06
1f
b8
da
d0
0c
23
eb
06
d7
d0
c0
1a
e9
1d
23
46
1f
f7
08
e4
0a
25
fa
1b
01
1e
c0
cf
db
cc
2b
ff
c5
1a
29
d7
d0
35
f1
07
09
f5
1a
d8
30
d8
24
e8
d3
09
b9
e6
c5
04
06
ee
e6
21
38
0c
05
ca
b1
26
6d
0b
f3
e5
f2
04
0d
e2
2d
09
d3
fe
03
08
05
ff
dd
14
14
42
1c
31
e4
02
d8
1c
29
17
18
34
0c
3f
0d
df
cf
e4
04
be
fd
f7
df
c2
39
0f
f5
02
25
ac
ea
06
e0
ca
cb
1d
0b
06
d3
ff
ce
de
ff
db
7a
ec
bf
3e
19
f9
ed
de
b8
06
2c
19
3e
e8
4d
17
f5
e2
08
1d
d4
d4
02
c9
20
db
d0
f0
cf
fd
08
1c
1c
41
26
e8
0e
fe
06
f4
e6
03
f3
ae
16
19
0e
10
ae
f0
17
0a
3a
1e
00
14
3a
cc
de
ef
2a
0a
00
23
da
09
10
31
11
f2
32
c9
2d
d1
29
07
37
09
22
00
b3
42
f2
1d
f6
25
27
0a
01
2f
f8
a8
24
ea
0f
f6
b4
18
25
15
22
01
f3
08
cd
26
21
e6
a6
dc
e9
f8
db
ce
0d
03
49
3e
fa
1a
01
10
fc
2c
df
2e
f0
1f
d3
14
21
52
05
07
24
0c
e9
e8
fe
ea
d7
e2
ec
f4
16
07
0b
0f
24
e1
d3
0c
fc
02
2f
e9
24
30
b0
55
d0
2c
23
30
f3
11
bb
eb
11
f1
d6
db
17
e9
f3
20
c0
d3
e0
01
1b
20
f9
01
24
d6
cf
e5
df
dc
f5
0d
18
db
35
f3
00
18
ed
25
e3
0c
dc
06
de
d9
db
de
3d
00
ee
34
44
f2
2f
05
30
24
27
21
ed
1a
24
e6
2e
e2
15
4d
0f
e3
1d
32
f0
e4
e3
15
19
18
ef
26
f2
1d
21
e2
b4
3a
e4
1d
f0
fd
08
1d
0f
32
e5
da
f8
18
ea
be
12
16
37
f5
f3
e2
ed
f0
0c
2f
05
0a
fe
d6
11
d9
0e
c5
1c
12
de
29
06
ea
15
e6
e3
ea
0a
00
e3
c8
2a
ee
f6
cd
d5
e7
03
34
02
81
eb
f9
58
e9
b6
02
42
30
f3
27
86
ed
d3
fa
1a
df
2f
8b
20
60
1e
06
0f
eb
12
d2
26
13
d6
0f
fc
0f
29
fd
2d
e9
10
02
15
f5
f4
e6
13
f6
28
d5
ee
22
f3
19
5f
ce
06
33
22
0e
f9
26
03
db
f7
e2
1a
b3
57
e8
f1
94
0a
24
59
32
4a
1b
f4
12
de
3a
54
33
f1
b2
ee
bf
14
b0
d8
db
ea
ae
16
c0
cf
f6
f7
bb
fb
07
19
56
f9
7f
4c
e7
c1
fc
04
fe
fd
3e
36
cd
39
18
31
3a
ee
17
28
56
c9
c6
a5
1b
01
db
57
ba
db
19
f2
5f
c4
1e
43
ff
e2
08
46
f0
bc
10
39
20
fb
e0
11
10
ea
1f
23
29
86
ff
37
b2
f2
bf
bc
f6
db
db
47
d6
30
f0
38
b0
fc
ef
46
e8
47
47
e9
e3
ac
47
d2
43
ae
f3
d5
3b
ea
94
25
f2
4e
e6
d8
b7
a6
0f
bb
53
d5
c4
10
20
35
d3
e9
58
b8
21
fe
5c
3b
5d
6d
06
09
2f
12
a6
4b
27
34
05
a0
42
12
f7
04
ee
13
6b
ea
32
1f
f5
6a
2f
4d
e7
dd
f5
31
14
f7
30
de
f4
c0
0c
be
28
25
ee
68
09
5a
d2
38
47
3b
e1
ca
e8
c5
34
38
e7
9c
03
5f
02
1a
c3
29
1e
c1
6f
d0
c5
24
f4
30
da
ed
ff
05
00
39
05
03
f7
ee
bc
1e
c7
18
1a
eb
1f
e2
0c
e9
26
ca
dd
f6
2f
13
06
1e
f3
08
e1
e1
b0
33
d5
e6
ee
ca
09
aa
39
13
09
f9
d9
31
cc
1b
2f
0e
f5
0a
1e
d5
fd
3f
24
1d
e7
68
21
40
01
ed
45
0c
d6
52
e7
f2
fa
1e
cf
24
35
1b
33
2c
f6
f2
ba
c7
1e
07
eb
ff
0f
e7
c6
f1
62
ca
f4
1f
3d
04
3e
09
20
06
dd
ef
11
ff
f5
06
d7
25
3a
f3
1a
ee
2b
10
db
24
f8
e0
28
10
11
08
08
0e
27
18
25
ea
e5
d3
11
fc
d0
f1
e4
bf
ed
06
66
ff
c5
db
44
e7
0e
fd
f5
f5
47
1f
17
a5
29
33
1b
f4
03
f3
e1
ba
db
fc
ee
17
01
7c
eb
28
eb
e2
cb
43
cd
0a
e8
0f
04
06
1d
b6
c3
d1
b6
1c
0b
df
19
81
05
02
eb
f4
c0
02
10
5c
fb
e3
30
24
24
2b
59
00
fc
14
24
d4
2a
af
f0
ec
e4
da
e7
23
fc
12
fd
22
e3
d1
3d
12
31
0c
1f
de
cc
15
77
fd
ac
12
e9
20
f6
d6
e8
3c
30
44
e9
bd
fd
0d
e0
16
a6
08
a0
04
e5
08
cf
e4
d9
26
12
fa
48
d8
05
e2
24
2f
3d
e2
1a
dc
d7
05
1f
01
b4
e7
25
3b
e3
d6
e4
f8
26
d7
e0
43
0f
cf
c8
f3
c0
de
00
c8
07
22
e9
e7
b9
0a
cf
4a
10
11
c2
28
bd
bd
29
d6
cb
08
e4
4a
ac
06
af
ee
ba
ea
0b
b7
ce
33
de
29
f7
8b
f0
09
fd
03
2e
ed
fc
09
70
e5
ff
07
cb
ea
24
19
ee
2f
3a
aa
06
31
10
ee
d5
d9
c0
d6
bb
1c
ca
18
25
1f
f2
df
1e
f6
11
02
c5
24
00
e0
03
dd
07
04
c1
eb
c6
bb
44
04
d5
1b
c5
d1
17
c9
40
cd
b2
f5
db
f2
de
e3
30
b4
0c
28
03
37
f3
0b
28
fa
18
c3
19
23
ab
e4
e0
de
20
0b
27
05
05
34
fe
13
54
ef
c5
3b
31
e1
c5
ed
2d
45
e7
30
d6
cf
09
62
e2
3b
95
e4
17
b2
05
f5
f2
e8
19
17
f0
f4
08
cd
24
db
d7
27
35
ae
f3
1a
39
29
ec
42
1c
12
b8
02
fa
1e
08
d2
f8
03
2c
ff
06
f3
ee
ff
e3
11
15
10
9c
0f
27
2c
38
43
da
f8
3f
d7
31
81
15
f4
e8
f1
b8
c4
1a
fa
21
1c
b9
4d
f8
1c
04
25
1b
fa
38
10
c9
c3
23
d9
13
e7
e5
5d
08
c7
fc
02
d5
01
23
15
f8
f8
ff
f0
27
ad
1e
06
c9
3d
14
2d
04
1d
42
dc
ff
09
ee
e6
1f
04
55
f3
0e
05
f9
1d
2c
ff
0e
22
15
1a
f7
11
2b
4a
01
1b
f4
ed
f7
25
06
14
20
1f
f7
fe
f7
26
0a
e9
f9
0b
35
ff
fe
1c
49
f5
1e
e8
05
03
2e
17
37
ef
09
fa
0f
2b
16
0d
ef
ff
13
34
c5
0d
f1
fb
f4
33
2a
b8
26
e3
f0
07
28
dc
b3
d5
dd
15
21
0f
20
f8
16
16
10
cc
f6
cb
fc
f8
f5
ee
46
08
e1
16
22
ef
ea
12
fc
1b
16
d6
1c
00
1f
12
da
57
d0
0c
27
1e
f8
ec
09
d9
d5
10
f0
24
bf
f9
d1
1f
fa
b0
e4
49
c5
0c
da
0c
1f
ba
00
e4
23
d6
ef
06
10
f7
37
ec
09
e9
e1
e8
07
03
c4
b9
08
0e
e5
e4
01
f7
06
e2
03
02
fe
14
c3
fa
30
fe
08
f4
f6
10
46
f8
51
0e
30
01
ff
14
04
fe
7f
d6
31
32
c6
e2
b7
fc
fc
31
f0
20
17
fb
d3
f3
0d
2e
fe
44
f1
05
00
18
f5
eb
f2
04
fb
1d
02
f5
09
26
2c
41
08
06
c6
07
1d
fd
0f
f2
1c
0f
ff
ef
e9
cf
ef
d9
ef
0e
18
fc
0e
17
e3
e5
1b
e9
18
34
03
1e
f5
dc
0f
ef
e1
0b
d9
ee
e3
09
f9
f4
f3
dd
20
25
f3
10
f1
27
0e
21
00
01
dd
14
f6
ee
22
0b
17
d8
13
e9
f6
22
0e
e1
01
01
ff
15
01
f6
f4
f1
ed
22
d9
f8
f9
0c
fd
d7
16
22
cc
ff
14
36
e2
cc
c9
e2
ea
01
13
fd
00
f6
06
09
0c
02
19
0e
1d
24
ed
12
ee
ed
22
ef
fc
2e
01
f6
06
08
04
0b
09
fc
02
19
94
ea
f0
e6
f9
f3
0a
02
d7
00
ff
f2
f6
e9
14
f1
11
32
cd
ed
ce
e7
f3
ec
d3
f2
09
e2
ef
ed
ff
2b
d3
22
24
4d
04
dd
f1
09
16
e9
f6
f5
df
d1
16
19
0c
20
f6
de
03
e3
ef
e5
fd
05
19
05
ea
ee
de
21
12
f8
e0
00
01
20
1f
f3
de
fc
fd
11
e4
e8
f4
22
22
e1
f8
ea
16
d8
ce
ed
01
ee
13
f8
00
17
00
f8
34
1a
7f
f5
0f
17
fd
1e
fb
1e
cf
d8
e4
e2
1d
f2
c8
12
0a
f2
10
f7
e9
ef
ef
e0
0b
fb
d2
1d
d7
ff
c4
0e
cd
fa
00
14
24
dd
f4
09
ff
e5
0c
e5
18
ef
d9
93
e6
e8
ae
39
3c
07
fa
d4
03
ec
dd
31
08
06
fa
21
e3
e0
ed
ea
ae
0b
26
d2
ed
f2
07
16
31
2d
02
d7
20
11
fb
01
2d
f5
0c
17
30
ef
12
e0
2a
20
02
fe
27
d9
3d
24
08
c7
51
01
cb
2c
02
29
22
af
af
e9
0f
03
d9
f6
f5
fe
2e
f4
d3
bd
f3
d9
f0
f5
de
0d
26
08
e3
ef
15
1f
e5
0a
38
ed
e1
05
2d
20
fb
8d
35
f1
2f
11
e2
3e
02
cd
07
24
0c
35
07
2a
f1
ef
ed
fb
2c
2f
e9
45
e1
08
f7
2b
1e
03
22
b9
34
0a
2a
0a
fa
c3
36
13
1b
0a
a7
eb
2e
d6
ff
03
e6
40
00
fa
5d
e0
3a
1a
38
12
11
3e
f4
e8
2b
00
04
ec
36
35
bb
09
e9
21
c7
e6
10
ce
af
cb
cd
ce
d0
1e
39
49
e0
cb
e0
e2
44
bd
07
fe
f3
09
d9
32
16
ee
0c
d8
d7
33
14
d1
db
ee
10
e1
c5
1b
4c
19
4c
e2
1a
e5
1f
ae
fe
a7
1c
e6
16
14
12
94
f4
a4
c1
27
21
17
e8
e2
d3
e7
34
33
02
12
f7
0a
d3
cf
a9
5c
f2
f7
fe
7f
e4
ec
f5
f7
30
03
e9
0e
2e
f1
0a
dd
fc
fc
ff
f2
0c
0a
fb
0f
fa
f7
12
17
11
ec
f7
14
e6
f5
1a
f0
ec
0b
2d
de
ec
e3
f8
fd
08
e8
f8
16
eb
df
f2
fc
e5
fb
0a
05
f2
08
11
17
c2
f0
0b
17
de
03
ef
ed
06
ee
0b
12
1a
05
f0
f2
f3
0b
f8
f8
0e
fb
13
10
ef
19
11
ed
03
2f
05
0c
ed
f9
fd
fd
0f
f7
f1
0d
14
fa
e7
2d
0c
11
1d
01
fe
0e
19
bf
11
11
ec
0a
fb
18
f3
f7
23
f9
0e
f8
0a
2f
d7
0d
f3
12
ed
02
0a
f3
ec
f4
0c
08
fd
15
0b
e8
f4
f2
e7
06
03
e0
07
f7
e3
02
f9
1c
d9
fe
14
07
d0
0c
09
05
13
01
1b
0a
1d
05
13
04
df
f4
0f
fa
dc
e8
fa
14
f0
05
ff
e0
31
fb
04
f7
08
f2
e6
f5
ff
fe
fb
f5
fb
fc
2e
01
ed
03
ec
fd
02
c2
f9
fe
03
f8
ee
ee
09
e6
fe
f9
2f
e8
0c
f8
08
1b
03
11
16
28
7f
f9
4c
fc
f0
e1
0e
1a
05
ed
0f
14
20
1f
f8
f9
19
e5
06
05
ed
03
e4
07
0c
f1
fb
05
fd
13
1a
e6
ef
f4
11
f5
27
ee
00
dd
06
fa
1b
12
13
00
02
1e
e3
d5
05
01
df
0e
ec
0b
14
d4
04
07
ed
f1
ec
0d
2e
e8
11
12
f7
f5
3f
fb
02
f7
e1
18
00
e0
19
f0
09
f3
f4
e2
ff
05
1d
03
fc
f3
0c
0f
fd
fb
fa
f8
f4
f8
01
07
f0
09
f9
02
f1
db
13
e1
14
e0
e0
da
ea
03
10
1f
bc
de
e2
f5
f4
db
1c
0a
01
f8
fb
ed
0f
02
0f
26
f4
08
04
22
f4
ee
04
01
fb
ff
19
0e
ee
09
15
f0
05
fc
11
d0
ee
e7
06
0c
19
f2
26
02
e3
08
00
1a
f6
d6
1f
e7
0f
03
dd
fc
f0
26
18
d6
d9
0a
14
04
e2
05
f7
fa
14
15
e3
fc
03
f8
10
ce
19
ea
dc
fb
fe
f0
fd
ec
eb
1a
16
d9
40
1f
0b
35
ef
fe
d6
eb
f5
0e
0d
00
f6
24
fd
fc
0e
ee
06
f1
ee
13
d6
1c
e5
da
f5
09
0a
08
f7
d7
e9
fe
da
19
fc
fa
01
2f
e2
21
ee
32
eb
cb
f8
e2
03
f6
08
1d
7f
ec
2b
f4
04
fc
e1
f5
fd
ee
11
18
f2
0f
f8
03
09
f5
cc
02
fa
12
e9
f8
ed
dd
02
f1
f1
12
1c
f4
fb
dd
0a
01
00
ef
07
18
1e
d7
12
07
01
e9
17
ff
01
f6
1f
e2
2c
d7
13
0a
0e
d9
d2
02
0c
04
13
e3
e9
06
ac
db
23
fa
47
0e
03
2c
e4
dd
0f
db
ef
23
cf
fd
f7
cd
0f
2d
09
10
ec
e9
d0
d2
29
06
f8
ce
1b
05
32
f3
01
13
dc
1b
b6
df
30
dc
f6
3f
0c
b7
ec
d7
25
ef
dc
28
f0
e3
f3
cb
c5
05
01
43
fc
0e
d7
1d
01
3c
f5
f5
ee
3a
1b
c7
0d
f4
f2
04
f6
81
18
02
fd
e6
e5
27
2a
06
dc
ee
f7
23
0e
c1
ef
23
d4
35
1d
f6
10
0c
f2
16
42
ea
0a
10
fc
03
21
4e
1e
0b
24
d1
f0
eb
09
31
3b
df
09
1d
2c
01
ff
dc
0a
07
f9
ed
c4
3c
2d
ea
b3
03
19
30
41
fe
43
5c
df
eb
f0
ef
f6
03
ea
fc
d1
d4
0c
e3
02
cc
1b
2e
28
09
dc
23
f4
16
f1
45
08
ea
1c
01
f3
d6
03
d8
e1
fd
f9
c1
25
4d
ce
04
cf
f1
dc
06
e1
2d
20
06
49
05
3f
0b
eb
07
d8
00
4f
f2
00
f5
00
48
05
24
0e
ff
06
15
04
d9
08
2d
e8
aa
fe
e3
fa
17
fb
f6
f2
1c
ff
b1
13
fd
f2
08
20
f0
f7
07
06
63
f0
e7
03
0f
ed
25
20
20
17
05
0f
3c
0f
c6
02
45
2e
35
0a
0d
da
c4
20
9c
24
c4
0d
05
f8
27
23
fb
2a
f6
d0
e0
30
ad
25
25
e9
da
40
29
0b
c9
e8
1c
07
1f
24
eb
e8
f6
02
39
c2
0d
f0
02
d4
59
34
f4
07
f5
d1
e9
20
d9
b9
db
09
e1
e3
43
f1
0a
10
19
3a
24
ef
35
e5
ef
e9
e7
58
27
ed
f7
bb
fb
d5
14
21
56
cb
ef
fd
cc
1d
1b
ea
04
49
0d
02
0a
f5
06
fe
c9
20
23
03
11
05
f6
31
31
2b
06
f0
d2
28
18
c9
17
e0
dd
1f
13
cc
ed
2f
01
22
28
3b
ba
20
e6
f8
26
c6
f7
3a
33
1a
ef
0c
df
de
ac
df
25
e2
0f
31
81
d0
f9
de
20
20
28
f0
1e
ea
18
ce
29
46
cf
dc
ce
0f
eb
fc
c9
d9
34
b2
ef
c9
a2
27
bd
0b
d3
27
c2
45
48
c3
b9
17
97
0b
db
d1
14
f9
51
e8
2e
f1
07
28
17
08
5f
1f
01
1f
bb
45
f2
e6
9b
e3
45
f4
f9
31
02
cd
dd
10
22
fd
45
3a
dd
fb
d0
e0
13
e4
32
f8
27
2c
f0
d7
58
48
e5
17
1a
c0
21
0f
00
fa
e5
0e
fb
08
08
fa
ee
ec
1d
ff
12
0e
12
fb
0b
07
fe
0d
0b
f8
f7
d0
07
16
2d
e7
05
fa
0e
00
20
23
fa
e5
0e
f4
1d
00
2a
ee
eb
08
e4
02
1e
fa
11
0a
29
ea
1d
dc
f0
fe
df
e7
f2
e8
fd
12
e0
f8
09
08
2d
eb
ed
cd
ef
1c
e3
11
0e
03
27
45
f9
d7
f1
06
e5
ec
ec
0b
01
1a
e7
02
2d
0f
19
03
ea
f1
d9
e3
81
db
0b
f2
15
fa
14
27
f3
22
12
f5
ff
0d
2e
11
04
fd
f9
da
fe
d5
1d
09
fe
18
10
e8
00
07
f8
12
16
19
fb
07
e8
0e
f3
1c
da
ff
0a
f6
13
f8
06
0b
ed
e0
06
e9
02
fd
dd
2a
0e
15
21
db
f6
2f
c9
0d
cb
fd
14
f3
0f
09
0e
24
1e
02
f7
24
04
d2
2b
0d
10
ee
ed
e5
ee
09
ea
ed
dc
3b
07
19
f8
fc
06
10
0d
dc
02
00
22
06
f5
15
df
0a
f5
08
ee
01
f5
e3
11
c6
ea
fb
ff
22
0a
15
08
fd
fe
e5
f0
24
55
23
de
eb
ec
1a
f9
f9
d5
dd
f6
0f
02
17
14
19
ec
ec
10
fb
01
e6
01
08
d7
15
ea
f3
01
24
e7
0e
d9
0f
b6
11
1a
32
45
e5
b2
ff
3e
ca
0b
e2
e4
04
d7
e9
ec
11
f0
f7
03
26
fc
ad
df
06
dd
f2
3d
1b
7f
1b
35
1b
07
11
f3
0e
06
d9
13
3f
14
d1
21
fb
c5
13
ee
03
4c
f5
0a
11
e4
ef
3a
df
3a
db
3c
f3
16
d9
01
e4
f1
f0
f0
52
ee
fa
52
ed
e6
05
e6
b5
13
f9
e3
e8
d4
54
ca
e5
d3
1f
ea
19
00
07
36
e9
23
00
19
fc
e1
f6
08
a8
22
d5
41
01
12
0e
0b
fe
0a
1d
27
e1
1f
0f
33
ca
1b
e0
11
f4
f8
f4
42
e2
f7
b1
ea
07
df
ab
2a
dd
2c
16
fd
f4
f4
32
e1
f4
ab
12
30
25
db
ff
e6
33
2f
5a
ea
0b
23
3d
ee
c6
e0
fd
f8
f7
25
ca
f1
0a
4e
35
4f
d5
c9
06
11
fb
d9
9e
24
ef
01
c6
28
2b
2b
13
e4
f8
cb
db
52
30
fa
bd
f2
17
ff
04
72
fc
14
d8
f6
fa
e1
bc
ee
f0
13
df
c9
4d
ce
ed
d9
2a
30
1d
fc
f4
09
f2
16
13
9a
3b
fa
f1
ef
10
5d
f1
fe
2d
15
c8
e6
c3
fb
11
f5
09
20
d2
3d
1a
1d
dc
ea
1c
a3
07
0a
07
2a
04
0e
e3
0e
1e
f2
20
0c
f4
d3
0d
0f
dd
eb
cb
e8
f3
fa
06
d0
06
03
ee
c1
e2
24
f6
29
fc
10
d5
f8
03
0f
f8
01
00
f8
09
09
03
10
14
04
f6
19
e4
fe
eb
fd
04
30
fe
0d
d7
0e
1e
09
24
03
f3
fb
2a
03
fd
17
05
09
04
0d
00
fa
f9
f1
f8
1d
cd
25
08
37
0a
0a
01
ea
02
fa
13
e6
01
0a
df
06
08
26
20
20
14
09
ec
25
fb
02
16
f8
10
30
d9
0b
2d
fd
d4
fc
cc
f3
19
0d
f9
18
09
24
c7
14
f3
00
21
e8
f2
49
f5
04
0b
e1
fe
1a
eb
2d
e6
18
fb
da
0d
50
b9
0f
15
ed
17
f1
dc
1f
1e
45
f7
fc
1e
43
0b
04
07
e8
f0
f0
fa
bd
e8
f8
13
16
0f
0b
04
0d
eb
f5
0a
30
0e
f7
18
18
16
f0
f1
e6
11
ed
0e
ff
16
0d
f4
ce
f4
d5
00
cc
29
23
1c
04
1a
22
25
0d
4b
17
2a
ff
fa
f1
14
0f
b3
f2
81
07
e5
25
eb
f5
20
f2
21
1d
ec
da
0b
f0
f6
13
4c
10
e5
21
ea
27
e3
1a
25
fb
e4
1b
22
f6
e5
f6
0a
04
e0
d5
03
f8
de
fb
d1
2a
fe
cc
ed
fd
0d
7f
14
ef
fd
04
28
39
04
ec
dd
f9
d6
e9
d2
3e
f6
06
dd
01
cf
03
2d
d4
03
0f
24
d7
de
ee
15
e0
db
30
e9
ff
0d
fa
e4
c2
15
28
21
ec
db
11
06
28
07
0f
e6
f4
bb
f3
f2
b9
fe
1a
ae
cf
f2
d7
cc
0a
e2
f3
fd
06
23
22
66
02
e4
09
e0
f6
f9
0a
09
33
1c
e8
fa
e8
f8
21
60
09
ec
1f
30
3b
c0
e3
f8
fb
c7
ee
19
18
47
da
f9
1f
c5
bb
e5
21
19
cc
21
05
f9
fb
0c
fc
d3
fd
01
23
f4
30
20
36
f1
49
c9
e7
25
13
bf
13
ed
15
0b
f5
0f
38
c2
da
45
d2
31
e5
6e
05
12
0e
f6
dc
ce
f9
20
ef
f1
1e
0b
d4
1d
48
21
49
f7
f7
0b
da
e5
db
df
09
07
44
15
17
c4
17
f8
d9
46
ea
e9
24
25
cc
f7
9f
ff
03
db
ef
ef
09
12
3e
d1
15
d7
fe
3d
20
e5
1e
f5
f9
ef
07
d8
06
2e
04
fc
f1
24
10
fa
0b
06
3b
0b
e4
f6
f9
25
d5
f4
05
f2
1c
3a
15
37
ee
0e
d0
07
de
1f
ec
0d
04
1d
00
05
eb
f6
fd
ef
32
1a
d8
ff
d9
06
01
eb
f4
4d
0d
27
2a
20
0f
08
1b
ea
e2
e8
f5
0c
0c
2e
cd
03
2f
f7
de
0d
59
cf
de
fa
39
fd
e0
f5
f2
f1
dd
f9
e4
d6
2e
2a
0e
08
46
91
27
ee
0e
f2
e0
f5
21
c3
d8
1e
00
f4
ca
d9
46
27
d1
2d
dd
f0
f1
e8
cd
18
41
54
e0
19
05
17
21
f1
21
05
26
81
da
e8
13
21
fd
25
07
ec
32
f6
3c
08
1a
f0
00
2c
2c
0b
52
30
14
02
e7
df
28
e0
ef
fa
df
fb
ef
d0
f4
1f
1b
48
03
2b
f2
fd
f1
27
1e
4b
41
22
d7
f1
01
f3
14
fc
1f
17
1c
00
c3
ef
19
4b
00
13
fb
ed
34
9a
0e
04
01
e0
1c
e7
e7
d4
44
f7
00
e4
1e
34
0a
be
0f
bf
a2
af
10
0f
ca
e4
f5
36
df
ba
cf
f1
02
30
05
e2
3a
f8
ed
36
18
0a
f0
07
28
0a
e4
0f
05
2f
e3
09
18
1f
22
da
a0
3e
06
18
de
4e
1d
fa
24
01
f4
30
cf
1b
36
fc
12
05
f7
b5
ea
f2
4d
df
72
f6
06
33
bc
1d
a1
fc
e8
04
ed
1d
16
d9
27
01
e5
fa
09
d4
ff
07
0e
0a
f0
01
12
f7
2b
fe
07
56
15
27
fa
24
3b
19
c5
17
46
12
23
6a
e9
e8
20
c5
d6
d0
10
33
34
e5
f1
c7
ed
33
0c
fc
1a
fb
eb
d4
f1
7f
04
49
00
f4
d8
e5
0a
f0
11
36
02
3a
e1
2f
0b
0b
08
36
26
29
50
20
23
a1
a7
9c
08
2a
a3
b4
ff
05
c9
f8
a6
f9
f6
12
df
70
c0
c3
e9
e5
14
ef
d7
cc
67
1b
d1
f8
ec
bc
cd
d6
40
d7
35
1c
c5
06
4d
dd
c3
de
18
ef
de
04
f4
16
e4
12
f1
24
0a
13
57
35
38
cb
18
e2
86
e2
f4
13
22
08
f4
15
d4
d9
19
01
36
10
05
f3
1e
f0
ad
f4
4e
e9
fc
14
48
ba
e2
cd
e6
b5
db
de
d1
be
0c
17
ce
66
dd
2b
2a
fc
25
3c
b4
06
ed
13
06
d4
82
59
c4
f9
08
63
c3
ea
24
0c
ce
db
34
31
b8
d3
a6
c2
e5
f8
fd
1e
49
14
b5
09
17
0f
42
f3
f6
20
f1
08
3f
b2
f0
ed
ec
04
5f
02
f1
02
e3
3e
4c
fa
12
ef
4b
c3
50
bb
10
27
ab
3b
f6
e4
f4
3c
1a
55
21
1a
e9
1d
bf
08
0d
33
03
26
11
02
03
fb
dd
20
eb
b9
b1
28
0b
77
f7
f2
19
e2
03
a7
1f
15
eb
0d
32
21
16
da
34
cf
15
0c
cd
da
2c
b9
47
f8
30
c7
e2
ea
cf
ae
d0
d9
ce
1a
1d
cc
b8
36
ad
e8
f4
fe
1b
eb
1e
c9
fb
df
f0
29
ff
a9
12
f0
f7
e1
fa
f3
18
11
25
63
d2
96
af
02
92
25
f5
f7
28
df
3c
f8
15
20
15
2b
36
28
1e
fc
0f
d6
5e
f0
0d
f2
b6
5c
14
f5
28
ea
47
e4
eb
c4
e0
34
a5
d2
0c
26
bc
e4
2d
eb
38
f9
a1
1b
28
ab
15
03
f1
18
d4
e3
37
16
0f
27
fd
e1
dd
fb
c1
1e
0d
c1
e1
2d
d1
1d
e7
2d
22
f2
07
2f
eb
2a
b6
0d
f9
f3
ef
f6
0b
0f
a8
23
fb
1e
17
47
18
f1
05
f3
dc
2b
f4
e1
17
e3
d8
11
eb
c2
dc
ef
2a
81
91
1d
eb
22
de
ed
c1
e0
55
fc
ef
fa
a5
bc
d1
1a
0e
cc
2f
ef
df
2d
37
da
8e
ed
e7
e9
18
e9
55
ca
fd
06
9b
ab
01
6e
ef
39
34
e7
f7
ba
ba
30
07
33
19
01
0f
ef
df
57
0c
38
e4
0b
0c
e5
e0
e5
59
00
af
cd
e6
f6
05
20
11
47
fd
21
73
5a
21
f1
da
04
0d
f0
f5
0a
0d
16
28
ed
da
2e
e8
f1
f5
f6
d2
f3
05
d3
42
22
e5
29
2d
0d
e8
f4
14
63
e4
e4
2d
4a
21
ed
df
ea
c0
01
d4
0a
e0
2a
dd
f7
f8
d2
02
f8
f7
dd
f6
ca
0f
11
13
eb
0b
f4
32
f5
f9
14
fa
1a
04
02
1b
c6
2a
2a
c9
26
de
02
f2
3a
16
2c
01
ff
0f
c7
19
ee
e2
2e
21
dc
ed
f4
03
f9
fa
ea
11
fd
ff
17
fc
d9
18
ef
0a
ed
f6
f6
df
07
08
ff
0e
0a
fd
fa
ed
07
f5
47
09
c1
0a
24
fd
47
fa
13
ea
eb
03
f7
06
07
0e
f4
13
29
fd
f7
f5
08
f9
3a
35
61
2a
da
f4
fa
ca
fa
d1
29
2e
d3
28
b9
ea
02
0f
07
07
06
cd
f2
f5
07
d2
2b
f7
0f
fd
fa
00
0f
26
da
0d
17
13
19
fb
01
f5
28
ee
0b
fc
12
14
07
f3
16
1e
e5
cb
1e
1d
1c
0b
07
d3
e8
dc
cf
d2
e8
f9
04
10
10
26
f4
08
81
10
71
c7
01
0a
0a
d1
ff
3a
fd
1b
03
e4
da
d4
e3
04
e9
f9
16
0d
33
03
09
05
04
0c
e0
27
df
57
08
25
fd
2b
e9
04
0c
18
f4
1c
f0
d0
f7
e6
09
36
0f
fc
c7
c4
3e
dc
f6
10
09
2a
f3
16
e9
fe
0b
ee
f3
fa
0e
e4
e1
00
d5
dc
00
16
e4
11
02
3b
1b
f4
14
01
df
e9
e8
ec
e0
14
f9
1e
bc
03
de
c1
fa
cb
2f
1c
13
10
f6
08
0d
fe
fc
26
2c
14
14
29
12
f0
28
24
2d
0b
0a
c5
11
0a
eb
14
20
f6
c5
fd
d3
27
f7
d7
e3
dc
ef
35
06
fb
c1
cc
05
21
24
18
14
ea
f6
e1
03
e5
ee
df
0e
13
fc
0a
0b
d5
eb
17
25
06
31
f3
e9
2b
11
0f
ed
f2
de
c5
f0
13
e7
d8
13
18
2f
22
ea
0c
1e
ef
13
e8
f5
b4
1b
00
c9
01
1e
f7
e3
21
fc
d3
f4
3d
f3
f3
19
fa
28
0d
f5
0c
05
ea
04
17
d8
e2
fb
fd
1d
26
15
e2
fc
05
24
e2
12
52
0e
2b
e4
e7
e1
df
26
ff
e5
1d
23
38
0a
14
f9
2f
0e
1b
01
d1
f6
0c
ef
0b
fe
13
0d
fa
aa
32
00
19
81
e0
06
dc
22
3b
fa
00
f6
fa
05
de
f8
cb
12
17
f3
11
ee
47
ff
0b
3a
04
0f
e6
0b
ef
0e
0e
f6
09
08
eb
c9
03
f2
1f
03
20
e5
f8
24
e6
26
f2
25
32
18
f3
d6
dc
0e
e5
45
cc
ec
24
f8
c1
e2
fe
0c
15
16
d1
56
0a
1c
07
7f
14
e0
11
cb
2c
26
07
0f
f9
1a
38
07
09
e7
cb
d9
35
14
20
10
2c
23
22
29
14
20
fc
1c
f6
ff
e4
16
58
11
f7
e3
01
f3
0c
f0
f2
03
24
19
f4
21
e4
08
29
e5
e6
26
03
c6
00
3a
54
2e
cd
15
d5
19
15
2c
fc
e6
e7
df
04
13
0e
2e
e7
12
f3
13
1d
a8
fa
e2
f4
e9
da
fa
02
fd
e6
11
30
50
c5
04
13
f5
40
09
f9
0b
38
e3
eb
e7
0a
e3
18
f4
ec
09
ff
f5
f3
1d
0b
09
08
03
24
f0
1d
e1
f6
1b
dc
da
ff
f5
01
6e
fc
df
e7
df
4b
d8
22
5e
13
32
ee
91
e8
24
bb
0e
2b
d1
02
f3
e2
28
30
19
e6
fc
df
ea
e7
28
ba
e4
19
1b
0e
41
33
0c
dc
e3
f8
df
ff
16
4e
f9
e1
f0
be
f4
03
00
0f
32
c7
e3
e7
6a
0c
d1
13
ff
16
d7
0f
e6
b7
21
1a
07
b9
20
e7
fa
0c
25
cc
f9
eb
11
e2
0f
cd
e4
f4
3a
11
06
2f
2e
37
d8
06
ed
10
fe
e5
14
05
11
0c
06
22
19
fd
01
21
c9
fa
05
55
bb
ed
f7
f7
05
cc
2e
2f
00
1c
dc
c5
be
50
25
d3
f7
cd
18
d3
05
fe
7f
b8
f7
22
e9
e6
ee
1e
01
07
24
1f
b0
c1
2e
02
c4
e5
e2
99
04
11
12
f4
ef
4d
1a
f9
f5
50
f0
e2
34
da
ea
ee
cf
10
10
0d
ee
5c
fc
b8
02
0c
cb
ed
ed
f7
db
2b
fb
db
1d
2c
6d
07
06
45
05
c5
f4
91
fe
19
10
48
de
d6
58
36
31
e8
1a
04
d7
ec
51
ca
1a
fa
c0
02
e8
32
c9
f8
15
1d
fd
05
06
30
f5
c7
25
eb
04
21
22
d0
c5
3d
09
e0
12
2f
e2
c9
bd
fd
00
f6
f7
e9
ff
10
03
de
0e
f4
f0
b1
f1
fe
eb
44
95
21
1f
1c
0c
37
15
fa
f9
13
15
2b
00
d5
aa
fd
ad
da
17
dc
4a
35
db
fa
ba
02
f2
f4
c5
d0
31
13
e5
d9
f8
05
b5
c1
12
00
e9
d8
e9
e5
e5
14
03
f2
e5
08
2f
f3
23
08
eb
df
e5
9c
ea
0a
0b
bc
e5
23
e6
c9
ec
f3
cb
02
19
fd
d7
f3
e6
01
c3
d2
0d
0b
e9
3e
da
24
ec
48
fc
f5
30
48
4b
08
3b
de
3f
fe
6b
f8
08
dd
fc
13
f0
e0
11
de
f9
d9
d9
13
f3
f4
eb
07
fa
bb
cb
f8
4f
f3
ec
12
05
41
ee
2b
f8
f5
b5
d9
e9
d7
25
52
ee
e7
d7
fe
03
ed
27
0f
0d
f2
e6
fc
e5
38
ec
39
f4
f9
f9
0e
f8
f8
37
f7
f5
07
de
32
ff
1d
03
2e
f7
0c
01
01
e2
30
25
19
eb
06
12
dd
c8
02
cc
f6
04
e9
dd
10
1b
dd
18
10
12
12
03
e4
de
ef
3a
06
ec
f2
36
e3
f4
f7
05
4f
ff
02
f0
f2
fb
f4
e7
ee
2b
12
01
39
f6
36
eb
26
11
11
01
dc
1b
f8
e9
cb
f8
e8
0d
01
3a
b4
f6
47
db
e7
ec
f7
0b
10
07
f7
02
20
d1
fa
f4
0f
22
0f
26
dc
c0
ed
a8
ed
f1
dc
fd
02
e9
0e
23
fa
03
e5
ef
1e
e0
0d
35
fb
10
03
3b
05
28
e1
f2
24
fa
04
fe
d8
1d
e6
28
1d
12
de
ff
f9
1e
1b
2a
eb
fd
b8
04
06
ea
13
de
1a
91
ef
81
27
dc
13
17
1b
2b
14
07
28
ef
d7
fb
08
1e
f8
2c
3e
29
0f
f7
43
f3
0a
03
26
24
18
0d
f3
f1
23
e6
c7
f6
e2
fc
2b
d9
12
00
f2
01
ec
21
fc
d9
f3
f4
d4
05
fa
02
09
de
08
04
fa
ee
09
0d
00
ef
27
da
1e
fb
e6
20
f3
fe
30
03
ec
f5
e8
25
e3
d0
19
01
20
f9
e4
d2
e3
14
0b
f2
22
07
31
04
f9
20
bd
f0
1c
f3
f6
fe
0f
09
ef
10
e9
13
f1
0f
16
15
01
0b
ef
c1
f9
f9
04
f7
dd
da
1a
f8
1f
1e
e5
f2
10
eb
15
05
0e
24
04
22
e1
df
03
fb
f1
f1
00
02
f2
26
f6
20
fe
02
e4
f5
f0
06
03
13
2c
1c
05
2f
ec
f8
00
f6
f5
f6
f6
fd
dd
1e
03
ef
fa
04
02
1f
ef
25
19
db
f7
03
09
01
de
16
f2
e9
ff
ec
bb
eb
f3
ee
fd
f8
0f
14
1e
2e
09
f1
17
ef
ea
fb
ef
17
00
18
08
2e
11
d7
cc
0e
0c
f4
ed
fb
06
ec
24
03
02
11
bc
07
22
0c
f3
ec
0a
10
40
db
0d
02
0e
33
2d
01
d6
10
e0
f3
db
07
0c
b7
02
f9
01
dd
e5
0e
26
7f
e9
16
fa
db
03
ec
fb
1c
0a
fd
36
c8
fd
03
02
c0
21
2e
14
09
07
f8
10
02
09
e1
0c
51
00
08
12
00
fd
10
04
1d
0a
e4
15
01
ee
0f
d9
cd
e7
df
0f
31
f9
f4
dc
22
d3
f4
16
b5
ec
12
2b
6e
fa
3c
31
f2
49
a7
3f
99
0e
2c
18
34
27
f6
20
03
cc
59
de
0c
1f
86
f1
e9
dd
f7
d5
e0
f9
e6
0e
de
49
32
ea
0c
0e
e6
b7
16
39
59
ef
a9
97
e1
d5
03
b9
fe
13
da
07
f3
0f
3c
f0
42
d3
30
f5
03
fe
f7
bc
31
32
1b
19
0e
00
ed
fe
de
09
d9
1d
d1
c6
db
39
f6
03
32
37
2f
ba
f5
ac
e7
2f
cd
38
f5
d6
17
a2
01
fe
79
3d
ff
ba
e8
0d
da
fe
fd
ae
e4
f9
06
0e
f4
f8
da
30
f4
07
e3
f7
ad
98
1b
e6
e5
1f
0d
16
02
e6
11
2a
4d
d0
a1
19
51
e1
14
d6
00
f3
51
5c
ec
04
e4
0b
f4
11
54
ef
41
c3
bd
72
32
6b
3f
20
fd
cf
37
e9
1b
ca
52
d1
e5
3d
e9
41
57
3b
22
a4
31
35
bf
fb
4a
1d
08
14
18
82
0b
1d
9c
0f
00
ca
b5
fd
4c
1c
f7
fc
06
cd
f2
26
38
fa
16
1f
49
12
f8
0e
81
2d
29
08
f8
cd
23
f1
19
d7
36
09
ca
0c
02
c1
f9
40
bf
9d
7d
ee
f9
c8
bf
1c
37
f3
0d
ea
d8
f2
ee
fa
21
1e
e1
01
ec
41
f8
04
ef
d7
d0
0d
1c
09
e9
24
f4
ee
81
ed
e1
c9
12
e3
15
0d
ff
fe
4b
f2
17
37
00
f2
02
22
ec
f4
49
56
dd
0b
04
d9
ed
3b
1a
e9
e8
25
0a
dd
1c
ed
d6
cb
e2
22
2a
04
18
f4
c8
c6
e2
d4
25
0a
0a
18
1d
e9
f5
11
05
da
05
e1
ed
cc
1b
12
13
00
d2
35
2f
16
dc
2c
c9
dc
0b
04
0f
d6
15
d7
df
fa
f4
0f
19
0f
20
25
fe
1a
0b
0a
11
cc
f1
e6
fe
09
ed
58
10
d0
3f
29
e2
cb
f7
27
0b
3f
0a
12
ef
00
fe
e3
de
0c
d4
03
b7
05
59
f9
ec
ea
1f
ee
da
e3
eb
d6
ff
ed
ec
eb
e6
30
ee
3c
e7
f9
de
e2
3c
2a
11
18
27
ea
fd
08
e7
0e
e6
e7
0a
e6
0b
d7
f9
25
f5
c7
de
f1
e1
ff
11
eb
f7
e9
de
01
31
16
05
1b
fe
11
e1
27
63
f9
dd
e0
2b
f2
30
ea
fe
04
0d
ff
08
0e
12
37
10
23
0f
ef
11
0b
cb
29
c7
db
e7
08
ff
fd
dd
3a
d7
e3
13
e8
0a
2f
0b
14
2e
c1
14
0c
14
f9
0f
21
e2
04
11
f5
04
b8
eb
c6
e6
0a
c6
d7
ef
a1
fe
ed
fc
43
2f
02
1e
21
c9
25
08
34
f9
60
e3
11
dd
0f
02
f9
00
07
f1
d5
2f
50
ec
15
1b
00
3a
1e
fe
03
1c
2d
ff
f6
f9
f4
d7
41
22
03
1c
1a
db
12
36
03
dc
02
1c
0a
32
df
0e
cc
01
3c
1a
ec
d8
fe
09
e2
78
ed
09
1c
e5
18
0f
0a
2a
a7
d8
50
00
41
a5
f5
06
a1
2d
e8
e1
ed
28
1e
f1
d5
81
c8
48
17
df
12
da
18
2a
32
d8
f4
0f
d4
1f
40
e9
ef
0f
04
c8
0c
04
b8
33
f3
f2
31
e9
35
d2
fd
2a
c6
e4
3f
ee
0c
08
ee
f8
e3
d1
d6
48
ff
ee
17
31
f2
59
0c
e3
18
4d
28
4b
ba
3f
c4
21
2b
14
dc
da
9f
dc
20
05
eb
e1
2f
48
19
fe
e7
55
f6
e9
00
4b
bf
bd
f2
08
63
d3
f0
14
00
d6
3e
0f
9b
e0
c5
49
ed
f1
16
2f
0e
92
57
41
ec
91
0c
f3
4e
e4
3e
37
18
2d
ec
30
4a
08
54
f8
cd
28
fc
10
fa
62
49
f5
22
ff
06
1e
d5
05
e3
19
fb
0f
41
41
f9
e2
35
f9
d8
20
db
f0
1c
1a
b9
25
2d
07
d1
3b
e0
0e
1a
e1
37
01
e6
b2
28
de
eb
e9
10
f7
30
42
ce
fb
2a
c3
10
a8
09
1a
3e
d6
02
05
13
f2
e5
fc
bf
18
c2
e7
4a
2b
06
e9
df
d7
ce
e3
1d
ae
ec
21
b9
22
9d
f5
07
19
0b
00
d3
ce
39
23
17
d3
d9
fe
01
62
cc
a1
3f
12
06
39
16
dc
48
e3
27
12
da
21
cb
fb
4c
f2
0c
f4
21
09
f9
4f
26
03
53
fa
03
a8
e4
86
a8
f3
05
50
fb
a2
fc
df
06
e3
25
eb
f0
45
3c
26
f2
60
be
04
74
f9
1b
d1
c6
fd
a2
45
ff
04
f6
d7
f3
c3
12
38
24
fa
e2
31
05
08
19
f2
16
2e
36
0d
2b
db
39
05
25
bd
1a
f3
ec
65
da
10
0d
b9
ff
d5
b3
be
2c
09
cd
5a
1d
2e
c3
d8
4e
29
19
d7
0c
07
e0
12
f3
20
03
d9
d3
e4
08
e3
e9
ef
9c
3a
30
b3
c2
3d
0a
16
ea
b3
ab
d3
fb
e3
c5
7f
f8
df
3a
0b
16
c5
0e
db
df
1e
a1
e8
ba
ce
f5
10
fe
d5
fb
fa
3a
1b
13
e0
4b
9e
25
3d
06
d8
ad
01
0a
a0
ef
20
c9
4f
b9
e1
0c
1b
04
9f
0c
1c
1a
d8
0b
c9
f9
14
06
d4
0b
03
da
c3
03
25
14
14
15
f8
c8
01
00
0c
fa
c3
37
24
0a
d1
0c
16
2e
12
13
e1
16
bf
ea
0f
f0
f3
02
1a
df
ca
0d
10
01
ea
e2
11
ee
fe
f0
f6
f5
fe
11
30
1d
0f
df
fc
06
01
04
0b
fe
de
fd
30
05
38
ff
e5
dd
1c
0a
05
fc
df
f7
e3
19
46
f3
19
03
d0
e3
fa
c5
14
cc
1a
32
d0
0d
50
fd
cc
de
dc
0a
fd
10
e6
f8
eb
03
19
ca
12
ef
0b
e5
fa
e8
d2
fd
16
db
01
24
08
04
fd
14
27
fc
d2
c6
28
03
1d
ff
17
1a
d2
01
f6
1d
ed
04
0b
df
1b
09
00
fa
db
d9
07
f5
fa
15
17
ff
f3
fe
02
23
eb
06
ea
24
d0
38
ef
0d
fa
e9
24
1b
ed
e2
ee
d1
2b
f5
d8
e2
fa
d5
08
04
0c
0e
f4
f3
08
12
e4
ed
f5
e9
ef
de
d7
de
e6
19
dd
e9
09
f0
cb
de
0d
13
a3
15
81
34
16
d8
f9
13
2d
f6
fc
c5
1a
d7
06
23
06
18
02
e4
e0
09
e8
00
0d
fd
08
fb
97
0f
f5
e9
31
e6
ec
23
0a
f8
f0
2e
d9
e7
0c
1e
ee
ec
09
d0
e4
f7
2b
22
ed
fc
f0
21
e3
e0
ea
25
da
02
e6
02
25
ed
dc
f7
0e
0a
13
d8
0c
cb
4c
eb
38
0b
e1
14
e7
08
e0
19
f4
29
df
db
c5
09
14
01
ef
1a
e8
d9
ec
f0
10
cc
db
d7
12
11
f1
29
e8
e6
e5
ed
ee
00
e8
10
3b
10
f0
12
f6
1d
cd
31
f4
d4
e5
d7
12
f7
ee
16
ea
19
f5
f2
e2
0d
e7
16
14
e5
ec
03
12
54
de
fa
01
00
15
fd
16
16
21
15
30
0a
08
47
cb
fa
17
ce
c9
f3
e7
ec
03
01
04
d4
00
f9
1d
e3
23
2f
ed
01
da
00
c7
e5
d1
19
f0
cf
f4
27
05
2d
d9
39
05
e9
29
cf
fe
1b
0b
d2
f3
38
fa
22
17
d3
46
02
0e
d2
14
f2
03
31
f1
fb
22
fd
07
f3
f9
ee
0e
de
d1
fd
cd
24
2a
14
15
30
3a
ff
1f
3e
da
03
fa
e4
d5
d6
02
07
bc
e1
ff
e0
e4
02
f9
f6
09
1b
e9
f9
7f
dc
42
f7
28
f0
09
b4
f0
1e
03
12
f0
ef
04
f4
d4
f0
e4
0f
e9
c6
07
c2
09
df
c6
10
1c
dc
04
21
ca
15
36
f9
21
24
f6
c7
38
f9
17
e3
0d
e3
df
11
c8
09
cf
fd
fb
f4
c4
e8
c7
0d
e1
05
03
11
e2
c4
e9
e9
db
0b
d9
f9
3a
dc
0e
a8
d4
f2
45
41
c0
c7
09
f2
ce
16
fd
19
b5
2a
0c
21
2d
f4
27
07
fa
02
b0
da
ec
c3
03
f3
00
24
d6
1b
1d
4a
d7
4b
ba
14
f0
fd
00
07
7f
fe
01
f2
4d
27
46
0f
e7
05
17
da
09
ef
08
e9
19
10
f1
fa
ee
fd
f1
2a
f8
0b
18
dd
16
28
17
ba
1e
16
bb
c6
e1
02
ef
e1
03
f4
07
0a
47
de
27
5d
c4
e5
00
f8
ea
fd
14
cd
10
fc
fa
a9
1b
47
1d
f3
ce
1c
d3
2d
3e
c5
f9
1c
19
2f
9f
05
37
03
c2
fe
ef
10
06
11
da
c5
23
fe
21
f1
ea
4c
82
e1
c9
a6
e0
9d
c2
ef
06
fd
c5
bd
01
fc
3e
13
0b
d5
e3
0e
f8
ea
dd
02
21
17
b7
41
bb
01
f8
ed
2a
f4
20
07
f8
10
0d
14
1c
1c
cd
42
36
05
36
1b
4c
16
17
00
03
24
31
0b
0f
fe
31
dd
ee
c3
fb
03
f2
02
1f
bb
b9
e5
26
b4
03
4b
24
10
5b
01
ce
f5
91
01
e6
54
fc
d4
07
f0
ea
14
2c
df
f1
15
0f
37
fe
1f
04
3a
14
23
07
06
09
81
ed
30
c3
2d
c7
19
1f
fb
ef
f1
35
f6
dd
11
11
1d
1d
04
12
14
1c
f2
d4
12
11
cf
0a
e5
f7
d3
bd
c6
00
fd
e7
11
d3
01
40
f5
f0
32
11
01
2a
42
d2
59
3a
05
15
c0
04
da
dd
ae
00
37
6a
01
f9
a0
df
f9
c5
fc
0e
00
18
0b
e9
09
2b
cf
13
02
1d
21
36
d6
f7
c4
a9
23
cb
be
e9
21
e3
54
fd
e7
47
47
eb
e0
1e
bc
31
f7
03
cd
01
05
ec
3f
f8
a1
e0
25
13
22
02
db
d5
d6
0c
3f
fb
d3
0f
25
15
50
fc
23
8a
db
23
cf
ec
fb
22
ff
f7
ee
e2
ff
32
d3
5e
b4
02
1b
2a
05
ef
37
f7
e3
58
13
ab
10
11
f7
04
f6
2f
00
10
58
df
e3
41
da
fd
33
13
fd
ed
d2
f4
dc
05
16
e6
14
2a
32
e0
0f
ad
01
f7
f4
fd
af
44
24
21
01
d3
fc
f4
0c
11
f4
5b
26
b9
ec
2f
fe
d5
e4
1e
26
fc
f6
14
dc
4f
20
ac
1b
4a
37
e5
01
2b
2a
0a
ee
06
22
f2
ef
0e
4e
32
f2
c1
19
fc
1c
1f
10
16
9e
35
fe
15
ee
ee
02
e4
11
0c
47
c8
20
2c
ce
f6
3b
32
06
0f
0d
15
10
29
e7
0a
eb
13
ef
eb
d6
1b
3a
f6
ff
30
d9
fa
f9
ff
d9
3e
08
04
0f
f7
0d
0a
05
c0
fe
ed
05
18
21
21
1d
2c
d0
0c
df
d7
dd
0d
43
09
fb
05
2f
f8
dd
f6
22
d3
01
03
02
0b
fa
14
f9
06
be
d7
d4
2b
13
14
de
0b
1f
18
03
ec
04
19
12
08
c1
dc
da
e9
b9
e6
22
17
07
ea
fd
e5
02
11
22
04
0e
e4
2e
f6
0a
11
2b
00
00
26
fe
15
1d
12
1f
f5
b7
f2
e7
02
fc
ff
1f
eb
1d
02
0e
01
c9
f0
02
ec
f7
f3
0d
f7
e7
09
13
17
d6
14
fe
12
cb
15
f8
ff
1d
df
f7
19
02
cf
12
f5
06
01
36
e7
2b
12
3c
09
28
de
03
f8
dd
13
d9
d9
1e
16
0f
00
08
fe
15
2b
09
f8
b9
30
0a
fe
0a
1e
e5
11
ee
1d
b2
07
1d
ea
f7
2a
ea
4d
00
49
ea
75
2e
d7
d3
42
08
e9
db
14
1c
f8
39
06
f0
fa
1c
81
11
1e
e6
e3
07
f6
2d
f5
f9
22
de
03
1b
f7
2e
f8
09
f1
dc
46
ec
fc
df
e8
fd
28
42
3c
08
d2
4b
da
1d
24
c7
0f
0d
1c
df
ab
fa
0b
23
29
eb
13
fb
24
11
e7
15
03
a5
f6
d8
16
df
52
0f
1a
1b
00
e5
e2
e4
f1
01
01
34
f2
fa
0b
01
16
25
d9
f7
3a
d4
e0
df
2c
fb
1f
3a
fd
bd
2a
fd
0d
20
f1
dc
21
10
fb
16
d0
33
f1
c5
4e
f9
d9
30
12
12
dc
05
a1
ea
11
8f
e4
1c
d4
00
ee
35
ea
da
2d
08
0c
0d
10
cd
20
04
0f
0e
e4
03
1d
e3
00
f5
d6
ec
07
18
58
d9
ec
2e
04
09
d0
13
f0
c8
2e
25
02
49
03
0e
47
e7
25
e3
df
e7
04
19
34
13
e9
c7
2e
fd
0f
ec
ee
16
f2
19
f7
ee
f8
c1
3e
ee
2b
e9
c7
27
1e
cf
12
19
42
db
f7
48
fa
31
ed
06
eb
dc
0b
cd
d5
29
2e
f3
31
fc
3e
0b
2d
2f
e6
de
13
1b
01
db
18
d9
1d
ec
eb
b2
ff
2b
21
03
f0
0f
35
e0
ba
17
04
0d
17
b1
b5
29
c7
e6
fe
d1
02
1f
27
3b
fe
db
dc
e7
d4
0a
7f
f5
f7
28
24
29
fc
f2
e1
dd
ec
fe
0b
da
05
f3
0a
27
fd
2a
e5
e9
df
f5
fb
19
2b
fa
3f
2d
ee
0a
3b
ce
02
30
1c
61
39
3b
75
1d
06
f0
10
10
07
f9
3c
13
c3
e6
c8
0d
05
02
f3
f6
d4
dc
12
57
00
f2
dc
02
22
f2
2e
be
e7
d8
13
11
ec
f1
18
5e
32
33
93
ea
ec
6b
c0
c0
d0
c7
f5
04
1b
b7
13
39
e6
c6
5b
dd
2d
2a
f0
0b
df
42
4c
f4
0d
15
24
09
f7
d3
07
f2
16
b5
71
0c
b5
c6
26
f9
06
f7
27
8c
d8
0a
d7
e7
1d
30
20
0c
3c
cf
ea
d1
01
ea
09
e1
05
fb
3b
e9
e9
f2
e9
f8
e7
db
26
39
86
e8
da
1f
d3
e6
ed
08
f3
13
1f
13
48
0f
db
28
ee
17
f7
0d
d0
fe
db
20
1b
f1
f6
d5
fe
22
25
fd
cd
db
b8
81
29
38
24
2a
10
14
29
c8
25
dd
1b
1f
c5
e2
dd
10
e7
3a
40
34
32
0c
06
f7
12
2f
2a
e4
3c
ee
e3
2b
0c
2e
fc
de
3a
70
37
3f
0c
f5
03
dd
bd
e4
ff
06
a7
e9
b6
04
67
c9
dc
ee
f3
0e
dc
0b
f7
e4
04
d1
f9
18
54
e5
48
23
f0
f9
21
d6
fe
b5
fd
e4
3f
3a
f1
ac
13
f0
2f
0e
c9
f0
25
be
0b
de
51
1c
f6
02
eb
d1
10
18
d0
a1
d7
04
e3
18
02
f2
1d
15
f1
03
fc
c8
e7
fd
5c
18
3d
04
e3
f4
0a
ba
ee
c5
02
d3
01
e6
10
18
c1
3c
ef
c5
18
17
f6
e3
df
7c
e4
09
34
e6
c7
ee
2c
e7
27
16
cb
23
de
1a
2e
ee
01
34
1f
d9
4a
13
fd
b1
60
07
1d
42
fb
c0
12
0c
05
e9
db
11
ed
21
ee
02
c1
c6
ef
32
01
15
db
05
09
31
d3
04
06
eb
0c
65
f8
f9
1d
3e
03
1a
d8
f5
30
f3
29
3b
fc
23
01
fd
02
2e
31
e2
fd
dd
1f
33
04
0c
f1
1c
fe
37
f5
d9
23
df
d6
f4
d4
16
0f
e0
df
e9
11
36
f0
18
49
cb
e3
20
fd
e6
16
f4
f3
14
eb
c6
34
e3
b8
02
20
d7
ee
09
14
38
05
e8
f2
36
f8
e3
23
ea
fb
ec
25
0d
7f
d0
10
ee
d2
d4
36
08
ff
19
d7
04
c7
5c
ec
f9
13
d4
fc
f6
0b
ec
cf
ed
e5
17
4f
20
8d
dd
a4
2e
41
e4
08
d5
34
31
12
3e
34
ed
2b
34
1d
fc
f2
f7
0d
26
07
01
e7
c7
2d
f2
3d
19
e0
ee
e2
f3
12
2c
11
f6
a4
2c
e8
d7
e6
f0
e4
e1
00
02
14
1f
fb
13
0f
fa
0b
f0
0b
1b
17
ff
eb
01
09
09
10
fc
00
01
21
08
ed
05
fd
12
e2
ea
00
f3
ee
f9
1b
0b
08
07
f3
fa
fc
ff
15
ff
f0
2d
09
de
18
02
f5
13
0a
f7
ed
21
f8
ff
00
f9
09
01
04
37
1c
ec
c9
10
fa
09
f1
05
08
03
f7
fe
ec
0e
1b
f3
08
0d
e1
0b
01
00
07
03
02
01
15
11
0a
ef
ff
29
1d
08
12
fa
1d
e9
f0
ff
00
02
03
14
1d
0b
f1
f5
0e
13
f7
fc
1c
e2
12
f1
f4
f2
ee
08
ff
d8
05
f7
12
08
f3
ee
1c
05
00
1c
f2
e5
2b
02
bb
02
e1
24
13
f9
03
f2
05
12
ec
11
0d
fd
13
ee
39
d3
fb
ff
fb
12
28
0b
28
f3
ef
09
24
f8
f7
0b
0b
16
f2
f0
00
f8
11
ec
02
fb
d9
05
34
fe
0b
35
f7
18
f2
f0
ff
fd
ff
16
07
01
f3
e9
f8
ff
e7
f1
1e
2d
14
fc
27
16
7f
dc
00
fa
fd
00
ff
02
11
0b
ef
0f
01
01
07
ed
ee
fe
29
f7
04
f8
26
0d
09
15
fa
05
09
00
f7
ff
f1
02
e8
ec
1c
c6
08
f9
e5
1b
fa
e4
df
e0
3c
f1
04
1f
2d
0a
04
0b
da
31
fb
d3
2f
cf
c1
cf
c8
1f
58
21
e0
f7
29
fe
f2
09
f7
c4
11
e4
e4
f7
17
f7
54
cb
ed
05
ea
e7
23
3b
de
cb
17
17
0a
03
25
e9
3e
d2
25
18
06
ec
1e
e3
27
e2
d6
39
50
e0
19
fc
27
2d
90
e0
e0
06
fc
04
02
17
02
43
d3
f1
00
db
f0
c7
ca
bf
a2
fb
0e
e7
de
d6
51
e8
27
99
fb
2e
5f
dc
12
f4
f0
dc
e4
f6
ec
33
f2
e3
18
24
65
d1
11
54
00
1f
a6
05
17
31
02
42
13
f1
00
12
12
c8
d9
12
10
f1
18
f0
32
35
4c
fd
0d
0f
d2
a2
07
01
10
3a
c7
22
23
d4
33
03
dd
c2
3e
e5
46
29
f2
ac
55
10
c4
5b
0d
26
2d
e6
1d
07
0c
f1
2f
3b
f3
13
26
f4
46
f3
35
0e
e7
a0
18
36
1d
dc
09
d5
2b
2c
e2
81
f4
3b
e2
df
28
e0
07
d4
d1
07
28
f3
3e
13
63
ee
d7
c6
41
22
04
ce
e0
56
f6
52
e7
99
06
fd
37
0b
3b
0f
11
ee
ba
4c
02
f4
40
c0
00
da
cc
0d
38
17
07
8c
0d
fa
c7
14
10
19
11
b6
0a
f5
cc
e9
0e
d3
e4
f0
02
e5
f0
0d
ba
fb
f7
12
20
ce
11
37
f4
d5
a4
43
f9
fb
cb
10
f9
f5
c7
07
e8
e0
46
fc
cf
ff
f5
12
d7
35
1c
04
db
f9
eb
eb
c3
39
26
11
1f
11
25
f4
dd
f7
43
fe
f2
e6
fb
fb
0e
0c
31
0c
3a
39
ed
05
11
1c
24
02
1a
ff
ee
e0
c3
01
46
e8
09
f4
c8
15
fa
0e
10
b8
29
d9
09
01
d8
11
45
24
f5
fa
00
d5
24
f4
11
ce
31
33
f2
03
11
f6
ed
f3
eb
1b
03
ce
04
ce
13
d0
21
ed
34
cb
1a
f2
2a
d2
2a
e5
f4
ce
0c
e3
02
de
57
37
fa
f6
1d
cf
f8
e3
f5
09
f2
df
49
13
54
7f
16
f3
e7
e1
33
f5
ca
10
cd
03
f2
d8
16
08
27
a6
17
ec
07
18
3d
0e
1d
15
02
55
e9
d7
e3
ee
de
0c
ec
6c
05
f2
e5
d6
0d
03
2f
29
e7
2f
ca
19
14
13
f8
13
f4
e5
27
f3
9f
04
67
20
0d
1c
e7
29
23
e0
c3
fc
14
fe
31
39
1a
e2
fd
3b
11
0b
c9
da
d4
28
13
0a
b6
ed
08
19
1a
e9
eb
f8
31
cb
1b
fa
1e
06
4e
04
f3
fe
01
21
15
ee
19
ef
01
06
ed
0e
18
11
15
fa
f4
fe
0b
2b
10
0b
fc
31
03
f5
23
04
20
f7
ec
f9
f2
08
fa
04
ff
01
f7
01
f2
db
05
f9
0b
e6
12
e3
ed
0e
07
fe
e6
f5
f2
ec
05
fc
05
f6
ef
0d
e9
ef
0d
0e
20
2d
f3
01
36
0b
20
f5
17
f6
00
00
03
15
ee
2e
05
e3
12
0a
04
f7
04
17
0a
ef
f9
26
09
03
01
e5
02
e9
fb
e6
fb
21
fb
17
01
01
11
25
18
04
f4
0c
10
dd
14
ed
f5
0e
e9
e7
00
00
12
13
06
e7
de
0c
fc
0b
de
02
ef
01
07
f2
11
ff
ea
f8
b3
f6
f2
12
05
07
00
11
10
fe
ed
c4
1e
e5
02
13
06
1f
fd
f3
1a
f7
ea
35
f8
fa
d2
08
f6
ea
f5
27
0d
0d
d8
14
00
01
fd
10
e5
e4
01
10
15
fd
f7
0b
07
f9
ff
0a
f7
1c
e3
fb
21
1d
12
03
26
f1
1a
06
03
e1
14
c9
21
fd
81
0d
94
07
fb
ea
1f
10
f1
fe
f7
fe
03
07
22
17
1b
ff
05
f1
f3
f6
e5
ef
0d
08
07
f7
04
03
d0
10
08
fc
09
0c
0a
02
e8
06
03
e1
f5
e8
00
01
d8
ea
1d
dc
04
f1
01
c1
d6
f9
0d
dc
16
fa
06
ff
f9
e0
c5
f6
02
2a
e2
11
fe
47
e5
12
d4
da
15
13
de
13
e0
31
08
10
d9
df
e5
dd
fd
e3
f1
41
02
06
fd
32
ef
10
b2
eb
03
dd
56
34
b0
0f
f2
37
17
e7
12
3b
f1
b9
f5
29
e7
20
fe
db
12
08
06
2d
02
d4
f1
f3
19
13
31
f9
3c
f1
ef
34
fc
ec
f4
fe
fa
2a
f0
18
f0
f8
10
f3
bc
0e
ef
bf
cf
e9
11
15
26
e9
ef
27
d7
2d
e1
3a
0a
e0
04
26
f6
e7
c5
e3
17
ba
03
ee
f4
20
00
26
f8
34
e4
0f
1e
18
f6
d8
27
12
19
fc
1e
df
1a
00
f7
fa
db
1d
34
01
21
3e
33
e3
09
17
00
da
c6
de
e9
2f
ee
cd
ed
d9
f8
d7
d4
e8
3b
32
f0
02
0d
c3
e9
ea
09
ec
28
1e
0e
15
ca
0f
fd
da
eb
2b
1b
1b
f6
fb
fc
ea
0a
cd
0b
2c
4f
1e
f0
19
7f
01
6f
00
22
f6
d5
fa
dc
ef
f7
12
12
fe
c7
1d
04
fa
db
2f
fa
e8
34
f7
fb
02
ec
d3
e7
ff
cf
14
e8
0c
f1
f9
19
24
05
19
c2
1c
32
1c
19
14
10
00
b8
df
d6
f7
07
11
d2
f3
ec
15
f8
e5
00
1c
2b
26
2e
06
d6
10
1f
15
f1
1c
08
ff
df
f9
18
d5
15
f0
e3
e3
08
06
26
12
29
1f
18
11
01
f5
d7
2f
0f
02
09
ec
0b
31
cc
0f
06
06
ed
dd
19
24
53
ec
10
eb
2f
10
ee
e8
db
09
00
ce
f8
c3
29
ed
06
21
2d
08
e5
f9
d8
e5
f5
ff
d5
f3
04
eb
10
e7
09
12
fa
63
19
24
26
e1
90
10
c2
08
df
07
03
14
12
c9
03
0a
ff
11
e4
fe
1f
0e
08
ed
16
ef
2a
f0
fb
de
1a
f8
17
05
20
25
04
3d
29
ef
0d
dd
fa
e9
0e
cf
f9
08
f4
20
0f
fb
f7
1b
1e
da
1b
51
f1
20
d7
f2
ed
29
f5
17
fe
02
d9
d4
ed
ea
ec
fe
01
dd
04
eb
b1
01
3c
19
0a
3a
e8
fd
34
e3
e9
fc
2c
22
09
d5
e4
2d
f5
2d
16
fc
f3
19
bd
0c
12
0f
f1
f5
fc
ce
19
b5
b2
2a
81
18
de
02
c4
31
22
f8
ff
08
19
d6
f7
d8
0c
0c
07
1e
e9
3b
f6
07
d4
10
33
db
fe
56
e6
f4
5a
cd
f0
06
ef
01
b5
24
05
fd
04
04
e6
02
cc
32
18
aa
5a
38
ff
29
14
1b
4b
60
17
e7
fb
c4
de
df
f1
f0
54
0d
ff
10
e2
fc
26
0d
10
1d
be
5c
c2
fc
e3
f4
dd
e4
07
30
0d
d6
cf
cf
00
d5
db
0a
f4
f5
0f
e4
d0
01
f2
e0
04
ec
1d
30
e8
19
12
e4
0e
e3
da
fc
d4
e5
0f
18
dc
08
e3
ff
7d
0a
03
c2
1e
fe
e7
39
4b
c3
09
03
9e
ef
e8
fc
19
0b
df
10
fc
c3
27
bb
1a
04
f9
eb
de
de
17
1f
f2
bf
1d
1c
c3
0a
07
10
37
42
e5
0d
cc
bb
ce
fc
1c
f5
06
b5
db
28
f9
de
ee
02
2f
f5
08
18
2a
f0
04
b5
c0
39
32
4d
00
0e
fa
1d
25
cd
35
ab
fa
fb
07
bf
c7
d1
1f
fd
d1
0d
45
d3
08
da
f2
03
23
11
ff
3f
f2
f2
2e
3e
f1
e4
29
95
2b
c7
fc
0c
39
c8
08
ef
20
0a
ff
26
a7
04
dc
37
1f
f8
ea
ea
1a
0b
e0
fc
29
26
19
16
81
e0
b9
14
d2
e0
0a
fa
f3
d4
e9
0e
fe
a1
1e
c1
e8
3f
30
11
e4
d9
08
8f
31
ec
3d
f3
f9
17
c6
d8
17
0f
3b
b9
dc
f8
e8
10
03
cf
b3
22
db
bd
ed
5e
01
02
1c
20
16
dd
f1
0c
ee
d4
e3
04
1b
06
26
eb
f7
ea
07
19
e9
2e
26
0b
e7
f1
f5
b4
0b
29
f8
d0
dd
1c
03
07
0b
14
fe
01
13
e8
cd
0b
25
12
e7
10
05
fb
de
be
24
19
06
eb
d1
f1
ca
f7
06
f3
21
20
18
f4
29
32
ef
f4
11
09
28
25
32
f7
ea
09
b9
c2
15
06
e6
bf
09
d2
f0
de
da
ee
09
0b
03
f4
f1
81
0b
cf
e7
03
11
fd
10
ee
26
d0
ec
01
f8
07
cb
ed
f9
e8
0d
ec
e2
dd
02
e9
da
cf
1d
15
10
f4
fd
01
e3
fd
0e
e6
3a
eb
a3
f8
0d
37
b2
fa
e8
32
10
03
26
db
fc
0d
10
e0
ed
af
ea
5e
ea
05
2c
d2
01
f0
fc
df
37
9f
c1
f9
03
c4
0e
f3
e8
e7
c3
d9
1a
e5
cb
01
19
0b
0c
ff
08
af
e2
d0
e3
8f
f5
0d
1d
e2
df
b8
ff
ea
f5
f1
19
fc
d3
ee
f0
01
c9
09
f2
2e
0c
e9
98
f0
2d
f8
12
01
00
16
de
14
2c
b8
f5
0f
eb
d3
f7
46
b7
e3
24
f6
e0
29
04
22
02
f8
e9
f2
da
e1
00
ff
2e
fc
f6
f8
08
ec
f9
18
fd
1d
fd
1e
24
11
1c
bc
c4
2c
e9
05
4b
f3
c8
e8
0e
2d
ea
ba
51
05
41
0d
f0
b4
df
31
53
0b
eb
d3
27
c8
06
ff
1c
bd
b8
d8
fd
d8
36
16
02
2a
0d
c3
f5
0f
04
4b
f6
f5
e4
fb
a7
02
8c
3e
43
d1
e4
c4
f3
27
25
ef
f7
e1
f3
34
1e
37
c6
0c
d2
07
d6
19
db
3d
f8
ec
65
46
ee
e3
06
ff
02
02
be
6c
c0
0d
67
f1
e5
6c
02
32
11
d0
6e
97
12
2c
cb
2e
d2
ef
d1
fd
e1
de
0e
1d
e6
14
e3
10
41
ae
11
b2
01
f8
01
06
e6
34
a8
23
e9
24
f3
02
23
02
d5
39
c3
e7
42
e5
fb
92
50
05
0f
1a
f2
22
22
0f
ff
34
d5
13
f5
d5
ed
61
d1
02
02
b1
ca
5a
a6
e0
fb
e5
40
37
e1
19
33
3e
da
1d
2c
d0
d8
ed
c5
18
1c
dd
c3
e6
f2
04
4d
bb
34
1a
17
13
31
46
31
6a
0f
d6
cb
3e
cb
d2
e4
e9
10
18
bf
2a
f1
ed
e2
10
f7
1c
e7
f7
0c
0d
81
d9
f3
07
bf
e1
1e
e4
e9
31
67
46
1f
36
c5
dd
d7
e0
f7
4e
0c
dc
f7
b1
32
51
ef
f8
03
fb
2b
0b
f5
2e
d1
ec
f8
e1
2a
2b
ea
d4
56
2f
e2
e8
01
e9
11
f8
e3
0f
08
02
ed
2b
29
00
3d
e2
ca
e3
0e
18
fd
e6
fb
42
fb
07
f7
f6
37
13
23
e4
2b
f6
41
f9
07
3c
f6
fc
e6
df
ef
fd
15
f3
26
0a
fc
15
f2
d5
e7
3f
e2
07
23
03
18
f9
2a
fe
04
fc
1b
0e
2a
0b
14
0d
fd
df
07
17
ef
1a
19
f3
1a
13
22
ef
06
1f
2f
9d
da
05
fa
32
14
d6
f9
1a
07
1c
1b
00
e4
fe
06
24
cd
f2
ee
10
e0
08
f2
1f
cb
13
f6
e1
0c
fa
08
f9
d8
f5
ea
19
06
01
29
d9
e0
2a
d3
11
f7
1a
28
03
fa
2a
34
f5
ee
ec
0f
28
38
f8
1f
d3
0e
3e
0f
e4
eb
09
ff
db
b9
3b
fb
d3
f0
01
dd
fa
db
fc
ea
0b
27
20
0f
27
da
19
28
e2
ef
34
e3
16
e1
ed
ca
f9
25
2e
f7
26
0b
ff
26
ff
f2
f1
08
08
d6
ec
21
1a
81
d7
98
22
0e
d7
fe
11
fc
15
d4
0b
0f
d2
0d
28
09
11
ab
31
1c
09
ce
e4
fe
13
0e
1a
d9
f5
e6
02
fb
e5
1b
0b
0c
2a
24
28
e8
11
d8
1e
10
20
ce
08
eb
21
e1
d8
dd
3e
0a
eb
08
25
fe
16
22
fb
c9
23
c7
fe
f6
02
ca
d4
1e
e6
07
f0
08
cb
01
e6
e3
e7
f0
1d
07
26
e5
fd
29
21
dd
05
23
14
20
f2
f5
f6
05
ec
0d
f6
fd
e2
f1
11
fe
21
0b
ec
ea
c0
d5
f7
e7
f7
09
d4
39
13
fa
0e
e8
dc
dd
fa
13
1c
f8
fb
e7
d9
2a
f2
24
27
f6
f7
fd
f3
07
c3
07
1d
22
16
ec
38
28
0d
ee
ca
e4
0c
f6
1a
f4
2a
f7
01
e4
e2
05
fa
ff
f9
fd
e6
ca
ee
dc
41
ec
ee
1f
dd
e6
38
f1
f2
d5
09
11
16
ec
3c
be
26
db
09
02
02
2f
12
f1
fe
f4
43
20
e3
fe
06
1a
e4
d0
14
f8
1f
1d
f4
04
14
f0
01
f6
0f
d1
f2
03
d5
13
ff
26
33
2b
1b
06
f1
eb
1c
f0
08
fb
d2
e0
d9
f7
e5
06
15
f4
06
11
32
f6
f2
43
0b
14
ff
f9
33
fe
19
0b
c4
53
d9
3f
0b
81
fa
dd
cc
20
10
de
ea
08
12
0e
c7
fd
1d
0f
1a
0c
e2
11
fe
fe
34
d7
fc
18
f1
bb
fd
fc
eb
e6
fb
e9
00
e9
12
e7
16
db
f5
f8
0b
cf
10
fb
1d
14
f3
dc
09
dc
e9
ea
0e
2a
18
f6
34
e3
cb
e1
eb
1e
3f
18
d7
d8
05
43
ea
0a
df
d0
e3
2d
e0
22
df
32
9a
03
e3
d9
13
35
dc
06
04
0b
da
0a
fa
d8
65
c5
2e
e6
86
b7
15
e4
14
d8
26
10
db
cd
9f
f4
21
ee
e1
04
2c
19
06
3a
42
d1
10
d5
07
0b
e2
e1
f9
98
00
c7
00
20
bb
0f
f9
d6
0a
dd
e4
bc
f6
0a
01
bd
2e
5f
f7
16
32
0d
fa
f9
ed
c5
d1
02
b9
6d
45
13
bf
2e
02
d7
06
dc
e1
ca
e2
0a
f5
c2
27
cd
06
fa
31
fb
15
ee
d7
14
f3
2e
d4
e3
3d
10
12
c3
c8
04
f5
11
20
08
dc
6b
2f
ff
21
2e
eb
da
ba
01
23
0b
15
d0
bf
f7
0f
03
c4
0d
bc
04
4f
eb
fe
fd
15
99
f5
09
28
e1
50
1b
da
09
40
db
e1
3f
31
31
f3
04
b7
f5
ee
52
14
26
4d
e9
d0
2f
07
1b
2a
e9
ea
7f
c9
b5
07
32
fb
f6
fe
26
fa
dd
41
02
0a
22
c2
0d
fc
11
d9
02
fe
dc
1e
22
0a
ef
e4
e9
22
45
1e
c1
f6
07
f6
f0
fc
ce
37
f1
d9
11
1a
0e
00
f1
ee
1c
0f
18
fd
0d
f5
f3
e1
23
13
16
f6
ea
e2
e5
1e
fa
f3
11
01
fd
f9
ea
16
0c
fe
f1
1b
1b
12
f5
07
0c
04
13
06
f6
ef
00
fe
fc
fa
04
ed
01
f8
fd
e2
08
fa
1a
fe
f2
e8
f5
ed
18
f9
0b
00
de
16
12
d6
ef
f7
e4
0c
f7
00
03
f4
ed
d0
fc
f4
fa
03
06
0f
1f
f8
ff
e8
fd
00
10
17
f3
1d
f5
f8
06
fc
18
7f
03
01
e0
f8
e9
f3
f6
14
ea
ed
0f
0a
fd
02
eb
0e
f5
0f
ff
fa
20
f4
ed
11
04
fb
fd
ec
00
f4
f6
1c
21
f7
e7
04
08
10
15
fe
fc
ea
f8
e7
09
01
15
e8
03
02
07
e6
f2
0a
f3
11
fa
f5
02
f2
01
17
e2
23
35
05
14
f6
f5
f0
e5
03
f1
e8
f9
f1
05
fb
19
f0
fe
20
02
eb
ff
0a
06
12
e1
e8
26
03
f8
f9
f4
f9
0e
0e
f3
dc
fd
17
ff
09
f8
fa
00
08
17
fc
0e
f4
11
f3
00
eb
03
e3
15
0b
e1
08
d0
fa
f6
03
14
eb
ee
1a
08
0c
ff
fe
f8
17
f7
05
08
00
05
1a
e8
e8
fd
15
08
08
f0
23
e6
1c
0d
0b
06
05
14
1f
1f
f4
2e
0b
31
94
e1
24
49
1b
e6
fd
cf
2f
ee
de
f7
d4
0a
e5
df
17
30
de
d2
38
21
29
f9
05
ef
ea
43
3c
f7
7f
1c
e4
01
ed
1d
ed
d2
15
16
07
e3
ff
dc
29
e5
22
e0
da
da
e8
c6
26
03
1c
0e
c3
c3
14
a0
33
be
23
21
0f
24
f7
09
16
8b
18
46
f6
12
d9
22
11
26
3c
41
3a
f6
01
1e
f9
e7
cf
e0
00
d3
2a
ef
c9
28
0e
22
0e
de
db
0e
d9
f6
e8
d8
0c
06
d7
1d
3e
d5
37
21
f3
ea
ff
18
05
e7
3a
e2
f3
15
1d
18
37
e0
f1
06
24
bd
bd
f9
ea
15
47
13
e3
47
e1
11
f4
1c
0e
0b
3b
06
f0
da
f6
a1
ed
12
1c
08
cc
2d
16
05
e2
f4
c9
de
f7
cf
01
f0
0d
0a
a2
38
1d
fe
1e
0f
e3
f4
e1
2d
3f
fe
43
f8
f6
01
fb
e8
f9
0a
ba
fa
ba
cb
d4
2a
ba
1d
ee
fd
e1
32
ee
c1
29
e3
39
7d
01
0b
2e
dc
e4
e7
13
1b
f7
df
e3
33
d7
3a
fa
25
08
27
10
f8
d9
e8
34
3a
c8
f0
04
e2
d9
20
14
ee
ef
eb
ba
d3
58
19
28
e6
16
b2
d3
e1
0e
32
09
05
8f
cd
df
d2
ff
08
0e
27
0d
09
ce
d1
f6
cb
c1
cd
8d
d4
da
42
d6
0e
04
05
07
c0
3f
e5
1d
fd
22
d8
11
da
4e
12
2c
dd
2a
ef
7f
c8
0a
2a
af
15
00
fe
ee
00
21
2d
c4
fa
0b
20
06
32
ad
f2
2d
b8
fd
3a
e7
5d
08
1a
25
ef
ae
e4
0c
fa
75
16
4b
af
06
ef
39
62
a1
27
f1
c7
fa
ba
63
0a
0a
11
dd
d6
40
02
00
e7
07
62
e2
eb
fd
f3
d0
dd
eb
dc
1c
10
18
c5
ee
0d
16
01
21
f3
32
19
03
a5
e3
b6
fa
3e
ea
df
39
dc
ec
d0
d1
00
de
17
04
fa
fb
e0
c0
13
f8
f9
d3
f7
03
03
1a
28
b9
e7
b9
30
e6
ca
d4
cf
f5
f4
09
26
36
09
5a
d5
30
85
db
03
df
0e
bf
10
0a
1c
d6
fa
73
d9
b7
3a
16
dd
da
95
f4
10
e7
f6
2e
27
d9
2c
e4
e6
1a
01
f0
f7
38
7d
33
b1
14
1e
1c
da
ff
8d
f5
ee
57
f7
da
05
a1
11
5b
f6
ac
13
21
fb
cf
c6
29
fd
3c
4d
c9
0e
f3
fa
38
cf
1c
a6
b7
0e
9e
ed
e2
0d
ca
e3
1f
28
f5
1b
3a
31
28
0e
0d
ff
e1
24
09
13
cb
ef
c3
17
2c
ec
0d
cc
36
cc
f9
03
3d
08
21
f4
f3
c4
ef
20
13
04
d8
74
05
36
f5
3c
d5
f4
eb
3e
d8
06
0b
f2
bf
c6
e6
eb
1a
08
05
1e
bf
e0
1b
f1
ff
d6
3f
1e
e6
e8
ff
da
b7
f6
1a
ff
03
e8
0b
eb
4a
06
3b
d8
04
40
06
fd
29
ef
f9
f6
2c
f7
02
0b
0c
cc
02
f8
e3
f2
b0
fb
09
58
e7
e7
d9
0b
2e
08
fa
eb
46
ff
e3
14
fa
fe
0a
22
de
ca
ef
13
3c
18
01
b3
15
1a
27
04
ef
f7
16
06
20
30
e1
07
e9
f7
49
f5
d8
ea
b8
2b
24
01
fa
16
bb
dd
35
2b
09
36
e6
f1
b8
30
2b
01
d5
d2
47
09
e9
e0
de
7f
ec
0e
02
0b
f7
e4
ce
e6
41
f1
11
17
1a
d3
06
0a
fe
1b
01
e7
18
07
19
09
1f
07
3c
df
26
0e
f1
f7
03
ea
dc
f6
f8
a2
de
f7
21
ac
02
fb
de
76
14
94
f1
19
00
1a
d2
1c
b1
f7
ec
cc
d0
41
03
d8
1a
e9
f0
d6
19
27
fe
09
f6
ee
0c
c5
ec
4f
c0
0b
3d
1b
07
ff
1b
ed
19
15
e3
0f
1f
2d
e3
c8
f8
ee
f2
f7
0b
11
ee
03
fb
23
ff
28
ef
41
f2
fc
18
99
0d
ef
f3
2b
23
b0
e1
12
f5
fd
0a
f8
eb
e8
fb
15
2a
4a
0b
0f
21
09
0c
ee
de
f6
db
f7
f7
0e
12
e2
fc
3d
db
d3
12
1e
10
0f
1a
33
1a
23
1c
13
13
f5
01
bf
de
d6
f4
da
cc
29
e7
14
06
2b
1f
f7
12
e7
06
df
d9
0e
13
14
f1
0c
ff
0e
11
21
f9
23
f1
47
1d
39
20
38
d6
24
f1
e9
01
e2
04
0b
d6
0d
06
2e
03
e5
21
17
17
01
13
f1
24
f9
1d
05
09
f9
35
04
e3
fd
0d
7f
03
fd
05
f9
21
56
f2
d8
f3
03
15
e1
35
02
0e
ee
fa
15
3c
e0
fd
f8
dc
eb
f3
fa
15
fe
dd
4e
2a
1d
0b
0f
fb
4a
0f
d8
ee
f9
e1
cb
33
e7
ea
29
f9
f3
ef
03
eb
13
2f
02
c0
11
fc
e0
e3
14
d3
06
08
10
0d
e3
10
07
c9
15
ed
d8
25
30
e5
25
13
c8
d6
08
b8
ef
38
e4
d7
14
ec
dc
2e
1f
21
00
17
d7
09
e2
e0
f1
18
11
f0
02
04
17
e8
b3
0c
fa
1c
24
0a
14
55
01
dd
08
25
ed
e7
f3
d0
d7
58
18
03
df
fc
e2
e3
f9
f0
dc
e8
cc
49
1d
fd
ea
03
fe
06
d3
e6
ec
ec
ed
05
ee
eb
cb
d8
02
09
e5
d5
f9
08
ee
09
42
ef
df
1f
2d
fd
e1
04
06
e9
ed
04
0b
ed
e4
f2
0d
f2
10
2f
22
f4
17
29
32
5b
0c
29
14
f4
da
0c
dd
07
00
32
16
16
eb
ea
02
08
da
f8
10
de
05
03
cd
32
01
e1
e9
db
ed
38
ed
0b
31
ac
05
28
3b
cd
27
0a
fb
0b
13
08
d0
fa
ee
0a
e2
d8
2d
39
2d
20
22
db
27
27
27
ee
f3
17
02
18
26
e3
f9
1e
06
e1
da
fe
a8
ff
02
ff
16
2b
27
02
f5
33
f7
e3
01
f6
4d
35
9d
eb
ed
ef
1a
e2
55
ed
dd
dc
29
eb
1f
ee
f4
d6
d7
ff
24
e9
d4
0f
2a
32
0c
f3
dd
fc
0d
f5
fa
f7
e3
db
22
de
e1
52
e5
25
da
e7
10
c5
dd
39
04
ff
0b
f7
ee
f1
c6
01
0a
2f
1d
bc
16
d9
7f
24
fe
ea
20
d1
d5
05
e8
f3
1b
30
d7
34
fe
e0
3d
ca
e1
f0
1c
bc
12
44
04
13
17
dd
01
02
e9
1b
f2
2b
e0
dc
fd
ca
cd
fb
ee
d8
09
