2a
fb
17
07
04
f9
ee
e8
f5
1f
eb
0f
fa
f9
fc
f7
f9
0c
e8
f3
31
06
ec
02
24
03
f9
11
e9
07
00
01
1f
05
09
03
fa
02
13
e0
cd
09
12
d2
0b
17
11
e2
0f
06
1e
16
e6
f0
00
01
e7
e9
cd
f7
36
f6
ed
11
0f
05
f6
0d
0e
fc
eb
16
14
0a
df
dc
00
fc
fe
e8
01
03
ed
fd
ed
f5
09
00
07
01
28
13
01
08
f3
ee
f7
ed
08
08
fb
ee
05
eb
09
07
fd
27
fa
f7
0e
1a
e5
f9
0a
ec
e9
e8
01
fc
08
10
01
1f
0a
fb
ef
20
ff
0c
ec
f8
f7
1a
f5
1d
17
e1
f0
02
01
ec
01
f9
21
0d
e5
fd
0a
fd
f5
03
1e
fb
19
fc
1c
fe
06
08
09
f6
e5
fb
0a
0a
04
03
14
09
fd
1a
fd
f0
e6
ed
f9
f6
ec
f4
0f
ee
16
f9
f9
0f
e9
e1
f0
f8
0b
f7
fe
18
06
08
c8
fd
ed
f1
fe
0d
09
e8
1c
09
0a
0d
17
0b
0a
f4
fa
ec
1d
09
00
e1
db
e5
fc
f5
ea
f8
fc
0c
ff
f8
08
13
eb
ea
f5
eb
09
fa
19
f3
13
e2
f4
0d
22
08
f3
f5
f8
1b
f1
15
fc
04
ed
f1
e6
16
2e
fa
15
e2
19
d9
f2
0a
07
17
1a
14
ee
f9
0e
d7
f7
fd
f5
fa
f7
ed
fd
fe
01
06
1c
ee
eb
0b
03
0d
f9
fe
ea
01
fb
01
15
17
f0
f0
f2
06
22
05
fd
24
ed
ef
fa
f9
05
0e
f1
f2
1a
15
e6
e8
f6
05
ea
fe
f8
f8
ef
0d
e3
0c
11
00
02
fe
f4
f6
21
e6
f5
07
ff
f2
18
fc
de
0d
03
f3
e8
1a
f0
0f
00
eb
ec
fb
09
02
f8
cf
ef
e2
fb
fe
f4
fa
ff
1a
f9
20
ef
07
12
f2
f3
f1
06
f1
fc
f1
06
e3
e8
12
00
0f
02
fa
fa
11
08
0e
f4
f4
e6
df
0c
fb
f7
0d
ee
1d
f2
f6
01
11
2b
04
e2
07
f2
ed
ea
19
01
0f
09
04
0b
fa
0a
f6
f6
09
ef
f4
ff
f2
17
fd
ea
f8
0d
ff
1b
06
17
08
fa
ff
f0
ef
f4
14
04
01
d5
fd
fc
ec
fd
13
fd
ff
15
10
12
f9
08
ea
f6
03
fd
f4
e3
1e
ef
fd
0f
eb
06
f9
f0
1e
ef
16
f5
f2
f6
fd
14
1c
fb
0d
07
e3
ff
0a
05
04
ee
fe
e0
04
f6
06
e9
e4
00
13
05
fe
09
ed
ed
10
1f
eb
09
ec
01
f7
0c
fe
e9
fa
10
fd
e1
00
03
d7
0f
26
fa
fa
dd
0e
ff
10
fe
2b
10
1d
f2
09
12
fd
ff
00
fb
1c
ff
2a
0e
f7
05
16
e9
ef
02
e1
f8
fb
09
f1
f2
f7
03
f4
06
0c
08
16
fd
f9
e7
fe
e5
06
f8
db
ec
e6
ff
10
01
14
08
f9
18
08
07
f9
ec
f0
0c
ed
ed
ea
0b
1a
07
00
11
0a
21
fe
f7
11
1a
f9
f1
d4
0b
f7
0f
f5
f2
f7
e8
ed
f5
f0
ef
01
f5
f5
11
fa
10
fa
0a
04
ef
0f
03
10
fc
ef
0d
0b
f0
ec
00
01
03
fb
d7
0e
0f
fa
0b
15
01
e4
1b
f3
05
f0
09
1e
09
0d
01
d3
0b
07
0b
fc
0a
05
1e
ef
fe
e9
04
fe
e6
03
ec
07
20
ef
1f
01
01
ef
1d
0d
20
19
13
f7
0c
16
f6
ef
fc
12
e8
01
0a
f1
fb
17
03
f1
05
e2
06
07
f9
e6
0a
f0
e3
fa
fb
18
ff
0f
16
f3
18
07
e6
09
f2
e9
04
e2
08
05
23
11
ed
0a
03
fc
0d
06
03
f0
00
00
02
f9
dc
1f
0d
fc
fc
06
0f
07
c7
07
eb
ed
07
11
fd
01
1f
11
de
01
09
fe
f3
03
e9
f9
07
02
e8
10
fb
fe
f1
f5
ea
db
eb
fa
f1
0c
d4
0f
f0
04
f3
ed
ff
25
e6
03
12
e4
02
ff
f4
0f
fe
eb
f2
0a
03
f6
13
ec
f1
f1
07
0b
fa
06
fe
e1
1c
18
fb
10
dd
fa
fe
f0
1e
ed
17
ef
02
f2
f9
08
00
06
ed
f5
14
ef
e0
f7
f7
ec
19
10
21
f7
f9
fe
03
1b
d6
e5
14
10
fd
e4
15
17
f7
1a
14
06
00
13
03
22
e8
ea
db
ff
f5
f8
fc
03
eb
f4
09
15
01
19
09
f7
00
26
ef
08
19
08
09
06
f5
eb
03
0d
04
14
11
1e
fb
1c
05
ee
1a
0c
fe
16
13
fe
02
dd
06
09
ea
fa
02
f0
26
04
f4
ed
e9
f4
fd
e8
e9
fb
03
ee
ea
09
00
d3
18
fb
f4
00
07
f3
ed
d9
01
cc
fc
e7
f3
d7
10
15
17
0a
f5
fe
15
07
0d
0b
fa
e1
fa
03
11
23
ed
0f
dd
07
0d
f1
12
05
fa
02
ff
ee
06
01
f2
09
0a
d5
0e
03
01
ef
fc
de
06
07
06
00
fe
f1
0e
11
fb
e0
f3
0b
1b
e5
22
fe
1a
08
eb
f2
fa
f9
20
f8
f6
14
0d
21
ff
f6
1a
04
f7
f7
fc
09
f3
1c
08
09
e7
ef
ed
04
10
13
fe
fd
f8
07
02
12
0f
ec
1b
fa
08
f5
11
0f
13
e9
16
07
0b
07
0d
ec
0a
fc
f7
0c
ea
0d
fc
04
08
fc
17
1b
05
0f
ed
02
ff
22
06
0c
02
de
cd
08
0f
ed
d2
fd
02
04
31
fe
0c
f8
01
12
f1
0a
26
f3
01
ee
ed
0c
eb
06
f2
ff
e9
e8
0d
02
03
1f
ec
01
0c
fc
f5
ff
26
fc
0d
11
ec
e7
0c
09
15
08
03
fe
0e
c7
ee
0d
01
d5
fd
1d
03
10
fd
08
e1
ec
24
16
02
03
00
f7
04
f2
05
16
f6
f7
08
fb
f7
f2
e1
1a
fa
ec
09
e8
ff
f5
0b
fb
fe
1d
04
ef
df
f8
f5
f4
fb
2c
02
f2
11
f9
06
12
00
02
11
00
fe
fd
fd
f0
fb
f0
e6
f3
f4
e7
ee
f7
04
0c
1e
e8
fc
1b
e6
e0
eb
eb
fc
00
05
e1
01
0e
f4
f8
f4
ff
f4
0b
0e
01
0c
04
01
0a
04
02
19
eb
0e
0b
fc
f6
ec
00
f1
00
f2
05
fb
f1
0d
d3
0d
04
0f
02
f2
1f
10
0c
f7
e9
f2
f4
fe
0d
f9
f1
f6
01
f9
12
0e
fb
ff
02
f1
05
f8
05
04
09
fd
12
1a
ea
19
13
0b
ff
f1
ef
08
ef
19
f2
e6
e2
ea
f5
f0
ff
f6
f1
0b
10
fb
13
fa
10
df
e5
e9
04
f8
ee
1c
04
07
fe
f7
03
fb
ea
df
e8
10
23
11
0a
0f
f5
e2
04
f9
1b
f1
09
0e
ce
ed
e1
ff
06
0a
00
f7
01
15
f8
21
e7
0a
fc
f7
0b
f6
fe
07
ff
05
e5
04
0f
fc
d6
f1
e5
f3
f5
0a
22
f9
13
e9
f4
ea
1e
08
ed
e0
17
14
f4
fa
0f
f5
ee
f6
eb
04
fc
ed
09
fd
fa
f1
0d
ea
f0
ed
d2
f5
13
ed
fc
ff
fd
0a
dd
03
1e
06
fd
09
ed
f3
1f
14
0b
08
ee
f9
13
e5
0a
0f
2a
15
0c
f5
e6
12
f7
10
f6
15
0f
ed
fc
f8
09
02
f0
fb
f8
fb
f5
2a
f3
e8
dc
05
02
f7
08
ea
20
fd
f9
16
19
ff
fd
2d
fc
09
02
15
fc
fe
0c
14
f6
f5
ec
10
f0
f7
0c
e8
07
04
0d
fd
fe
0e
f3
f8
00
03
f2
ff
fd
f2
ed
08
13
ec
21
f6
27
03
ee
fa
04
f3
fb
f9
00
1b
f3
09
f9
fb
0a
fd
f5
e4
01
fe
f9
ed
07
fc
e5
e8
fb
07
f2
0b
ea
01
03
11
0b
c9
02
e5
00
fe
ef
16
fe
db
fb
d3
f8
19
f1
07
01
0e
f3
06
ef
f5
13
ef
00
e8
e4
fa
ec
1f
08
13
12
18
fb
0b
fd
5b
27
e8
09
1d
e9
e9
fc
03
10
ea
11
0f
05
e2
20
fe
21
01
06
27
f5
01
e5
16
0d
f8
0b
fa
fb
0c
df
05
16
ea
e6
e4
1d
03
17
e2
ee
e6
e8
e5
0e
0e
02
fb
fe
d9
ef
12
eb
21
1d
15
fc
1f
32
ff
25
df
0c
c4
d6
07
08
f6
fc
07
f2
12
19
1c
33
e9
1c
fe
f7
0e
48
09
f0
fa
19
0d
17
fb
d9
f6
1b
0c
f2
d7
fb
ee
13
16
f8
f5
fc
fc
fb
00
eb
f4
f9
00
00
0b
7f
fb
08
ee
de
ef
09
0a
16
db
00
01
fd
1c
fe
05
f1
03
f0
eb
ef
ee
0c
09
28
14
01
26
01
1e
11
fd
10
cd
fd
ef
f8
ed
eb
1a
27
59
e8
fb
01
d7
11
11
0e
21
09
e7
dc
fc
f3
0b
df
01
1f
fe
06
fa
10
32
16
04
06
fa
f0
0e
02
f9
ff
e9
5b
f4
ea
20
32
e8
ed
03
fe
f8
00
0a
0e
f6
31
13
1a
e3
d6
cf
fb
de
0d
16
ed
06
07
fc
03
20
fa
e7
f0
0c
07
04
ef
ec
f3
f5
e8
c5
f6
ea
19
ec
06
10
05
19
f0
2b
f1
ec
fe
0a
15
ff
08
0e
f9
f1
f3
f8
01
28
13
ee
0b
02
00
f1
f0
e1
0e
13
fa
e6
03
1b
dd
05
e2
ef
ef
f9
04
f1
02
0d
07
07
0c
05
f3
f0
17
ec
fe
09
08
1b
13
02
03
00
f0
f1
eb
fe
1f
eb
f7
e6
11
01
fc
09
fd
ff
03
ea
fd
f1
f8
1f
06
fc
ed
02
fa
f9
f2
e3
fa
1d
f7
10
09
0b
16
09
f2
f8
09
f8
e0
f3
ee
0b
0e
15
fc
e6
08
f0
12
14
04
ff
06
f0
f9
18
12
29
26
fd
f2
f4
1b
f5
f6
db
f3
f8
f0
1c
e0
00
0f
f6
f8
03
e7
1d
e9
ec
12
23
f2
0f
f3
0d
1f
fa
f9
ec
0f
18
df
06
05
01
02
f7
e7
06
f0
06
05
ef
02
ea
09
e5
00
fc
0a
ff
f9
00
1b
e3
f9
e6
0f
2a
ff
1e
0b
fc
fc
ea
08
07
e5
1f
fe
f1
1c
0e
fd
05
fa
ef
f0
05
2c
07
1f
fc
14
ee
e4
fe
ff
ef
11
00
fe
0c
fe
d2
ea
f7
08
01
2b
11
f8
0c
03
e2
dc
0e
16
03
0e
00
e4
27
16
e2
16
fa
f1
fb
06
ea
00
fe
ed
f1
ec
2b
f7
fd
08
0e
02
e9
0a
f4
ee
03
11
15
fd
f3
f7
21
f5
0c
fa
fc
fb
17
02
fe
ed
15
0c
f2
f7
f1
10
f4
ee
eb
07
fe
0f
03
dc
0e
18
df
f5
e1
f4
04
fa
fe
10
fa
0e
f6
df
ed
11
f4
e3
f1
f2
06
03
0c
01
1e
19
0e
f7
f7
00
f8
f0
0d
06
de
2c
f8
01
fd
f9
f9
f5
0b
15
ff
0c
0a
0e
fb
05
f7
f2
e4
13
10
0a
ec
ed
19
f9
0a
08
f8
1a
01
fb
14
08
07
0d
f1
fb
14
f6
ea
05
f0
f9
eb
f9
05
0a
fb
fa
10
fd
fd
f8
f4
f7
ea
11
03
09
0d
f2
01
03
f6
f3
0b
09
01
f3
0d
09
03
ff
eb
09
0f
0f
0c
0a
05
0c
fe
f6
14
09
fe
01
fd
f0
f7
0a
0a
f2
09
01
14
0b
fb
0c
0a
0c
09
09
10
07
e5
f4
fa
f2
fd
ea
10
19
0d
f9
fa
fb
09
f0
dd
01
f8
f2
fb
fd
12
11
13
19
1e
f3
f4
f0
fb
06
fa
f3
fc
09
16
0a
02
1b
f7
27
ff
13
ee
00
f3
f2
f5
05
02
f3
05
f4
01
fe
13
f5
0f
f7
f4
20
14
f7
11
11
f7
04
e9
0e
e6
fc
fd
f8
e8
df
21
fe
e3
f3
fb
03
eb
fc
08
08
19
f8
ec
f2
09
0e
f8
12
0f
10
0e
10
0a
f9
03
00
1b
23
f6
23
0a
12
03
03
f3
19
15
11
fa
0d
1a
e0
16
09
fb
f6
23
02
04
12
ec
eb
03
01
e5
e1
df
13
06
db
fd
1e
fe
d3
ec
00
e5
15
29
fa
04
ee
ed
06
14
35
f4
12
02
03
0b
05
27
30
0b
f7
0d
f8
1d
f8
0b
f8
ff
0a
fb
23
ef
ee
ec
f3
f6
ea
14
24
0b
0a
20
12
fe
ea
0e
00
ed
f7
03
fb
1a
f9
ff
0c
0d
f2
12
02
f0
0b
10
f2
0e
2b
fc
fc
1d
f0
e5
06
e6
f4
f3
f5
f5
f3
fe
0f
f6
d9
17
01
14
03
10
19
14
e6
f1
05
f4
f0
0e
f6
18
16
f2
01
20
d3
15
ff
01
07
f3
18
fa
e2
f7
07
fa
0a
dc
06
0d
09
e7
0d
e5
e6
e5
fa
e0
01
f5
f7
05
06
fe
f6
05
0d
f5
04
ef
10
fd
ed
ec
1d
de
2a
00
08
09
16
1e
02
f4
fe
02
ed
07
fd
e9
ee
f2
eb
0c
f4
0c
13
09
1b
f3
27
f8
f2
14
e8
e6
01
ff
eb
24
15
fe
08
01
f0
f1
07
11
fd
0c
e3
e0
0f
e3
dd
02
fb
06
08
07
f3
01
f0
fd
06
0b
e9
1f
06
dd
fe
fc
27
f0
0a
0b
f1
0f
e9
fc
0d
15
df
0a
e4
f5
fe
ed
07
f5
e7
0c
f7
01
fb
02
02
06
08
f2
f0
08
fe
f8
01
08
f5
fe
17
10
03
00
ff
da
ed
11
f2
0a
f7
f4
f9
02
f4
04
18
f8
f6
0b
0c
15
0a
e5
f2
11
0d
f5
fe
0a
00
04
f3
06
fd
10
ec
00
f5
05
fb
11
e1
f3
0c
e8
12
f2
07
fd
04
07
00
fd
11
f4
f4
fa
f0
0b
ec
fb
ff
08
08
01
13
0b
0e
f3
02
f5
f3
0b
f5
27
f1
2d
20
14
14
06
fa
f9
11
f0
fa
03
f8
fb
f5
03
ff
0d
fe
d8
ff
03
fd
f2
14
0e
0a
fb
f7
f5
11
05
0c
f3
ff
08
06
06
fc
e4
04
12
03
ef
eb
14
f0
26
f7
fe
02
fd
0f
fb
fc
fc
fe
ff
06
09
00
20
ee
ed
18
e8
01
16
e9
09
f8
0d
19
ff
0d
01
f9
fe
ed
f6
e7
ef
ed
d3
01
fd
e2
f6
f4
e7
f7
04
20
12
fc
0d
11
e0
f1
dc
f1
f5
11
fa
de
fb
e9
ea
f9
2e
fb
f2
20
05
03
03
15
f6
fc
fe
0a
05
ef
ee
0e
1d
fc
d6
f2
0d
02
07
fa
04
14
e6
ed
f7
f4
fd
fe
fa
f2
f5
fb
f5
07
06
fa
08
fe
f7
fc
0e
13
10
05
01
06
ff
03
0f
db
2e
17
f6
fb
fe
0a
ec
ef
07
f8
17
1d
16
10
03
0f
05
07
07
ef
e4
04
05
fb
0c
fa
00
16
11
f9
f7
09
18
f3
01
ff
ec
fb
1f
12
12
02
09
0b
fd
07
e5
e8
0b
05
ef
1a
0e
f4
f0
dd
1b
01
08
14
ff
ef
f8
09
f7
f1
01
07
fd
e3
f8
f2
f9
17
0c
07
0c
f5
fa
17
06
fa
05
05
e8
fa
0c
0d
fb
f0
00
f9
f0
0f
fc
f3
13
0d
fd
0c
f5
f3
fd
fc
e9
f7
e3
fb
ec
07
12
df
fe
e3
e7
25
15
f9
17
08
de
f7
07
fa
06
13
ff
20
0b
fa
0b
e5
ed
e9
f9
11
0c
0f
fc
0a
f5
03
1f
f6
ee
f3
00
f4
e6
0f
07
ff
f4
fe
e9
11
01
ef
15
fb
f3
f8
fc
0e
f3
17
ec
09
05
f0
1a
16
f5
03
f7
ec
06
f5
02
12
f7
00
07
07
fc
2c
f5
11
e2
eb
f4
fd
fa
01
14
fb
f5
00
f5
ed
12
16
f4
f1
ed
05
08
f3
f3
1a
0b
ec
09
20
03
f0
25
f0
f7
f6
fe
fe
06
e1
e3
fe
f0
e2
f9
f2
f2
3a
f1
f0
1f
e8
f7
f5
16
fe
f5
02
20
13
f5
f6
ff
10
df
f5
fb
06
f3
0a
ec
05
13
f0
d5
fe
e1
fb
00
f1
ee
04
eb
e9
2a
fc
02
0b
02
f4
23
ef
f1
1e
0f
19
f0
ec
e3
09
06
f8
fd
00
f7
eb
e1
04
0c
01
e7
05
f4
f3
ff
21
02
03
f7
19
fe
db
04
f1
ed
18
f3
07
fe
fe
00
e7
09
0c
ee
07
ee
0e
12
fd
02
f1
f4
ec
01
ed
f8
f5
06
f5
01
f4
03
e7
06
10
02
03
eb
07
18
fb
06
0f
f8
16
1c
16
05
1c
ea
f2
10
28
0d
ff
e2
15
f9
0a
fb
21
fe
05
02
19
05
06
f9
05
f3
f7
e9
fa
03
07
fd
f0
06
21
f4
01
fc
04
02
fd
f2
fa
f7
08
f8
00
04
fc
f3
e6
fd
f7
f4
f0
e4
eb
0c
fc
01
fa
f9
f5
00
f6
0e
15
04
21
e8
03
08
06
f6
0a
f9
e5
07
d9
13
f4
14
02
03
fa
f6
e6
04
09
ec
08
28
f6
0c
15
10
0c
e1
f2
00
03
f0
0d
eb
fa
fe
13
ea
fa
0b
14
0c
06
fa
00
fd
32
05
0b
e9
04
ea
01
f4
07
0d
11
15
04
14
13
f5
eb
1b
07
f4
16
fd
13
06
2a
03
0e
fa
02
f7
fb
10
08
e8
24
fc
da
11
e5
fb
ed
f9
ff
fd
d3
f0
07
04
0c
0b
0a
e3
10
ef
eb
fc
0f
16
07
f7
f7
e6
fa
11
e2
09
0d
08
04
20
09
02
04
0e
08
ee
e9
06
cf
14
ef
f4
e9
0f
f6
12
fb
e5
f2
09
13
fa
06
23
24
fd
09
d5
01
f6
f3
ed
05
ea
14
08
fd
06
17
25
f2
f8
f4
02
08
17
02
03
0c
12
0e
1c
ed
2b
ea
23
13
0f
f8
d9
09
09
0c
f9
09
04
24
18
ef
00
0d
e9
f8
ee
fb
ea
21
1a
1b
ea
fc
0c
fb
0c
07
f3
ff
0a
07
06
f7
0a
08
fb
d6
0a
f8
fe
f9
00
ff
03
fd
fe
e5
0b
ef
fb
12
f6
01
1e
02
04
fe
f5
23
0a
e4
06
f3
e6
30
e4
10
f7
fa
09
e0
e1
05
ee
0c
fb
fb
03
e8
16
10
fa
f3
06
f3
0a
1d
fe
12
21
ee
0d
fd
fb
e9
21
fe
fe
05
2a
eb
10
fa
12
e9
12
ec
fb
08
f4
13
16
e6
08
0e
f7
07
21
eb
f9
02
fd
07
20
00
05
f0
f4
15
1b
fb
0c
fc
fb
0a
f6
20
f5
02
ec
fc
f7
eb
d5
fa
df
fc
1a
d2
e3
fd
f6
08
04
f2
f9
06
1a
ee
17
09
da
ee
f8
01
f1
03
1e
13
f7
12
06
23
0a
db
02
0d
f5
f5
23
0b
20
f0
f5
02
ff
04
05
fc
f3
02
f1
e0
f1
ff
27
11
f5
02
0a
f1
f2
e3
f5
e7
f9
fb
fb
07
0a
16
00
04
10
01
ec
f8
f5
15
0d
18
ee
ee
2d
07
fe
00
fb
f6
fc
0a
06
12
13
0b
00
ff
ef
e5
14
05
df
e2
01
01
ec
fe
fe
fa
ff
f2
06
f2
f1
e9
f7
07
f9
0b
0e
02
10
f2
03
0f
0d
08
dc
fa
f1
07
eb
07
02
05
0e
1f
f3
10
09
04
0b
1e
12
f3
fa
ef
ef
00
07
06
0f
f5
18
f9
e1
00
e5
fc
f7
e9
f5
fd
12
1d
e9
07
1c
0d
00
ea
f0
f9
f4
fa
03
01
1d
10
f1
e2
f1
f1
fe
02
f0
e6
0a
15
fa
e2
fa
ed
f6
db
07
f1
04
00
ed
05
05
03
f5
03
e6
0a
09
10
1d
f2
01
f2
0a
06
0b
f9
ee
f8
f8
17
f6
fd
05
fa
0d
f4
13
20
0a
f4
05
fd
e8
e9
0c
fd
0b
27
0d
ed
0f
08
e2
e6
f3
f6
0b
02
ef
12
0e
06
12
19
2e
0a
0c
ed
01
d9
ff
f0
03
03
0d
07
db
0c
f7
fb
00
f5
ff
f5
f7
f0
f1
07
03
ec
16
f8
f0
ff
f2
cf
ed
fc
1b
16
fb
0e
f7
20
f5
fc
e0
f6
f8
ff
e6
05
16
06
ff
0f
0a
f4
02
f0
02
ed
df
f3
02
14
06
e8
f9
e2
0e
f1
fe
09
db
07
f4
ef
04
fa
00
13
dc
0b
08
ea
11
15
e5
f9
15
e4
da
37
0c
21
15
0e
e9
0e
13
12
f0
0d
01
04
fc
06
fa
f0
11
02
17
11
0a
02
f0
1b
0c
22
1a
e3
fe
f3
f4
00
05
fa
14
f1
fc
03
f6
18
04
09
05
ff
f3
f2
1f
0e
f0
e7
fe
1c
e6
14
09
24
05
06
03
0c
ff
f5
f3
09
f7
04
0f
00
f6
0a
fd
09
ed
fa
f8
05
0f
02
18
ef
f6
07
19
0b
0c
0d
04
e0
15
0d
fd
f1
eb
0e
15
fb
3c
e5
f8
e7
eb
e7
1b
ea
19
06
04
03
d4
ec
08
1a
fc
0f
09
0d
40
02
ff
fc
0f
fa
e5
e0
0c
01
1c
fe
ef
11
16
ec
f2
0a
0f
17
f4
26
29
f4
cf
fc
05
3b
13
fa
fc
d9
12
03
fa
f8
13
ff
fe
05
fe
f5
fc
06
22
05
ed
e8
01
e4
02
2b
f0
04
13
fe
0c
1f
05
f9
ed
ef
04
f9
02
06
0a
08
ee
e6
00
f8
fe
0b
20
02
f4
f4
f5
05
de
fe
f0
ec
07
09
03
10
03
f3
e6
09
08
f6
00
de
01
fa
12
ed
10
08
e4
f8
00
09
07
f4
fe
fb
14
14
e2
0d
0a
07
f5
dc
dc
14
04
0c
fe
fa
e3
e8
0c
09
e2
f3
f6
17
1a
0a
ea
09
de
fd
0f
f5
1a
ea
f6
05
0d
fa
ff
f1
f1
20
0d
15
fa
15
fe
07
fd
fc
0b
fd
f2
ef
00
e7
16
05
f0
17
03
08
f9
fe
f2
0c
f2
f9
08
0a
08
02
14
f3
e0
02
ec
0a
ff
f3
1c
17
0b
01
0c
15
10
1d
00
01
fb
e8
fe
fb
fa
02
ef
13
03
f8
17
f3
0e
f3
0b
0a
0d
0f
19
16
fa
00
01
1a
1d
00
14
ff
0e
f9
05
ec
f1
03
f9
01
f2
f1
ea
f6
18
f3
fb
f7
e0
0a
03
0d
e7
fb
07
04
f7
11
01
01
13
f0
1a
fd
04
ed
de
06
02
eb
f8
ff
0a
dc
00
01
fa
03
02
19
fb
1e
ec
fb
15
de
ef
f6
fd
fc
e8
09
06
00
04
0b
fa
08
0f
fa
0c
ef
0f
06
07
0d
09
04
22
ed
ec
f6
df
ef
03
06
ec
ee
06
0b
13
f6
f2
01
eb
11
fd
09
01
21
10
f1
07
ee
1a
02
01
07
f9
f3
f4
02
0a
1b
ef
f0
06
09
17
00
fb
2a
fc
02
01
f5
0a
1c
fc
00
0a
07
0f
ee
df
10
07
f1
ec
ef
0c
07
02
20
06
ee
ff
0a
d4
08
04
08
04
f1
26
0a
06
eb
e9
00
04
f9
fe
12
e6
20
f5
e7
09
db
f9
ee
f6
e6
f2
02
02
08
10
15
14
00
fc
f5
ea
09
f5
f8
ec
0d
15
09
ed
0d
e7
ee
f6
eb
ff
01
df
fc
f0
13
fa
f7
e5
f7
18
f5
0c
ed
dd
f6
f2
00
1b
0d
ff
07
fc
08
df
ea
eb
07
10
ef
d4
e8
0f
00
e8
ee
ef
fe
0e
07
0c
1c
0b
01
fe
fb
f2
07
f8
f5
13
e8
0b
f4
13
fb
ee
f7
e0
0a
f1
f5
f6
09
f9
e0
e9
f5
f5
07
f2
f5
04
ed
08
e6
09
0e
0b
f8
ec
f7
f4
e7
0f
fd
da
e6
16
f8
03
f0
0e
fd
fb
d8
00
f4
f4
01
f5
0e
e5
f5
27
fe
fa
07
f9
eb
fe
21
eb
f7
de
ff
fe
e9
11
f5
2e
f1
0e
db
00
f7
f0
da
10
f7
f7
fe
e4
e5
fa
15
e8
fa
f0
eb
fc
04
10
03
f8
d9
ff
01
0b
f7
fe
17
18
11
e2
18
1d
fd
0f
06
1c
0f
0f
0c
00
0a
ef
07
dd
0b
fc
fb
0e
f9
fe
0e
f5
f9
01
21
ff
fb
e5
f9
08
0f
14
08
03
08
10
f7
10
ee
17
f7
02
e8
d1
fa
12
ed
02
09
df
17
00
e3
00
fc
0a
f1
08
fc
02
eb
0e
e5
1d
09
0b
09
0f
0c
f8
10
fa
f8
0d
00
e6
19
0f
19
fe
01
09
fd
0d
11
fd
09
08
f8
eb
02
1b
07
f3
0a
0b
eb
f6
0c
f9
f6
fd
f9
15
17
fe
f6
f6
fa
ff
fd
13
fe
f2
10
fe
ee
06
ff
00
0e
f5
0d
03
0d
12
f4
d0
1f
f3
04
e3
0f
f6
1e
10
00
0d
ea
1d
05
ea
f4
f9
e3
10
00
1f
f2
f2
07
10
ff
f3
0c
fc
ec
fc
01
f4
e8
f9
0d
0b
04
00
08
04
00
01
09
21
11
f3
f6
fa
11
f3
fe
11
07
11
0f
e4
d9
08
fb
f3
fa
03
fa
09
fb
fd
fa
1c
0f
e7
09
fe
1f
ed
f6
fc
f5
ee
ce
fd
09
f5
0b
f8
fd
f9
f1
e8
f8
01
f7
0d
1c
0c
22
f6
14
e4
02
0b
02
13
fc
ec
0c
ef
ea
01
ea
f3
f8
f9
20
13
16
d2
fa
17
07
fa
0f
03
05
ff
07
06
07
e9
08
e0
f3
ec
10
05
ff
02
f1
ed
09
e7
eb
0a
e0
08
04
fa
0a
fb
0f
01
04
f9
fd
10
10
f7
0c
e4
05
08
fd
ea
06
f1
e4
13
fa
fb
10
fa
df
13
02
06
00
00
0e
22
12
1e
b9
05
16
fb
fa
ff
23
f5
f5
f5
0a
ef
0f
18
08
de
e7
e1
0c
0b
e2
f1
fb
e5
ee
fc
fb
f2
f3
0a
f8
e7
f7
d7
ee
f2
fb
20
ee
10
f5
05
02
00
f6
f7
0d
17
e7
ef
0c
fb
fb
fb
e9
fa
0b
fd
fc
07
f9
f8
08
10
04
11
03
13
fc
fb
07
f3
e1
0a
0d
0e
0c
eb
f5
f2
ec
05
09
de
ea
f2
df
ee
fb
09
e4
03
f1
c1
f6
00
f3
fd
06
01
05
e5
20
13
14
03
0c
e4
e3
fe
1b
f5
f8
f2
08
cf
0b
f0
03
f3
ee
fc
08
e6
33
e5
0a
09
1d
07
e9
f5
f5
0b
09
1b
08
03
f3
0c
fa
fa
f1
fe
02
01
14
15
d7
fb
f7
fb
0f
00
ed
0d
ed
f8
0e
06
ef
ea
0a
f7
07
05
0f
dc
0b
06
04
fa
fb
f9
1b
f9
03
ef
ed
f9
fb
27
f2
f3
de
e5
f4
0c
10
e7
f4
fd
fc
15
cf
d5
0a
ee
f2
05
04
12
20
16
04
f3
e9
f2
00
0a
fa
0b
1e
f7
ec
1b
fc
f1
24
00
06
e4
f4
0e
29
0b
ed
02
12
01
f6
11
07
04
f1
0e
ee
06
07
f8
1c
fc
f9
fe
12
08
16
ec
e4
08
eb
ff
f8
ed
0b
f5
f8
ed
d1
13
01
fc
f1
0b
f1
06
ed
0f
e6
21
f6
2f
04
0c
fd
e9
f3
14
02
e7
1b
02
15
e3
16
06
03
08
13
ef
f1
f9
06
07
17
f7
f5
04
fa
f3
f8
f3
f9
0e
08
ee
05
eb
fa
e6
f7
0d
f0
1b
01
03
f3
f9
fe
0e
04
11
ff
eb
15
01
d4
1a
13
08
11
0a
ea
f7
fd
ee
14
f6
f5
1e
ff
ec
00
f6
0e
fe
d8
18
f1
cf
08
f1
f7
ea
d9
07
18
fc
04
e9
ea
d8
df
10
f8
ef
02
0f
f6
16
0d
1c
f8
ef
f4
04
ec
10
07
0c
fd
ed
fd
28
20
fa
ff
f0
f3
1e
ea
12
f8
0b
fe
08
0b
fe
02
ff
fc
f5
0b
00
ec
ed
ec
fe
1b
fa
fe
fd
0f
f6
db
fc
08
fe
0a
e6
fa
03
ed
fd
f7
ee
11
eb
e2
f5
15
e7
14
05
fa
1d
ee
fb
1a
f1
d9
02
e0
ff
00
02
00
fd
f4
2c
14
fe
12
0d
01
0e
10
e2
06
de
f5
f6
fa
f7
0b
00
02
f8
f6
f8
ef
ee
1a
07
f9
fc
14
11
0c
f6
09
e7
04
f7
e6
0e
fe
24
ef
00
0c
23
11
15
d9
10
01
0d
27
eb
fc
e0
e8
e4
0e
07
f5
eb
10
f3
f0
d9
d5
f8
e6
f9
05
04
01
f7
ea
f9
f4
23
0f
02
13
07
2f
e9
fd
ed
09
06
06
f3
01
21
e6
13
f7
13
fb
01
1c
0a
00
07
0d
1f
02
01
09
f0
ef
1f
f3
02
fb
f4
08
f1
fd
fb
e9
04
e9
1c
06
e3
13
f8
f9
00
07
00
ec
ff
f6
11
0e
04
1e
f3
0e
02
14
f4
0e
f6
03
df
f9
fc
f5
00
0a
04
06
1f
1e
dd
fa
1a
0a
ea
08
18
f9
eb
18
02
f9
04
f1
f5
0d
e4
0f
cf
f6
29
f7
32
14
ee
fc
e6
12
10
06
05
dd
07
0c
15
18
e4
fc
02
fd
ff
fc
06
02
00
0f
e1
fe
02
fd
0c
f6
f3
f5
06
f3
02
13
09
1e
11
0d
f1
05
0d
0a
ef
11
f0
18
1b
1c
0f
00
15
03
fe
e4
0f
01
14
fd
e8
00
20
fb
04
06
e2
30
03
e6
09
f5
f8
02
ed
f6
f8
05
f3
1d
f8
10
0d
e7
08
e6
fa
fc
22
fb
fa
05
03
ca
f5
f0
17
ee
f5
07
f7
02
16
0c
0a
06
fe
f9
11
03
ff
f0
f5
0f
f1
f6
f4
0b
0b
e9
08
dc
03
0c
e9
0b
ed
fe
f6
10
eb
0d
ed
05
f5
0a
fc
f2
f3
07
ec
ec
ff
07
1e
1a
01
f7
e7
ff
f8
fe
fe
0f
00
03
f3
00
e7
e6
f1
08
f2
fd
e7
fa
e7
15
0b
fa
fb
0b
08
0c
f1
01
17
d2
0b
fd
04
05
08
f3
05
fd
18
fc
e5
1e
19
d5
09
da
fc
01
f5
0b
ee
fb
17
fc
f2
1e
f1
06
06
15
09
eb
09
ef
18
1b
dd
14
f1
f0
ff
20
2d
f6
03
09
fa
09
17
fb
04
19
14
07
ef
17
f8
e9
f0
15
19
ed
f0
fc
04
ef
09
fa
ff
eb
ee
ea
2a
12
12
18
ef
ff
f4
01
0a
04
0e
0e
06
fe
f8
ea
e9
1d
f8
db
06
e9
0a
0b
ea
2f
0a
fd
0f
0d
12
07
12
09
0c
fd
09
f7
26
0d
fb
08
f2
25
22
fb
03
18
19
f5
ff
f8
0e
07
e5
02
fb
00
d2
f0
f7
fc
14
11
f4
06
0c
11
1c
11
0e
fb
21
03
04
fc
f4
1d
e9
f8
16
f1
ea
ff
0e
f6
fa
1e
12
07
11
f1
11
02
ea
05
0a
0e
0f
fc
d5
19
f8
0e
00
f6
0d
f9
17
16
04
ff
15
09
f1
14
17
11
d9
02
04
eb
fa
f2
df
ed
ef
e5
e7
00
0d
01
dc
0b
f7
08
15
fb
e4
07
f9
0c
18
11
fa
f1
e5
fc
f3
ee
19
08
28
01
07
1c
f5
1b
e8
0e
09
01
15
f9
f7
24
fc
e9
12
00
f8
1e
04
01
ed
07
f1
19
1a
f0
05
ef
fe
00
00
0d
f0
fa
27
0c
d6
f6
f8
0c
f4
1b
17
f5
f9
f7
00
f6
00
f5
11
fe
10
ff
03
0f
11
13
01
11
00
f2
f4
11
f8
17
fc
1d
07
e9
f7
0b
f8
f9
f3
df
19
02
fa
1a
02
f6
fe
dd
30
e9
ec
0c
fa
f3
d9
f1
fc
f8
18
ec
fc
eb
1b
e7
03
f3
18
f5
18
0a
15
08
fa
36
dc
0e
0a
1c
f0
06
de
0b
eb
01
ef
00
09
17
f7
f4
00
f9
f7
10
04
fc
06
f7
02
1b
0f
fd
06
01
fa
fa
ff
f1
08
ef
15
1c
f8
04
f8
f9
f9
25
f4
0b
06
f5
00
dd
0b
04
00
f9
f1
09
ec
ee
20
f4
f4
e8
03
0b
00
f5
21
0c
fd
ea
1b
17
1b
01
fb
02
09
d1
f3
f4
06
e8
05
fc
08
da
0f
0c
14
24
18
f3
13
07
e4
f0
ed
df
f5
f5
07
cf
02
f1
02
1e
ff
0e
ed
05
25
12
fe
ff
fe
07
f6
ee
0e
0e
04
fe
f8
09
ee
ff
f8
fc
dd
0a
fd
11
f4
f9
01
0a
07
14
fd
11
20
10
05
0b
f2
01
fb
36
0b
1d
f1
03
fe
ff
f7
11
f7
04
01
02
ef
f8
07
fb
12
fa
f1
fa
22
01
14
d9
ff
19
0b
f5
22
06
09
f0
f9
03
f0
0e
0e
f2
2a
09
f8
eb
f9
03
12
01
0b
ee
02
12
ed
14
03
01
07
f8
f2
ff
03
e5
04
02
00
d8
0a
f5
fe
05
12
fa
ea
2f
e9
12
ea
e0
fa
eb
04
dc
02
f7
0c
fa
f7
f1
24
01
19
15
d0
0b
ff
df
f3
e0
fa
e8
e4
0c
f8
09
f8
fb
12
ff
e6
02
f1
e4
fa
0d
05
0e
24
04
08
05
f9
f2
1a
07
1a
f4
f6
e2
fa
08
0b
0a
ef
ed
13
f7
27
ec
1d
e2
ef
fa
f5
f7
ea
fa
f3
08
fb
0b
f9
09
f7
fb
fd
06
0b
16
f0
13
09
fb
05
f7
0c
ed
ee
fa
1c
ef
09
08
f7
10
19
fb
d9
00
0f
01
00
eb
f7
e3
f1
d8
02
ff
17
09
02
e3
04
0f
05
06
e2
16
08
de
16
06
15
f4
15
06
06
1c
ea
ee
f1
01
ff
f4
02
fa
fb
ee
f7
f7
00
06
fb
00
00
ed
04
0d
ff
0a
08
0e
fa
f7
0a
06
09
ea
0f
fb
1c
fb
e6
da
f0
08
eb
dc
05
dc
f9
15
26
fd
29
10
fa
fd
18
09
f3
fb
23
f6
f4
12
0b
12
1c
eb
12
fe
f9
f0
10
00
ef
f7
ff
03
07
e7
08
f8
ff
18
07
f3
f5
04
1a
01
ff
0f
eb
00
f2
ea
06
06
e9
0e
f2
ee
fa
02
01
f6
f2
fb
0d
09
0a
fb
08
02
f2
19
f4
19
e5
f9
fc
01
12
f6
ee
f1
fe
ff
ef
04
e6
0f
f9
fd
02
fe
04
f0
02
15
05
04
18
fd
fe
fb
eb
1c
01
17
df
f1
04
17
04
0a
1b
0c
f9
ed
fb
02
0d
04
e7
0b
f5
0b
e3
12
02
dc
ea
fa
0a
0b
19
15
0f
f6
ef
ec
02
17
df
f4
f5
ea
fd
ff
0e
e6
01
1d
20
01
17
eb
fb
ff
f6
04
03
04
08
09
1e
36
fa
10
06
f6
fe
fb
d9
05
de
f6
02
07
fd
ee
f4
07
f7
ef
0f
47
f4
00
07
fe
0e
0d
00
0c
0d
f7
00
02
2f
0a
f1
f6
07
fd
0c
2e
0d
e7
01
0a
eb
fb
13
de
1f
ea
08
0c
28
f9
05
07
ed
f6
f3
f4
f9
e9
f5
04
0c
12
07
eb
0f
fe
ff
e1
f0
23
0c
ef
fb
f9
ff
0e
e7
0c
f5
13
06
06
ea
1c
e9
11
ec
fb
06
fe
ed
0b
03
05
e6
fb
03
13
0f
02
06
05
f3
1c
fa
e7
ef
2d
ff
ed
f1
13
06
f0
0a
fb
fb
10
fc
06
03
01
e3
fb
02
01
0f
f7
08
e4
11
03
09
06
ea
04
08
ee
db
0e
e5
ef
f8
0d
00
eb
2e
f6
11
f4
00
ff
04
14
fd
27
0d
10
08
07
00
14
f3
e6
f9
fb
e7
00
22
fc
fd
fa
12
26
0a
05
e4
ff
0d
eb
02
f3
ef
ee
f7
fd
01
e3
00
fc
0b
0a
03
fa
f3
1d
0b
0c
21
12
17
1b
f3
f9
ff
1e
18
fd
18
ed
ff
06
10
09
08
07
df
09
1c
1b
00
fc
11
f8
f7
f4
15
ff
22
0f
ef
23
df
00
11
f7
fd
dc
eb
02
e2
fe
f7
f7
0e
0f
f4
1b
08
f4
fc
1d
0d
f4
fc
0f
fb
19
23
05
f6
0b
e6
1b
f7
f3
e5
f8
07
f8
f2
04
f4
13
f5
03
f2
f9
0a
f6
f5
0c
03
e2
13
0c
f8
14
d4
f0
1a
f0
fd
f5
00
df
11
13
02
ea
ef
ff
f5
03
1b
05
ff
03
0e
26
0e
0c
fc
f9
f4
fd
09
10
e6
0a
0c
02
ed
f5
0e
06
0f
f7
eb
16
14
07
01
ff
ef
06
06
f6
14
04
e9
09
06
03
d9
f7
02
17
eb
eb
0f
00
fd
05
e9
f7
13
0a
fa
fe
15
01
20
f9
13
0c
f2
dc
00
e4
06
eb
f7
10
12
d1
08
fb
fd
18
ff
14
14
15
fb
ff
fe
fa
05
fe
08
f0
da
f2
13
da
09
15
0c
0b
08
0a
ff
1c
22
ff
ee
05
1e
eb
04
00
e1
09
f7
10
10
ef
fc
0f
ed
19
17
00
07
0d
07
08
05
06
ee
f0
0d
ed
0f
10
f3
14
fc
09
16
d1
f8
ff
f9
08
f9
0b
27
12
f6
01
0f
0a
2e
15
f6
09
f2
01
fc
21
03
de
20
fb
14
df
ef
02
ff
05
02
ee
e5
06
fc
f1
f7
09
05
f7
f7
0b
05
0a
0f
0e
00
f3
f0
0b
15
0c
ff
02
f5
f4
2e
ef
f3
02
ee
fb
14
12
de
ff
ff
ec
e8
13
e0
12
eb
01
ff
0e
ef
f8
07
fa
0a
20
01
f6
06
02
f7
f5
e4
e4
00
02
d4
fa
03
1f
19
f9
fe
05
06
0a
00
f3
f0
1a
0d
e0
0e
e1
0f
ed
04
ee
fc
11
ff
16
12
f4
eb
03
ec
f5
0a
e5
13
f8
19
05
14
e6
05
f4
fb
09
04
f9
19
ec
ee
e3
1a
e6
07
16
fb
f5
e1
fc
f5
f9
f8
e6
0c
f3
16
02
f2
ec
1d
0f
f3
0d
18
fa
f2
04
f9
06
f9
ea
00
18
f6
f9
f2
09
14
08
f1
e3
07
ef
f9
0c
02
07
f9
f4
23
08
ec
ea
fd
0b
ff
e9
eb
09
0f
fd
08
0c
f5
f1
02
0f
fa
05
03
0a
1b
ff
18
0e
04
ff
17
1c
fa
ec
fa
04
0a
0f
15
04
f0
07
10
fe
ee
f3
09
08
04
e3
fc
01
07
e0
ef
f2
08
ee
15
e8
d8
13
19
0c
0d
05
19
07
1e
09
ef
08
12
0d
0a
08
05
07
fe
02
13
fd
0d
01
0a
11
00
f2
08
de
0d
01
13
e4
f0
13
f6
03
f3
11
05
ff
21
f6
07
2b
f1
2a
12
14
00
11
1d
15
06
0b
12
01
fd
ed
f2
0b
12
fc
ff
18
f4
f3
10
f3
0c
f1
07
e1
f3
fd
eb
01
ea
cd
14
06
ea
0f
01
0c
ef
ec
14
ef
01
e2
f8
f6
e6
dd
03
fb
f6
d7
0a
d4
0b
f3
09
fb
23
ed
07
17
f5
f3
f2
13
fd
f6
09
10
f9
09
ee
fb
f5
fe
06
f0
23
f9
1a
fc
fe
03
c1
f1
02
0d
1e
1c
12
0c
ee
f6
e6
08
fc
ed
06
f9
e3
f7
04
f4
f1
12
06
0c
17
10
ea
12
1f
f4
10
f3
e1
08
06
25
fa
17
fb
11
ee
0a
ef
f2
e4
f3
02
ff
f0
13
1b
f9
0f
02
00
1e
0c
e0
19
fd
e6
1a
03
f3
ff
1e
f5
09
1d
f7
0c
ff
1c
f5
f1
f7
10
0a
15
f1
fb
f7
0e
fb
f3
00
0c
fc
fe
04
e4
0f
0d
0b
0c
fa
06
ec
06
f8
eb
01
13
0b
0e
10
02
e6
f1
19
dd
04
df
fc
15
1a
e1
f3
00
08
0b
00
ed
f4
fa
f5
06
fb
01
f0
14
f9
f3
fe
12
06
f7
00
e9
f9
11
fd
f1
da
13
db
06
03
fc
21
18
fc
f1
02
ed
08
f4
0e
f1
1e
f0
ed
1d
ec
e9
f4
0c
04
02
1c
01
20
ec
1a
ec
e2
11
02
1a
fa
fc
00
fe
14
f5
e9
0d
05
f2
f4
f4
ec
09
01
13
f7
03
e6
f6
00
f4
ff
f4
18
1b
fe
0d
f4
08
eb
ea
09
00
fa
f9
f7
f9
fa
08
02
07
1f
d4
02
f5
00
05
1d
06
fb
01
fd
0a
2c
24
f0
16
f9
0d
ff
f0
02
03
fd
eb
11
f0
fe
eb
fa
f1
1a
03
02
f6
fc
11
f5
13
fe
10
07
0f
ff
08
0f
c7
f5
0b
f6
0f
0b
e6
e9
f2
f4
ee
e3
f4
fa
f6
08
e5
10
fa
0e
00
0e
f9
04
0a
10
0a
00
f3
f3
dc
f0
25
10
10
0e
fc
0c
0e
fb
1e
07
12
06
fc
03
0c
19
fc
fd
ef
09
f7
db
00
f5
ef
08
fe
06
09
1a
ea
1a
f1
11
ff
fe
fd
03
f0
18
0f
16
fb
0e
17
11
fe
f5
fe
1c
fa
11
02
fc
fd
fe
ed
13
ea
00
12
f9
1f
fa
0f
f5
04
eb
00
f8
e4
ea
fa
fd
02
f2
08
fe
0a
f7
00
fd
1a
07
f7
f9
f8
ff
fb
05
ea
fa
f0
0d
f8
fc
f1
06
fb
ee
d8
e8
f2
16
fc
0c
f6
28
df
05
04
02
15
ea
f5
e4
ef
18
05
da
f8
03
eb
f7
fd
19
f5
02
fb
02
fc
05
11
d4
f3
e8
0b
08
01
f9
02
0e
f7
fd
ec
19
fd
07
16
fa
0c
04
f6
f9
e6
0f
f9
ff
e6
04
f3
fd
0e
17
0a
0b
08
e1
e7
01
03
0d
f4
11
04
ff
fb
f2
02
0f
23
f1
16
21
d6
08
fd
10
01
02
0e
f6
06
ed
e1
0d
0f
f2
fa
f0
02
f0
20
13
f7
ef
03
04
fa
de
f4
02
07
d8
1d
12
ef
fe
14
0a
22
08
0e
f5
d2
f8
00
d2
f4
ec
0d
e6
06
fe
f2
03
ef
f6
e6
ff
04
14
01
05
f1
fc
f9
d9
f4
f1
e3
0b
26
04
ed
11
e8
f2
e9
24
e2
de
0e
eb
15
d6
21
18
fb
02
0a
fa
21
10
f1
eb
f5
12
eb
10
07
ff
f6
f4
1a
09
18
0b
f5
e6
07
04
fd
0b
ff
fa
fb
12
22
f6
1f
12
29
18
1e
02
05
fb
fc
17
10
03
11
ea
00
01
d7
04
eb
09
fb
03
ea
11
f7
f5
05
1b
ee
2a
d7
00
19
1b
fa
fb
1f
0f
f5
f9
18
07
01
e5
fb
02
fb
0b
01
07
ef
04
fe
ee
0c
1b
0d
f4
04
02
f7
01
0b
00
0d
00
eb
03
10
10
18
f5
fd
fd
10
f7
f0
e2
0d
0e
f8
02
14
12
15
11
f6
01
10
00
20
0a
08
ea
f1
15
f8
fa
f1
e0
fa
07
f6
ff
2a
f1
de
22
15
f7
fb
fd
fb
e9
fb
dd
fe
e8
0a
f0
0c
0a
fc
fe
d1
17
0e
f8
ea
f2
ec
ee
09
f3
1c
e1
e8
f2
fb
13
19
13
f5
18
1b
f7
01
fb
19
10
f8
22
04
f7
02
00
02
e7
ec
0a
f1
fb
f9
fd
0d
ed
30
fd
04
00
fd
ff
12
f4
f9
10
0c
0d
13
e7
2b
0c
08
ff
12
f1
fc
d1
fc
0c
eb
e8
06
fd
05
ef
f5
fe
12
eb
f3
f9
ef
10
e5
e1
f1
0e
f8
e5
f8
e4
03
fd
1e
0d
f5
07
04
f8
eb
ee
0d
23
21
f9
e9
f3
fc
f1
f1
11
02
ee
0c
f0
f0
f4
ec
00
0f
02
f1
fe
f2
0d
01
00
07
11
1e
ff
0c
00
f5
eb
f6
04
06
08
19
e7
1a
f4
f4
f0
e3
2a
14
12
13
12
02
fd
e8
02
12
fe
ed
08
f4
fe
ee
06
10
1d
e4
d6
19
12
09
e9
f2
db
e5
fb
fc
f2
02
f0
da
e8
08
fe
16
fd
02
1b
28
eb
e8
f9
1e
13
f7
fd
0e
ff
e6
ef
06
f8
01
0e
09
f7
07
03
17
f9
07
e5
ea
13
fa
00
16
f1
ee
2c
ea
cb
18
0d
15
16
14
f0
0a
17
fc
f9
ea
f3
ea
f4
fb
07
02
ed
06
0f
03
06
19
e0
0b
0f
16
14
ee
ff
08
10
17
0a
01
ee
e0
10
e6
e5
ed
f0
04
fc
f9
f9
f5
d8
e7
00
0e
10
00
0a
00
f9
fe
f4
1c
11
11
f9
f1
f0
e7
fe
f6
1c
07
fc
02
fd
05
e7
e8
10
0f
f8
f8
01
00
00
02
16
02
f2
0c
e2
14
fe
e9
f5
f5
1d
07
07
f5
f3
e5
00
0b
08
0e
07
d6
f9
f8
0f
ef
f7
f8
04
eb
f7
13
1d
f6
01
0a
04
f9
06
ec
02
e3
01
14
ff
fa
f9
02
f4
0b
03
0c
fd
07
21
06
fa
0d
12
e5
16
1f
ef
0e
06
ff
ff
14
14
ed
fb
0a
05
e8
00
f2
f8
12
05
fb
f2
05
f9
f0
13
fd
f8
f2
ee
0e
f9
07
2f
f8
11
f8
02
f2
f2
00
12
00
fb
18
fc
04
05
f5
14
f2
01
f0
fa
30
ff
0e
16
0b
e3
00
00
0e
e9
fe
06
fb
eb
ef
fa
04
17
fd
12
17
f6
14
f4
11
19
f0
fe
ea
fb
0e
f6
09
0a
e7
26
eb
e6
eb
f6
f9
eb
08
0d
04
13
ed
f5
0c
ea
05
1a
f9
00
ec
00
f4
07
0d
f5
f0
0a
df
f2
1f
f1
f3
08
16
eb
17
e4
03
f4
fe
10
f0
0c
14
ec
f5
f0
04
0b
01
06
fe
12
ff
02
1a
0d
e5
f6
0f
e9
03
0f
1b
0d
fb
fc
ed
05
08
ed
ea
01
0f
07
11
07
06
ec
11
fe
ee
13
f9
21
ea
06
f9
13
f5
1e
ee
e0
04
f0
fb
f3
11
f6
10
ef
fb
1d
f7
0e
02
02
1f
e2
fb
e1
16
21
20
f9
09
fd
03
eb
f8
e5
ee
0a
07
f8
07
18
fb
f7
ff
fd
ed
ee
03
01
09
f9
0f
fd
f9
07
03
06
04
19
f1
ef
05
f2
10
03
e4
fb
07
f1
ff
04
08
05
d8
01
ea
0c
06
f9
fe
05
e3
fa
fc
f4
06
2d
f4
ef
ec
14
fd
18
f8
01
f0
05
ea
03
f1
07
ee
0a
fb
0f
08
f8
1c
03
05
0a
13
10
e9
23
ef
e6
fe
e7
15
f5
17
00
f4
fc
06
2d
f0
1e
0f
20
0d
0f
04
0c
f5
f5
04
06
02
11
ef
f3
1c
03
15
ee
fb
10
e4
f6
f7
f8
ed
ee
fa
f8
07
f2
1b
fc
f1
02
fe
0b
e1
e5
ed
10
02
09
05
ed
00
fa
da
09
10
06
02
12
de
f6
00
2f
01
f3
e9
18
0d
f2
e9
fe
fb
02
16
f3
24
da
db
11
f5
e3
15
07
10
03
f6
08
00
ed
eb
0a
0b
e9
00
0c
f1
2c
e7
e1
23
15
18
03
f9
0c
f2
f9
ef
02
00
06
f8
fe
31
23
04
02
22
02
00
f7
cd
fc
f2
0a
00
f0
f8
fc
fe
17
fa
0e
0d
15
01
fc
f9
e5
01
03
ff
04
25
08
f3
08
f8
f8
ed
fc
f4
ff
f1
e6
05
ed
07
f9
f7
13
05
01
09
f7
fb
07
df
0e
1b
e6
02
ff
0a
1d
06
f2
ea
e7
0f
fb
f9
05
e0
0f
f8
ee
f4
20
f6
fc
e9
f1
0c
0b
ef
ff
0e
ef
0a
18
0c
0f
05
f6
04
07
15
f8
ea
09
ed
0c
11
02
14
15
e5
f6
f9
ee
05
f9
f8
e7
19
ef
0a
09
f1
f0
ee
09
19
fe
0d
03
f3
00
03
d9
00
f8
fb
d6
f5
11
07
f0
04
f4
f9
fe
e2
02
e5
fd
f4
ff
f1
00
03
0d
08
0b
eb
19
f4
f0
04
09
01
f5
00
fa
f2
fd
1a
f3
10
0e
f8
f8
0e
f5
f8
04
f2
0e
e4
0a
06
ef
fa
dd
02
17
f5
10
0f
f4
fa
f5
1b
07
0f
ec
0f
f9
02
ff
04
0f
f8
11
f6
e3
04
f0
07
20
eb
03
07
2f
dc
11
f5
fe
17
0d
fb
0d
00
07
eb
f0
f6
05
f8
1e
f4
f6
0e
ed
f3
ff
fc
00
0b
11
f9
0d
1c
ed
ec
ed
0f
f7
04
09
ef
01
f0
ee
08
f3
ea
18
fd
e7
01
f8
ed
18
ed
e9
fa
e4
00
08
05
0b
00
05
fb
1c
23
ec
12
1a
e7
0b
0f
04
04
05
f9
f6
18
01
07
07
f9
02
04
e7
03
f2
f6
06
e8
03
17
2a
06
e3
0c
f7
01
ff
09
0d
09
17
18
fb
14
1e
18
ff
f6
10
06
e3
fe
11
0e
0a
12
1c
0e
ed
ef
e7
0b
04
0b
ff
22
03
15
f6
20
f3
18
1a
1b
ef
fa
05
17
de
04
15
0a
e9
05
e2
1d
07
22
f9
e7
e9
ea
f8
06
e1
0d
11
fa
f4
11
f8
12
e0
d2
06
f5
de
1b
1f
07
fb
fc
f2
fe
f0
1d
11
0d
f3
f1
0a
f3
07
f9
f2
f1
f3
18
00
07
09
06
f7
fa
11
fa
0a
0b
23
f6
d2
fd
f4
09
25
05
01
e0
e3
0a
0a
ec
31
ef
18
ee
ef
ff
11
15
02
e1
fd
0b
0b
14
e9
f4
00
f4
01
e7
f6
0e
17
21
d9
e3
17
1c
16
ea
15
fc
19
13
ec
e3
f3
ed
13
18
14
27
ff
ff
ec
01
19
07
e3
f0
f8
1e
fa
f0
0e
e2
db
fd
14
1e
e5
f8
02
f7
e1
0b
0d
15
24
ee
f2
ef
03
f1
ed
ef
f8
09
e1
f5
0f
fe
f8
fb
e8
0d
e3
03
26
13
fb
e9
de
1d
1f
13
03
f9
07
10
f7
f4
fc
f2
0e
02
dc
33
f1
01
fe
28
25
ff
eb
07
ea
10
f8
04
fa
e8
ed
eb
09
1f
24
ea
15
eb
fc
fe
e1
ec
f8
00
e3
19
f0
f8
10
0d
05
f3
f9
cf
12
09
08
e9
0b
21
f9
23
da
e7
eb
11
0f
04
02
08
09
fd
fc
fc
fd
1c
08
07
08
2c
01
04
0b
f1
0d
e2
f5
f3
e1
f7
f0
f4
f5
03
f6
0a
e3
04
eb
fc
eb
0d
0a
02
01
e3
d9
ff
0b
0f
05
02
0c
1e
12
e3
03
f6
0b
fe
ef
f3
fa
e9
f5
0f
f4
f9
12
18
fb
16
fc
f6
ef
0b
ff
0d
f6
08
f6
0f
00
00
00
ff
0b
f3
f5
dd
f5
0f
fb
ec
fd
1e
dc
f9
f5
04
07
00
f0
0d
f5
04
f4
2d
e3
04
0a
0a
ee
26
02
04
f4
00
f9
e1
14
ec
f4
0b
ec
e0
32
16
0b
f8
18
00
eb
fb
02
e5
e7
01
fb
fb
25
03
0a
f5
08
e3
04
03
11
0b
16
ff
fb
03
fe
fd
0b
01
f3
17
10
e7
fd
1b
03
05
11
dd
14
0b
11
f1
ee
0a
f9
00
09
f5
e1
f2
14
0f
fa
fa
04
e5
12
f7
eb
e6
05
fd
0f
f7
0f
f2
f6
0c
ee
ee
14
ee
13
24
f8
08
02
07
0d
fd
ff
f9
16
ef
0d
09
05
ff
e5
e8
14
eb
e7
01
f3
01
fa
eb
d7
f8
00
f8
30
ec
0c
e7
2a
ef
03
f5
fb
03
f5
ee
09
19
00
11
ef
f9
17
f2
f1
e4
14
ee
ed
ec
f9
df
06
35
08
00
13
fd
f8
f7
fa
0a
fd
ed
d7
04
13
ff
0b
f8
e0
1b
e5
fe
e2
fc
0d
10
f7
0e
26
05
f9
eb
14
16
ef
0a
f2
18
19
f3
08
e0
16
0e
ea
03
fd
01
0d
fb
03
eb
fd
f6
11
f4
ff
08
f1
03
f2
f1
fe
09
ff
09
0d
fc
ee
17
19
f3
ff
12
0a
13
f0
00
0c
fd
f7
16
eb
ee
17
fd
fa
07
fd
f2
fd
f8
fb
04
fb
f3
fa
fa
01
04
f9
07
11
f7
04
f6
fe
15
fa
10
f9
11
fd
16
f3
f6
e5
04
0b
0b
f8
fc
ee
e0
f2
00
10
e8
01
2a
0e
f4
03
e9
04
09
fd
0d
f7
fa
0a
14
f7
f8
f0
fe
15
14
e6
12
ee
23
19
fe
0e
fd
0f
10
01
05
03
01
ef
e8
1e
ef
d1
fa
fe
0d
00
01
08
f4
01
ee
01
0b
1a
16
f9
1d
1b
f4
17
fc
0d
f1
11
15
09
11
04
dc
27
f8
15
1f
fc
ed
0d
0f
f0
23
e4
ff
fb
09
12
f1
f5
fa
07
1c
ff
e8
f3
fe
1f
f9
12
10
0a
09
03
0c
1b
ec
10
00
08
fb
00
fb
f6
06
ed
14
1b
ff
fa
eb
f5
07
f7
06
02
06
f7
f2
fe
fb
de
0d
03
03
17
21
09
06
04
f9
e9
10
fb
17
00
10
fc
05
26
f0
0e
14
d4
03
fc
f9
03
01
fc
ff
f8
de
0e
11
f8
fe
fa
e8
0a
04
fd
0a
ea
1e
f2
f6
14
fb
fc
11
04
f4
eb
06
02
0c
07
f4
ff
f2
00
02
0e
ee
11
05
ed
fb
f4
e3
e6
15
10
fa
0c
25
11
fc
f4
f3
ff
0b
15
1a
0d
07
dd
fc
ff
fe
06
e9
13
05
e3
f7
22
04
15
ff
f2
ff
f2
0e
04
0e
1a
17
30
eb
13
01
f2
f9
15
00
33
fd
09
fd
01
f8
f6
fe
04
00
f5
fb
00
11
0d
e9
00
07
17
f9
03
01
e0
11
05
16
25
e0
ef
fa
1b
04
fd
ed
11
ff
f9
ee
f7
09
fe
02
0b
e5
06
fd
02
0c
e8
dd
0a
f4
09
eb
e9
ee
fb
00
f6
0a
ee
fe
ee
13
0d
e8
f4
e5
e6
e5
ed
09
ef
fc
03
f8
01
07
ff
f8
fe
02
fc
00
eb
f4
0f
00
f7
f8
08
f6
0b
0d
03
e8
f2
df
06
09
0b
f6
1a
f1
0c
eb
1a
06
16
1b
14
f5
f8
fd
e9
0d
0d
0a
fd
0e
03
fc
eb
13
f2
f4
fa
11
24
0c
14
02
20
ef
fe
00
ee
ed
0d
ee
ec
df
ed
0e
07
05
e7
f7
f8
f1
0f
fb
03
f0
fb
ff
e8
fe
f6
f0
fb
1a
16
12
01
0a
04
f2
04
ed
f4
07
e7
04
09
00
f8
0e
14
f1
0b
fe
02
e8
f0
f3
05
19
f8
f5
20
16
0f
11
10
0c
f4
12
ea
04
f3
06
0a
0b
0a
fc
f0
0b
f6
14
10
03
f8
12
06
0b
23
0d
f7
ff
09
e6
0a
ef
f6
20
0a
fd
ff
0f
15
e6
e9
e3
fe
11
01
0c
f3
ef
01
ff
04
03
1a
fb
f5
08
fc
11
fb
fc
05
ff
f2
06
f8
19
ff
1a
07
08
13
07
0b
03
00
ee
14
f1
03
f4
1c
e9
f6
06
f6
eb
06
0c
ff
05
1f
10
07
f6
0e
fb
de
0f
f0
03
fb
04
11
ed
00
0a
f3
23
f5
fd
05
ed
14
00
14
10
00
f9
ee
07
f4
fe
11
04
f6
f2
f0
14
11
00
03
e5
fb
ee
14
00
09
f0
09
f1
f2
d7
fe
02
13
02
e1
e8
01
e0
09
0c
0d
1f
ce
f2
eb
16
02
e5
fc
fe
13
fd
01
fa
f5
13
f4
eb
18
fa
16
fe
0b
11
05
06
fa
f0
f9
19
05
f6
01
15
fa
22
0c
de
0e
10
1a
09
10
ff
fa
07
11
02
f5
e9
ef
ed
02
e0
08
ee
0a
1a
f4
1e
0f
f5
e0
f3
ee
02
05
1c
01
13
fd
f8
f3
33
32
ef
26
09
1a
e6
fe
07
fb
ff
0f
f3
05
f9
f3
f7
10
fc
fc
03
ee
fe
17
fe
de
1b
1a
ee
2b
ef
05
15
23
0b
19
05
ff
19
11
f4
0f
24
14
ff
02
0b
ee
ff
dc
0d
07
11
ef
f2
f8
10
ee
08
0a
07
f1
03
03
e1
fe
0d
04
03
f2
09
07
fd
0c
0a
23
ee
12
de
f6
06
e4
05
e7
f2
f6
0f
ef
0a
fd
e9
02
17
16
f9
04
e9
ef
09
f8
03
eb
fa
09
ff
23
01
28
11
fd
03
fe
f5
f9
ed
f7
02
19
f7
01
08
05
e0
e6
17
f1
03
f7
e4
fa
fb
eb
09
f8
12
ea
1b
05
01
f5
15
fa
fe
fd
04
1c
fe
03
f5
0d
fe
e8
f3
e5
f0
0b
20
0c
0e
0e
00
1d
e1
1c
0e
00
e3
cd
e7
f3
fa
fa
15
f0
18
f1
f6
f7
ee
f1
f9
fb
11
16
0a
fd
15
fe
fd
06
04
f5
13
f1
01
fc
e3
06
0d
07
da
f4
f9
f3
0a
eb
05
10
06
00
00
17
00
1e
10
08
07
09
02
06
00
fa
0b
ff
ff
f4
08
fe
19
ef
10
0c
cb
fc
f8
04
f8
fb
10
d2
fc
e7
04
10
17
ed
21
01
fb
17
0c
e3
10
fa
08
f9
f6
f7
f5
fe
0b
06
05
21
05
21
27
19
f3
10
03
04
ff
d1
f6
10
01
ec
02
f6
18
fd
ec
11
06
27
f7
ee
f4
0c
ff
f7
f0
24
ec
06
07
22
02
00
07
f1
08
dc
eb
ff
d7
18
0c
ff
f4
e1
01
f8
fd
25
04
f6
12
fc
e5
ce
eb
0b
02
1c
07
fc
fb
ec
ee
06
ed
e6
f6
06
e6
02
10
f0
dd
f7
f0
f4
0e
17
07
0e
ee
0b
23
0e
2d
19
f7
1c
04
02
f3
0e
20
04
f9
01
09
fc
18
05
0f
19
fe
10
03
f8
06
f5
f5
08
fe
fa
e9
0a
f9
d8
ff
00
11
0c
eb
f5
e2
26
f1
e5
f7
ed
0b
e9
f8
03
00
2b
fa
19
09
0b
0f
fb
f2
04
01
10
f6
01
f5
ff
0a
d9
1c
10
e6
f6
11
0c
05
1f
17
1c
08
fa
1b
ed
28
f4
10
f9
14
f0
27
10
09
e5
20
05
02
f7
03
04
09
15
04
f5
ff
01
f6
0e
e7
d1
06
06
0b
15
ef
fb
f9
1e
fb
ec
13
f3
17
f9
f4
ef
e1
e8
fb
04
f7
00
e7
f2
06
0e
0b
fc
c2
08
1c
02
f9
fa
e6
e4
06
f8
eb
11
14
ff
1e
0b
06
ec
10
1a
fb
e6
15
de
0f
f3
fd
03
fb
f6
f6
07
f6
14
21
fd
05
0a
f9
fb
fd
03
ea
f8
e5
ef
13
f4
01
ec
03
08
eb
0e
ff
f8
e9
0a
0e
ec
f8
0f
08
fe
05
08
eb
f3
30
07
17
fe
27
f0
0f
0e
0c
09
f8
09
fc
19
f2
fe
f3
02
06
f1
f4
e9
fc
10
12
f6
f5
13
0c
04
04
28
20
14
08
00
dc
0c
f6
f8
dd
f5
da
ee
00
12
0d
f1
e0
0f
eb
e9
e3
f2
11
f6
e8
1a
20
f3
f3
f6
15
1a
24
e8
00
ff
05
07
1d
02
fa
15
12
0d
f5
df
f0
f3
d7
10
f6
f9
f2
16
e2
1d
f9
16
fa
04
04
18
f0
e6
05
03
fe
f3
f1
07
19
0e
f6
f8
f2
08
18
ec
ee
03
00
00
0e
09
ec
32
14
0f
06
18
ee
ef
02
0d
f9
f7
ed
09
fc
05
0f
da
ff
fa
11
fd
f7
e9
f9
07
0c
08
02
df
03
f4
0b
e6
fd
10
d0
e9
03
18
fc
08
f2
25
03
fc
1d
19
f6
f1
12
fa
f8
01
18
08
08
25
f5
fa
e6
fb
f6
f7
02
dd
eb
f5
05
00
fc
e8
ef
e3
01
fa
02
01
c1
17
17
01
0a
04
0f
fd
ea
ee
14
fe
06
fc
ef
fd
f2
0a
03
e5
f9
0f
0b
11
0c
f0
08
17
db
ed
e9
0d
09
07
f2
02
fc
f6
19
f1
f5
13
0d
00
0b
0e
f5
f1
09
f4
f1
f9
f4
18
fd
16
10
e8
fc
f6
f8
ff
28
ff
04
05
fc
f1
22
e0
f0
08
0e
0c
ec
0e
0f
05
00
f7
ef
e8
0d
fc
14
12
f8
fc
ee
da
0c
fa
0d
0f
07
20
e3
f0
fe
06
1d
04
00
16
ea
f4
02
f0
08
01
f6
ef
0d
f2
fa
f1
0b
f0
0b
fb
e5
fd
00
08
02
07
f0
10
f7
ef
00
f2
e1
fc
0f
11
0e
06
eb
eb
f0
e4
07
f5
0f
02
12
d9
fc
fa
fc
fc
04
02
1a
19
3b
e6
03
f9
17
f3
f3
09
14
e6
0a
f6
fc
07
07
f9
04
00
03
f8
04
02
00
03
12
ef
05
f7
09
0f
0a
0d
e7
f7
00
f7
0f
e5
10
02
ec
05
15
e7
11
08
15
f6
05
01
f7
09
0d
13
18
05
04
fc
07
cb
e8
0a
f3
ee
fe
e9
04
00
ff
11
17
0e
ff
05
00
ea
ee
fa
0f
0c
f6
01
f9
f8
1e
f8
0e
10
f6
05
10
13
e9
f8
f4
fa
13
0f
02
f1
ff
07
02
06
e4
f7
05
fc
fd
14
09
04
02
fa
1a
fe
00
29
f1
09
e8
01
17
fd
11
fa
0f
e5
dd
fc
0d
ea
f4
0a
0e
07
15
ee
0e
f4
02
ef
de
f7
ef
fe
00
fd
ec
18
0f
0f
04
17
0c
f3
f5
06
ea
fd
14
13
0f
f4
ed
2c
e1
fa
07
ff
df
e7
fe
05
fe
f1
1c
0b
02
1e
f1
07
04
06
18
f4
fa
10
0b
fb
13
f4
ef
f7
04
01
fe
06
fb
03
10
fa
fc
e7
11
f7
00
11
0c
05
ea
04
df
ff
0f
fc
1d
0d
fc
ec
18
05
f7
04
f0
0e
08
33
2c
d9
0e
0f
ea
fd
fd
13
ea
0b
01
fd
f8
ee
f0
f7
fb
02
ef
f6
fd
09
03
fa
f7
fa
01
f9
e2
f5
fa
01
09
02
fc
f2
01
0e
ea
ee
25
ff
1b
0e
f0
f9
fe
2e
eb
0c
f5
0c
0e
df
1d
f1
ec
f4
10
01
0b
f3
28
0b
ed
f5
09
ec
0a
14
05
fa
fd
11
0e
fe
01
07
05
ef
04
0b
e1
0b
07
0d
02
0f
fc
1a
01
07
f7
04
0b
09
fc
e4
f0
00
fd
e8
ff
02
08
06
fd
f8
07
f9
fa
00
07
fa
02
27
0f
1f
1b
11
ff
08
04
f5
12
f9
0a
00
35
0e
40
d3
2b
06
21
ed
02
f7
02
00
10
fb
fc
08
f7
ed
12
fb
05
fb
0b
0d
32
0b
f2
f8
f5
fb
10
db
15
ea
00
ec
1b
f5
01
fb
f3
e2
07
fb
fc
12
16
05
08
05
e5
1f
ff
01
08
0a
06
fa
24
d9
ea
f9
fd
ff
e4
0a
0b
e6
fd
de
fd
0f
eb
03
0e
07
01
10
f8
0a
f3
f3
02
23
01
f5
0d
f4
25
0f
03
15
e8
ed
03
f3
05
12
18
0e
f3
ff
e8
1b
fc
fa
21
17
fc
fc
0a
ec
ec
0d
f7
e0
f0
f9
fb
e0
f8
05
07
fb
07
fd
e9
db
14
29
fb
e4
0e
cd
f4
26
0b
0b
f5
0e
33
f8
df
06
fa
fe
11
07
0a
03
f9
01
00
03
39
08
f7
13
15
fd
fa
16
ee
02
f3
f6
e6
f3
e1
15
f7
da
16
17
db
f4
fa
ed
0f
e4
00
dd
0c
e9
d9
d3
0f
fd
e5
f8
0a
0d
f4
e2
13
f6
10
13
08
f8
15
00
f2
0d
00
02
ff
ff
06
06
dd
fa
e4
0d
f2
fd
06
f8
e1
06
f2
11
f7
08
10
04
fa
fb
05
00
02
fa
07
1f
eb
fd
27
12
e6
e5
df
1e
02
ff
f4
16
01
38
07
0c
ec
f2
ee
05
07
06
fd
e4
f5
ec
07
ef
0d
fe
f1
f6
14
fa
07
01
01
ed
13
04
03
1e
ea
07
1a
01
08
19
da
f1
10
ee
02
0b
fd
f9
0c
fb
13
18
2b
ed
06
0f
ec
fc
25
06
0e
ff
c2
11
21
ea
f6
27
08
07
26
fe
fa
0b
ec
f3
02
15
08
0c
eb
f7
fe
09
20
f6
05
04
14
ec
f7
fb
f8
01
fb
f7
02
e8
e4
fb
f3
f5
f9
f1
f6
e8
25
07
01
10
e4
fe
22
02
01
20
f0
fe
e9
f9
04
1e
ec
0a
ee
07
f6
0d
f1
04
11
14
03
0c
00
2f
ec
f8
df
13
ce
fc
f1
f8
17
f9
23
13
f0
10
db
f8
07
f4
ef
1b
02
f7
1a
0d
ea
1a
dc
08
17
22
07
fd
e2
00
eb
04
1a
02
f4
f3
08
38
03
13
0f
09
00
0f
ed
13
ff
da
03
ed
11
06
f3
ef
f0
f8
06
d6
0d
0f
1a
16
0a
03
34
fc
f2
f0
f3
13
f3
0b
06
fd
fe
0e
04
f5
04
fb
1f
08
e4
18
f8
fd
10
09
e4
fc
05
13
0a
1c
16
d7
fc
17
d0
05
f5
03
04
f9
fe
00
08
f6
1a
03
f3
16
e4
20
e8
18
01
0d
01
07
e3
f4
db
04
dd
0d
08
e3
f9
19
ef
ec
f9
04
0d
03
1f
fe
ef
e9
f3
f8
05
f2
f3
fc
11
f1
fb
f6
1c
05
f9
10
fa
f3
16
ef
01
0d
07
23
ec
de
0b
fc
04
25
f7
22
01
10
07
18
fa
03
0d
0d
0e
23
fa
12
02
28
ff
0b
12
06
fd
01
ee
0a
e6
f5
0d
14
0a
23
fd
ef
0b
f9
fa
08
ed
fa
f3
f8
03
f7
16
19
07
19
00
1e
07
0c
10
ec
f5
0a
12
dc
fa
12
f5
fc
01
ee
f0
f4
1e
01
09
11
fa
f9
15
10
0b
10
00
17
f4
0a
0e
f3
f5
fd
0b
eb
12
0b
e7
20
f1
e2
1e
f2
03
03
f7
e9
dc
f7
f5
02
d3
e5
f1
de
11
f3
16
f6
14
03
00
fd
05
f6
f2
17
e2
0e
fc
fb
eb
00
1e
1b
09
e0
da
21
fc
f4
fa
f9
1a
02
04
f5
11
13
fc
0a
f3
1c
04
ed
0d
04
20
e5
1f
f7
10
0c
f1
0a
20
08
17
ec
08
01
e9
ed
20
fe
fe
06
f3
0d
ef
f3
f2
1b
04
00
09
09
31
05
ef
02
05
04
0b
2b
08
11
e5
00
fb
f0
04
16
08
0e
fa
ef
1a
e9
dd
0c
ed
0d
0c
12
fa
11
fb
fc
16
0c
f0
17
07
0f
0f
0e
f9
0e
22
0c
23
0a
e6
0f
ff
02
dc
06
00
0c
0b
ed
f1
12
17
f9
e5
f8
0e
e5
04
ff
f6
00
f9
fd
0a
03
ea
ee
06
f1
e3
fc
de
f2
0a
f4
f5
0f
19
03
0a
f8
fb
e7
ff
20
f9
e3
11
0a
1a
f9
03
10
e3
d8
0a
17
06
e5
05
fe
f6
02
20
f5
11
02
10
01
07
00
06
10
02
f0
0a
03
e2
ed
10
f0
05
ef
00
1a
16
e9
1a
1a
ff
0b
fe
09
0e
f4
0f
f0
14
fc
00
05
1b
f5
f1
ec
1a
e7
09
ff
f6
0a
0b
01
1b
12
04
f1
f7
11
0b
01
00
fd
06
0b
fd
f3
fd
08
10
f8
0c
01
04
e7
fc
1c
fb
03
0f
10
fc
2d
01
06
f9
ff
0d
ff
23
0a
0b
11
0c
00
f7
02
ee
05
f7
e7
f5
0e
08
f7
fb
05
19
08
0e
1a
30
0f
03
f1
d1
fc
01
1a
15
05
0f
fd
dd
f3
fe
21
08
17
ef
10
05
f3
11
fc
e0
11
e9
0f
0a
f6
e1
0b
df
03
0f
fb
ff
f1
fe
f7
fe
09
fe
ea
07
1f
e9
04
05
12
13
eb
1a
f4
18
08
fb
00
e3
04
f6
06
01
ff
0a
12
2c
ed
e6
ee
04
e3
10
ed
fb
fc
fb
f0
e9
07
1b
ee
f6
12
f7
14
06
11
0d
fc
15
f8
f6
20
0e
01
f1
ff
0f
f7
e5
0d
f6
ee
03
03
e5
13
ff
02
de
08
19
f1
0e
08
ff
fa
15
1f
ff
e7
20
fd
ff
e9
0c
06
ea
0d
f5
1d
f7
e7
e7
02
0c
fd
1a
fc
fe
0d
ea
f5
0f
1a
0b
04
0c
ed
13
02
06
e9
f8
e9
ef
0b
08
00
fe
f2
11
f0
f8
eb
07
14
f4
eb
f5
03
0f
01
fd
1c
08
ee
29
06
f8
10
ea
0c
f4
06
fe
f9
f9
f5
fa
fe
0b
10
0b
1c
fc
fd
e7
fb
dd
fa
01
f4
1e
05
11
f8
fb
eb
f6
f7
f7
f1
0d
ef
0a
01
18
0a
fd
18
fa
1d
06
0f
06
14
e5
1a
0d
0a
fc
f0
eb
e0
fc
f5
fb
1b
f6
ff
00
fa
00
05
07
fa
03
f1
f2
fa
e6
f1
fb
ff
0d
d5
01
fc
f9
06
fc
17
03
13
f6
11
fd
e2
03
0f
e7
f8
03
13
f7
21
fe
f2
29
fb
17
fe
ff
fd
09
f9
09
19
1c
fe
fe
fe
15
01
01
12
0c
f6
ec
f0
fc
26
f8
0e
03
fe
f3
ef
16
ef
04
0f
1b
ec
0d
0a
11
ee
ed
f3
04
ea
fe
05
1a
02
04
0e
01
e3
e8
f3
f6
ee
f4
f4
0c
10
03
04
ed
0d
f2
f0
01
e9
eb
0a
0c
fa
d9
fd
e1
d7
f9
f1
15
0c
18
06
08
11
03
ea
00
08
02
f9
0d
02
f5
0b
f5
06
ff
0f
ee
13
03
1c
13
12
0a
26
1e
f9
08
0b
15
fb
03
f6
01
16
12
02
01
ed
21
fe
04
f0
e3
06
e8
f6
0a
e1
00
fb
ef
05
0c
f8
08
0a
12
1a
fd
ea
07
f9
ec
0d
e0
f2
ec
06
0e
0d
f2
df
f5
ec
ff
07
0f
04
03
f4
ed
0a
0c
fb
eb
10
fe
ec
11
f3
20
f6
1a
f8
f4
08
f5
e8
00
0e
fb
f4
01
11
06
fe
09
12
04
0b
02
f7
0d
fb
ea
19
0c
09
ef
fe
0f
f6
06
03
ee
1e
f1
05
ee
10
e8
0a
00
f2
10
ec
16
e6
fc
03
e4
f7
10
f0
df
10
0b
f3
fc
fe
e9
f3
03
25
e0
0a
f5
e7
28
01
07
07
0c
fe
19
f1
0c
18
01
d9
07
24
2a
25
d7
f2
0f
f6
f8
06
0a
1e
fb
f4
18
fc
db
13
fd
fb
e9
f4
ff
ff
1d
df
00
e6
07
f5
e9
f8
ff
fa
f1
ef
0c
02
05
e8
04
f3
06
06
fe
fc
00
fa
11
13
f0
04
fd
01
e0
02
00
15
03
db
fe
fe
f5
15
ea
e1
fc
e4
01
ef
fa
f2
1d
fa
06
f6
de
04
15
08
e6
11
0f
11
d7
09
01
12
ed
e6
fd
ef
ec
f9
11
00
10
04
dd
f6
14
20
14
27
e5
10
24
e4
e6
ec
05
eb
fb
f4
e1
11
03
26
14
0d
1a
e7
06
f2
19
08
f3
08
f3
fc
16
0f
0e
02
0d
24
f4
02
f7
1b
0b
11
00
f4
0b
fd
ee
13
fa
f4
1e
02
17
e2
03
fc
20
00
e5
02
d4
fe
f5
f7
1d
f4
10
e7
16
e4
f9
12
13
04
07
18
04
08
0a
f3
ea
f2
0b
00
18
ec
f6
13
0b
10
f0
0b
f2
08
f4
06
02
09
10
fe
11
fa
fb
03
ef
10
e8
11
11
1d
17
02
23
13
f3
f3
fb
fc
10
10
f4
ef
ee
e7
f2
10
e7
fc
03
e7
f5
f9
17
02
02
f3
ec
f3
05
f2
f0
f6
f2
f8
2b
fb
e2
e7
1b
ed
25
f8
fb
f5
d7
f2
f3
1e
fe
ff
02
12
01
ee
fb
0b
02
14
08
de
19
06
d8
11
34
13
f4
e4
eb
f4
1a
f8
08
0a
00
d7
08
f1
f9
16
f9
00
f9
ed
fd
f3
05
e9
f0
17
fb
07
e9
f4
07
fd
e0
f5
0a
ed
fe
e4
f3
f9
fb
f2
0d
1c
f9
04
e8
fd
e6
dd
fc
10
35
01
0c
f7
18
0b
31
ee
01
f9
11
ee
f5
e9
0c
14
f1
fc
14
ee
0b
09
1e
08
f9
0a
15
09
f0
04
fd
fe
f2
00
f7
1f
1a
ef
ef
08
00
00
f8
e9
f9
07
04
0a
d8
03
fa
07
e1
15
19
16
fa
f7
fe
11
ef
f8
f9
fa
35
ea
14
06
21
02
f8
1c
0b
e7
04
f9
29
c7
0b
fc
0f
e4
fb
02
0a
08
10
f5
ec
fc
17
e7
e1
fb
0d
f7
00
d7
1f
09
08
eb
ec
df
f7
01
04
0e
f7
f9
ec
0d
cc
ea
ef
0c
f2
fb
e5
f6
03
f3
ed
f9
23
f8
04
e8
e8
fa
18
36
f8
05
06
2a
03
e4
e4
fc
12
0d
0c
07
ed
df
fe
0e
15
13
1b
f2
e5
fe
d4
10
d5
15
02
00
e9
09
05
f0
ea
fb
eb
f7
09
0a
0d
05
00
06
18
17
fe
f4
df
fa
fd
15
fb
fc
1a
06
e8
1e
0a
fd
fd
f3
1b
fe
f7
fe
0f
09
18
ff
0c
e8
eb
05
f8
00
f9
d7
f4
e6
0d
02
08
e7
07
ff
0a
19
11
f9
ee
08
00
d4
0f
0a
f3
ff
0f
17
ea
0c
ff
04
02
12
01
0f
fa
f9
ea
fb
1d
ff
08
09
22
12
f4
02
13
ff
06
f7
f8
e3
09
00
fe
07
ea
0d
fa
e9
0f
f7
d2
e2
f9
1c
0f
05
0f
ef
fe
16
f1
f9
1a
fb
01
38
fa
01
0c
07
f7
22
f1
f4
f5
f3
ff
09
fc
25
04
00
07
eb
17
2a
f3
f2
10
e2
f3
ea
f1
04
08
eb
2c
ea
f8
12
00
f0
06
19
18
01
f0
0f
e4
f8
15
ee
04
0c
e7
0a
0f
ef
11
10
02
0d
14
db
fe
03
09
e2
15
f7
fc
f1
1b
0e
17
01
f6
15
0c
00
27
07
ec
f9
0f
07
df
04
06
f6
0b
00
03
f4
fc
f8
12
cc
20
fa
fe
fa
ea
15
0c
02
ff
1f
e7
03
ee
ec
ef
08
e3
ee
0b
f2
08
14
ff
15
10
f4
ef
f9
14
ff
05
fc
f1
f3
0a
00
f4
0d
0e
ff
1f
00
fb
06
21
04
0f
e8
f1
fc
03
fe
ff
15
0c
ec
02
da
1e
e5
ef
e8
12
fe
0c
14
03
ec
e8
00
08
f5
05
0d
ed
e4
04
10
29
00
12
ef
21
08
04
04
02
f8
f3
fd
fd
03
f3
14
fb
0c
fd
fb
fe
02
e6
0c
03
e8
05
ff
fc
06
0a
0c
08
2a
fc
f6
17
f0
ed
17
e5
da
10
03
ea
04
23
fd
02
f6
10
14
fa
fc
dc
e7
f7
f8
09
09
18
31
17
fc
fe
18
1f
1f
0c
16
ee
1a
ec
05
f4
f4
06
11
02
ff
ea
0d
1c
ef
f4
fa
0b
04
fa
0e
0e
1e
e8
10
0a
f5
f4
0b
ed
0b
01
da
23
15
1c
e4
ed
fc
06
01
fe
1a
fb
05
fb
09
05
21
12
ee
0c
12
1c
ed
ef
f1
f4
fc
0a
ef
1e
d5
f4
05
17
03
11
ef
02
e7
02
00
ff
01
e4
fa
e4
15
f6
14
f4
fe
f5
16
05
06
f6
04
1b
ff
fd
07
26
0c
f0
06
ef
07
fd
ef
2d
13
07
0d
0a
0f
02
01
05
eb
0b
03
e6
13
00
ea
01
00
e3
07
02
18
f7
f9
ff
11
e8
1e
f6
f7
11
18
0f
05
08
0a
18
08
fa
ed
ff
f6
ee
ed
0b
05
11
f3
0b
02
e9
26
02
f6
e4
ee
28
0a
f6
17
ec
0e
02
e6
16
03
f8
fd
02
14
e7
fe
05
ec
12
0a
23
f9
f3
fe
fa
f9
1b
f9
e4
0e
f9
0e
f2
15
e0
de
03
1a
f1
0c
03
fd
f9
fa
fe
f3
0b
0a
fe
02
15
14
12
fa
f8
ed
18
0a
e1
0c
09
09
ea
08
fc
f3
f6
e9
fb
f7
03
05
14
24
19
ec
15
fc
11
f7
f7
ef
d7
07
ef
25
e6
ee
15
08
d9
ff
1d
f0
14
ff
09
e8
fa
0b
16
0d
09
fd
09
0d
1b
f2
e9
03
e8
e0
ff
ef
f4
09
1e
f2
f3
1d
fc
03
dd
06
f4
0f
10
0a
02
f3
e5
e2
10
fb
f8
02
fa
07
0c
34
06
16
eb
14
f9
0d
00
0e
16
f8
f4
ef
f9
f5
da
04
00
f4
fe
fc
0e
ee
fd
10
f0
09
24
0b
00
0f
f0
fe
f9
1f
15
16
fc
01
2f
0e
00
ff
11
ef
f3
26
d5
e1
10
f7
0b
15
09
05
f1
f3
14
01
05
fe
f5
0e
fb
e7
06
02
f3
05
17
fc
f1
ff
fb
1d
fd
fe
fb
eb
08
fb
ff
f0
22
1f
fa
ea
0d
f3
1b
f4
19
17
fd
eb
e2
ff
ff
f3
f3
ff
0c
13
1a
0b
f2
00
12
05
0f
06
0a
fe
0b
17
07
ea
09
11
e0
f9
10
00
0a
f4
0a
00
ff
f7
08
f8
1b
14
e8
fd
14
0c
07
ef
e8
eb
f5
06
ee
fc
02
0e
ff
05
fb
16
ff
16
0a
07
f7
f6
f1
12
f5
fe
08
1a
ea
fd
fb
19
eb
e8
f1
f5
0a
ea
11
1d
00
ea
08
13
15
e2
e5
0b
f2
25
03
07
ea
e4
f6
01
db
0b
17
ce
ff
f6
f6
0d
f3
0d
f9
e3
05
fc
ef
fb
13
12
0e
03
f3
05
00
0e
25
df
01
09
02
11
f3
15
05
f2
12
08
15
f8
f0
fc
16
01
fe
f8
02
ff
06
18
f2
01
e8
17
38
1f
fc
11
19
09
df
1b
16
e0
f5
fa
1c
f9
03
e7
fb
fd
e4
ff
05
f5
00
0e
0e
10
fa
ee
0b
08
f2
05
0d
02
04
1a
f4
0d
f8
16
e3
00
04
1f
00
0a
e6
fe
06
02
e7
18
1b
03
0d
f7
eb
0c
07
fe
f4
fc
0d
f9
f5
06
fa
0c
0f
09
1a
f9
03
05
18
18
e7
08
2b
e2
ea
04
f1
06
05
fe
13
16
fe
11
20
f8
f2
eb
eb
07
fc
f3
23
10
ea
f4
ff
fd
00
04
08
f0
f6
09
fe
f4
ff
f2
14
df
04
e9
dc
ff
0a
06
06
0c
fc
16
0d
ff
f5
0f
fd
f9
12
03
c4
f5
0d
01
02
ec
02
0a
f7
f1
0a
f5
0a
0f
0c
fc
f2
07
05
fe
f9
e7
07
fe
26
20
0e
18
0f
e6
f3
eb
ec
15
ed
01
df
0b
18
ed
12
13
f2
ef
09
06
d6
17
0c
1b
07
10
17
0e
03
1a
fe
fc
fd
eb
16
00
e4
fd
ec
0b
fc
0b
0d
0f
ee
00
0d
f6
1d
1d
17
fe
e5
fc
ee
0d
14
f7
f9
04
05
fa
f4
f5
ff
e2
f3
1e
ed
fe
f7
16
fd
fb
25
1b
f6
04
0a
03
23
09
ec
06
f6
f9
04
06
09
08
2a
e2
0b
f4
1a
13
20
15
0e
f7
0d
04
d8
fd
0e
ef
f0
e0
f9
e3
f7
28
04
ff
14
fd
f6
ea
f4
f7
01
0a
ee
0a
11
fc
12
08
fb
fe
1a
1b
ef
e0
03
19
e0
fe
0f
1f
eb
05
04
13
1b
ff
0d
01
ec
0b
1f
29
f0
15
0a
f8
10
f5
05
fc
e5
f5
10
00
11
f1
f8
ef
f6
05
fa
fb
ff
ee
05
15
f3
fd
fa
e9
05
07
f8
fb
fb
ff
00
ea
f0
f2
07
24
fc
e8
09
12
0d
07
07
e8
0a
07
fe
f6
fc
ed
fa
00
0b
fc
f7
18
08
16
03
fb
09
fb
e6
fd
19
e4
0d
f2
ff
fa
eb
f1
ec
0f
1f
18
f9
e5
e9
f4
f5
f4
db
00
00
10
e9
10
08
f3
fd
f7
10
24
04
20
13
0c
0c
e6
e4
d9
ee
ff
0e
10
fb
0c
d0
eb
04
0b
f3
f7
d4
05
fb
15
ee
04
ef
ec
18
f1
ef
0b
05
ff
13
0b
f1
08
cd
dc
02
0a
f6
fc
0b
dd
0c
0f
14
f8
09
02
ea
0b
0f
fd
fa
00
03
1a
1a
13
f7
0a
e8
f9
04
f8
13
fc
0e
ec
df
d7
cf
07
0d
f1
ef
f0
01
08
ea
f8
15
e2
fc
20
fe
ff
f6
eb
fa
13
02
0a
f6
06
07
14
16
fe
f9
d4
00
fd
10
fa
07
f0
fc
e0
0d
fa
0a
09
00
e2
f7
1e
18
02
1a
db
10
fe
07
f4
14
dd
0c
14
f8
f7
19
da
0c
fd
14
13
01
f9
1b
ff
ec
fb
06
f9
e6
07
ed
10
02
10
ef
f4
ce
fe
fe
fd
02
11
1b
1d
04
fd
0e
03
09
ea
04
fd
fe
2f
12
17
f9
ff
33
f5
e4
3c
fd
04
e7
00
ef
04
04
f7
01
fb
f5
ff
f3
f4
0a
e1
fd
00
ec
f4
07
e6
0c
fb
14
12
0a
ed
01
f5
0c
16
ed
ff
00
19
14
f2
0b
0d
08
f6
fe
01
05
ef
fe
11
1f
08
0a
f8
23
13
f4
0c
02
f9
ea
00
ff
1c
ff
ec
f7
19
ca
f4
03
fe
02
e7
fc
02
17
dc
13
07
ef
e4
1f
16
f9
1b
fc
11
1f
f8
2c
f4
05
0f
f4
df
09
ff
d4
16
fb
f4
ff
07
0d
06
fc
01
f9
1c
f2
04
fd
f1
05
fc
ff
fc
f5
f4
0d
fd
fe
02
11
ff
14
0e
e1
f2
03
f5
f1
fc
ed
14
07
ed
fc
1b
ff
05
ee
fb
fe
ec
fc
02
11
11
ff
0e
f9
ed
0f
e2
01
11
05
02
e6
04
02
f8
ea
08
f2
f7
0a
fd
ff
07
fe
fd
0d
d1
15
fa
14
0c
ed
ef
1d
03
1c
06
e8
f9
0e
e8
fe
06
0b
ef
01
e5
fd
ff
0e
01
1c
e6
fc
04
17
ee
0e
04
07
ec
09
02
04
f1
07
1e
fc
f6
0e
fe
f9
f5
fe
fb
04
fc
01
f9
f6
ec
f9
f9
f2
04
ea
09
03
1e
fe
04
07
fb
f5
01
f9
03
0f
fc
ff
08
f2
0f
18
f0
ec
01
ea
f7
e3
26
f4
08
f7
fc
ff
11
12
09
f4
f1
0e
00
f7
fd
e9
06
11
07
fb
ed
ea
fd
03
01
02
1c
f8
ef
fa
05
0d
0f
17
ec
20
1e
15
f9
ff
13
1f
14
0a
05
fd
e6
01
15
f4
05
0b
e9
07
04
f9
06
05
08
f7
0b
10
02
14
04
f2
13
09
f6
0a
f8
fa
ff
f2
f7
ec
f3
03
f0
f1
0c
09
f1
0a
f8
e6
f6
f4
00
11
1c
1c
1e
07
18
01
09
1a
f9
11
15
07
fc
f0
0c
00
15
df
0a
05
fe
de
e6
f1
ed
e2
f3
1a
f5
00
22
02
05
26
09
fd
f9
0f
00
2a
12
fa
04
de
02
fa
0c
07
e0
15
f7
0e
e9
fc
02
ef
ff
f2
03
14
f4
f9
0d
f2
d9
1b
0b
08
e5
d7
14
ef
f6
08
fc
01
f1
fd
fc
ea
f2
12
fd
f5
03
13
07
e1
15
ee
1a
08
07
1f
13
12
f2
f3
ea
0f
ff
17
fe
01
10
01
17
f5
10
f8
10
07
ff
fd
f9
03
ee
10
0e
29
14
ed
fd
f0
07
eb
ea
01
ea
14
fc
0c
07
f4
f6
eb
1c
17
fe
1d
e7
e2
e0
12
24
ee
07
09
16
0d
0d
f8
fb
0d
16
09
12
13
f0
f8
dd
1a
0a
1c
01
f5
2e
ff
34
07
ec
e5
f3
fe
03
0e
f7
16
fd
ff
02
fa
03
ff
f0
e7
f2
fa
fe
fe
fe
f9
06
ff
f3
ff
fe
1e
13
16
e2
0a
f1
0a
f4
da
0e
09
04
f1
ee
f7
fb
0b
06
23
0a
f6
ef
15
0f
e5
0c
fc
02
ff
1b
fa
e3
19
e1
f6
03
05
12
07
1e
0c
0c
00
f5
07
04
f1
0f
ee
0b
04
03
fe
00
08
09
0d
ea
03
f0
06
e1
11
14
24
de
fb
06
01
f2
0b
f6
ec
11
02
22
13
ff
f8
f2
f3
ea
09
08
0b
ef
f6
fc
fe
02
1d
f1
e4
05
09
1a
11
05
eb
0c
f5
f7
09
24
17
02
00
01
09
00
0a
01
15
ec
1f
05
1d
0b
09
04
f0
db
ed
04
08
f8
f9
fb
d0
fe
06
fc
ec
f7
fa
08
f3
21
dc
00
03
12
f9
02
ec
f8
1d
f7
04
ef
31
fd
01
ed
09
ff
fd
0e
e9
18
e5
ff
08
f5
f7
cb
22
18
10
f4
f5
ee
df
05
f4
fe
0d
fb
f6
00
f9
f1
ea
15
1d
0e
1f
e7
f4
ff
20
1d
0e
04
f2
18
0c
f2
ed
f3
ff
02
10
f3
e3
18
02
fe
f5
d8
14
fb
f6
0d
09
fd
db
fc
f9
f9
f4
d8
04
10
e8
f7
1b
ef
16
07
12
19
07
2e
ee
f6
f4
f1
fd
03
ec
fb
d8
18
20
fb
0a
02
ef
f7
00
03
ee
ef
1b
f6
e0
02
21
ec
fb
f6
f5
08
0c
fd
05
1b
f1
0e
02
f8
1b
f4
f2
e9
d5
07
09
f6
04
15
05
0e
f9
f5
fe
22
e0
fc
fb
fb
00
03
f7
ff
12
d7
05
1f
0a
f2
ff
e6
fd
f6
00
19
f5
ea
01
f0
12
dd
ff
f0
04
08
00
f7
1c
f6
f3
e4
20
03
e3
eb
06
05
07
ec
f1
21
07
f3
10
09
d6
09
fc
eb
02
f0
07
12
05
fa
15
04
f7
0a
d2
02
e5
04
1b
02
0f
11
e4
f2
f6
fe
ff
f8
f5
00
f4
f3
d4
f4
fd
dd
cf
22
f2
03
00
03
fb
07
fe
05
18
fd
fe
05
0a
01
fc
15
1e
f7
02
f4
ff
1a
13
f3
03
09
fc
e7
ec
04
05
fb
f9
f6
f4
ff
17
05
26
04
fe
01
02
12
ea
0d
0d
00
f5
0d
05
0d
f9
f0
12
f3
06
fd
04
0e
e8
fe
09
0b
0c
ef
f8
fa
fe
fa
ff
08
f5
03
e9
0a
ef
11
11
17
f5
0a
f5
ff
f5
f5
ec
ec
f4
13
05
ee
ff
ff
df
ec
05
da
ea
f4
f2
f6
08
ed
f9
fd
f4
ff
f7
01
06
e4
f7
0b
ff
06
0f
08
0f
04
05
f3
11
f5
d4
17
fa
fe
18
13
f2
0c
d4
e2
1f
0d
e7
13
08
04
08
15
e2
ff
f2
00
f5
e6
fd
f2
05
e1
06
fe
01
fa
05
0d
06
f1
15
f2
e7
f9
10
01
07
e5
f4
12
f4
09
0d
ef
0a
10
06
0a
f2
1e
f7
fe
ee
fd
0e
10
ff
ef
1f
ed
e6
13
ec
f9
11
0b
e9
2f
ee
04
00
f9
08
10
01
fe
ed
e7
cc
26
20
dc
e9
07
3d
05
ff
10
0d
c9
1b
02
df
f6
0d
11
13
ed
f8
06
09
1b
eb
11
ef
04
ff
23
37
de
f5
de
13
f4
fa
0e
01
00
fb
02
02
1a
0c
f0
15
cd
d9
e7
fa
f7
ea
1a
de
08
ef
f0
e0
e0
ec
f5
26
fc
ee
f0
11
ee
12
0e
0d
e6
12
14
fc
dd
fc
d6
e8
d4
e4
ff
f2
e2
1d
14
ea
fe
ce
e3
03
f7
21
f2
0c
02
16
b6
07
32
ff
2f
f1
12
f3
e5
ed
ec
1b
0c
02
20
ff
09
05
eb
d2
e4
31
ec
ce
36
2b
f7
ff
18
09
15
ec
0a
ef
ff
f4
0a
02
f4
0e
05
19
30
09
fe
1e
ea
14
16
f3
14
04
de
f8
f2
04
dd
05
0b
04
db
e1
31
27
13
31
f3
d4
ff
ff
17
27
ff
03
08
e3
d6
ce
05
22
f3
11
0e
3a
0a
0b
30
da
13
ff
14
eb
09
e4
05
ef
11
cc
e0
04
2c
0a
12
03
f4
16
f2
d6
1b
f6
ed
09
f0
d7
04
0d
e6
dc
0c
04
13
e1
f3
f9
1c
f0
0b
0a
d0
f9
0e
0a
fc
e6
d4
f8
1f
e4
03
ed
1f
e0
34
e0
f0
e8
30
f7
16
e2
30
e9
f4
ef
aa
01
04
ec
3a
12
05
4d
28
fc
02
09
eb
03
f3
f6
f1
f3
1a
09
eb
fd
e4
e8
fd
de
0f
d2
18
1d
ec
19
f4
dc
05
be
e9
1e
0e
ed
02
02
ef
d8
e0
f3
f4
e4
09
e6
f6
f5
d7
17
19
0f
03
ff
1a
f6
fe
09
24
f4
1d
e2
03
fa
fe
1a
3e
f4
de
01
fa
14
e8
00
06
f8
1a
f3
ea
0d
08
d1
f4
0e
c5
19
09
fd
12
ef
18
0b
3a
1b
25
33
fc
f2
04
0d
f0
01
04
1d
f9
18
05
16
0f
10
18
10
e7
15
07
0c
df
27
25
2f
26
f2
e6
02
fe
ed
cb
03
0e
f1
2b
13
26
21
09
d9
2e
1e
12
f8
e5
d4
1c
14
ff
26
23
0d
df
e7
f7
02
13
16
e1
18
f8
f5
15
0e
16
f9
0d
07
f3
fc
2c
e7
f0
27
05
db
fc
04
fb
1e
dc
fe
e5
e1
13
17
f9
03
d2
fa
f1
28
18
14
f6
03
16
0d
02
0e
27
24
f2
18
e5
05
e0
e6
29
fa
f3
f6
10
de
03
23
13
01
ea
16
e4
f7
18
f6
cd
13
ed
32
f0
f0
0b
f2
e9
f2
ce
f9
1e
fb
e2
0c
11
f9
2e
f7
e1
fe
05
fb
e2
04
f7
e8
d2
db
fe
e2
b0
03
47
f3
ff
f9
0b
d3
ee
c6
2a
10
f1
fb
fc
f5
36
45
11
ec
ee
20
07
07
de
1e
dc
04
0a
0b
dc
e5
0c
f7
08
ed
f7
17
31
d5
2d
10
d4
d8
f3
24
f3
fc
13
ff
f4
0f
e3
2f
f2
06
25
03
e2
f1
09
fb
cd
2c
14
d9
12
ed
fd
11
18
1e
03
f4
dd
14
00
fb
eb
0d
00
06
0d
0a
0e
d9
09
fd
0d
04
dc
0b
03
2c
dc
ee
1a
03
30
25
e9
d6
05
fe
01
e6
0e
eb
fb
19
f4
fc
f3
04
e7
de
0e
19
02
0e
44
ff
ef
f2
f6
f8
e0
23
ef
05
f7
22
fe
05
0c
10
d2
07
00
18
c6
c7
d4
e1
ff
02
15
2a
fd
06
d1
11
f3
fc
23
3f
00
26
ed
cd
e9
cf
09
0f
cc
10
00
0c
25
10
ed
16
13
00
e9
2d
02
3b
fa
dd
07
f7
f3
25
df
0c
0c
14
32
27
26
2d
eb
f7
1e
09
0c
02
ed
0c
24
ee
ff
13
16
f7
13
14
fe
04
03
fa
f9
d2
ff
09
41
f9
ee
ea
dd
f3
05
2f
2e
eb
f0
0a
f2
fe
25
16
f9
d7
d4
f8
d8
12
d3
0b
fb
f7
d9
08
fa
21
f6
f2
1a
17
22
fa
fd
f9
e9
fd
33
f6
fd
07
e8
22
f9
13
33
04
1c
df
e8
f3
2b
27
ff
f9
dd
18
10
fd
fd
0e
00
0c
d3
05
9c
e3
fd
19
fa
10
12
0f
00
eb
fe
e8
e2
f9
01
e2
11
ea
fa
09
e5
fe
f8
c6
28
e1
06
1a
c6
ec
12
f8
06
f4
ef
ad
ff
09
dc
f6
02
eb
f2
1e
d2
21
04
31
fc
2f
f7
33
ed
0c
c7
e9
2f
20
25
e8
f7
01
e5
f4
d0
d0
e2
dd
f9
04
18
df
f9
be
4c
ef
d4
1a
da
d7
dc
f5
10
14
11
ef
d4
e4
fe
0c
0c
fb
34
fe
eb
08
17
0e
13
11
25
c5
dc
02
e9
dc
fb
02
e4
16
df
2c
10
d9
f2
34
f3
0b
f1
36
23
0b
03
f3
27
fc
e6
26
e9
07
16
f5
17
1b
dd
2a
d8
14
ea
c8
f0
0e
01
e5
1d
e4
07
11
ed
16
e9
ed
aa
25
07
ec
f5
d3
cb
e8
0b
b7
06
24
06
e8
e9
f6
12
f5
f2
15
fb
ea
04
1a
d2
f9
ec
f3
27
f2
06
f4
1b
0e
15
f6
0f
14
1e
e2
bd
07
e7
0e
12
db
16
c0
fc
1d
d4
fd
f8
df
18
0b
0c
17
e2
f2
f8
04
19
14
18
00
3a
2f
fd
e8
12
f6
d7
fe
13
13
fb
c8
41
ea
fc
04
1d
ed
f8
f1
1f
06
19
dd
e9
d0
00
0c
e6
dd
1c
ee
f7
01
08
10
fb
11
24
1a
1e
0f
22
f2
0b
db
2b
ea
f1
f4
00
02
1a
07
e4
d4
c0
e3
1f
09
d0
d4
01
e0
e4
18
1a
ff
15
12
ee
c1
d6
db
ef
0d
cf
c2
00
e7
e9
09
e1
42
ff
f3
f6
e7
ff
1a
08
0a
f5
01
22
14
ec
ec
e4
f2
f5
db
42
04
f9
07
d0
d1
21
2c
e6
e8
1a
1d
e5
fe
0d
1c
ea
fe
07
1a
28
ec
2f
d0
03
1a
fd
f3
f8
f8
e5
d5
0c
30
27
07
f9
22
e9
00
1d
0c
0f
05
ba
f1
e3
de
0b
2c
20
17
22
00
f9
d2
0e
df
16
34
06
02
dd
c4
17
e7
f2
f5
07
d6
0d
0b
12
ff
e7
e2
0a
15
13
28
1b
1c
e5
01
10
f9
fe
e0
2f
17
0f
11
15
ee
18
ff
ee
ed
01
01
dd
f0
eb
dd
13
fc
2f
00
f0
26
eb
24
03
f8
d8
d8
ec
f8
15
01
f9
12
04
e2
1a
15
07
fc
fb
fc
19
f3
2b
e7
f4
09
14
17
df
27
e9
ff
00
eb
04
0b
0c
ee
0d
e7
fe
17
ea
f4
eb
e9
1e
05
fb
f8
1f
24
18
e5
d3
e2
16
f8
ea
07
f2
ff
14
fd
f4
f2
00
39
ec
18
15
e6
0f
f5
00
09
f6
f7
f2
05
f2
c8
eb
ea
04
fe
fe
40
0c
f5
21
e9
f6
0a
16
08
ee
31
f3
06
ec
07
0c
d2
e3
f6
f3
2a
e8
f8
13
e7
f1
2f
f7
c4
14
35
16
db
df
0d
06
ed
ff
13
21
f9
07
f5
15
2c
0d
ce
fc
0e
27
12
08
df
e9
14
05
16
e8
01
0b
29
df
13
2a
48
02
ec
11
13
06
18
ee
e9
f8
0c
fc
04
ee
49
0c
f1
32
21
00
f8
e8
20
1f
fc
f7
2f
34
be
05
01
e7
ec
e7
16
14
06
f5
fc
04
09
fe
30
fa
29
1e
ea
fe
23
ff
fe
ec
09
05
07
1c
38
3a
fd
ff
07
ed
fe
f8
22
eb
00
f6
f6
02
ea
55
29
e7
f3
f5
fc
27
ec
ff
1a
02
04
11
e6
0b
1c
f4
fb
0c
e3
09
fd
e9
f1
e5
0f
f2
e6
50
1f
db
ee
1a
1d
12
ec
e1
06
0a
da
f6
f9
3c
df
18
f3
18
e5
0a
08
16
dd
f9
21
08
0a
d3
f8
de
d9
f4
f4
06
fb
06
f7
e7
0e
26
0a
f3
0b
0b
ee
de
b8
e6
26
d6
11
f9
01
17
e7
21
02
22
03
be
26
fd
e3
19
ff
0b
31
02
26
e6
e9
0e
0b
f9
f5
cc
e6
16
f7
12
1a
02
f1
ee
e3
ed
04
45
00
e9
21
12
03
fc
ed
c5
e8
1b
25
e9
ed
0c
09
13
cd
f2
07
ed
fd
3a
ff
f4
00
2e
ec
01
07
e3
04
00
31
e2
e8
15
21
27
f3
13
df
ed
f9
1d
ff
f0
e8
5e
fa
dc
0d
fb
24
ec
dd
1f
cd
e0
03
1d
bb
2f
fe
d3
ea
2e
dc
3d
1f
e6
01
17
0c
10
02
20
f7
e8
d0
1a
dd
ef
25
09
ea
fc
f7
eb
e0
20
2c
ef
e2
02
e8
18
f3
df
e5
0e
05
e0
18
23
42
f8
f7
ed
ea
ec
ef
01
f5
f1
05
e4
2c
0e
f1
10
3d
05
ef
32
14
d9
1c
11
fc
ea
35
0b
00
1e
ca
ed
f8
f1
07
f1
03
ec
29
e8
d9
09
22
04
30
00
22
fc
34
e9
e2
ec
03
2d
e9
ec
04
cb
f5
0d
e4
1d
c6
57
00
fa
ff
19
01
13
39
32
68
15
01
f4
f4
28
ec
1b
13
10
fa
f3
17
05
f6
dc
ff
fe
ec
09
04
ea
f9
fb
ea
19
ea
22
fd
fd
db
e8
ed
ed
c3
3b
08
f5
fb
25
d0
06
11
e1
f4
45
01
03
ef
fa
01
3f
0f
e1
e6
fa
1f
12
eb
0a
0d
f4
ff
05
e9
08
f0
20
ea
26
0f
fb
02
ed
2d
f8
df
f2
31
e0
13
01
eb
21
f2
06
29
0e
c7
f3
f5
f7
36
f3
f6
f3
20
1b
e4
07
d8
01
f8
1b
ef
1a
d7
d0
ee
f1
e2
0a
21
ff
f7
f6
07
f1
f4
ed
e4
0d
2d
3c
1b
de
0a
ef
18
05
12
f8
08
2f
02
e9
17
f2
1b
de
eb
14
03
f7
1d
21
e9
fa
11
e0
21
f1
02
19
04
1d
02
f6
21
b5
fa
1c
1a
15
da
d2
25
dc
fd
d4
f9
32
1a
f2
f7
01
26
17
07
03
fb
29
20
0a
ef
f6
f3
13
0c
11
09
f2
dd
05
de
e5
fc
08
18
11
12
18
f5
02
24
0b
fc
e6
d8
fe
e4
01
07
e4
18
f6
f7
fb
0a
30
09
16
0a
1b
02
2a
18
df
17
03
df
2e
18
00
f3
ee
e7
17
0f
e4
e6
f1
e8
0c
17
2e
c9
ea
e0
14
fb
18
01
2a
db
dc
0c
07
e6
da
09
16
00
17
c9
d8
23
36
00
39
f1
fa
ff
f9
ea
08
eb
e1
02
09
15
e9
fe
fc
fb
18
f1
30
05
fa
db
15
ff
fb
1a
cb
0b
19
e8
02
36
e0
f6
d5
16
14
e7
fc
c3
19
03
fc
08
02
f1
05
f3
e0
16
cf
e3
06
ff
ec
f1
de
1e
3c
d1
df
03
f8
dd
19
e8
e5
da
f0
00
06
ef
16
f0
f0
17
e8
03
0e
11
e6
0a
28
0f
0d
19
ef
fe
e9
f9
07
13
fc
fb
03
e7
f9
1b
d5
27
02
20
ef
01
ea
f9
18
e7
06
1f
18
f8
f6
e5
fb
e5
00
00
13
22
fc
16
f0
14
10
1c
02
c7
01
f0
f5
e3
1b
49
fc
08
db
f1
0c
cd
f9
18
e9
18
0d
09
04
0d
0f
29
1e
fb
01
13
08
22
20
ef
0c
0c
14
fd
e1
fe
ba
ce
00
15
09
fb
ce
0a
1d
10
bf
e0
20
24
35
fe
f1
04
f8
00
09
2b
01
f5
f9
05
fa
2f
e4
42
0a
fc
1c
11
05
08
10
fe
f8
1a
e8
11
03
13
e8
f8
e8
c8
ef
e7
d8
db
20
09
14
e5
e9
14
03
29
05
f4
e0
f4
ed
ea
09
1c
18
eb
12
0c
f3
f0
0e
f4
0e
f1
0c
fb
0e
05
fc
10
0d
fb
e9
ee
fb
f1
f8
d2
18
f3
ff
08
c6
ee
00
00
2a
28
ff
fa
2b
06
02
0c
e8
10
14
02
df
0b
04
07
ce
db
08
06
2d
22
0b
26
f4
fa
fb
0c
0d
32
0d
fb
e4
0b
02
ef
ea
fd
0a
fd
ee
17
ee
eb
ec
dd
ff
f2
f5
e9
35
01
f0
0c
1c
fd
cd
f1
09
0a
ff
13
f5
f8
19
ee
0e
03
27
1b
0e
e1
e0
06
ed
e7
f5
25
e6
04
e3
05
e5
d9
f9
1f
11
0e
fd
d0
b9
e5
d7
21
f8
fa
d3
f9
f1
30
e7
d6
f9
24
db
0c
f4
fb
0e
20
1e
11
f0
0c
06
f3
22
f6
07
d4
d1
0d
fa
e5
0a
ff
e6
ea
15
10
e9
0d
07
ef
ed
14
1a
e2
22
06
03
fa
01
f4
17
ee
06
0e
18
f7
f5
f3
d4
f4
f8
10
f5
fe
f7
1e
22
12
d1
0a
05
0f
0a
e1
c4
2e
f3
fd
29
25
0b
2e
17
fd
0b
f9
ff
0c
22
2d
d6
0f
3b
dd
05
f4
05
e8
0e
03
29
cc
06
f0
db
de
d2
fa
d8
fb
ea
f9
ce
e1
00
09
03
05
f6
2c
02
d0
f7
cf
d8
f0
de
e1
03
f2
e5
03
db
d5
fe
d8
0e
fb
e9
0b
2a
07
27
15
0b
eb
ed
24
f1
05
05
0c
19
08
ef
fc
eb
13
c2
04
f1
ea
f6
05
0e
e7
de
18
0f
de
0e
0e
ee
14
f0
26
02
0b
e4
dd
0d
07
07
f4
07
f1
e8
08
14
f2
ff
d2
04
0e
26
0b
fd
ff
e4
f7
05
01
fb
14
ca
da
e8
04
fa
f2
df
35
09
e8
23
08
fb
29
ea
0c
12
0d
1d
42
c5
ee
08
11
db
fd
0e
07
04
10
0e
3e
f0
fc
30
d2
e7
17
10
10
da
0c
11
f0
15
13
2a
03
f8
0a
d7
24
dc
01
03
f0
06
fc
07
13
f3
06
df
0e
1c
1c
14
ee
22
f1
f2
07
01
27
e4
07
ee
f5
06
0f
10
23
35
22
d7
19
db
01
0a
04
f2
ee
3c
0c
f6
01
ef
ec
18
eb
fd
f7
fb
fc
0f
02
2c
d5
10
1b
ff
0b
fd
27
3a
08
f6
bd
1b
16
f8
e4
fd
f4
e5
01
fd
11
f5
e6
13
f8
ee
f4
0f
e5
0a
09
18
d4
ed
1c
1c
1f
01
0d
15
e2
fc
00
ff
f6
fe
ef
13
fe
09
fa
e3
f3
18
f3
1f
0c
09
fa
08
fb
42
11
30
fa
db
d6
36
02
ea
d3
e3
f3
02
fd
be
dc
11
0e
07
db
0e
09
1f
10
f8
f7
e0
ec
e9
02
de
22
e4
d4
e3
02
fd
fd
fb
f9
e4
f6
f0
d5
fb
0c
08
13
e2
0b
15
f3
f1
f4
14
11
28
1e
e7
fa
01
09
f8
18
e2
01
00
06
f6
fb
ef
ea
0b
fe
dc
c3
0f
e2
16
0a
ff
f2
fb
1d
e8
02
15
06
00
26
e5
3d
0b
d1
1d
10
10
19
03
e4
cb
00
f5
06
14
2f
e7
08
43
31
e4
ed
18
cd
20
16
ef
f2
18
17
dd
d6
f4
26
0a
ea
ea
06
12
0e
d8
ba
0d
10
01
07
e7
af
02
c6
ef
fa
31
16
1e
d1
e3
ea
e3
ef
fc
cf
1c
f4
e3
f6
f9
2d
de
12
0f
02
0f
01
21
f2
de
07
08
05
0f
e1
15
fe
c7
d9
cd
db
0d
01
1f
e2
1b
ed
1b
11
0f
18
03
ec
c5
f0
ce
43
14
16
f7
09
f3
ed
25
12
fb
ee
17
28
e2
f7
37
2a
00
14
f7
39
24
f8
1e
25
fb
dc
fc
00
e8
d2
04
00
02
e7
05
fa
19
fd
05
f1
10
04
11
12
d1
2a
38
3e
1e
f1
e6
f9
fd
04
11
fd
01
cc
ff
f9
f8
e6
0e
ea
22
48
02
fd
f1
db
fa
f4
df
fa
f3
dc
03
cf
22
ef
d0
eb
12
fe
00
f4
12
c9
f5
0d
f7
34
f7
04
10
f7
12
09
f8
fa
09
ea
f2
28
1c
e3
0f
e7
13
0b
ed
e6
f6
e9
ff
06
e1
1b
1a
e4
13
dc
20
e9
e3
f0
f0
f3
ef
f9
18
01
05
e5
0a
fe
f6
0b
db
e4
02
1f
f8
f9
19
0c
f7
e0
fe
01
0c
ec
0c
fc
37
f1
fc
0d
0c
20
ef
06
09
1d
ec
dc
fa
01
06
fb
e7
07
0f
26
14
f3
f6
e4
f6
07
ea
1a
04
1d
1b
f2
16
0e
12
0a
e6
00
f0
28
02
d9
12
f3
01
04
0f
27
cd
05
ef
04
d8
e1
09
23
20
00
f0
21
18
16
fe
dd
ee
28
ff
17
0d
ce
35
11
f1
fe
f8
16
ec
03
15
1c
fc
ef
0d
19
20
fc
05
ff
ff
fc
fa
f3
e6
ed
c7
ff
08
18
f1
f8
e2
d5
fb
0b
10
0e
ff
f3
da
f5
da
16
ff
2c
1d
e1
08
19
dd
08
cd
09
ef
3f
e1
17
f5
05
ec
da
cd
d1
21
f9
ec
0b
2e
11
19
03
ed
18
1a
eb
07
ef
d7
11
01
fd
06
f4
eb
05
02
e2
e6
0a
0e
f2
0e
f6
f8
07
e7
f3
f5
00
ec
e7
d9
e8
c6
e4
f7
09
02
fe
15
ea
11
0d
00
f5
1a
f9
f8
08
e7
21
f6
db
07
10
ee
05
ee
f5
f7
f7
ff
12
f1
e2
f6
17
e7
ed
08
f0
01
f1
08
03
bc
f6
fa
07
1b
05
2b
cd
02
26
11
d1
16
0a
0f
18
0f
ff
04
d7
35
2d
08
07
f9
e9
f0
ef
ef
04
07
ea
31
13
0a
35
14
f0
13
10
0c
12
10
08
02
db
eb
11
ed
24
f1
35
dd
1c
ed
ff
1f
e1
1f
02
c2
fc
de
f6
05
11
08
05
36
0a
f0
04
02
20
e2
e1
fc
15
03
0b
dc
fd
f2
11
f2
e6
0b
14
cc
1a
12
e3
eb
c5
22
df
0b
d9
09
f6
fc
e8
f4
1e
11
ee
f0
22
15
1a
01
12
f6
ff
d5
cc
06
0c
f1
15
d6
13
fe
1a
28
e7
07
e0
1f
fa
0c
f7
fa
f6
35
18
16
0e
0b
ff
f1
ea
2c
d6
e8
06
e1
02
08
16
33
e4
14
01
26
e6
fc
51
f6
0d
fd
04
1a
f7
08
2d
17
f1
f7
0f
16
13
e4
fc
ed
14
cf
c8
30
20
1d
09
35
24
ea
fe
27
08
f0
fb
e2
0c
0a
f5
d7
19
0e
0f
19
4c
d1
f7
28
07
fa
0c
f5
01
37
57
dc
fb
fd
02
08
f0
d9
08
0a
fe
1d
05
0d
11
ff
05
14
d0
f3
2d
f6
1f
0b
e7
00
01
0a
1c
37
e2
11
fa
20
20
fe
e4
f1
04
fe
e9
f1
0b
08
f1
0d
f6
00
e4
15
d5
f7
f1
02
1b
17
e7
27
01
19
32
08
2c
0f
34
e1
e1
25
06
fc
e8
d3
03
14
e9
e4
00
da
da
0e
f1
16
07
0c
0b
24
08
e9
ec
0f
fb
20
03
00
14
0b
0f
1b
21
01
fa
e3
ec
dd
e0
17
00
11
fe
1d
e4
dc
09
fa
f5
ea
1f
f7
fc
f2
00
0c
07
15
fe
f5
2a
02
19
fe
fe
12
e3
ea
e2
13
e2
f9
db
1f
ff
09
d8
f3
fe
da
2d
15
0c
18
fd
f2
19
d1
0b
ff
df
e2
f9
f3
24
f6
f5
0a
cd
00
1f
16
19
0c
ec
01
04
05
ce
fd
f5
15
10
f2
fc
3d
f3
10
ff
fb
04
e4
12
2f
d8
0b
12
1d
0c
02
ed
f5
0f
29
f4
e2
1e
20
09
e0
00
e8
fc
07
0f
02
15
23
f3
fb
0d
63
08
e2
32
f4
ec
ed
03
06
ca
12
0d
1a
21
10
e3
d2
e3
f2
fb
f1
ed
d9
0b
e4
e8
e3
16
00
fd
04
10
0a
e0
fe
ed
fb
22
11
10
0d
15
e9
f6
1b
fc
e4
d3
e8
04
f6
e7
ee
ed
fb
2c
11
e9
cf
1c
f0
f4
ed
e2
13
e5
10
e6
f7
11
0a
fa
e7
e8
f9
e9
15
e2
2d
f3
07
10
1b
cd
f8
11
fb
f1
f6
e7
16
e3
e5
16
1c
01
bb
03
0e
1b
ef
04
24
fb
05
22
fe
e0
03
0a
f5
36
ea
08
0e
42
19
18
ff
16
fe
25
e9
08
f9
18
13
fb
02
d2
0c
f4
04
f6
ec
00
18
e7
ee
f6
f2
b7
d1
f6
17
de
f1
ee
33
1b
09
0e
c8
1d
22
10
0e
16
0d
e1
b6
0c
f8
e8
0b
cb
18
ed
f6
2b
14
25
22
e3
28
12
11
d3
12
e7
12
20
e8
f9
17
23
1a
0d
35
05
fe
e2
36
00
39
1a
f4
fe
fc
09
0a
f4
09
de
24
14
f7
ff
12
01
12
ef
04
12
48
24
18
f1
09
e1
f6
3c
21
dc
04
ee
c7
08
e4
29
2d
11
10
eb
13
1b
1a
ff
d4
fa
ff
0e
ff
09
ff
f6
08
c5
ff
17
16
04
20
fa
08
11
f4
f7
f0
31
e9
ed
06
e0
12
e6
04
fe
e6
0d
05
f1
19
05
33
d9
0e
16
f9
fe
17
03
2b
ff
ee
fc
d4
1a
e5
e3
0a
fc
da
10
02
ca
f8
02
ec
ca
07
fa
1b
43
f7
05
e2
0e
07
03
01
c7
e7
f3
e3
13
0d
1a
13
e7
e8
2a
0f
ff
f5
30
f0
d1
09
24
ea
fe
ec
fb
fc
00
f5
29
f5
18
26
0f
ac
1a
ea
e7
04
10
ee
0d
00
f2
3c
09
08
fe
dc
e9
17
d8
3d
ce
4d
f4
e7
fa
23
01
1c
0d
4b
30
d7
1e
f8
06
02
f4
19
0d
10
02
fb
2d
22
1f
f6
16
dc
f6
d2
00
10
fc
eb
03
fe
0f
f4
c5
fe
1c
ff
17
1a
eb
18
0d
02
e8
0c
e9
31
10
f0
f4
f7
f6
fb
dd
cf
09
08
0b
01
f7
05
18
09
16
0d
0c
ba
2c
ba
fd
db
f0
26
05
14
c3
13
3d
09
fd
01
d2
06
12
20
fc
fb
f6
00
17
e6
3b
df
fe
0b
fd
f4
07
ec
08
f5
0e
0c
2f
04
e8
01
ef
0f
ec
0b
fa
0b
d5
22
f6
01
24
1e
01
fe
e8
ce
04
fe
cf
0d
0b
21
e5
db
24
1c
e5
0b
10
0b
fd
ee
e2
e8
08
e6
e7
ec
1e
04
e6
e8
07
e8
0a
f7
0d
1f
da
15
0a
f4
b3
0d
08
04
14
1c
12
14
f6
33
1d
16
d1
0b
dd
28
21
0b
e3
04
00
10
11
23
cd
25
0e
0c
f2
c1
f1
3d
0f
2b
f8
ca
f2
09
f9
03
02
0e
de
08
34
00
e9
ee
08
fb
f4
f9
f0
e6
ef
ec
2b
fa
1d
3d
00
c6
17
12
f7
fa
da
1e
f8
3e
14
e7
1a
ee
19
d1
f3
0d
06
bd
ff
e7
e7
16
22
de
0d
0d
14
14
fc
1e
f3
ef
f4
03
e0
0d
f5
e1
22
0f
fd
fd
fb
24
eb
18
f4
04
01
e6
ec
29
0b
08
29
10
11
29
ed
de
e5
01
f7
09
12
03
f1
ed
0f
19
e1
02
14
d3
13
19
dd
db
f2
13
e1
06
14
02
e4
e0
f0
de
05
f3
bc
0a
d5
0e
30
11
19
0f
02
f7
35
0b
ea
0a
07
12
e7
0f
ea
2d
0b
f6
cc
16
07
e1
0f
13
f9
f9
06
ff
02
05
02
0b
01
02
eb
e0
20
0b
1c
eb
13
1a
c9
ed
1f
d0
0d
03
d9
1b
e2
c3
fc
ce
f3
02
0a
0a
f8
fd
f7
c1
f0
02
e8
ef
e0
fc
01
90
fc
f4
f6
09
e3
01
e7
04
21
57
00
db
0a
de
0d
04
fc
ff
23
fc
11
dc
05
e2
08
e1
7e
f2
07
ec
03
03
08
fd
08
0c
d4
1a
3a
e5
ea
d1
ec
12
fc
d0
f7
ea
20
f5
08
1e
03
f1
1b
e7
04
f2
ef
27
17
c9
00
14
fe
e9
f9
fb
24
2a
f0
fd
1c
ea
02
f6
13
e0
e9
05
ff
cd
cc
df
ff
f0
13
f9
df
e5
34
0c
0a
d6
09
f0
cd
fb
ee
3f
1e
fe
2a
0d
ef
07
f4
20
0b
1c
0a
0a
cc
ed
e6
de
e1
53
ea
0b
18
f3
18
12
cf
07
fa
1e
0a
ec
d2
d5
26
11
1f
f8
0b
e3
18
f7
fa
0d
f7
00
22
d7
e5
e1
03
cf
12
fa
12
0d
f2
06
dd
12
ff
01
ff
22
02
f8
fb
e4
fc
e8
02
20
21
0c
09
ef
f5
f0
ff
09
fd
0f
ef
fd
e6
fe
cc
fa
e5
1b
0d
e8
13
f0
17
00
f1
23
e6
07
ed
e4
04
17
49
1e
0d
fe
f2
13
0c
23
1e
f9
ee
f2
1e
2d
31
1d
f9
10
11
0b
fb
fd
49
ed
04
29
24
e9
3c
fd
f3
39
19
15
c9
e4
f6
07
fb
0c
c9
fd
0e
0f
f8
21
10
28
f7
e8
04
18
e5
07
df
f5
05
13
10
e5
8c
e6
23
e5
0b
12
23
17
e8
02
e2
18
1a
18
fd
eb
f5
f6
09
12
05
ef
f1
02
de
0d
ea
ea
0f
06
fa
fe
d2
04
ee
10
03
f4
ee
e4
08
1d
25
eb
f0
35
ca
07
09
07
14
05
f8
f0
d9
10
e3
f3
ee
01
13
ed
27
01
08
1b
b0
e7
08
00
15
06
dd
fe
ec
fc
07
0a
ee
db
07
fc
00
db
18
c1
fb
30
ce
cd
0f
07
ff
e7
2d
12
fa
0b
e1
08
0b
10
1d
e7
fc
fa
38
f2
08
e8
12
03
de
10
07
2a
f0
11
ed
0a
ea
11
2d
09
03
22
f0
fc
0f
22
28
04
06
e2
21
ef
fb
3f
08
f1
f0
ec
2a
f5
11
03
29
eb
19
e8
15
27
0c
04
0b
0a
f5
ee
04
00
e6
de
f5
26
fc
17
3d
49
fc
da
f8
fb
f8
08
06
10
ff
29
15
f9
ee
21
e6
23
11
f4
00
ff
05
12
05
0a
e5
fb
18
05
e0
2d
06
09
f7
f4
11
f5
09
f3
c9
22
dc
fa
40
c8
20
05
0b
e6
f3
23
f4
1d
31
eb
12
fe
15
00
09
10
0c
fd
f6
3c
0a
06
21
ef
f0
ff
d7
20
1d
05
01
ea
e8
0a
1f
24
e9
ce
00
dc
36
fe
11
db
1e
18
1a
10
e1
e8
fc
e7
01
ec
11
cc
eb
16
eb
2b
06
f0
15
01
ec
f4
18
32
1b
f1
0d
dc
1e
1c
ed
1e
e6
e0
12
ec
1c
fe
f5
d0
c6
04
1f
f9
04
18
45
ef
25
40
07
15
22
f3
e2
ec
1c
2e
e7
de
ff
0b
06
f9
05
fd
d9
0d
05
f6
11
ef
f5
f6
19
e8
18
ee
3a
fa
e2
27
1d
1c
01
f3
f6
f0
01
1b
e8
f7
f5
e9
2d
f7
0e
fe
15
df
fa
ee
f0
fd
17
03
f0
3f
16
fe
08
27
26
1a
ee
dc
f6
c1
0e
be
04
f2
1e
f9
d6
1a
02
11
06
0a
40
48
fe
f7
0b
e6
2b
ef
f8
11
05
e5
0b
00
13
f2
ee
f0
12
17
0c
f2
fd
08
f4
fc
e1
0d
09
f8
0a
02
12
1c
de
e1
e1
fa
d7
01
f0
13
d4
f7
da
0d
3f
13
cf
fd
e8
1c
06
f1
f3
0f
14
1d
25
06
09
04
fe
01
00
f1
f8
0d
25
11
08
f1
2e
f1
14
ce
1e
21
13
0f
f0
ff
13
eb
df
12
e9
ea
f2
d3
ec
08
f5
09
06
ff
17
fc
f7
60
3e
0d
0e
08
16
e0
ff
19
07
24
00
f4
41
fb
2b
df
c3
20
05
b6
f4
f4
f9
e1
09
fd
11
0e
f1
2c
ff
03
00
ee
e4
0d
11
09
d1
0a
01
0c
f4
e6
e2
02
20
d5
db
e5
31
d7
e9
f2
01
18
f0
f1
01
1b
10
df
f7
d9
01
14
2b
30
32
12
db
21
f7
f8
f0
12
0a
e0
12
2f
07
03
01
3b
18
c9
20
0e
f8
30
14
f8
07
ed
fa
d8
ff
e6
27
04
dd
ea
ff
df
fb
0c
15
17
ee
15
0f
ed
0d
0d
07
1d
09
fd
de
03
c9
d8
e8
f8
12
fc
eb
0a
0d
02
fb
08
f4
12
1e
f6
07
08
2c
f9
0d
03
f7
14
ff
0a
19
1b
fd
30
e1
dc
f0
e9
f5
11
fd
f8
e4
f0
0c
ef
ea
02
21
f8
f0
f4
13
19
1a
f3
d8
dc
da
20
fe
2e
e6
e2
e0
f8
1c
16
0b
f1
07
08
f4
21
0c
08
17
1a
04
1a
00
cc
0b
ef
09
1c
d7
e7
fc
07
05
fb
f0
ec
ef
f3
0a
e4
f5
f9
01
f7
e9
18
12
04
d9
16
ed
20
0e
d5
15
01
e7
ee
da
02
13
db
07
f0
e3
cb
0a
ef
ec
d0
fb
12
da
28
22
fa
0d
1d
12
1e
17
dd
2e
09
fe
1c
ee
28
f8
0c
11
fc
04
02
10
f4
d2
f8
fb
03
1c
fe
09
e8
25
06
00
01
49
19
09
f1
e7
e9
29
16
21
08
e8
02
1d
1f
19
10
1c
0d
f2
05
0c
f1
fa
1f
0d
0f
06
e5
03
db
14
1a
1f
f7
4f
d6
21
ef
29
ea
0f
19
d5
f8
0e
ff
ee
fb
1c
01
10
ed
fb
32
fa
e1
e1
0d
c7
fe
f9
11
e4
24
fc
fb
f5
0d
fc
f9
e6
ef
05
f0
ec
e8
f2
fa
11
e9
18
f3
fc
1f
df
fc
28
03
f1
de
ec
f0
f7
0e
19
1a
23
0f
18
fb
da
e9
0b
e7
ca
f1
0c
16
e8
01
26
0f
14
03
f6
11
1d
d2
10
e5
35
13
0d
d3
d6
1b
21
09
0a
04
17
26
d0
02
0b
13
df
ea
09
03
f8
03
f6
11
ee
ff
f7
0f
cc
08
c3
1a
d0
f6
13
0a
0e
05
21
e8
f2
0e
ff
01
04
d4
08
0d
0d
05
f6
ce
eb
ee
08
e4
0e
09
e1
f8
f2
fa
f7
e5
12
06
fd
06
03
0b
d7
ff
01
24
fd
0f
ee
ea
09
fe
22
f3
02
f9
37
15
1d
fb
cf
e4
e7
07
e4
ed
e8
09
12
03
df
ed
11
f3
eb
d4
0d
ef
d2
12
12
01
e6
e2
df
ef
1a
1b
e5
d4
0a
e1
12
f7
2a
ef
1c
1a
e6
f7
1f
13
06
e7
02
04
08
03
02
18
06
c8
29
15
0d
10
ff
fc
18
ca
1a
fc
24
f0
0d
13
0a
0c
18
f6
eb
21
11
eb
0f
f1
0e
e4
f4
ec
1f
fb
32
28
09
11
1c
fd
06
05
20
fa
1a
1a
ee
1a
07
ed
d4
f5
18
f9
e0
f8
fe
fa
fb
f9
f4
0c
26
02
00
eb
f7
0f
f8
06
e4
ed
e5
01
eb
04
1e
10
0e
d5
08
f7
d5
fb
07
c2
11
06
ee
29
2a
47
01
29
c9
f6
fd
2e
f3
f8
fb
fd
e7
e9
ff
11
0b
0b
12
ef
0f
df
f6
f6
0d
e6
3a
07
f0
ee
1b
f9
03
39
ee
1b
df
16
1d
f4
1c
01
e4
01
ff
f4
e3
18
f9
ea
11
f9
3d
f8
ed
e2
2d
1c
12
f0
e9
1b
02
25
f8
09
df
ff
01
0e
09
e1
2d
f7
07
d3
06
fe
dd
14
d4
ec
f0
18
fc
23
25
fe
29
d3
fc
35
e3
24
13
df
db
f8
e5
c3
f1
f4
e5
f5
fe
f6
d8
0f
f5
00
08
c6
08
03
0e
ee
33
eb
e1
e9
03
13
23
dc
e3
06
e2
e1
dc
51
14
f2
de
d8
28
fd
28
f6
c3
11
2a
d2
d8
0d
d7
f0
fa
f3
ff
1a
db
be
fd
f5
30
20
e2
f9
28
c1
00
df
d8
ed
f1
e1
da
09
1f
02
18
ec
f7
19
0f
f3
f1
d6
29
ea
51
fa
e3
0c
d6
dd
14
ea
e4
00
ea
38
07
f4
ff
fe
ff
fc
f6
07
08
19
2a
2c
25
05
fd
62
e9
05
f3
2a
fe
1b
fe
f8
e8
0f
e8
ea
07
ff
0b
f2
cf
0c
10
d9
28
05
1b
ed
ed
e8
1b
ea
f5
1c
3b
f8
f6
dd
e5
f6
0c
0b
0a
d2
02
f4
0e
4d
f6
0f
d0
16
f1
fe
1b
0f
44
fa
f4
f1
03
ed
0c
24
f3
1e
0b
e0
f5
fe
29
c9
f3
30
f5
0f
00
ef
07
ec
fb
24
09
18
2f
f5
19
42
2c
1f
fb
e0
f7
31
f7
15
19
e2
0f
0f
f0
f2
fa
02
10
ee
f7
28
e3
09
0d
12
1a
ff
1b
d5
e8
0f
f0
1a
e4
f9
fc
14
fb
de
24
03
16
1f
01
2a
fd
fa
b7
09
07
c2
0e
e5
f7
10
41
27
e4
13
0b
f2
09
22
06
f5
f3
ef
f7
16
f7
fb
37
31
e9
41
d1
28
08
f6
16
1b
17
0e
0d
f7
ea
17
00
c4
de
01
14
e4
02
16
18
03
d1
13
0e
2b
1e
14
bb
28
f8
b2
ff
0e
ef
06
f9
04
f0
d7
0f
f1
df
16
07
12
17
14
c6
5e
02
15
f1
f4
f0
09
15
e3
dd
17
1f
ff
d8
17
f2
e8
e5
f4
19
f6
15
17
11
f6
db
c6
30
06
f7
f0
42
00
e6
07
13
f8
04
00
07
cd
21
1d
e3
ec
f9
0c
e6
07
26
ea
16
04
00
ef
27
cd
27
f7
dc
0c
0a
04
f7
db
ed
06
f5
db
0c
44
05
09
08
13
f9
12
1b
07
24
0d
01
e1
ea
13
e7
d8
01
15
0b
ed
06
16
d2
e4
02
2c
fa
ec
06
29
f9
07
25
d8
14
fb
ba
49
f5
0c
08
0d
53
f7
10
ef
1e
ee
e5
ef
03
01
d4
0f
d5
03
02
db
04
01
fa
ed
d8
e3
dd
1c
03
03
fa
fc
f2
1c
3f
0b
f6
19
fe
10
f8
41
1a
d1
22
02
05
04
f2
31
ee
07
3a
3c
fa
fc
1d
da
2b
16
25
06
ea
17
2b
e9
0d
ed
02
f5
e5
fa
25
de
16
12
e1
07
f5
1b
16
0d
05
f1
04
fc
09
ef
bd
16
e1
ef
d3
34
04
ec
fb
02
0d
15
e5
cc
13
21
f2
28
ed
17
13
04
f8
12
fc
04
0f
28
07
d5
0b
f3
3d
ec
53
ed
09
dc
26
fa
d5
fc
db
1e
fb
07
ec
17
fc
0a
0c
15
f2
28
18
fc
01
03
f5
e8
11
2c
23
12
e3
14
11
d9
23
1d
bd
01
0a
fa
25
0e
2d
29
16
f1
e3
1b
e7
0c
07
1b
f4
1d
20
e6
ed
0f
c7
01
ed
02
ee
16
d6
0f
e8
00
f6
0a
00
13
e6
10
ea
0b
d5
e3
1b
09
0d
18
13
2b
f4
07
27
07
f7
f4
f7
35
1a
07
fa
f1
25
ea
ee
ff
01
00
17
1d
12
dd
1c
03
03
08
e9
21
09
d9
f5
de
15
fb
0e
23
04
f4
e1
00
37
ea
1c
e4
d6
1a
11
14
0f
f4
be
06
cf
ff
f6
09
15
23
e4
fb
f0
ee
0d
dd
ef
f1
34
14
ed
15
fb
a5
0e
e8
21
0f
bb
f2
21
cf
fc
27
e8
f3
10
eb
fd
d7
13
e6
f8
15
f9
0e
09
e5
11
16
ea
ea
1b
e4
e3
03
14
f7
05
17
e3
0d
d6
0a
f0
0a
d5
f7
dd
c6
16
eb
17
f2
15
fb
e7
0c
d6
02
fb
db
d1
f1
db
16
f4
13
ef
0f
07
34
09
22
e3
11
10
ea
06
fc
f7
df
3c
f9
e2
02
04
0a
0a
2f
f6
f7
3a
19
e4
22
d8
bb
14
26
f4
00
ff
00
01
08
09
17
23
0a
0e
20
22
06
23
03
f2
08
14
25
18
e3
c3
ed
f3
d6
10
35
f8
e1
f4
e9
2c
d5
25
0b
e0
da
10
dd
16
0e
02
fe
f8
13
de
18
28
18
a2
ea
08
eb
05
4f
07
da
2d
f9
31
f6
19
bb
0e
0b
ee
0b
ee
2a
f5
d0
bf
27
cf
22
41
f6
03
32
c8
f1
16
0e
12
16
26
0e
32
f5
0c
26
15
ea
16
fc
fc
12
2b
1a
0d
1c
01
ff
09
fa
e6
12
1c
24
f3
3c
00
09
07
1a
03
24
01
f5
1c
f5
3a
ec
28
33
16
f2
e0
13
b2
07
c8
cf
16
39
f0
f5
fe
27
26
1e
01
1a
fc
0b
13
1a
ff
e5
c4
1b
2c
00
04
07
f0
b6
02
e5
0f
df
08
d7
f0
3a
e5
e4
0c
cf
03
18
0f
fc
b9
06
11
2d
f6
1c
0f
16
13
07
fd
fe
d9
fe
ef
e1
e2
36
16
0f
07
09
16
f5
05
e7
21
fc
df
f0
0a
fb
f6
10
f2
22
2f
f7
f8
09
1d
0f
0d
21
08
13
fc
e1
26
1d
30
05
0d
fc
ed
1c
0a
0a
ec
01
21
fc
ad
1d
0b
f5
f9
0c
1a
0d
f1
10
04
0e
07
e5
ee
e7
14
14
17
d7
f8
fd
fc
f2
0f
25
ec
00
dd
ed
fb
f2
e9
10
de
5f
2b
d6
ec
07
f1
fc
1e
14
02
14
ef
eb
ef
d8
fb
19
1e
fa
c3
fa
09
fa
f8
22
52
0f
e8
0e
fc
fa
2e
01
e6
09
07
03
10
1e
e9
e6
2c
f8
03
16
f4
fc
0a
15
01
ea
f4
ec
0c
f8
08
f4
17
11
2c
fe
e1
f7
0f
15
04
d5
1a
f8
03
1a
ee
f9
fd
18
d9
da
22
1c
fa
05
e5
27
fe
fc
04
ef
17
0d
19
0e
0d
16
14
01
09
f5
e9
ed
d2
40
09
f9
04
f8
08
f1
ea
07
01
f6
e4
0f
17
f1
08
ec
01
0f
12
d7
13
12
0f
fc
fb
f6
f6
de
ed
fc
f7
12
fa
f3
ed
fc
06
ef
23
04
11
f2
fa
2f
fd
0d
fc
fc
f7
14
13
eb
fa
05
00
32
1f
f0
e4
dc
2b
3b
1f
05
eb
0d
24
50
ed
29
e4
ef
f5
11
11
f7
0f
0f
f1
2e
ee
d5
05
e5
02
e9
f4
f5
e1
08
f0
22
06
33
1f
de
f1
f4
3f
ec
fb
f7
05
e8
fc
e7
2e
f9
18
00
e7
ea
f4
05
3a
f4
07
3b
d7
16
f5
19
20
bf
10
ee
d7
1d
e8
06
ea
fd
23
20
e3
f7
df
c7
03
e5
eb
f1
09
ff
0e
1c
f5
20
17
d5
c4
ea
fa
f0
27
09
f8
ca
fb
02
0c
14
0d
f6
0c
04
10
f0
f9
f8
fa
fc
14
0d
3b
fe
10
f1
f6
11
e6
19
0f
e7
0e
25
20
d5
e8
f6
f3
09
f3
03
07
fd
f5
df
be
22
e7
f4
11
f7
f1
28
fe
01
f4
04
ce
c0
f3
e8
33
f9
07
0f
11
e9
05
f0
01
28
04
f6
ea
1b
05
ea
1d
0f
d3
1d
16
00
f8
0e
0d
1c
fd
c7
fb
de
f4
20
0c
f1
dc
fa
01
14
2c
f2
fe
f1
04
11
f6
e6
e1
ad
fa
14
e8
e0
13
fb
13
24
18
d1
07
c1
ec
df
13
0d
f6
0d
15
02
18
26
26
26
e9
2a
12
ff
eb
ee
2a
01
14
f7
e5
13
03
f1
03
07
fc
18
07
e1
16
0b
01
f7
1b
ea
f7
20
43
0b
00
15
e2
0d
0a
08
ef
bd
00
14
e4
de
0f
ef
fc
11
24
0c
fd
01
ee
1e
f1
e8
e8
03
f5
fd
e3
23
ec
f8
0c
0b
fd
e8
f3
fe
fd
03
0c
07
1a
f1
21
e4
e2
05
f2
f2
03
04
05
fa
f4
e2
1b
fb
f3
f2
3a
fa
15
00
22
f2
15
0c
e6
f2
f7
21
1a
df
0c
02
f6
ff
05
06
f9
06
d9
09
1f
0c
dc
00
03
04
ef
03
c3
fe
f0
f6
15
f2
fb
fc
fb
fb
fe
db
20
14
0b
fd
f7
f7
18
0c
29
ee
f3
ec
03
f7
0a
29
1d
fd
1f
c8
fc
e6
ef
0c
e1
0f
10
f6
d3
e5
1c
01
e1
fd
e5
02
cc
3c
05
e6
25
14
f5
fe
f8
e0
e5
eb
03
f1
15
10
fb
d3
eb
09
05
ef
f2
0d
08
ff
f0
ee
fb
ec
ff
29
ea
ca
f4
e4
12
24
1a
ff
ea
cc
d8
f5
f7
f4
33
fd
0d
d9
32
08
ef
e1
dc
eb
08
f3
1b
0a
f2
d7
ee
fc
ff
fb
0c
35
08
0d
f1
01
0c
c1
11
f2
f3
ed
fc
19
e4
1c
22
14
fd
f6
1a
f4
18
02
18
f8
ee
1b
43
11
01
1a
30
ec
12
0c
0c
ff
04
f9
03
1a
0a
08
de
f4
18
e0
0e
fb
fc
f9
ee
f2
08
ee
fe
c8
fd
f7
e9
f4
0c
fd
03
1c
f8
08
02
d8
26
f1
ff
06
13
02
09
17
de
14
e7
f1
0e
f2
1d
fc
f9
d6
22
e4
02
f9
1b
13
0c
e0
db
fc
0d
e6
ff
e9
ff
ff
04
d2
f0
02
05
04
04
08
15
f5
22
da
08
f2
fb
09
1e
1c
23
fd
f8
f2
eb
13
e0
fe
03
08
1d
f9
f5
ff
fe
d0
e8
fe
07
03
fe
11
01
01
13
f6
fb
fc
d5
10
06
0e
fd
0c
02
ec
f0
15
0a
1f
f8
01
21
0d
e5
1d
14
24
11
01
04
49
27
f1
08
ed
04
eb
dd
03
05
13
e9
f0
d7
e4
06
04
0f
0e
f4
fc
14
d8
f2
f8
fe
f5
ff
dd
fd
f7
1c
f7
0b
f7
df
f9
13
0f
0c
ff
26
22
1c
02
fa
22
ee
db
36
f2
0e
f2
ed
fd
0d
fc
f2
01
24
f3
d9
07
27
03
0b
e7
fe
eb
19
0f
11
fc
f3
f6
f1
33
1d
05
0f
fb
fb
1f
f6
10
03
09
23
fb
28
d5
fa
d5
01
04
e2
0a
f6
fc
e9
fe
fd
17
12
f4
db
15
fe
fd
13
24
02
06
22
09
fc
fe
1a
0c
2a
2e
0f
fe
ee
fe
16
08
ff
0a
27
f6
d7
0a
22
06
eb
e6
f7
18
14
ee
e9
d4
f3
01
25
e4
d5
0f
15
14
2f
f8
13
44
ff
da
f2
0e
f5
e4
fc
14
19
0b
1b
2c
0f
2c
e1
05
37
14
f2
00
ff
04
18
ce
02
c1
15
fd
ce
0e
f7
e4
20
de
ed
1b
f4
14
ed
26
ee
fa
1e
f0
fe
f2
02
f7
05
2e
d2
ea
f5
1b
02
02
de
dd
df
fa
f0
ec
0a
2d
e3
d7
fc
da
3a
ef
e2
02
f0
13
0b
e6
ec
07
f9
ee
ee
17
df
cb
ee
d3
d1
61
eb
ef
fd
1f
f5
d9
0a
08
f4
d9
ce
e0
1d
22
1b
0a
12
c7
0e
f3
10
0f
17
06
f2
f3
fe
0c
e5
28
b5
18
07
ff
e7
cb
e2
05
ba
d4
f3
da
28
f3
09
df
f6
e1
07
e1
48
e8
05
12
0c
e8
11
18
ff
e3
e3
ff
14
da
f6
19
f3
d5
0f
2d
03
23
f5
fc
09
06
01
21
1c
f9
0e
f8
05
03
fe
21
0e
03
c9
10
ef
15
25
29
05
f0
0b
26
eb
18
25
0c
08
1e
18
04
03
06
fa
2f
07
d4
f5
ec
f8
06
0b
0b
03
dc
05
f6
e0
ce
30
0f
04
f5
e3
06
0f
ef
0e
0b
f0
06
32
00
ee
1e
04
07
fe
f9
ed
e3
05
db
12
d2
06
30
fb
e6
01
ed
05
f6
22
cc
f2
bd
ff
03
30
25
1e
13
04
07
fa
ca
f8
f6
ea
07
de
ef
d9
0a
0a
13
1c
08
05
19
2a
d7
d6
f4
e8
08
d0
00
d5
f4
01
e3
c6
f1
d3
f6
03
d0
ed
f8
ea
ca
da
03
0b
17
f3
fc
0d
ed
fb
f4
0a
fc
fb
e4
c1
28
1a
54
11
ea
08
f7
05
01
24
3b
0a
1a
f7
0f
25
f5
1e
08
02
e0
0b
30
f8
e6
1a
dd
0f
17
05
e4
ff
ab
f7
f4
09
e1
ec
21
e3
ff
11
c5
eb
f3
02
15
0e
dc
14
16
fa
09
d0
08
e7
e3
0e
05
18
f2
1a
23
e7
df
10
ef
01
fb
01
0c
ed
fa
e9
23
04
08
ed
d5
f6
05
cb
cc
04
0b
ed
0b
e7
01
e0
2f
f9
1c
d2
ea
fe
e6
fe
d4
d5
22
00
07
22
34
13
e6
db
0a
e6
05
0e
13
dc
e4
d1
fe
f8
f6
13
0a
02
f9
f7
0e
f0
18
e9
05
11
13
18
f7
cb
fb
f8
cb
0a
11
24
1a
ff
09
ff
fb
11
f6
07
f2
05
29
10
05
1b
f5
f7
22
f2
f4
f4
fc
f4
dd
04
dc
03
ef
f0
f2
ee
00
30
fa
cd
0e
f2
f9
1e
f8
fb
ca
33
fe
06
19
fb
14
f2
f5
1e
f7
d3
02
d6
c0
de
14
ed
34
db
32
f9
dd
fd
f4
01
e7
ce
fe
2c
e9
16
07
19
1e
fe
fc
e0
07
13
02
d3
dd
23
0a
f1
1b
27
d6
16
01
df
13
0f
01
1b
f4
cf
f9
1a
1c
29
00
d8
02
24
1a
3b
dc
2a
18
f9
0a
0a
e9
16
1c
1e
df
03
d8
00
20
fe
dd
e7
df
15
df
e7
e6
21
19
fb
18
02
e0
05
e7
1a
12
08
1a
08
1b
eb
1d
20
40
08
1a
f1
46
ec
d4
fe
0a
09
4a
e4
0c
27
10
f5
02
0e
e8
e8
02
d9
f1
01
06
f8
f2
ef
f5
fe
e8
fe
16
09
24
f8
07
d4
09
fc
fa
10
df
ff
14
03
09
fb
d6
0e
f2
f2
e9
27
ca
10
ff
02
19
05
3a
02
fe
ed
ea
fd
0a
de
01
e5
0a
3e
14
0c
f1
dd
fb
11
05
e6
13
dc
f1
e1
f3
06
fd
16
fe
10
2b
00
11
ea
fc
09
01
08
f6
19
e2
fe
be
19
10
0a
25
08
e7
3e
11
11
ce
e7
1a
02
13
24
03
f2
d7
0f
f3
00
10
02
0a
1f
eb
f3
0c
ef
39
10
e2
ff
ff
36
ec
11
0a
00
05
ea
fd
ff
e4
e7
18
11
f5
f8
e0
f7
e0
01
08
2a
eb
0a
16
0b
15
0b
f5
dc
e8
da
df
fa
fc
df
14
03
fd
d6
d8
e1
1a
3d
0d
e8
5a
1d
14
2a
e3
2b
c7
da
15
38
c4
f4
06
06
f8
30
e7
22
e7
ef
e9
18
e2
1d
e6
d8
06
fe
0a
2c
1a
ea
fb
eb
ec
e8
15
e7
07
1b
e8
de
d4
0e
e8
35
25
cc
d6
d9
06
e6
ea
e9
22
01
18
d4
30
d3
0a
2c
07
ef
3e
e6
05
f9
03
16
27
12
ed
dd
2e
e2
dd
03
1e
2a
cb
00
0d
fd
cc
d6
fb
af
28
f9
d3
01
eb
f2
2c
01
e1
f0
de
f6
0a
1b
f3
2d
f6
ef
ca
09
1e
d9
34
f1
27
0d
d8
d0
37
10
f6
e9
a4
16
e3
f0
00
fd
0e
e7
fa
fa
f2
16
04
bf
15
da
03
44
20
ca
de
11
2b
33
07
47
f9
fb
e8
ed
0b
d4
23
d2
02
0a
db
f0
1b
cc
ec
08
e2
05
1c
ee
e8
ec
f3
1c
d0
25
17
34
01
1a
0b
c5
28
27
14
0b
06
e5
f7
fb
1f
07
eb
2b
ec
ed
ec
0a
ef
13
05
03
e8
fd
16
fc
e3
0a
00
12
fc
cc
e3
36
0c
ea
24
0d
18
f5
0a
0b
f0
f5
2b
00
e0
0e
1b
e0
16
e6
fc
e9
0b
05
04
27
0b
2f
fb
d8
ec
1c
18
19
28
03
06
0e
ec
17
fe
29
f2
09
03
16
d7
c8
22
c7
05
2c
df
18
17
0d
2d
da
da
2a
e4
10
ec
fe
34
07
09
f8
06
f5
09
38
f0
1a
30
e9
ef
08
11
0e
07
2a
04
0d
2b
d4
e3
12
15
15
eb
e4
c8
f6
ed
0d
f5
e9
0c
17
e6
0b
03
2a
12
fa
07
d4
f8
0e
29
ce
fe
fd
e3
f1
f8
e9
e1
06
fb
ed
4d
27
e2
3d
f9
00
14
05
f8
02
e8
11
f6
0d
20
f9
f5
09
df
11
03
fe
02
04
2f
f5
fb
44
10
0b
f0
f1
db
d7
d6
fa
11
10
08
08
fc
24
4a
0b
09
18
05
0c
02
f4
f6
04
e0
06
1a
00
1a
c6
1c
0e
12
c9
04
28
da
eb
ca
d4
18
05
08
d2
13
12
0a
dd
1b
f8
48
ea
ed
fc
e3
02
0b
1d
c6
00
16
e2
0b
e3
16
fd
20
f3
1d
f8
18
d4
19
2d
37
0a
16
f2
05
13
0d
25
e6
10
e2
09
f3
e5
0d
f8
ff
01
f3
09
d7
23
dd
25
f8
05
f0
08
f6
23
dd
f8
de
06
e4
f1
f8
32
0f
f5
eb
f0
f5
ff
04
0c
d5
01
eb
f6
16
e9
f2
ed
fc
cd
a9
0a
d3
1d
17
1a
20
22
08
ff
23
eb
18
06
eb
14
0d
e5
02
24
01
0c
22
14
1d
0e
f4
04
f1
1b
f1
0c
12
e0
05
f2
26
09
fc
14
07
0d
d5
20
0d
08
d0
1a
f5
3b
dd
00
ef
44
02
0c
ee
0e
0b
0a
24
e7
18
f9
fe
ff
df
f1
f2
10
0c
10
0c
e8
e7
13
13
ff
f9
d7
0c
14
0d
ec
06
ec
fb
12
10
fc
b1
f6
f3
fc
0e
ed
fe
22
10
1d
e1
18
fe
23
00
ec
05
1f
0a
1e
14
39
05
25
05
fe
08
f1
ff
38
ce
29
e9
25
1e
3b
ef
08
f1
f2
dd
1a
09
05
15
e6
15
f3
f4
fe
37
ff
0b
db
ca
21
03
c8
da
ec
12
f4
f9
e3
fe
47
f7
fe
05
dc
15
05
f7
f7
f4
e2
4e
1a
17
25
0f
da
07
16
31
11
06
3f
fd
05
e6
ed
dc
d4
01
f2
14
19
f8
ed
20
01
0e
dd
fb
f8
f0
17
10
21
fe
0f
c8
03
03
01
10
fc
eb
06
0c
f7
1a
01
f7
f8
26
0f
e7
fa
f1
06
d4
23
ed
07
bf
f6
ea
50
3c
44
e9
e1
dd
0e
1c
df
05
1f
e9
02
13
25
e9
15
00
ec
15
04
27
00
0e
17
ca
22
02
0d
19
d1
c2
33
e5
f2
0b
ec
07
16
e7
fc
39
28
18
fe
1b
fb
05
04
31
0b
06
06
e0
d1
1a
06
f9
19
0a
e6
11
ea
ec
f8
f0
08
e2
0e
f7
07
17
fa
f6
31
22
07
f0
1f
d4
15
df
f2
f2
18
e7
0d
13
df
da
d2
0f
f2
ec
fb
f8
e0
0b
f2
dd
07
ca
f1
f4
21
f0
f0
2d
10
09
12
f5
d3
22
04
12
0a
09
ea
15
00
0a
f6
fe
22
f7
2e
f3
24
f7
dd
05
0c
e8
da
fe
03
08
d7
da
dc
0c
04
fc
ed
00
f7
fb
f9
e5
0a
e0
27
f4
33
00
db
0c
e6
0f
d0
2f
e3
f2
f0
0a
f8
e2
22
02
fd
f5
be
0a
08
1e
06
13
d2
1e
07
14
09
e4
0d
fd
e1
1c
0c
00
0c
2b
24
ee
f4
fc
e8
f6
ea
18
e0
fe
18
19
e8
03
f6
00
0b
e3
01
c4
0e
ee
2b
fc
d2
0c
05
e2
04
0d
17
22
19
16
22
d5
10
2f
08
f6
f5
f1
ff
f1
e3
17
1d
14
14
13
01
11
27
08
e4
e4
1b
f2
f9
e8
00
10
d6
ff
04
1e
0c
fa
11
cb
e6
0d
e8
32
c9
f1
0e
01
0e
04
34
05
26
26
f7
f9
e3
05
ed
ed
ee
11
e7
f8
ff
e6
2f
2b
ca
e2
cc
41
19
13
06
f6
ff
d3
f5
00
ea
08
15
f6
f5
01
df
f3
f2
04
16
d4
f6
0c
05
08
c0
06
f0
c4
00
00
ee
f3
06
15
2d
ee
e9
d5
f7
15
e6
ff
16
e4
00
f8
cc
0b
f0
29
ef
ec
2b
00
04
fa
f2
e5
f8
0b
0c
f5
08
10
06
22
ec
14
ee
e3
e9
0c
09
29
ec
ba
2a
28
22
20
01
1e
f2
e6
1c
20
ed
1a
11
fd
27
fe
05
c2
1d
c7
eb
ed
f4
20
17
fe
0a
23
0d
fb
19
13
05
00
e1
13
e7
00
2d
03
0b
21
de
fc
db
0c
e1
e3
23
ec
f0
f2
18
17
ea
09
15
06
2d
f9
1b
f8
ef
ff
d7
2d
f9
f7
20
07
c9
1d
e7
01
fa
0b
f7
f8
d2
31
d8
e4
cf
10
06
fd
0c
f3
f0
2a
00
f7
1a
f4
fe
00
fb
40
09
f4
0e
f9
27
e8
14
1a
fd
ed
07
12
d2
0a
23
14
0b
fc
1f
0d
f6
08
be
13
09
f2
0c
df
e3
f0
0a
d0
0b
e4
ed
14
19
e7
01
f7
fb
11
0e
0b
02
19
cc
fe
0b
1b
1a
ce
02
ef
f4
ed
16
f0
06
1d
fe
f6
12
e6
05
1f
d7
c7
f6
09
d2
2f
fc
ec
e6
ea
0e
1c
0e
fb
ff
f8
1f
ea
f2
f7
16
db
1a
ea
18
ec
0b
05
d0
e5
cb
ef
fa
ed
13
24
14
07
f8
55
20
25
f8
e2
0c
05
0a
de
05
e9
d3
f1
e7
ff
e5
f9
1c
26
08
e7
0a
dd
cb
fd
09
11
12
13
04
02
14
06
29
d1
f7
26
d9
05
ec
da
1c
2b
bd
f9
ef
1e
07
31
0e
eb
2a
f9
ee
04
e6
14
fb
cf
d3
e4
ed
fd
2a
4b
2a
23
f0
10
0d
12
02
e9
1a
0e
31
19
d0
fd
d2
f3
e6
f4
fd
16
15
f6
ee
09
f3
25
3e
11
1a
f4
3c
03
dd
08
da
fb
e2
e0
2f
e9
15
06
24
05
21
36
ea
fc
41
f0
04
fb
f1
27
2f
ef
2c
f5
05
ce
05
38
06
de
c8
f8
32
0f
1d
1f
f4
06
27
ec
07
3a
43
1a
0f
f3
1b
f0
00
04
0d
0f
24
09
fe
fd
03
d7
e5
33
01
ed
1f
ed
e8
f3
35
01
07
2f
e9
01
f2
ee
df
0d
32
0b
4f
14
f8
dd
01
d0
df
08
07
17
fb
1c
e9
f1
f6
f4
05
2a
f1
06
f0
1a
e6
01
00
e8
ff
0e
06
d2
0a
ed
f8
25
01
d1
31
ff
df
0d
02
da
0c
e6
f7
d3
eb
0d
11
26
ff
12
18
e4
1a
f3
da
07
1e
fd
e0
3b
04
f4
e9
da
02
f0
ef
1d
14
18
c5
00
d4
f6
fc
11
de
fc
09
f1
d4
17
0e
f7
e0
da
00
e2
e7
f5
01
27
0b
1c
ea
fa
19
21
e7
ce
3f
07
0f
e2
03
d4
dd
f8
0a
ef
da
08
fc
0a
ed
e9
e8
f4
fd
1b
02
32
0e
38
ff
32
07
d8
d0
fa
ed
1d
1f
f5
07
10
0c
09
f7
fe
de
4c
f1
0a
cb
11
ea
11
f1
19
2e
ea
1c
0b
da
f7
e3
00
f9
ed
0c
df
f5
c5
f8
e3
0b
26
f1
02
df
16
f6
fe
d3
f4
11
e2
0d
de
09
28
c5
15
0c
14
06
1e
e8
eb
32
10
fc
f3
fd
e3
1f
0e
09
fd
1b
f6
f6
3e
ff
1d
c1
fa
25
0c
ff
25
f3
18
fd
f2
c1
f7
10
f3
20
cd
0a
02
2d
0a
00
e6
0d
d8
e8
d3
dc
cb
24
e8
d8
12
fe
19
13
ea
f7
08
e8
11
ff
f5
f5
e3
f8
df
02
db
fc
f8
ef
f7
14
f2
f5
ec
fa
fb
dc
df
0e
07
ed
cb
19
21
00
1f
1e
0d
fc
f8
ed
1c
0c
f6
46
ee
2a
13
2d
1c
f3
fe
15
f2
f5
dc
0a
f3
23
2d
1c
32
11
20
23
f6
0d
dd
f6
f0
00
df
0d
f2
0c
27
e7
0c
1a
12
ba
0d
e6
0e
15
01
e1
08
d8
00
f8
1c
eb
04
f9
21
45
fe
06
cb
ed
e9
f3
09
f1
1c
0a
e6
dd
f7
f5
17
d9
06
1c
0f
04
ee
05
13
12
dc
1d
04
2b
06
17
f9
34
fc
ff
f2
f8
d2
e7
db
e1
27
f3
19
ed
39
e5
d5
14
e3
e5
e9
f7
ff
f1
de
f8
e1
d1
ea
f4
de
f2
38
12
f2
f9
01
e4
e6
18
1f
15
22
fa
10
ff
f0
1a
09
14
d3
24
07
3e
ec
f9
25
eb
03
cd
f9
17
01
0a
07
0c
f4
17
1e
18
0d
02
15
9b
f7
05
08
d8
08
03
28
e7
03
e8
e2
0a
fd
e3
27
e4
24
e4
12
18
ea
fa
34
08
0a
0d
f1
0d
11
e1
f4
f3
d8
18
dc
18
20
1b
e2
ef
15
26
fc
e7
e6
d4
eb
19
d3
d7
ed
f4
04
e0
27
37
11
df
24
e4
26
ed
e2
d3
01
2d
0c
f5
19
01
04
50
ed
e8
00
0b
f0
02
1d
ee
0d
f3
19
ae
1d
f0
0a
eb
14
0b
ec
ff
f5
28
0e
0c
32
04
2d
04
e7
0b
01
16
f6
f7
0e
03
06
d9
fa
11
e8
0e
f3
e4
da
17
15
16
d3
05
ce
0c
e7
43
16
e1
f3
fc
da
f7
07
12
d8
02
fa
e5
c3
ff
14
f8
f2
05
e3
fc
19
f0
e8
c1
1c
18
f2
e9
ed
04
17
fe
f7
e6
fa
07
1b
06
02
dd
d7
20
16
09
02
13
08
11
f4
1d
02
cd
f9
e6
14
06
d5
e8
1f
14
d3
e5
18
e9
1d
05
00
c9
1c
02
cc
fa
14
27
e9
10
32
e7
09
3b
0b
3a
ed
ec
fe
ea
0f
13
ee
15
f7
16
e7
14
03
2a
04
f3
2d
30
dd
f7
02
e7
f7
13
f4
02
17
e5
e5
00
f2
21
ee
ec
11
14
1a
f6
f0
fb
f1
f5
ef
00
fe
13
f1
1f
29
1b
06
07
01
e3
f1
32
18
db
15
e3
22
3c
e4
fb
0f
e9
2b
e9
ee
10
de
f2
e1
eb
da
f3
0e
05
e2
06
df
e0
1a
0a
09
ee
eb
04
f1
eb
0f
26
0f
ff
f9
eb
d5
fc
1c
e8
ec
00
24
10
0c
02
14
4b
16
04
de
f0
19
dc
18
1a
eb
f3
e6
ef
20
12
27
ed
ff
f4
e7
22
cf
0e
19
28
dc
0f
da
00
f1
2b
06
cf
03
14
16
ff
02
1e
1e
ea
31
f8
04
cd
0d
14
e0
d8
0c
03
db
09
ec
07
c8
0f
39
1b
06
25
09
fe
db
07
01
05
f2
19
30
f1
f8
2d
d6
e7
f9
d8
1f
04
3a
08
10
3c
12
0c
1a
f3
ef
ff
26
24
21
f0
bb
f1
2d
29
0b
2a
38
f6
ec
03
00
10
03
f6
f0
0b
fd
16
fa
19
10
0f
fa
01
34
e0
d9
da
fe
2a
0c
e0
ed
01
e7
20
06
f8
1c
19
1a
0c
eb
ef
32
c7
0c
01
12
11
37
1f
09
fb
e8
dc
ef
37
0b
f7
2e
1b
07
d9
f3
22
13
03
24
db
e9
fb
d7
17
1a
fb
fc
f8
ea
d2
00
10
f4
1a
12
03
0c
cc
1e
08
05
1e
cb
f9
fb
bd
06
fb
f3
e5
01
dd
18
f6
f2
07
12
1e
0c
01
15
2b
fd
2e
12
fb
00
05
12
ff
09
07
0f
17
11
08
0d
e1
1e
fb
ea
24
fb
19
16
f1
f4
25
02
fd
f6
fe
f6
e2
02
07
d5
fe
e7
ef
fb
ce
e9
ec
fc
0d
02
13
00
dd
c4
0f
0e
02
c7
00
ff
1c
d3
00
e0
27
d7
e7
f9
06
df
f7
14
2e
0f
3d
e3
13
f6
03
ec
1e
df
f8
0d
09
e5
e8
d6
31
00
06
35
f3
08
0f
f6
dc
11
07
20
e4
18
32
f8
34
f6
c9
dd
02
03
ff
0e
f9
fb
c3
e7
e3
f3
d3
01
08
19
f6
f2
07
ed
07
c2
37
fc
1a
fa
df
21
f5
17
34
f9
dd
10
23
3d
0b
0b
e5
d8
1b
16
e7
fd
de
3a
00
05
fa
07
09
f6
d3
07
f5
08
08
e3
53
f9
f8
ce
20
ef
ec
0a
14
04
0b
f5
25
12
f0
0c
2c
ff
d9
0a
03
08
1a
ee
f1
10
f7
de
fc
16
e3
f9
cc
e7
e0
e5
17
fb
e2
e1
2f
1c
e7
c7
eb
03
02
06
f2
1e
2d
fb
10
f5
ed
fd
eb
0c
05
36
10
de
23
e4
15
09
f9
23
bf
fe
0b
22
fa
ff
e4
e6
0d
06
03
03
f4
f7
f7
fa
0c
00
0b
ea
fe
d2
37
2a
0c
19
06
14
21
dc
0a
02
30
fb
21
03
02
ff
f0
fb
d4
16
30
20
03
dd
de
0e
02
f6
fc
f6
e1
ed
06
f9
f6
f9
26
05
ea
13
0b
22
e1
0c
03
ee
f8
c7
10
dd
e1
1a
0e
12
ec
ef
d6
fe
f4
1c
f0
da
36
f9
16
11
d5
fd
f7
e1
1c
f3
d3
f0
fb
0a
13
04
e0
d2
fa
d9
ff
fe
0a
1b
e5
d0
18
e8
18
e3
fa
14
d9
f9
02
13
1d
e9
04
ee
0a
16
0e
ee
f8
e9
0e
dd
0a
27
f1
0e
ef
01
f9
fc
03
f6
f2
24
ff
15
15
e7
01
01
12
0c
23
26
04
e3
16
eb
eb
e6
0e
0b
17
18
03
1e
05
24
ea
27
db
09
1c
09
f5
01
16
fd
01
ee
dc
18
2a
14
f6
e3
fc
e7
f8
19
eb
14
15
04
17
e9
e7
fa
0a
e8
fe
16
12
f1
fb
37
0e
04
06
d9
2e
ee
23
e6
ec
f7
26
e4
f5
dc
d9
0e
1b
14
f9
ec
1b
5c
e6
0e
f2
06
fe
10
fe
c7
0e
09
f8
02
db
f0
09
ef
0f
18
09
c7
f1
19
ce
f6
13
11
fd
0d
aa
0f
05
47
ee
06
29
fa
de
f3
f5
18
06
20
0a
e4
09
c7
07
2c
f5
2b
12
ef
f9
e2
23
f4
0b
e2
e6
2f
31
08
0a
f0
d4
d1
f4
0b
02
ed
e3
d0
1f
20
01
e8
f2
15
0c
ed
ec
30
11
de
00
ff
f6
21
f1
06
e1
14
f8
27
03
05
04
0e
26
2a
09
e9
ee
13
ff
0c
ed
ee
06
11
f2
dd
03
db
08
f1
fc
e5
1c
ec
e6
e8
ee
ed
03
f8
e9
f9
f3
27
da
de
ef
f7
f1
04
14
61
04
f6
0a
1f
f7
ff
26
08
ec
e8
d2
f2
17
ee
ff
1c
04
1e
06
21
da
2b
06
f2
ff
2b
1d
f4
cb
23
cd
1c
12
e1
ee
dc
07
f0
d7
19
14
05
ef
01
e6
e2
fd
04
04
fd
02
f2
0c
06
fe
db
06
16
14
0d
2e
fe
10
47
1f
0e
e0
de
e1
e5
ec
f9
f1
dd
03
05
ec
28
e8
02
e3
18
e9
13
1d
d5
e7
19
f0
ed
ef
13
13
01
09
f5
fa
01
ed
04
29
f6
01
16
d1
08
0f
1c
d8
2c
1b
d5
e9
f0
e8
fc
fd
d9
fc
f8
13
0f
f0
08
10
18
f7
eb
d1
2f
05
e4
00
06
32
08
e6
08
c8
16
08
43
f0
03
fe
d3
25
e8
16
03
ea
d0
e6
09
11
fb
52
04
f2
0a
fa
28
04
2f
fe
2a
09
f2
0a
10
d4
03
0e
f9
e9
16
1d
f1
04
fa
e1
fa
14
19
f3
10
04
26
ec
0e
23
fd
f6
14
25
0b
16
21
09
f3
09
fd
05
0b
1b
42
ef
00
0b
f2
e4
0f
f7
0e
e2
c8
f1
1d
f4
fb
1f
eb
f4
00
09
f2
e1
fe
12
f9
f3
e3
ee
09
e5
1c
0d
06
f6
e9
f8
fc
ed
e5
e1
09
0e
f2
12
b5
d2
ea
04
e7
07
b4
f9
17
0b
ef
10
f3
01
03
11
e9
de
0f
10
bb
38
d4
0c
fd
31
02
06
f9
d6
e4
00
14
fd
f8
0b
e5
06
44
f1
0f
d3
13
c7
4d
05
2a
f2
24
fc
f0
f7
ef
f6
06
f6
26
0d
dc
f7
f3
e0
1c
d3
0c
0b
d2
ec
23
cc
d1
14
05
f9
12
f2
fc
34
03
01
22
e5
d4
e1
ea
f4
08
1f
05
21
01
ff
1a
f9
10
04
f2
df
11
09
b8
09
f3
09
24
08
da
04
19
02
35
f8
28
f7
c8
f6
fc
0a
e6
24
0d
0d
15
f6
18
fe
c8
18
00
0a
0d
e2
fb
21
19
e7
f7
eb
fe
e7
18
12
38
dc
0d
fe
07
14
fc
0a
fa
c4
04
db
fe
1c
1b
28
00
81
fe
f6
aa
fa
10
ff
fd
ba
14
e1
03
45
f4
db
fa
ec
19
0e
04
fd
fc
09
ec
d2
23
04
03
13
f2
04
38
e4
dd
06
26
05
0a
00
e2
25
ea
31
bd
f6
00
02
08
11
fc
34
fa
e2
f8
d8
ee
08
fd
f3
1d
1d
d9
f5
10
21
02
14
1f
f7
29
ce
d6
01
ee
c2
f5
10
12
3e
05
ef
c9
26
23
f0
fa
fa
06
ff
f8
f1
d9
2a
17
13
0a
04
5f
c3
f3
06
19
13
f1
03
1b
03
2e
ef
1f
df
1a
ff
09
26
d7
e8
f9
fd
df
07
1e
ed
0b
f3
ea
fe
09
01
01
ff
eb
c8
13
1e
db
08
0c
20
db
18
e2
21
24
e7
e1
1b
19
e0
2a
23
0e
1d
dc
12
14
e9
08
07
db
e7
29
ee
05
23
fb
ac
e4
08
22
f9
fb
f0
fc
f9
fc
f1
18
16
f4
3a
ff
21
d6
fe
04
13
24
f8
04
15
f0
03
0c
ee
01
e8
ff
05
0c
f2
01
e5
07
1b
00
e1
c4
fb
13
22
01
0c
01
d4
e2
fe
fb
ef
fa
ff
1e
0e
f9
de
24
e0
42
04
fc
ef
ce
f7
18
19
03
25
1c
ec
4b
04
0d
f1
2d
29
1c
09
02
04
dc
1a
24
0f
02
f3
13
aa
f5
1c
d4
25
ec
18
0a
dd
f0
12
22
03
fd
17
df
2a
c8
f6
e0
24
eb
e4
d7
df
0f
05
cd
15
11
22
38
21
ea
08
12
17
13
0d
0c
03
11
eb
f3
00
fa
d3
f7
04
2e
dd
f9
19
15
04
ea
df
11
f6
17
0c
0c
06
25
ed
ef
eb
e0
37
02
11
e8
24
1b
19
00
ea
14
05
0c
fe
03
ee
f1
40
e9
d8
04
fe
0a
01
12
14
eb
02
03
fd
d6
14
0f
04
e8
f0
cd
3f
01
03
fc
db
14
08
f2
f1
c6
07
02
f2
e3
c5
fd
f7
1e
d8
e8
13
17
08
33
06
09
16
fe
fb
0f
0b
da
f3
f3
fe
43
0e
c3
12
04
e8
28
fe
02
18
15
f5
f5
0a
f3
18
f8
e7
fb
0d
06
00
e8
ff
11
1a
0b
e5
fa
d6
ef
1d
0b
f4
e1
0c
e0
ff
0f
09
c3
03
ce
07
02
f8
dc
01
cf
05
ed
fc
fd
01
11
13
fd
e3
16
23
13
fb
f4
0e
08
1b
d9
21
e3
01
10
d3
f9
08
fb
e1
f4
32
f7
fc
1c
06
0b
d8
08
da
d9
09
1c
04
e8
c8
0b
fc
f6
f7
00
f2
eb
37
e2
0a
eb
d0
18
00
f1
eb
d0
dd
11
1b
f6
e1
fb
d9
0b
10
0f
e4
2a
05
15
04
21
00
33
22
ec
f9
1b
16
01
dd
e8
24
0c
15
d8
0e
d5
05
e5
15
09
e8
02
f5
e4
f4
dd
10
0e
f0
e2
fe
08
0a
01
06
cb
d8
f9
ee
e3
d7
cd
fb
f6
f6
0b
da
dd
e6
eb
f4
06
07
13
1f
e4
e7
f6
0c
eb
1f
ca
bf
1a
ec
f0
08
26
14
05
ef
e5
eb
f6
12
06
0a
08
f9
fd
ea
ff
00
fb
fc
ea
f1
09
08
09
f5
0f
f5
03
f7
fa
0c
f6
fc
dd
03
ea
d8
1e
08
f9
ef
e5
12
01
f7
fe
e0
09
08
dc
de
e5
d8
cc
e8
e2
fe
d7
e3
0d
f1
00
2b
f7
f6
01
1b
2c
2d
fd
2a
ed
c8
12
04
cd
e4
00
f5
17
fb
08
db
1a
0e
e5
f6
fb
09
32
01
0e
12
0d
04
18
10
ff
37
bd
fb
10
d3
18
11
06
11
31
0a
0e
fd
25
f2
e6
ee
fe
0e
05
2b
34
e6
ff
20
2e
0b
e4
0f
02
07
02
02
d2
13
f6
10
1a
00
23
18
0b
0f
fd
eb
11
07
1c
f7
03
2e
34
ee
d7
fe
1c
f6
4b
ec
17
ec
32
f8
17
dc
f6
e7
c6
25
26
d0
22
0b
0b
1a
2d
dd
17
f7
1e
1c
f6
e5
ed
35
ed
f2
0d
05
f9
e9
eb
08
3d
e3
0f
e0
1f
df
21
05
13
f6
00
ea
fc
1f
06
17
df
ed
16
06
05
d2
01
1c
13
12
03
fa
10
d1
0f
16
0f
05
0a
d6
f3
ff
02
f5
06
0e
bd
e7
ca
dd
1d
db
f1
12
ee
fa
00
fb
bc
de
e4
f3
d8
12
d7
ce
e2
e4
3c
f8
27
ec
19
2c
0f
fd
05
14
fa
fd
53
31
fb
de
de
13
f6
00
14
05
f7
19
05
14
fb
e2
fd
f6
25
14
c7
00
bf
0e
0d
f8
e9
f8
22
12
0e
08
2f
1c
d1
32
02
39
fe
f1
06
ce
1b
e8
00
0e
08
d1
26
f2
fa
08
04
15
06
01
dd
cd
f0
fd
f9
37
1d
d0
13
f8
f0
05
08
06
dc
1c
07
07
02
25
f5
d4
02
f2
03
c7
f7
21
07
18
05
c8
0f
2f
0d
f0
f1
fe
d8
ff
25
d6
cb
0d
f8
d6
19
03
f8
fc
05
e8
05
00
f2
c1
d1
19
f0
14
38
0c
f2
0f
e3
ee
12
1e
f8
0f
10
09
14
fa
04
09
f7
34
ba
dc
0d
0e
29
f5
24
0e
04
e6
bc
e8
f8
28
e3
08
0a
04
f8
ff
12
ed
e1
29
06
0f
fb
09
f9
09
e1
ed
f4
ec
22
1b
f3
f9
e8
f0
08
0c
e5
3e
f9
0a
fc
05
dd
13
00
17
fa
10
d4
e3
d3
c6
f8
e4
19
0a
1b
fb
0b
ea
ef
1c
10
cc
f9
11
df
18
0f
19
f1
f1
3a
0e
fb
06
db
f3
0f
f2
03
f2
13
11
f1
e7
e0
e2
fa
f0
23
f9
0c
15
e9
e0
d6
12
29
07
ea
dd
37
21
13
39
e1
29
d1
09
0d
10
03
fb
fe
e2
f8
24
48
4d
11
e7
36
01
19
fa
0c
fa
10
02
ff
17
0b
d6
1f
07
21
f6
16
f3
db
0e
ee
38
06
fe
08
e7
13
ea
50
fd
04
e7
30
ec
16
fd
f1
16
16
df
23
f1
ca
1c
06
f0
ee
ff
c9
1e
ec
27
cb
fd
fc
fa
20
17
04
11
e9
d9
0a
55
ec
e2
f4
01
e2
d6
10
f5
b7
f9
dd
e1
15
fd
3b
d3
f4
0a
1a
09
01
0c
0b
de
f3
e7
03
db
10
07
ed
27
0b
25
dd
09
2d
01
0c
44
e4
0d
f5
f1
0d
f1
ff
ed
ea
24
2b
d8
16
0e
d6
fa
ed
de
f9
1a
23
ca
06
19
d7
db
f8
41
ec
18
db
06
28
2f
e4
eb
08
fd
d2
ed
f5
13
dd
d2
20
16
0c
07
1b
f7
ef
04
12
1b
f8
e7
e1
04
10
ec
13
0f
3d
f7
06
04
fe
15
e8
ea
f1
5d
f1
b3
f8
0f
cb
ff
f7
20
f8
0b
32
cc
21
07
f3
13
1e
a0
dc
00
f3
1c
2b
10
f3
fa
08
e9
04
ef
b6
10
f1
dd
06
e7
15
e1
fa
dd
fc
08
fb
08
0b
fa
ed
ea
03
e4
1f
1a
ca
f3
cf
eb
f5
06
fd
f7
e5
d0
fd
c9
03
0c
e9
10
c8
ef
fc
1f
d9
08
0e
f6
1b
dc
e8
ce
d8
e6
e0
f5
05
37
2e
fb
f4
03
d8
00
03
07
e4
f4
f9
0a
f3
06
2a
18
f3
f7
22
f3
f3
e6
44
11
00
0e
cb
f5
eb
de
28
f9
1a
dd
00
fd
09
d4
21
26
20
e6
08
f8
fc
08
f7
18
d2
10
08
11
02
e7
04
dd
06
17
06
ec
2b
09
2f
01
ff
ee
ec
40
f6
1f
1c
e1
1f
0a
e1
dd
fb
11
0b
21
32
1c
06
e4
db
ff
10
ed
07
dd
fd
0f
0d
d0
30
eb
18
37
00
fa
ff
02
09
0d
f9
f9
fd
1b
13
14
11
04
1b
f8
28
0c
0f
fe
dc
01
fd
09
06
21
ec
fa
ef
d6
d7
e7
05
18
8c
e4
ec
e4
e2
1d
f2
e5
4a
fd
03
dd
e0
08
15
e9
f8
03
10
0a
12
f4
ff
17
d9
2c
d1
55
20
f8
d8
f2
e3
08
f1
1d
04
24
d5
e8
ec
fa
18
08
e6
0a
06
e8
f9
fb
ff
13
ee
dd
00
b4
1e
25
cc
e2
f3
21
f6
ff
fa
f1
f8
00
2d
39
f6
da
0c
02
0b
0b
d9
ef
fa
43
e2
01
15
ef
05
ee
1e
ed
08
f4
0f
cb
00
fb
0a
f0
13
f8
da
ce
ff
f7
28
12
e5
28
10
f6
27
f5
f2
dd
f9
ff
1f
e3
0b
1e
fd
00
3f
0f
f7
ff
d1
09
00
f0
0a
14
2c
12
11
e9
cf
17
18
28
e2
16
07
f5
08
de
e6
d8
db
0c
fd
00
28
ee
fd
11
18
04
f5
01
1d
07
cd
cc
14
f7
0d
0f
f5
e1
fc
ee
ea
02
f6
15
f1
1c
d6
28
e8
f2
fd
d7
1a
ff
ec
e7
1d
d6
e7
17
08
03
10
fb
e1
d4
dc
13
f5
e9
22
17
0e
e8
e2
f4
f7
13
fe
24
10
ed
f2
f3
cb
0f
e0
f2
11
17
04
16
2a
dc
08
f8
22
11
e0
07
0a
1c
d1
16
fb
24
f5
f4
28
f5
0a
f8
fc
2f
eb
08
fc
02
fc
f3
3b
e6
fa
24
05
e3
00
fa
f2
23
13
e6
22
17
1f
33
df
0f
f7
dd
c3
eb
ed
f3
1c
1d
19
0f
09
fb
d5
2a
13
e4
0c
17
0b
d6
13
e9
08
e3
f2
1b
e0
e9
26
fa
14
00
0f
01
e7
0f
e1
3f
fd
f3
0b
f1
05
1e
e7
3b
fe
fd
2d
23
25
f7
2c
ea
f1
d9
0d
16
d1
fb
1e
2f
fc
fd
df
0c
0d
0a
ef
df
07
1d
06
f7
18
08
0b
e3
ee
f2
db
31
f1
1d
2d
ef
ec
1c
31
fa
20
21
ed
02
0f
06
f4
f9
ef
ed
0b
02
10
2b
ed
ff
ea
26
f4
22
12
30
c5
d7
17
dd
e7
d5
38
f5
14
ef
02
e9
e9
ed
12
f2
dc
1e
fb
2b
0d
1c
29
fa
d1
00
14
f9
1c
06
3a
ed
fe
00
0e
fe
18
d3
09
fd
f2
1e
0f
d0
eb
06
eb
e5
f6
e0
04
0f
23
03
00
e1
05
20
05
15
e5
1a
29
f7
16
05
e6
05
f5
cb
03
fe
05
ec
f2
fd
10
f8
00
22
34
fd
1b
f4
e8
f8
02
e9
f8
01
12
29
ee
ed
03
27
0b
11
03
f5
ec
31
24
f1
fb
d9
00
f9
dc
0c
05
e3
fd
fb
00
fa
f3
1c
11
07
22
df
f7
01
13
dd
fe
fb
fb
0f
00
0b
f3
1a
f8
e0
ee
24
ef
de
ff
c8
04
f6
14
e7
2b
18
e6
15
1c
ec
f3
de
1c
fb
f0
e7
fd
cc
1b
ff
e6
25
ec
0b
fc
db
11
0d
02
f9
e8
df
ee
2a
22
0d
ee
c1
f3
f6
10
e6
f9
e5
0c
fe
30
c2
01
1c
cf
16
fe
bb
15
0c
12
1a
e6
fe
eb
00
11
0a
2d
ff
fb
02
f3
1c
15
07
19
33
10
25
b6
e7
ff
fd
f6
0f
41
08
fb
09
08
ff
d5
08
0e
d9
0a
03
eb
10
11
cf
20
0b
24
e5
2e
18
13
e0
22
1b
1c
03
06
0a
f8
0a
1c
e3
14
e5
ff
12
dc
ec
03
f1
f9
fd
fe
d8
f2
ca
f5
f4
11
e7
12
15
10
08
ed
08
10
fe
2d
d5
08
12
13
db
14
ca
b8
13
dd
f9
ed
f3
f1
1c
fe
0c
ef
05
1e
28
01
09
f2
ff
f3
fe
e2
fd
ef
14
14
16
e1
1a
0d
16
30
06
df
af
20
0c
f0
c4
0d
fd
df
eb
e8
f0
fe
1e
f2
e7
1c
14
de
e2
e8
04
e8
01
47
1d
eb
c8
f5
d1
35
06
09
26
04
f6
f5
da
09
02
07
06
07
db
f1
e1
29
f8
14
eb
46
da
0b
ff
ff
f3
e1
f3
23
0d
0f
f7
24
02
4c
08
0d
ed
0f
db
21
23
f3
1d
f3
fe
07
18
3d
f7
24
04
25
20
cf
e0
ca
19
fe
0f
fb
1d
08
f7
18
00
04
ea
00
ff
07
e7
df
12
22
ce
1e
18
03
0b
39
1d
c5
14
02
fe
eb
06
1b
03
0b
db
f0
01
f5
11
ec
f4
c5
00
0f
1d
2f
3e
f6
fb
21
eb
15
f7
b8
1a
f6
0f
eb
f3
13
21
0a
1b
d9
31
eb
dd
18
db
fd
bd
f5
dd
fb
f9
ff
fb
21
17
e4
ef
fe
e5
00
01
c9
0b
fa
42
f9
1c
da
09
f0
f5
f5
ef
20
fd
28
08
db
c5
eb
07
f7
04
23
c4
15
cc
f4
1f
ce
1e
f8
d4
e3
1f
1a
f5
33
14
cb
d7
09
08
05
f4
08
f2
f0
06
0d
db
ea
0b
1a
16
25
0b
f0
f6
1d
ef
36
10
0c
2e
12
f3
0e
09
13
ea
ff
07
04
f6
ea
ec
1c
28
0a
0b
f3
fa
0d
00
ed
05
f2
eb
0c
c6
db
2a
ef
fa
11
e2
11
e7
03
e0
10
0a
f8
06
11
0a
c9
dc
09
0e
00
eb
06
ff
fa
dd
d9
b9
fd
f1
ea
e9
e9
09
05
f3
fd
ed
f5
1f
21
f3
0e
f4
16
24
16
09
ea
06
cf
f7
2c
e1
f8
0c
f0
e4
f2
1b
f8
ef
f6
ce
fd
45
ed
0c
20
07
07
e6
f4
fd
16
f1
e5
02
32
29
1f
0c
f4
de
e9
33
c0
f9
d5
10
f5
12
ec
d6
0f
fa
cf
ef
26
fc
e8
0a
2d
fa
eb
0a
fb
1a
22
df
eb
ff
2d
13
02
b5
fd
f3
e8
12
d5
ea
17
15
15
04
f1
12
29
f6
29
e6
f3
f4
f5
1e
fd
fa
fd
0d
ed
22
25
fc
25
1a
db
0e
1e
f6
10
ff
ef
02
2e
e8
17
17
05
fc
0d
f2
23
e9
da
29
1f
fb
ee
07
24
e6
1b
fc
e5
1a
0b
e5
19
ee
1f
ed
45
ec
e3
23
2b
2f
1b
0e
e6
1c
dd
ef
fe
0d
17
d7
ed
0e
f5
d5
f6
e4
e5
23
04
0e
13
10
f5
27
f4
16
03
e4
f5
24
ff
ea
04
23
0a
fe
e9
1f
fc
39
10
f8
e9
fc
10
f9
f1
ef
06
f8
e9
df
e5
02
0d
e4
f8
ec
11
14
09
bd
1a
f4
f4
07
fa
06
1d
de
f1
de
dd
d8
ea
f9
e0
0b
30
f3
28
f2
0a
16
19
35
0b
ff
f8
d4
fc
f4
f9
07
39
f4
ee
f8
fd
e9
e9
02
f9
1f
0c
f6
f4
fc
f1
1c
ee
c3
ee
cb
04
fa
06
02
e2
f5
f2
1f
16
13
ea
f5
68
f6
20
3e
13
06
18
01
d5
12
99
f9
dd
32
f2
e8
0d
01
11
0b
05
f4
0c
17
f1
f8
04
2a
f2
f5
e4
24
df
00
db
12
de
db
de
14
3d
0d
3e
0d
27
14
f7
07
06
19
e2
29
12
0b
db
02
24
27
f3
07
09
e6
01
ed
13
e3
ea
e1
f8
d5
fd
08
19
ef
24
ef
08
fc
0a
d6
20
fe
f2
04
f7
ee
f0
ec
03
fb
e7
09
ec
c7
e3
13
bc
f1
e6
02
d7
f8
f0
df
d5
02
1c
19
f9
2e
fe
22
f3
ee
de
09
0a
07
e7
2f
cd
08
08
0b
eb
19
ef
ee
fd
2a
65
08
18
15
14
05
2e
40
fa
f4
fa
fe
f1
06
10
f9
e5
fd
15
0f
17
e0
09
f9
bf
f9
06
3c
d7
b4
dd
ea
39
ff
fb
e7
0f
0f
52
05
0a
03
0e
f4
1c
1e
ef
2d
03
0a
ef
06
00
d7
0e
f6
13
11
0e
e9
0b
ff
15
14
d8
df
09
f5
05
d7
e3
09
09
f8
08
18
2c
06
ee
2e
05
06
f8
f7
d1
47
f3
38
da
c7
e5
28
1a
f1
10
23
0a
2d
0a
09
04
15
17
f5
56
05
06
f8
08
1d
12
e9
22
ce
eb
ee
00
04
e4
fd
0b
05
02
31
ee
eb
9c
27
ed
04
fa
ed
21
df
eb
e9
c7
1b
dc
22
14
ed
ec
dc
12
15
26
fa
c3
3a
24
1d
10
44
f5
eb
e9
10
0f
0e
1d
13
13
12
d1
22
fe
08
ee
07
e1
03
ee
fa
01
0f
17
04
2d
0a
ec
f5
37
01
dd
0c
10
ee
f3
1a
e6
db
ca
d8
fe
fe
2a
07
1a
c1
09
20
02
fa
10
0e
ec
fe
e6
f2
e9
f3
d7
01
30
f3
fa
fa
d5
ef
24
11
f7
eb
35
fa
0b
23
29
17
2d
01
f4
12
d7
fa
1f
12
e2
f5
e7
ee
ff
1e
08
26
fe
f9
fe
fb
bc
1d
19
03
e2
cb
fb
0d
f2
08
e3
fe
0b
f1
fc
f4
f1
08
db
06
f6
fd
04
07
ef
12
07
11
13
1c
dd
d9
f9
02
ee
df
d3
f7
f6
ef
25
21
f2
fc
27
f4
de
0a
25
e0
e7
fd
e9
e9
18
1a
3c
ee
cc
23
08
ef
ef
11
f4
03
f8
cf
0c
0c
f4
f2
f3
fa
07
0d
ec
29
02
d3
1f
0b
0e
0a
f9
c8
0c
d9
10
cf
06
0f
10
11
ea
db
19
ff
07
07
e0
0d
19
11
f6
08
05
e6
fb
eb
f5
0c
d9
0a
3c
0d
01
0b
10
f9
e9
ee
01
10
eb
0a
ff
2d
2f
08
02
fe
e3
0a
e9
15
ef
11
0c
f3
16
12
c7
24
fb
2a
ff
13
f3
17
e0
15
cd
0d
06
1c
31
0e
0d
14
0e
0a
32
15
14
15
ef
fe
01
ee
0a
e6
08
0b
f5
e4
01
0a
0a
05
2d
d7
2b
e6
fc
10
1d
d9
18
d9
e6
cf
0b
d2
fb
ee
01
fb
f3
ec
ed
03
f9
0b
0d
e7
05
ee
02
01
fa
ea
d5
0b
36
cd
ea
f7
14
e8
06
fd
e6
07
13
ea
1a
fc
fb
e0
0e
17
f4
17
f3
0e
a6
dd
f7
f5
e9
10
12
eb
e9
07
09
17
de
05
f9
fd
ee
fb
11
ff
d2
c9
fd
19
0e
e2
02
18
04
0f
22
e3
05
06
e5
ed
0c
28
02
f7
01
18
0f
e9
12
e4
14
10
f0
fa
0d
fa
d4
f4
1a
da
dc
ea
1d
16
11
08
08
09
c5
1a
e9
17
27
20
15
e0
14
f6
f8
fb
42
dc
ff
df
d1
d7
07
15
0d
f2
01
13
c6
e3
f9
10
e3
ff
de
e3
1d
db
f7
e3
35
28
27
04
f8
f5
ea
ea
07
fb
11
1b
0c
ed
32
17
18
04
dc
11
f0
23
f6
02
2c
31
f8
1c
eb
1b
f7
2c
0d
fc
0e
02
0e
f6
18
e5
02
01
ed
12
f9
f5
13
14
07
fd
28
06
1e
dd
00
f4
ef
db
01
f7
1d
df
ec
24
1e
04
fa
08
2c
fc
06
1a
03
e5
0b
d4
0e
1c
cb
f9
f3
23
14
ef
fd
f7
0f
ff
f7
f6
03
da
f9
f9
06
f9
0a
04
08
ed
1d
e5
13
1f
f6
f0
eb
02
f4
03
1e
f2
15
e9
ed
22
15
0b
28
01
03
2f
1c
0f
01
25
0f
ee
31
ee
11
06
10
f1
fb
bf
ef
01
fb
02
1c
e9
d0
f8
0a
fc
e5
df
d7
eb
e0
12
d6
0e
fc
0f
24
e5
d1
ec
0f
1d
f3
05
02
02
f1
eb
ec
05
e5
dc
1b
dc
18
14
ee
25
2f
0b
0c
0c
fe
e9
f8
17
ee
fb
25
f3
d0
1d
0f
ec
02
00
06
c9
e4
09
e6
1c
fd
ba
f6
2a
db
19
e6
eb
ec
d7
3e
0c
e6
ff
17
f7
13
39
22
c5
13
f8
e0
e6
e9
e2
ce
02
00
c8
17
05
0e
0e
1c
f7
2f
0f
1f
3a
17
03
f7
b7
1f
0b
34
09
00
1c
fb
c1
f6
ef
bd
24
f3
ee
f5
ed
0b
24
ec
e1
fd
fc
16
fa
0e
e7
db
11
f1
ba
ec
14
30
09
07
12
26
e3
3f
fa
08
f8
f4
ef
11
14
da
fe
0f
dd
0f
d2
15
22
e4
12
1c
fb
10
2d
ed
0a
b0
0a
f4
23
eb
e6
1b
00
ff
f8
18
09
f7
05
db
30
f3
15
0a
fc
09
dc
fd
14
f0
f8
fb
c8
ea
17
ea
26
ea
40
11
de
2b
06
13
17
16
06
e0
fb
1f
f9
e9
ef
e4
c5
fc
de
f2
0d
f6
c9
e6
0b
01
01
0e
ec
f5
f6
e9
01
12
f8
ef
fa
cf
ea
ff
0b
10
ee
03
db
e9
0a
10
d7
17
fd
03
0a
02
17
01
38
d4
13
db
f0
00
f2
07
ef
08
0f
1f
eb
1b
e5
4c
f5
fe
0b
34
11
f4
00
f5
0d
0e
15
02
e5
15
14
0a
0a
c6
ec
02
23
f1
f7
e7
16
f5
28
c5
e4
d2
07
0f
28
09
e1
f7
20
22
00
2d
0f
0f
08
ec
29
ed
09
09
00
02
f6
e6
f3
39
f8
f3
15
bd
e5
34
f3
d7
08
db
f0
19
05
df
ec
0e
fe
0b
0f
f1
ee
ec
1f
00
04
1f
28
18
06
e8
f2
2f
07
e5
06
0e
f4
27
1b
23
f3
e7
f5
0b
03
04
0b
13
12
f8
13
0b
fe
20
1d
f9
d6
04
df
2c
02
e9
13
18
09
f7
1e
f2
ea
f5
0c
3c
06
d9
11
da
cd
f4
1d
31
ea
21
a7
2f
22
13
fc
06
ed
16
24
ed
fe
1f
f7
f9
09
21
02
e5
10
fe
16
02
18
f6
07
eb
d7
d9
39
2c
f0
cd
26
34
f8
ff
2b
f2
29
35
1e
eb
19
1b
f5
23
12
e4
d4
02
ea
15
0d
eb
e1
09
f2
0c
eb
26
16
0e
02
c9
2a
d6
23
f7
07
1d
fb
fa
d9
ed
15
d0
0b
eb
f1
fb
15
f7
ed
f6
e2
15
06
13
de
0e
00
d7
10
bc
02
15
08
1d
12
f9
d3
38
f8
1f
db
0e
07
29
09
0b
f1
ef
c2
2b
10
fe
e8
09
0b
e6
07
ee
e6
f8
f3
13
0f
18
e4
e8
07
f6
ef
de
01
fc
eb
f2
2d
2a
f6
14
0f
ff
1b
2e
c4
f4
04
28
e9
f1
01
fc
04
dd
f3
0d
17
1b
14
e1
11
f5
ff
21
25
22
d7
f7
1d
f8
ee
fc
34
f4
1e
fc
17
07
e3
db
2e
db
00
f3
03
d5
07
07
0f
fd
fe
ef
ea
f6
f9
d3
cf
f9
e6
13
dc
f3
d2
f0
00
fc
eb
f2
e2
19
18
ed
e5
f9
11
fe
0b
1e
f4
12
14
d4
12
12
00
e8
18
05
fb
17
1b
0f
07
e5
14
07
0d
00
f3
e0
02
10
e3
19
05
00
1d
05
0d
08
08
06
e0
1f
16
f8
db
09
06
ec
ec
16
00
01
00
ee
06
0b
e3
fa
f3
fb
f7
09
26
01
07
cc
11
00
e1
02
fd
05
f9
11
fa
0f
0a
f4
14
11
f8
ee
03
fe
f5
16
00
20
fc
ed
f9
09
0a
1d
11
21
1b
f1
ff
f8
e8
14
21
f2
f2
e8
f7
15
13
01
23
f2
02
f0
0e
f2
11
f5
07
1e
12
f8
0c
ee
d6
ea
03
fc
fe
d0
e3
f1
2b
13
f8
e9
ff
e8
f4
07
08
e8
12
07
0a
e1
11
04
7f
ea
f7
f6
f8
f4
f6
ed
02
00
f6
0e
f9
07
0b
30
25
0b
e7
22
2e
12
e6
da
03
f1
09
df
da
03
14
0c
0a
fa
ed
fd
f7
f2
dc
05
fe
f6
16
0c
1e
e3
0d
bb
f9
28
dd
df
05
e7
26
03
d9
08
22
fe
0a
21
fb
05
35
20
f1
18
1f
f2
11
fa
13
f4
1f
20
11
eb
0c
0d
e1
f9
ed
05
09
d7
ec
23
ed
d8
f8
e1
18
dd
00
04
0e
27
1d
dd
f9
d8
ef
10
d9
eb
ff
f1
ec
08
05
05
f9
f9
eb
1b
fe
11
de
fe
10
2a
f4
c7
0c
0d
ea
13
fa
f8
1a
f2
00
05
22
13
e2
fc
ef
2b
09
1d
fc
fa
12
11
14
ee
fe
dd
ff
fb
f2
f3
ce
0c
ee
ea
d4
fd
d1
f2
fb
ed
fd
0a
19
1d
03
08
f8
e5
f0
15
f9
f6
f5
1e
17
ff
ef
29
0a
42
01
f3
fc
1d
e1
04
1d
cb
33
09
ed
02
fb
1e
09
25
18
1c
17
1d
f7
e0
ef
ff
e0
fa
1b
eb
28
05
13
f9
0b
0a
fe
1b
fa
db
eb
09
27
f6
f4
18
09
06
05
fc
05
df
1c
21
29
08
e4
01
f5
01
ff
fa
e9
08
f6
fb
10
1b
0e
07
04
02
d0
f8
d7
e9
fd
ff
00
2d
28
f3
06
22
19
25
f2
f5
ff
f1
ff
e8
00
c8
08
0a
e5
1d
17
fc
26
fd
20
fd
e8
fa
ec
e8
f5
f4
06
32
1d
33
17
1a
22
11
fd
f2
ee
de
16
17
09
e3
0e
fb
0d
fe
e2
05
12
02
02
e9
17
f8
12
04
03
25
f7
f7
fb
ec
17
0a
f1
12
23
04
1a
0b
0e
4c
10
02
12
16
0c
0a
e6
f8
dd
f2
e8
