fc
00
fc
04
09
04
12
00
00
f8
ff
f9
fd
06
fd
16
ff
ff
02
00
02
fe
00
fe
02
fc
0e
ff
03
01
fc
09
fe
06
00
00
fd
03
fc
06
00
f7
fd
fb
fa
ff
fd
fa
f7
00
ff
01
07
0f
00
fd
01
03
06
01
ff
ff
fe
02
0c
e7
20
ea
21
1a
10
01
38
39
18
d4
0b
fb
0d
4c
e2
7f
3d
ff
36
f6
1f
ea
0c
02
1d
32
2d
ce
e6
23
e6
21
1c
f2
e2
3c
f3
22
1a
e9
1b
f8
cb
06
0c
ea
d9
e3
26
18
f6
03
08
c1
fc
39
36
f8
f4
04
d9
e7
0c
05
09
05
f7
fd
05
fd
fd
fa
fd
fe
08
fe
ff
0b
f9
04
02
04
fe
fe
01
f8
f8
02
f7
03
08
ff
02
09
fd
fd
fe
f9
f7
04
fa
0b
fd
f5
fe
01
f4
05
04
00
f7
f8
fc
fe
05
05
ee
f5
fe
fd
f6
fc
01
fc
00
03
d9
04
01
f5
05
16
05
14
ea
ef
04
fb
16
11
ef
eb
12
f2
e2
0b
f7
0d
f7
e2
09
0d
e5
05
e8
1d
f6
d2
e5
da
e0
3d
18
e5
00
06
fa
15
1a
0d
18
ff
fa
0c
09
03
02
ed
f4
f7
1e
0e
f7
e4
e6
08
f8
0b
fa
06
29
00
01
16
0a
ed
00
f5
18
1f
03
f6
ea
04
0e
35
e9
2d
2d
e8
1a
f5
13
12
ee
e0
20
f6
15
f0
03
43
1a
29
29
c5
ce
35
0d
18
24
db
d8
ec
cb
12
f0
e3
e5
0e
fd
0e
24
2b
d3
db
1e
31
2a
ed
0c
f5
f7
ed
ed
f2
0d
ff
0d
04
f8
f6
0b
f4
f8
04
01
fb
f7
fa
0d
fc
f6
f0
00
13
f7
fb
05
fe
f5
0b
f5
fb
f1
e7
fd
01
01
0c
0e
ea
ec
f2
fc
ff
16
f7
01
09
03
f8
0b
f0
0b
fd
f2
ff
0e
0e
04
fd
fa
00
fe
02
16
13
fd
17
07
f5
10
00
07
fa
05
f5
09
00
fd
ef
02
ee
fd
e9
25
02
f9
e8
f5
fa
04
05
e4
0e
09
0e
13
0f
e4
e5
05
15
13
f5
ff
f6
00
08
fb
06
0d
f5
f3
12
0a
e7
17
04
07
0c
14
0e
00
f1
f9
ff
fe
ec
0d
ff
e1
ff
05
f9
fb
03
08
03
0a
f8
00
0d
09
f1
07
00
ff
f9
ff
f4
00
02
f8
05
0b
02
0c
0e
0a
fb
ed
fa
03
f8
fd
fd
08
fc
f8
f5
f9
00
0c
0a
fc
fd
03
05
f0
f7
02
ea
02
f0
ff
0a
f3
fe
fe
f8
19
0f
05
05
ed
06
02
f9
e0
09
fc
fd
04
0f
06
ea
fe
03
eb
01
f8
dd
fb
fe
e2
f0
10
fa
12
fe
fe
f8
12
03
04
ff
f0
08
f4
1c
fd
09
08
e9
01
02
04
0a
0a
f4
00
16
ff
09
12
eb
f3
fc
f1
18
ef
08
ea
06
fe
f3
09
e6
16
f7
f4
fe
01
02
f5
ff
02
ef
03
fe
fc
fa
fa
0c
09
f3
fe
fe
f5
fa
01
f7
19
f9
fa
07
f2
e5
f1
ef
04
f8
fd
16
0b
ed
f0
f6
f5
f9
0e
f0
f5
09
0b
05
03
f0
0a
09
f7
fb
16
0d
f4
04
0a
fb
0a
fd
21
04
08
02
05
f3
e7
fe
fa
fb
05
07
0a
fa
0e
0c
f9
e1
07
ed
f2
12
fe
07
1b
e9
05
0f
f3
09
ed
11
07
08
fd
04
f3
16
13
f2
01
fc
fe
09
ec
f4
09
e8
f7
18
fb
fb
12
ff
f8
05
0e
09
01
19
fa
06
10
f6
0b
18
ef
eb
05
f0
01
f2
01
01
13
f9
fa
11
ff
f4
06
04
1b
fb
fc
09
fd
0c
06
15
09
eb
fd
01
ef
ef
01
ef
03
fb
f9
0f
0f
08
e5
06
f1
f7
0c
fd
03
0f
00
05
0a
fe
f4
03
fe
fd
15
00
fb
fc
fc
03
06
f4
17
02
08
0b
0d
09
f3
0e
ed
ed
0f
e9
f3
12
07
ea
05
f2
00
ef
09
0b
fb
01
f9
ee
02
08
f7
fe
00
ee
00
f4
f9
f4
f1
07
f9
f2
11
03
0a
12
15
11
06
e9
fb
01
0d
ff
1b
02
03
f3
13
f2
fb
01
1d
08
ee
eb
ee
ff
ed
f2
12
fd
07
09
05
e2
17
11
04
12
f1
ea
f5
f7
03
ff
ea
11
09
01
fd
ff
00
01
fb
09
ff
0f
18
f4
e7
f5
f1
0b
0b
f9
fe
ff
ef
08
01
0e
fd
e6
fd
fe
11
07
0e
f6
08
12
fe
18
f2
00
f5
07
09
08
ea
1a
01
fb
0c
05
ee
06
10
e8
06
09
f1
f6
f6
f8
f6
fd
e6
02
0e
1c
f6
f8
ef
f2
19
eb
df
15
f9
f4
17
10
f0
f3
f1
f6
fa
fa
04
fe
02
fe
f2
f0
0d
f2
0f
10
09
f9
0e
01
0f
02
0c
28
ff
09
ef
08
ff
20
01
07
06
0d
f7
04
e3
08
09
e5
05
f4
12
03
0f
06
03
01
03
f4
ff
03
f9
ee
08
ee
0b
07
f0
16
f1
13
0c
ef
e5
00
f8
fb
14
ed
06
fb
00
0c
fc
e2
04
f8
16
0f
00
08
08
f1
fa
06
04
10
f5
0b
f6
10
02
fd
04
f5
02
05
04
01
ea
0d
fd
00
fd
01
07
09
ed
04
01
02
f9
ee
ff
0f
ed
01
0e
06
11
01
f8
fd
ff
29
0e
f3
ec
f1
e5
03
ff
f4
fa
f3
ff
1f
fb
ff
fb
ff
f7
1e
0f
f1
0d
f7
fd
0e
0d
07
f3
00
f9
02
f6
e7
fa
01
04
13
fa
f9
f6
0d
11
0c
19
f5
f3
00
f7
f1
fe
fe
0c
f9
10
05
00
ff
02
f3
14
06
0e
0a
f3
05
f1
f1
0d
06
05
0c
06
fc
eb
e7
0a
f1
05
06
f1
06
0f
fd
02
ea
16
12
03
05
16
f6
03
f8
09
05
eb
03
10
0b
fd
0c
fd
05
e4
0f
0e
02
07
09
09
08
f3
0b
01
ef
18
07
0d
0c
f2
f8
01
f8
0f
17
ea
1d
00
02
14
0d
f6
ef
f6
f4
0a
f4
04
04
f9
10
e5
0e
01
f8
ff
08
0f
f7
00
f6
11
fb
fe
16
f6
07
0a
13
f7
f9
02
fe
07
06
00
fb
f1
0f
f2
f3
15
f7
e8
05
ff
ff
eb
f6
0c
f5
13
17
10
f8
f5
ef
0d
f8
f8
0f
03
f9
10
fd
ea
ea
03
fe
f5
ed
fc
f0
f8
fb
05
19
f2
f0
05
11
05
1b
1c
ff
02
04
12
15
ec
fb
f2
09
fc
0e
f3
08
f1
04
01
ee
11
fb
05
f2
14
ec
f3
13
f6
f4
00
03
15
0c
f2
f1
01
01
f7
0a
ff
05
f8
04
ff
f4
ff
fd
ee
f5
f1
f7
05
f8
f3
fd
f6
06
fd
fa
ff
11
08
0a
ff
07
f4
f2
ed
f5
03
06
0a
ff
0b
f8
fc
f9
fc
0a
06
13
ef
e8
f6
02
f7
f9
fa
06
0d
f4
f8
04
11
e7
0d
04
03
0e
e5
0c
07
ea
15
04
ff
0e
09
07
0b
03
03
e0
fc
00
01
e5
04
03
fe
03
f7
00
1a
ea
eb
fe
fb
f0
05
fb
f4
05
f8
0b
e9
02
12
ef
0a
e2
00
12
07
17
ff
0f
ef
07
e3
f9
f6
f3
01
fb
17
f8
03
13
f6
fb
0b
00
04
f6
f7
fb
1c
fc
0c
07
f4
f8
fc
fb
fd
fa
01
19
ed
e4
e9
f1
05
17
01
12
05
09
f9
04
0f
0b
0e
00
fa
e4
08
08
03
00
e8
15
1f
f3
04
f6
0e
0e
ee
fc
f6
0f
08
02
13
f2
08
1b
f4
fa
02
04
09
ef
08
08
e7
f3
fa
ed
04
00
f3
0d
eb
f4
04
f3
ff
fe
e2
0e
fb
eb
04
00
fa
fa
f7
0f
0f
0c
dd
03
f3
f5
03
f5
ff
f6
04
ff
09
e2
13
0e
00
01
fc
08
05
04
f6
f6
f8
02
fe
08
0f
ef
f2
06
0a
08
f2
ee
10
01
0e
0c
fc
ec
fc
f9
12
11
02
f8
eb
ef
0f
e6
fe
02
fc
f9
f1
0e
09
03
fa
fb
0d
f0
ee
f2
fe
09
08
03
12
fb
08
ff
0f
f2
09
f9
ec
00
f5
01
0d
e2
f0
f1
08
f9
0a
fc
f4
eb
0f
01
ee
fd
fb
f9
f8
fb
0f
04
f5
f2
fb
10
01
08
f7
fe
fb
0e
ee
f7
f1
f8
f8
01
0b
00
11
f2
ed
f5
07
f7
02
fd
fb
13
0a
f7
ff
f9
02
fd
f6
f6
0c
06
fe
09
fd
fe
fc
ff
0f
0a
ff
f2
0b
f2
fe
fa
01
ef
ed
17
0d
17
05
ff
01
00
0e
0a
fd
11
ff
0c
04
0c
10
f8
04
0c
fc
18
06
f4
ee
f9
ea
07
02
05
eb
f1
f3
fd
04
15
16
ea
fc
f9
10
fa
03
f1
05
11
fb
13
ee
05
0b
0f
04
00
01
0f
f2
04
07
09
00
f1
03
fd
04
08
12
0a
13
f7
ee
e9
fe
07
f4
fc
f1
08
ff
fb
05
02
fa
08
ec
f4
08
fa
fe
f8
f6
03
0b
0e
04
05
ff
fe
09
15
15
f7
0e
fe
fe
f2
f9
f7
f2
01
0c
11
fe
e5
f9
06
f5
09
ff
00
00
12
0a
00
ee
0d
f0
06
15
f1
fe
00
07
08
eb
dd
01
0d
02
0f
fc
fc
07
eb
fa
04
fb
02
ef
ea
fd
fb
03
0a
fb
fd
00
00
11
fa
08
0a
12
09
f5
e0
03
04
ff
fc
0c
0d
ff
f3
03
10
f4
03
ff
15
ef
fd
ff
fd
f8
0a
13
03
f5
f5
fd
f8
f3
0c
12
02
f7
fa
0e
f9
0e
fe
f0
09
0f
0e
fa
f8
f5
f0
01
13
02
01
08
f5
fe
06
f1
16
11
17
f0
f9
f6
06
f7
fb
17
02
f6
00
0c
0a
07
ec
f4
08
ff
13
f2
f9
f7
f9
04
f5
03
fb
f7
02
02
0a
00
ff
03
03
07
ec
07
07
1e
ef
07
04
02
fc
ea
fc
18
05
0e
07
06
03
f9
09
df
fd
fd
00
fb
f5
09
02
03
03
fa
f4
02
04
04
16
0e
f6
01
f0
fe
10
f9
ed
ed
f2
fe
fe
f0
fb
fd
03
0c
df
04
02
fc
02
01
ee
08
1b
ee
0d
fc
f0
f3
01
07
f1
e3
05
0c
f7
f6
04
f7
00
07
f8
0e
0b
f6
0a
f3
f4
0d
ee
02
fd
f9
16
fa
f8
ff
f7
f3
07
01
fb
fc
09
fb
09
f8
e0
f9
07
f8
f9
03
0c
11
10
0a
f5
fb
05
0b
f9
f1
ed
10
0d
03
00
f4
13
0e
ea
02
1a
fb
f3
f7
f0
15
0c
fb
05
ef
0d
ed
05
fe
f8
09
07
fa
fd
09
ef
05
f3
fb
01
0c
07
f8
14
ee
02
16
fe
02
07
01
fb
05
05
08
fb
0b
f8
05
fc
fe
0d
f8
f9
f7
fc
03
f6
06
fe
fc
f5
e2
f7
fd
15
ff
ff
f6
07
04
13
f8
e6
00
00
21
00
f5
e5
02
e9
04
01
f6
f2
00
00
fe
ef
03
f0
fb
fa
08
ff
09
fd
00
ee
01
0e
f9
f9
06
f6
0d
14
20
fb
03
fd
02
0d
fe
1a
fc
f6
ee
09
02
03
e7
f7
0e
f7
05
03
ff
05
00
01
f5
0c
02
fc
01
f8
04
f8
06
04
fe
ef
ee
f4
ff
19
f4
0f
ed
f2
04
f9
10
fc
fb
1b
01
fe
f8
f2
05
ff
22
f5
ef
f5
ee
fe
11
fa
e7
f9
e5
f9
0b
06
02
fb
fd
04
13
02
fb
06
ee
fc
03
f1
fe
17
fb
02
0d
f0
f9
0b
07
ff
fc
f7
0c
09
fb
fe
0d
fa
00
f2
12
f3
e6
f8
f5
02
0a
e8
ff
ef
ec
16
fd
f0
fa
01
01
08
14
ed
ff
fe
0f
0c
f9
06
13
fc
ef
f1
04
0d
fb
fd
f0
ff
fb
f3
06
fc
f8
0a
07
f9
f7
16
f6
08
f7
fb
0b
0b
07
0d
00
06
04
ed
04
fe
e6
02
02
fc
04
05
f5
fe
04
ff
03
fd
02
fa
0b
0f
ff
fe
03
fb
ec
fa
fa
15
0c
0d
eb
05
0a
ff
05
fb
fa
f5
08
ef
f5
ef
1d
22
00
04
fe
07
f0
ee
0f
05
11
f2
f0
0a
12
0b
e5
03
06
f0
f6
fe
fd
ee
13
fd
07
eb
09
fc
0e
0e
f1
0e
f9
f8
fa
f3
f5
fb
fc
f3
09
0d
08
08
fc
0b
fb
10
24
03
f5
ff
05
ff
fc
ef
0c
09
fc
06
f5
f4
f9
fa
fe
08
06
0a
09
05
f8
e5
f4
f8
f3
05
11
f2
f7
02
05
0f
df
fa
f8
e6
e2
fb
fb
d3
fc
ed
0e
f9
0d
0b
f8
09
0e
05
f8
f4
04
f5
03
fc
02
fe
fe
11
f2
0a
fe
fb
08
07
fa
13
12
fa
ff
03
13
fd
fc
0b
f3
0a
f6
f6
06
04
ff
0e
f4
f9
f0
0c
fd
f2
f3
f0
04
05
06
f7
ff
fb
f2
f6
02
06
fb
03
f1
f8
17
fc
03
00
f6
fb
f4
09
fd
03
03
01
05
f3
ee
02
05
fd
f2
ff
e6
fd
0e
fb
fa
f8
03
f8
0b
f3
0d
fd
fc
0f
09
fc
1d
10
09
f5
0a
17
02
f8
ee
14
01
f5
f0
08
0c
f5
fa
fe
06
07
fa
f4
fe
04
fd
01
fc
eb
fe
fd
fd
fd
04
f4
05
f0
ec
06
e7
12
0f
06
07
f0
f8
04
ef
f2
fb
00
02
07
05
10
0f
f9
ef
f7
f7
11
0c
13
f8
00
0f
f6
00
08
f5
0a
17
14
f6
f9
fe
fd
14
fb
fc
01
08
ef
f6
ee
f7
fb
f9
06
12
0f
f6
03
f3
04
11
07
f9
e5
fa
f7
08
fa
f3
03
00
01
08
00
0a
15
11
17
05
ee
07
fc
09
fc
05
f0
ff
fb
00
05
fe
f0
f9
00
f6
f0
f8
0a
f1
02
10
0a
f6
f0
0e
ea
e8
0d
f6
fe
e5
fc
07
00
17
00
fc
10
04
06
07
09
0e
00
fe
05
ff
09
06
eb
08
06
eb
09
fe
f6
f1
fc
fa
03
fb
0c
0e
02
fa
fd
02
fb
07
e6
ff
15
ea
14
f6
f2
f4
09
fd
f3
f7
f9
f0
fa
fa
03
01
04
f2
04
fb
06
18
06
14
0b
ec
03
02
fe
ed
01
02
12
04
06
f7
08
0d
03
fa
f8
08
ee
fd
f3
ff
fa
13
0d
05
01
f2
01
fc
1b
fa
fa
f9
f7
fe
e3
f9
ed
ff
fb
01
05
04
f1
fd
05
07
03
fc
06
ee
fb
00
ff
05
fd
00
dd
0c
02
f0
00
00
f1
f5
fd
0a
05
f3
fd
f9
0e
f0
08
06
0a
f9
01
ec
f7
f4
f7
f1
03
fc
fe
0c
01
f4
00
02
f9
01
01
03
0a
ff
06
00
fb
fa
f4
01
f8
f9
07
00
05
03
f5
f5
f9
0a
03
fd
ff
12
fc
04
f7
00
09
0e
f7
f7
0b
0d
e7
09
00
0d
fc
fa
f7
fc
04
f8
0f
15
05
00
0f
0d
f0
0d
fb
01
f8
00
fa
11
18
e5
05
00
11
12
01
0a
f8
0b
e6
fc
06
16
0a
fe
f9
f9
f8
02
0b
00
02
ff
0e
f9
0e
0b
12
f7
fa
ed
0c
f9
f7
21
04
ea
0b
08
e7
fc
00
04
00
f2
09
ec
f1
05
01
0d
08
03
02
fe
f3
11
0b
03
05
13
0e
fb
18
fa
02
0c
0e
f4
0e
00
e7
09
f1
0b
07
18
0c
f6
ef
09
e5
0b
0e
f4
f9
f0
18
03
ef
03
08
08
fb
00
0c
fc
00
01
fe
15
03
04
05
f8
0f
fc
f5
e8
13
eb
ff
ee
fd
06
12
e9
0b
fa
03
f5
f7
03
f0
f6
08
11
f1
08
f9
fb
03
12
03
09
13
fe
02
08
fc
fa
f7
fe
e8
05
f3
eb
f5
f3
0f
f9
f4
00
10
fa
10
f9
f8
f0
02
01
f0
f2
f5
01
07
05
fa
0c
00
e9
05
04
0a
ff
fc
01
f6
14
f3
ff
13
02
03
f9
0f
02
fa
fc
05
06
ed
f6
f7
08
04
ee
f4
ea
f7
08
0f
f5
ec
f6
ef
06
ef
0c
08
f6
06
13
fa
0d
0b
07
00
09
f1
12
f6
01
f8
f3
06
23
09
07
0c
0a
eb
08
fd
0f
fe
fe
00
06
11
00
14
17
00
fd
08
fc
ee
03
f9
05
f8
f8
fc
fc
14
fa
05
f2
06
fe
ea
05
0d
0d
fd
00
fc
01
f3
f8
f6
f0
08
11
f4
fe
02
07
ef
15
0c
0d
08
f9
03
fb
08
08
10
09
ed
08
17
06
fc
05
f8
02
f9
2c
04
e3
fa
ef
fc
06
09
06
1a
f7
04
16
0c
06
ea
ee
17
09
00
fd
f0
0d
f5
f5
0f
0e
f7
13
06
f7
fe
12
06
f7
05
fe
05
01
0a
f4
0a
f4
fe
04
fc
e3
08
08
f5
10
0f
f8
f6
08
f7
01
09
ea
0a
11
ff
fc
12
fc
f2
f0
0e
f2
f6
0f
10
ee
f9
fd
f6
07
f0
ec
08
ed
03
0f
e5
f6
f9
e3
02
07
fd
0e
01
0b
0d
fa
ff
08
f5
03
03
fd
ed
f6
07
07
09
00
f9
05
01
09
0e
fa
00
ec
10
01
03
f8
09
01
09
fb
00
06
f6
0f
fa
1a
13
f7
f9
09
03
ff
12
e4
13
02
f3
00
11
0e
e9
11
01
04
f6
02
01
fc
00
fe
15
f5
17
06
04
03
fa
fe
fa
10
f1
04
f6
f5
02
14
0e
e9
07
f1
fc
f6
13
fc
02
df
18
fa
ee
f0
01
f8
04
07
13
f5
f4
12
07
04
05
f6
fa
17
f4
19
f7
ee
fd
f4
f5
0f
fb
f1
12
01
fe
0a
04
fa
fe
eb
fd
f8
18
fc
ea
ee
fe
02
fb
08
09
05
0d
fa
10
0a
03
0c
18
f9
0f
0d
f9
f1
17
01
f5
00
01
fb
0d
ff
ea
05
fa
e9
0b
fa
fc
f3
fc
03
14
ee
0a
e9
f5
05
08
f3
07
f9
ea
04
fe
f5
01
f0
17
0b
e5
fe
ff
f4
11
04
14
0f
fc
fe
f8
0b
03
ff
f9
05
f6
09
fc
00
ec
01
0d
00
eb
05
12
f0
0e
13
10
05
fe
df
ea
08
0d
06
ee
21
eb
08
00
f5
09
0c
fa
0b
f5
14
06
07
f3
05
10
f1
fc
fb
0c
fc
0a
fd
fe
03
fe
ee
fe
fd
08
0c
0a
10
fd
fb
f9
1a
02
eb
02
fc
fc
05
10
15
fb
ed
17
2d
f7
02
13
f0
fc
05
f5
ff
f8
0b
04
f9
0b
02
03
02
09
0a
ec
1d
07
f7
fa
07
f6
e8
f8
05
e3
00
ff
02
04
fd
f7
01
f7
0d
03
fb
20
f7
08
fb
0b
15
19
10
fe
fa
f4
0d
fb
0d
ff
02
0a
ee
1b
f4
0b
f6
ff
10
f6
0d
0c
f6
06
0d
fb
0b
ee
0d
04
e8
06
09
04
03
f7
f4
e7
07
fa
0e
f3
07
f6
ee
06
fb
f2
ed
0d
f6
fe
06
0f
05
ff
fa
06
0a
06
e9
06
08
0c
0e
0e
0e
f6
08
03
10
ff
0b
ff
06
10
01
12
f6
f9
ea
03
00
f0
07
0d
12
14
f5
06
e5
12
f9
fe
0c
09
13
f8
05
0f
fc
0d
ef
06
ec
18
e7
05
f8
f2
0e
f4
01
05
fb
fe
ee
e0
f4
01
fe
06
fa
f0
f8
f5
f0
08
0f
f9
08
00
06
1b
08
05
0b
fb
fa
f8
08
fb
f5
f9
ee
fe
fc
f7
12
fd
07
05
fe
f8
fa
10
f2
07
f0
f3
0a
ff
13
03
f1
00
fd
f6
fc
08
e4
09
19
fc
10
fd
00
f0
ff
fd
00
fe
05
02
08
07
ff
fd
05
e8
05
f7
1c
15
ff
0a
fd
01
03
11
0f
04
f1
f8
0d
f4
01
f6
0c
0b
f9
02
13
12
01
f3
0e
ff
06
0a
01
01
ff
fe
01
0f
01
f0
f4
fb
16
10
0f
06
0f
01
f6
10
ff
01
0a
01
f9
f9
0a
f6
fe
ee
ee
00
05
fc
f1
16
ef
09
fe
fb
06
f1
0d
08
05
00
f7
ef
03
ff
00
f6
12
ee
ff
08
fb
fd
08
f2
f2
03
16
10
10
f6
e7
06
0e
f2
fc
0e
0b
f7
f2
f0
15
f2
03
07
1c
00
01
ff
02
02
09
19
03
00
08
08
f0
f9
01
ed
00
fd
ef
f9
f4
ff
08
0c
f1
09
f6
09
07
0d
11
f2
18
05
f7
08
fe
fc
e9
09
0b
fa
f7
17
0d
fc
f5
fd
f2
04
f2
ef
ed
01
0a
f2
0e
14
ec
05
05
00
df
0c
ef
fb
08
fa
0b
02
e7
04
04
eb
00
ff
00
0c
ff
03
fd
f2
fc
01
03
06
04
1a
0d
e9
ef
07
fe
00
07
fb
ff
fc
04
0c
f2
08
0e
0f
00
03
0e
f4
fe
11
09
eb
0c
fd
09
f3
0a
e2
18
02
05
f3
07
eb
01
eb
0c
0a
fa
fc
01
db
f8
0c
e7
09
f5
ea
fd
0c
ed
02
03
f3
f3
fe
1c
0d
ef
ff
ec
ed
0b
00
00
fb
08
ef
02
0c
ef
ff
0e
15
08
0f
13
04
fb
f1
04
15
03
fd
f7
e7
f7
ed
e9
00
ec
ee
f7
f8
e5
01
04
f3
f2
f0
fa
0e
f0
eb
ff
f7
10
03
e2
f3
f9
f5
f0
fd
f7
f2
06
1c
10
06
fb
05
ee
02
fd
15
03
01
00
ec
fc
f7
0d
08
fb
06
fb
07
0d
12
00
fe
fa
f8
0b
0a
09
01
e8
fd
f7
03
19
f5
16
f4
fd
03
08
f9
0b
02
0e
f9
19
f8
00
f3
f5
f1
0a
05
f7
07
f1
06
06
0b
0e
06
11
09
05
00
f8
e9
fe
e6
15
f4
ef
e6
09
08
fe
00
22
f9
fd
0c
0a
f5
f7
02
fb
f4
e4
00
06
fc
fb
08
fb
07
02
ee
05
09
0d
ec
03
0f
07
f3
09
f9
15
ff
0a
eb
fb
fa
e3
14
ff
0b
08
13
03
f7
0d
13
fd
f3
f2
ff
19
15
f0
03
fd
09
0c
ff
fd
fb
14
06
03
f2
0a
fe
f0
10
ee
0a
11
0d
f2
05
f6
ee
f2
fb
e5
ff
fe
ee
0b
00
01
01
02
00
23
08
14
01
f0
fe
07
ee
13
fb
01
01
f7
0a
f4
03
05
0d
fa
fe
04
04
0b
f7
df
06
0e
ee
04
05
0a
f1
ff
1a
14
05
10
fb
f9
02
f8
f3
f0
08
00
07
0a
fd
eb
fb
f9
f6
02
12
e9
03
02
04
00
fa
03
f6
fd
fc
fd
0a
0e
ed
10
09
ed
07
fb
f7
15
05
0e
f9
10
ed
0c
0e
0b
fc
f3
fb
05
0b
03
f8
0f
f7
ee
00
01
05
ec
07
f4
f5
02
fd
ff
ef
f6
f3
05
fc
fd
09
fa
01
15
fb
0d
0b
0d
0d
f3
f5
ff
fc
03
06
01
e2
09
f9
ef
03
fe
ee
f3
09
07
11
f3
f0
fc
02
01
0b
ff
02
f6
02
fa
00
03
f5
fa
08
f1
0f
0b
fc
f8
fc
fb
f8
0f
08
07
09
08
01
ff
f6
09
f8
f3
f6
01
05
0c
00
fd
f9
fa
f2
15
05
f8
01
14
f8
f7
05
f4
05
17
03
ff
0c
12
e9
f2
01
10
fd
eb
12
0e
f7
10
10
fc
fe
02
00
f0
ef
f8
f2
04
f5
fb
03
03
08
03
f6
fe
fe
0e
f7
12
10
fa
02
07
f5
fd
04
07
fc
f5
02
06
fa
ec
04
f6
f7
fe
0d
01
f1
00
ef
f1
02
ff
f7
00
05
f3
f1
0c
0f
df
05
fb
0a
01
0d
07
06
00
04
04
12
f9
fb
f7
ed
0c
fc
09
e8
01
1f
0d
ee
f9
0e
ef
0e
0e
05
0d
e3
1f
fb
00
07
ff
f6
07
f9
00
fd
01
02
f6
0a
03
ed
06
f0
ec
0d
fe
0a
15
06
f9
08
f9
f3
02
06
1d
ee
01
fb
07
fe
fb
08
0b
0b
18
05
04
ff
00
06
f1
f1
f9
f0
fb
01
0e
06
ef
01
ee
f4
07
06
14
0c
07
f6
f8
e9
f5
17
02
f5
f9
f5
f8
0c
f8
f3
f5
fb
09
e5
f8
f6
fd
11
f8
f3
ed
16
fd
06
fe
06
1a
f8
f9
10
f4
09
f1
f0
f6
0e
f5
06
11
fe
0e
0d
0a
08
01
00
04
06
18
ee
f3
ff
0f
05
fd
01
f6
07
ec
19
f6
0a
fb
f6
fc
ee
fc
fc
0a
f3
07
ee
12
f6
03
0e
fc
fe
07
02
00
09
fb
f2
08
14
f1
03
f9
ef
1a
0a
f0
0c
f9
04
12
f7
f5
0c
ff
0a
01
07
0a
13
fd
fc
0b
f0
1e
f6
f3
fc
09
0f
e7
fe
07
f0
f3
08
f7
1a
03
05
09
0b
f8
ed
06
fb
02
fc
08
ea
0d
f2
08
24
03
09
fd
ff
00
02
06
02
ff
f8
0e
e9
11
13
00
11
01
01
f8
f8
02
0e
f0
ef
02
f9
04
14
f8
0c
fa
0e
ef
ff
ff
f3
dd
0e
f1
f8
f7
02
fc
fd
e6
f8
05
17
ff
f4
fd
03
0e
05
12
fa
11
04
f6
02
00
0b
fb
15
15
0f
01
ff
e9
fb
ff
fd
f6
04
fa
04
fe
06
07
07
13
0a
11
f2
03
f0
fa
f8
01
1a
0b
01
f5
fe
07
0e
0a
0f
f6
ea
f8
f0
fe
fe
02
0d
f9
05
fe
07
0d
00
03
0a
e8
09
0d
ee
05
fc
05
0e
ef
08
fd
09
fd
fe
08
10
03
04
02
0c
09
00
f7
14
f3
03
16
f6
fe
ff
00
fd
f1
02
05
f7
0f
09
f2
f6
00
f0
17
f2
06
f0
07
ff
fa
ff
0c
f8
f7
fd
02
f5
f0
f6
ff
f6
06
15
ee
0d
09
0d
15
f6
f9
fb
02
fa
17
f5
02
ed
03
0e
f4
01
0e
06
0d
19
f7
0f
f4
1b
f5
f4
0d
0b
0d
ff
16
f6
08
0e
08
f1
1f
0b
00
f6
12
04
1d
f9
ef
1c
fb
fa
f9
0b
fa
ef
12
06
f3
f2
f5
f8
0d
16
19
03
06
f7
11
02
f5
0d
ff
04
ed
f2
03
00
f8
f7
f6
02
0e
fd
f9
f8
f5
0c
0e
08
f9
16
e7
06
02
f3
01
06
f1
f8
05
f7
05
ff
04
0d
e8
f5
fc
fd
06
04
fd
fe
fd
f2
fd
f1
03
e0
f2
0d
fe
fa
05
fd
fd
00
fc
0c
f8
15
f9
fe
fc
f5
06
fe
0f
e5
0b
fe
19
fd
1c
f5
ef
ea
05
fb
ee
07
05
ec
09
04
f1
fc
0f
fe
e7
f3
0b
05
fd
f8
08
03
03
1c
fe
04
01
fa
08
17
08
07
01
f5
00
fc
f5
ef
fc
16
fd
09
f4
fc
02
fe
09
fb
fe
f4
01
09
19
f4
f7
02
f8
f7
0d
fc
fd
f3
04
03
f5
f6
0e
f7
0d
06
01
fb
09
04
fe
00
01
ed
ed
fa
0b
f8
eb
09
f4
04
fa
12
05
f7
fd
fc
0c
0f
04
0b
ee
fb
06
09
0b
f1
e2
15
fc
f4
0e
fa
03
13
10
ff
09
fe
0b
07
15
f8
04
fc
ef
fa
0c
03
fb
03
ff
03
f6
09
03
fc
f7
16
0a
de
fe
f9
f3
fc
03
ed
fe
fa
e7
03
09
f5
ff
ee
0a
f0
ef
e9
07
ff
0e
fc
03
f6
15
f4
e4
0d
f3
01
f5
10
f2
d7
12
f2
e8
f1
f6
15
0b
00
eb
fc
01
0c
fa
ea
04
05
fd
f4
03
09
17
0c
ec
f5
05
0d
fd
fa
f9
f4
12
04
03
0e
06
ee
03
0d
10
f0
f8
09
08
04
f5
f1
06
01
f8
ff
06
01
04
03
f2
ee
11
f7
08
fb
e2
06
09
01
fa
fd
f8
fe
19
fa
0b
0d
01
02
fd
03
0d
fb
03
fc
fc
02
02
0d
f8
f3
02
f1
08
fe
1f
09
f7
03
f5
fa
fd
04
0a
f7
03
0c
02
0c
dc
f2
ff
0f
f6
0c
f2
f1
02
ec
0e
15
de
07
00
f3
fc
08
0f
01
18
00
f9
fa
01
01
fd
04
ff
01
01
fc
00
0d
ea
06
02
07
f6
f5
fb
17
ea
00
0a
08
07
f7
fb
12
fd
0f
11
09
09
09
01
0b
0f
08
0a
09
f6
04
ff
ed
f2
f1
05
1c
ef
fa
10
ec
08
03
06
03
05
11
f2
07
e1
ec
fd
f7
f3
ef
fd
fd
0e
06
df
03
fd
f5
0d
13
09
13
fe
fe
e7
fd
1b
02
0a
01
f2
09
0b
f7
05
00
eb
f9
09
f6
1a
06
fb
fe
09
03
f4
09
00
f3
05
fe
11
0f
fc
f5
04
02
f6
11
05
07
ed
fb
00
00
fd
fc
05
0f
06
05
0a
05
ed
01
fa
f4
05
eb
f8
11
f4
f8
02
ef
02
f9
f4
f8
01
06
0e
f9
04
fc
01
ef
0c
05
03
0d
fd
0e
fa
05
03
f5
f5
f8
13
00
0c
fc
02
04
fd
04
e8
fc
f6
05
0a
01
11
06
f3
fd
f5
ec
0e
14
f0
0c
0b
0f
01
f7
04
ec
10
0d
f5
ff
f4
f6
16
f1
06
06
09
fc
ee
f0
12
01
05
1a
fa
07
07
f0
03
05
0d
13
07
18
ef
0b
0f
fd
f8
f5
18
04
11
f3
02
0a
01
05
f8
07
ef
07
03
fd
0f
06
0b
fc
fb
fc
ff
02
0b
07
06
10
f4
03
05
e5
0e
05
fd
04
f3
00
19
f2
07
09
08
fc
f6
ee
12
07
f7
16
ed
0b
02
f7
fa
fd
f8
0f
f6
0d
f5
1e
e6
06
1f
01
06
11
08
0c
09
04
07
ef
06
0c
f8
05
0f
d9
18
f8
06
0c
f2
0d
04
05
ed
07
1f
01
06
fe
0a
f9
f7
0d
fe
12
03
ec
f7
e1
fb
0b
f6
fd
eb
07
06
f4
25
04
04
10
0a
e5
03
fa
f2
f6
0c
0a
03
ff
f8
09
01
fd
f8
0e
fd
ef
05
fc
06
06
fb
f7
fc
09
03
00
fd
f1
fd
fd
f7
fd
07
f1
fc
f8
e4
11
05
f3
f6
0a
ff
06
0e
fc
05
0e
04
ff
02
f9
03
f6
03
f4
ff
0a
06
01
fc
f8
05
e8
05
fd
fc
0c
04
1f
fd
fd
fa
03
fa
03
09
07
04
f7
00
00
04
1c
e8
07
00
16
02
0f
f7
e8
03
03
f8
f2
00
f4
f0
fb
0c
fb
fb
f4
10
f9
f3
fc
08
ff
11
f2
e4
fe
10
e5
03
f4
fa
fa
f3
06
fe
f1
f1
03
03
fb
f9
05
01
15
f6
f4
07
16
f6
ef
13
0e
f4
fa
f5
fc
f0
09
fb
fc
04
01
f3
fc
01
f2
03
fc
06
ff
fc
fa
f7
03
03
00
0d
0e
00
e8
f2
fb
09
fd
03
ff
f2
fb
06
0a
fd
f6
05
17
ff
f7
01
ef
03
10
03
f3
ee
fc
05
00
fd
f7
ff
eb
0d
0b
f1
00
07
fe
f9
0e
00
f4
f8
00
fd
00
09
03
eb
f9
f3
01
0a
fc
f7
ed
00
06
08
f7
02
01
02
08
f7
00
07
04
00
e9
04
f4
ec
08
f3
f9
0c
f9
0e
06
f7
f2
15
f4
0c
fb
08
fa
ee
e7
10
fb
ff
0e
f5
f3
fa
0a
ec
0a
f9
e2
0c
06
ea
05
04
f6
0b
fc
21
03
ea
ef
00
ff
0d
0a
f5
e8
0b
fb
08
0d
f8
fa
fc
05
fd
fd
04
f0
fc
16
04
04
0f
1c
f7
0b
f5
00
07
f3
0f
ff
fc
02
15
fd
0d
f7
f2
fe
fa
1a
02
fc
f0
04
10
21
e7
01
07
f7
ef
f7
00
08
ec
13
ff
02
06
13
00
02
f8
f8
10
10
fb
f7
08
01
09
f4
e1
f2
10
0a
03
07
05
f6
f6
f7
07
f2
f7
0c
02
f5
0b
eb
07
07
fe
fa
05
11
12
08
fa
fc
02
ee
10
f3
f5
fb
ee
fd
01
ec
fd
0a
06
f3
01
15
08
ee
09
08
06
05
0f
04
15
fc
f5
09
07
f2
f1
10
ee
fa
09
03
f4
04
03
eb
0e
fe
f5
08
fa
0d
dd
00
11
f8
ef
18
05
fc
0b
f8
fb
13
f5
12
f7
f3
fe
0c
09
0a
ee
0f
03
08
04
05
fd
f9
fc
fc
10
0e
fc
07
fc
f5
0a
f3
05
fe
03
f5
f3
01
17
16
ef
04
f5
0a
ef
ea
fd
0f
0e
f5
05
f6
0b
0f
e6
03
fb
0f
07
0c
05
0f
00
f3
15
f7
ec
fd
08
03
0c
e8
f8
01
f2
f5
f5
13
f4
0c
f4
f5
03
fb
ff
ea
07
07
21
e8
0b
fb
05
ef
04
f8
fe
0b
f6
fc
f9
02
07
fe
0b
0b
07
ea
fd
0e
03
f1
fa
02
f7
0a
06
10
ff
03
f1
02
f7
13
0c
ee
01
05
05
11
09
f8
f3
0f
03
05
02
f8
ec
00
04
f7
08
12
08
ff
fc
05
03
05
fc
0e
fa
ec
08
15
0d
06
f4
fb
f3
f7
0c
0d
e6
f5
ff
f2
0f
fe
02
16
f2
0e
14
05
08
fc
ef
15
05
fc
fd
fb
16
f2
fb
05
08
03
0a
f1
05
04
14
0f
ec
00
07
06
fe
0a
e7
0c
f6
08
1a
01
e4
fd
09
f8
f5
16
f2
fa
f2
00
ff
f6
0e
fd
fa
07
ea
06
f0
0e
01
02
f7
f2
09
10
f7
00
ef
fe
f9
fe
15
fb
ef
07
0d
f2
ff
00
f2
fb
0e
fc
f9
fe
f7
fd
1f
0b
ff
f8
f2
f4
08
f3
f4
f0
ee
16
f6
04
ff
06
fd
0d
02
0e
f4
15
fe
f9
ff
ed
15
03
14
fe
fe
03
0e
06
fa
06
01
02
11
fa
07
07
00
f2
f8
f4
03
01
08
11
0f
0b
fa
05
08
e4
0c
04
01
12
ee
ea
08
f6
fd
10
0c
ff
f4
f2
0e
01
02
19
ed
0b
06
fc
fc
fc
09
11
f8
00
f0
f4
fd
fa
0d
f4
01
0e
e4
ff
fe
ef
f7
f2
0d
10
f2
e2
e7
f8
04
02
f7
21
07
02
06
06
fe
f0
11
fb
0b
fc
09
12
fc
14
ec
f4
04
fd
0b
0c
e6
fa
0b
01
05
02
03
00
12
ee
fb
14
f9
ed
f4
0a
00
06
ff
06
f0
14
ff
f5
fc
f4
0f
0d
ff
01
fa
f4
0b
11
0c
17
fc
f7
0d
ed
06
07
0b
f5
03
f0
0a
f0
02
eb
0c
fe
ed
e7
0b
0b
f9
06
04
fa
08
f2
fe
00
fc
fb
fb
fd
01
f5
0d
04
07
f3
13
11
01
ee
f9
f3
08
06
fe
f5
e5
06
f2
04
fe
f1
f9
f6
03
03
e9
e9
00
03
00
ff
0e
0c
10
fc
fc
fe
f2
07
fd
f4
03
f6
fb
08
0b
00
f4
ef
10
f9
12
0c
0e
05
ee
dc
f1
ff
fa
02
08
fa
00
fc
0c
fd
fe
f3
06
0d
f6
fb
fb
f4
fc
11
0c
04
e9
0b
e4
fc
02
fe
05
fd
ea
03
05
f7
05
f4
fc
02
08
03
0a
f5
04
df
e2
fb
04
f4
16
01
f3
12
20
2c
fd
0d
06
ee
fc
02
02
02
08
f2
ed
fd
06
fb
04
f6
f3
02
0c
f6
04
e9
0e
13
fe
08
fd
fb
f9
04
f9
f7
ed
01
fb
05
07
f0
fb
fb
0b
15
10
fd
ec
f3
e9
0a
fb
09
0c
e6
0a
f1
f2
0d
fb
1c
02
01
0c
f3
08
f7
f5
04
fc
01
01
04
f4
f2
ef
f4
ef
f2
0d
00
0f
01
fc
f9
fd
06
f1
15
f8
ff
f9
16
03
ff
fe
00
fb
ff
f8
ff
f7
01
f1
00
06
f7
e3
f8
12
05
f9
ea
0d
0a
02
e5
02
00
0b
06
e3
0d
07
0c
f3
f9
0f
ee
11
07
00
03
fb
f8
03
27
eb
f7
01
f7
f6
17
fc
f5
11
f5
01
0b
06
06
f5
e6
09
0a
f0
e7
e9
11
f6
fa
09
f4
10
00
f7
0c
02
ff
f3
0a
0e
e9
e7
02
0b
01
ef
f5
09
14
02
fc
03
fe
fc
07
f6
f4
0d
f1
06
ff
ef
09
fa
01
fe
05
ef
04
fe
fb
04
0e
fb
11
02
ee
fa
f9
fb
fe
f0
08
07
0b
fa
f0
fe
05
04
fb
01
fe
11
f7
fa
f0
0a
08
00
19
fe
00
f4
06
f7
f0
02
fd
fb
e8
01
f5
fc
05
f7
00
fe
04
ea
0c
f0
ec
fe
fe
ee
fd
fa
15
ec
ff
fa
11
00
06
03
fa
0b
05
07
09
12
ef
0a
fe
fe
fa
04
ed
ee
0d
f1
f6
f9
09
fb
09
07
10
ff
f4
02
05
12
0f
03
1b
19
f8
0e
09
fc
0c
fc
06
fb
fe
15
12
01
f5
f0
14
f7
fa
0a
0d
01
fa
01
f6
1e
0d
fe
02
ea
03
03
fe
01
fb
ec
02
1d
06
08
03
05
05
03
f9
08
fb
fa
ff
f4
1a
fe
12
fc
11
e4
f2
f7
fa
04
fc
fb
01
11
e8
f2
10
02
01
f7
e9
ef
f8
e4
f6
ff
fe
ff
16
fa
0a
07
fb
fe
12
fc
ea
fe
0a
e7
fb
06
00
f6
fb
03
07
0e
0f
ee
05
09
f3
16
f9
0c
f5
fe
f8
ea
fc
00
fc
f5
e6
fa
02
09
15
07
0e
f6
ff
f0
f4
f9
f7
01
f9
04
19
f3
fd
02
fc
e2
0d
ff
f8
0a
eb
0d
05
02
00
f4
fa
fc
10
06
00
07
f5
fc
f5
fd
ed
0a
fb
14
06
fd
15
01
0a
fd
0a
14
ff
02
f2
15
eb
e8
fb
fc
11
f7
02
07
fa
0e
0d
f9
06
e9
18
fc
0c
06
fc
fb
fa
0e
f2
e7
02
f3
f7
02
00
f9
f1
f4
ff
13
08
0a
f8
f9
f9
04
02
0e
01
fb
15
ee
ff
ff
fc
06
fb
16
f2
fd
07
0b
02
11
fb
01
fd
f2
f7
ff
ff
f1
fb
f8
fe
0b
fc
06
f9
ff
07
0e
0c
02
00
f4
fe
09
fd
06
00
08
e7
fc
f6
04
11
ed
16
03
05
f3
01
fe
fa
1d
00
02
00
fb
ee
06
f4
fd
fb
11
fb
f3
ff
f0
fc
0b
06
06
02
fd
0f
02
f2
03
f1
0f
ff
fd
01
f0
05
fa
fe
ef
ea
ff
04
fd
04
18
07
08
00
ec
ff
0a
ee
fb
0a
07
e9
f8
fa
05
0e
ff
02
0e
09
fe
01
05
fd
08
f4
ef
fc
fc
ec
06
f9
ee
f2
02
01
01
00
fd
04
05
04
15
f4
05
fd
07
fe
0d
fb
04
f5
f3
f5
ff
fe
03
06
fb
fa
01
04
19
fd
02
0a
e7
05
04
ed
10
12
08
ef
f3
0b
fe
09
00
e8
fa
00
f5
fd
21
f1
04
08
f6
09
0f
09
f3
0e
f8
f9
00
0e
f8
05
f1
ef
ff
1d
fe
ee
fb
f5
ea
0d
fd
f3
0c
ed
fd
05
04
14
e1
ff
f0
03
04
f3
f7
fd
ec
05
0b
f9
0a
f2
f6
f3
08
f9
0c
01
08
ec
f8
f1
0a
fc
f7
11
12
e6
05
00
f2
0b
05
1d
01
0d
0b
ef
05
04
02
05
14
03
fc
06
f9
fd
f1
00
05
f7
ed
0b
f8
10
09
f0
0a
06
fd
0a
f6
07
db
00
0f
fb
f9
03
03
05
f5
07
fa
00
f5
f1
fb
ef
05
0b
1b
f7
f7
0b
f2
04
fa
00
0a
f5
00
e2
21
ff
ec
06
eb
ec
fb
0c
f8
01
11
06
f1
da
f7
02
f7
00
f3
f8
0f
f0
f5
f8
eb
02
ed
f9
fc
f8
0a
13
f3
00
f4
04
0c
ea
f9
06
03
0b
01
11
fe
1a
fe
09
00
de
02
0d
f9
0d
00
0e
07
f1
fd
10
f5
04
fc
09
07
03
f4
f9
06
ee
0e
ff
f2
ff
06
fc
fc
02
0a
fb
f8
02
ef
20
fb
14
ec
09
f6
fc
ff
f6
ff
f0
14
f4
05
fd
0f
0d
fd
f6
09
ff
f8
f9
ff
0b
f5
00
fd
f5
f1
1e
0a
ff
ff
04
0c
f0
09
03
08
02
fa
13
08
00
03
03
04
06
fe
08
0c
e9
ff
ff
f6
00
08
02
e5
ff
fb
06
01
12
0c
f1
f4
f6
fd
f3
04
e4
05
14
ec
11
fe
fa
00
ff
fe
f2
02
ed
f3
f6
09
10
08
ff
08
f5
16
fb
f2
02
01
08
01
02
09
0d
fc
f9
0a
19
f1
f7
fd
01
03
fc
07
f8
ff
f8
f4
06
0f
07
05
f1
ef
f1
07
00
fe
fb
06
fb
0d
02
07
e9
fb
f4
f3
06
06
0d
fb
0f
fb
05
01
f0
05
0f
0b
08
0a
09
f9
07
ee
f3
07
fc
ec
f7
07
05
f9
ed
01
0e
02
11
02
03
fd
f0
0b
1f
ea
0b
f9
f5
f4
02
05
ff
07
0c
fb
f5
09
f6
06
08
0b
f1
02
e5
11
0a
f4
f0
f7
00
fc
f8
fb
08
f3
13
14
05
f0
fc
fd
03
ff
fa
fc
f9
ff
06
fe
f8
03
f6
0b
fc
fb
f5
02
f5
13
08
10
08
03
ff
f3
0d
fe
0f
08
fe
f8
f8
ec
f3
08
ed
fe
04
0f
f8
de
f0
ff
f0
02
0f
03
f4
0b
04
f5
f8
fa
e6
0e
06
0f
ff
f4
fb
f8
e8
09
0f
02
0a
01
0d
ff
08
ef
11
f2
07
fd
ed
f7
fe
eb
04
de
f1
ff
f2
0f
f8
0a
f1
15
f7
fc
ff
e5
f0
f4
e4
18
fa
06
14
07
15
00
01
f8
03
11
16
f7
0b
13
ed
fc
f5
0e
09
12
0a
05
0b
0a
f5
02
fb
15
06
07
f8
fa
08
f1
05
12
11
0d
07
ef
05
06
f2
f9
08
02
f6
01
fa
02
07
f5
03
0b
0c
0f
fc
f8
f6
01
fe
f2
fe
00
f8
01
f4
ea
03
0a
ff
ff
f9
fc
05
15
07
08
01
00
11
04
02
02
fc
08
fb
f5
02
00
fa
0a
09
03
fb
ff
00
fc
0d
06
f4
eb
fa
ef
fd
f4
03
f5
f8
fb
09
f9
f6
f7
eb
f6
11
fc
17
0e
eb
10
fb
f6
ff
f7
ff
f9
09
ed
06
fd
f2
ff
f5
f7
f7
19
fb
ec
f0
0e
01
f7
0b
02
0e
13
0c
ef
04
10
fc
f8
0a
e7
0b
18
fe
00
fd
f0
f7
06
0a
06
06
ff
f6
f6
fb
08
07
09
e6
11
00
fb
0a
03
00
08
0d
f9
05
14
02
04
04
f9
09
f1
17
05
05
fa
f3
09
0f
f4
f2
0d
f9
eb
05
fc
f2
0d
fe
ff
ed
f2
e7
05
f8
04
07
05
09
0f
fe
15
11
09
05
04
04
07
ef
05
0d
f3
ee
f2
15
1a
ef
e8
11
f8
12
ee
e3
f3
07
fa
f3
02
04
0a
fa
f8
12
fe
ff
17
0d
fe
f0
03
0b
ef
f1
01
e5
f9
0b
01
fb
1c
10
0a
03
fb
00
f9
f5
02
02
fe
fe
f6
fc
17
11
ec
f5
02
0f
f0
02
04
ea
f5
04
00
10
08
f8
09
09
f9
f7
fc
01
00
05
f9
1d
fb
fd
ee
f3
1c
fe
00
0b
f3
0f
09
08
03
f2
e8
13
03
06
07
fd
f2
04
0e
03
04
fe
04
0e
13
0c
f5
f2
07
f8
11
00
f1
e9
fb
20
f8
00
fa
ff
f5
07
fb
04
00
0e
08
f1
fd
01
fe
00
fa
01
f3
ff
e7
01
04
04
eb
07
01
ff
07
09
f5
0b
e7
fa
15
fc
e7
01
fd
13
e3
04
04
00
f2
0c
f3
15
ed
f0
fe
fe
07
04
1b
0c
07
f7
0e
0e
0a
fc
04
04
06
0f
04
fb
fb
0f
f0
f7
f8
0a
fa
04
f5
01
0f
f8
09
09
f6
06
f7
ec
ee
02
f3
13
00
ff
1a
14
fa
0b
02
fe
fc
04
fa
ee
fd
fa
ff
fd
18
04
f6
06
f8
06
ef
0a
fa
f9
f8
dd
f9
fc
06
f5
ff
02
02
fd
f9
11
ff
fa
f4
03
f4
01
0d
0b
04
06
ee
01
03
f1
05
0a
05
f3
fd
f7
fd
0b
f6
0d
0b
12
03
03
f4
04
04
00
ff
f7
fe
f1
03
f7
f2
00
06
f3
06
02
fb
0b
0c
07
0b
fb
fd
00
06
03
fb
fa
fe
fe
f5
0e
05
f6
12
05
00
f2
f7
08
01
f1
f7
05
00
f9
07
0d
0b
03
f1
f7
0a
0c
f7
f8
06
05
fa
e4
02
00
04
f8
f6
08
fb
08
09
eb
fd
f8
fc
00
ff
fe
f3
00
01
0c
ec
00
05
f0
0b
f0
10
ea
12
06
fa
df
e7
0b
01
10
0e
f0
f9
0a
05
04
fa
ff
fd
0e
13
1a
f6
26
f7
fc
07
f4
05
ff
fa
08
fb
ee
00
0f
16
14
fc
f2
08
f2
f5
00
01
08
0d
00
02
f6
fd
fd
f4
04
04
ee
fd
05
07
02
0b
06
fc
e0
ff
09
fd
fb
fe
f8
02
ec
0d
fa
0c
f7
1d
17
fb
f4
fe
03
e7
f7
0d
f5
00
ef
07
eb
02
f6
03
f7
ff
00
00
01
08
f8
02
02
13
05
01
03
0e
fe
fd
03
eb
05
fe
0d
fd
06
fd
f9
01
18
00
00
f6
1c
ff
0e
0d
f2
fe
05
f5
18
02
ec
0b
00
03
01
f7
f9
e7
f7
ff
e5
0d
17
fa
f2
09
ff
fc
fb
e9
f0
05
fa
f8
eb
0e
14
f4
fa
0b
04
f7
12
f8
fa
e9
f4
05
02
ed
ff
f7
f8
03
f8
08
00
19
10
05
f5
f5
f0
09
f8
15
ef
f2
f9
01
14
02
fb
f6
fe
05
01
13
0e
01
0a
fc
f5
fe
01
13
14
03
0f
0b
ff
0a
1b
fb
07
f0
fb
12
0a
e7
fb
13
f1
0a
eb
0b
00
f8
fb
17
f0
04
02
fc
09
07
ff
fe
fa
e9
01
ed
00
08
fa
03
01
fa
11
e7
03
fb
0b
fc
08
0f
11
10
0e
04
06
13
f0
1a
14
07
11
ff
eb
0e
1c
f5
0e
12
fd
fd
0e
f4
09
f9
fa
fd
fc
00
f1
e7
fb
09
04
08
0f
04
09
02
02
10
f9
04
f5
e9
fb
f6
eb
0b
f4
ea
0f
06
ed
04
fe
f8
06
0d
0f
0a
f6
16
fc
0b
03
fd
f6
04
ff
03
fc
fd
e9
fa
0c
fc
fb
f6
04
00
f9
0c
fb
fb
fa
ec
fe
04
09
fc
fd
15
fb
f7
fb
16
0c
0a
fe
ff
09
09
0c
04
12
f6
f9
07
f9
04
fb
07
03
04
fe
0a
08
fd
05
f4
fe
13
00
08
12
08
00
13
fa
f9
f6
00
f8
04
01
f3
f9
fc
0c
ff
fa
01
0c
e9
fe
04
07
f7
fc
01
ff
f9
16
00
04
f3
01
07
fb
09
02
fc
f4
0f
fb
13
0b
09
f9
fe
0b
f9
0d
f2
fa
f1
ea
f9
f5
17
0b
13
0f
fc
13
00
fd
04
09
f2
0e
01
ee
06
fe
f9
0d
00
0b
eb
f0
f1
f4
f6
ec
08
07
ee
f6
0d
e9
fd
ed
f3
06
07
f9
ed
04
02
ee
f2
fb
0b
fb
fe
f1
f4
ec
00
03
f6
07
15
10
fa
01
08
ee
02
01
fa
fa
ff
09
0c
01
f3
02
03
0b
12
09
fe
03
fd
0c
0a
f6
06
0a
04
fc
f5
fd
e9
fe
f4
f9
01
00
ec
0d
fe
ff
fb
0f
fe
f8
fd
fe
01
ff
02
ed
08
03
0e
0f
fe
01
0c
ff
08
02
fa
f5
08
08
ee
f8
f2
f1
0d
00
fd
f8
fc
ff
ff
fa
f7
fb
0e
06
14
0f
fb
10
f7
f0
f8
f7
0a
ef
f4
01
fa
f8
fa
0a
0a
00
f9
04
05
fd
fb
eb
0a
ff
fc
03
0a
ee
f8
ef
02
f4
00
02
f2
fd
f7
18
eb
f8
01
fc
f9
02
ff
0a
f2
f3
0c
f6
f4
e7
ec
12
0c
f7
0f
fb
ff
fd
19
0c
02
fe
fb
06
0b
fe
fe
fe
f7
03
0e
ff
f7
06
f8
f7
04
f6
0e
f6
fd
01
ff
ff
f5
ff
16
11
fe
04
fa
04
fc
08
f3
f4
08
13
f4
f4
01
fa
f1
02
f2
04
03
03
02
fd
01
ec
03
fe
fb
f9
f5
08
ff
08
fc
08
03
09
10
00
0a
ed
13
f8
10
f2
05
ff
f8
0a
02
f3
fe
15
0a
f6
fa
15
06
17
08
da
0d
fa
f8
09
fc
f6
f4
fd
f5
fc
f4
f8
0d
e7
10
f3
e4
e2
fb
eb
15
fa
04
fd
0a
e7
17
02
09
f8
0d
fd
ed
04
f9
f4
fd
16
f1
0f
16
01
f3
00
fc
fd
fa
00
10
0a
07
ee
0a
fd
0d
09
f4
f4
fa
10
07
fa
08
00
10
00
08
02
0b
f1
fd
03
09
eb
fc
06
fa
07
ea
02
07
0d
04
09
fd
fa
05
fd
f9
ea
0b
fa
00
ee
e9
02
00
ff
04
f9
fb
fe
06
07
12
f8
06
04
ff
fe
10
fb
f7
fd
fa
00
03
08
f7
fa
fe
f8
09
04
fe
fe
1a
ec
01
03
f4
04
fc
00
e3
fc
11
14
e8
fe
0d
0a
0e
ef
f7
eb
02
f3
fa
fe
03
fa
e7
06
07
f7
f8
e1
f0
04
07
02
0e
fd
f2
0f
07
06
fd
f5
03
18
0e
0e
fd
fd
fc
fe
12
fc
fb
f8
ed
0e
e7
fc
03
fa
fa
00
0a
07
f5
f8
e1
f6
11
05
07
0c
13
ea
0b
01
01
06
09
fe
0e
04
f7
1b
05
f9
0f
13
f8
ee
f9
fd
fa
f3
f8
f5
05
ef
fe
0b
fe
0a
11
14
fa
fd
00
07
06
04
03
03
f4
fb
fe
02
f1
fe
f1
0f
04
f8
ef
08
fb
0c
f7
ea
0b
0b
f8
fe
0a
0d
f8
f9
05
f8
fe
02
e3
e6
ff
fe
f0
07
fb
f2
0c
16
f0
0d
f7
06
01
0e
ec
ff
f9
0e
fc
fb
fa
fe
fa
09
f1
05
f9
07
0a
13
07
07
fd
fe
01
ff
16
fb
fb
04
1b
fb
fb
fa
08
03
f5
fc
0d
00
12
fb
f9
07
02
ff
00
fc
f8
fd
09
f2
fa
f5
05
01
fb
00
f1
0b
f8
02
f9
1f
00
0d
f2
fa
10
fa
eb
04
1a
0c
05
10
0a
10
01
07
fe
ed
f3
fd
f3
08
f0
ef
eb
0c
e8
09
fc
01
fc
f1
07
e5
08
02
08
01
f8
f7
01
13
fc
0e
08
f6
00
02
04
f3
f8
0d
00
03
fe
0d
fa
11
f9
14
18
09
ee
03
f6
04
04
09
f1
e9
01
12
fc
fd
fe
fa
fb
fc
03
fb
fc
0c
08
08
06
f7
fd
0e
fa
ef
07
01
00
01
f2
07
07
01
08
03
00
0a
05
f4
0c
f9
01
08
0e
0e
fa
f5
fb
f7
11
f8
06
07
04
f0
05
06
0c
14
fd
07
f1
04
ec
ed
08
01
0b
f5
0a
ee
07
06
fc
f7
fb
05
ff
05
02
06
ff
02
02
f6
fc
fe
fa
05
05
f1
f9
f9
ef
f4
fe
0b
ff
17
02
05
08
03
00
fa
05
f8
02
01
08
fa
1a
fd
0a
ff
0a
00
f4
fd
1a
12
0b
fd
f4
f1
fd
03
f4
14
0d
f6
eb
0c
fa
02
0b
1b
f7
f2
15
15
f1
01
0d
fd
02
13
02
0c
02
f3
05
0a
fe
14
fd
10
ff
02
11
01
ff
08
fa
08
0e
07
02
f2
fd
00
f9
f4
06
f9
0c
f7
f4
fe
0b
0a
f0
03
01
fe
02
0c
f8
00
f8
02
fa
f3
02
ff
0c
0d
01
00
0c
05
fb
f8
00
09
17
06
05
05
f7
0f
0e
06
f6
f5
08
fe
03
f6
f1
fc
ed
04
f7
fc
ff
0a
16
04
07
f9
ff
09
15
fe
05
f0
f8
0b
f6
f8
fa
03
0e
f3
1a
10
f8
ed
fc
09
11
00
fb
f3
08
0a
f6
10
f4
f6
e9
0d
f0
03
fb
0e
fa
03
03
fb
fa
fa
17
17
0f
ff
ff
f1
05
fc
01
f0
0b
f6
06
19
ef
04
06
ef
ef
04
12
f5
0f
fb
ea
ed
f0
10
0e
fb
f8
03
07
03
02
09
ef
f7
03
f3
ff
06
09
10
10
17
fe
07
0d
04
fe
f5
e3
ea
01
04
0b
f6
f8
0b
12
fe
1e
11
f8
04
04
07
ec
ef
06
0d
f7
01
04
ff
0e
03
f4
ed
03
fc
08
0d
fa
07
fb
07
f9
12
15
02
12
13
04
0d
02
f5
00
fa
0e
00
ee
fb
eb
ff
f9
18
ee
12
fd
03
05
03
05
ef
14
01
f9
fa
00
00
02
fd
e6
f7
01
08
05
0d
ff
02
08
fb
03
fa
08
f5
f3
fe
1c
f7
e7
fc
fd
00
11
04
fa
f8
ee
fb
02
1f
ff
ff
e5
fd
02
27
e1
02
fc
fe
fa
ff
fe
f0
0e
ee
04
f8
fb
f2
0a
f3
fb
0c
f8
f8
f9
f8
03
ee
fb
f1
09
fb
02
0a
05
f4
fe
fc
0e
0f
1f
02
05
fc
f9
00
ff
13
f7
17
fd
f9
01
04
0e
00
01
f5
fc
0e
f3
01
05
f8
f2
ef
fb
10
fb
01
12
0b
04
ea
ed
f3
09
df
0b
f3
f1
eb
08
ee
05
e9
f5
05
0a
f7
f2
0a
ff
fe
ec
0e
02
1d
05
e5
f4
06
0d
fc
09
0d
09
04
13
01
0d
01
06
10
f7
f9
0e
06
04
04
f3
05
ed
0e
fc
fc
f9
07
16
f0
07
0f
eb
0f
ed
f9
eb
05
f9
04
06
f2
14
01
08
10
13
02
04
01
11
ed
ff
fe
f3
fd
15
02
f9
06
04
06
fb
f9
f6
fa
0e
e4
0f
f6
0d
f4
ff
01
f5
fd
ed
05
02
05
08
fa
f6
ef
16
03
0c
f1
fb
ee
f2
0b
f5
f4
03
02
f3
04
07
f3
f2
ec
f4
f3
0f
03
f7
04
1d
07
ff
0e
03
f3
f7
f5
01
02
f9
ef
ff
fc
fa
ff
f1
00
13
12
f6
fb
fb
02
fb
ed
f2
0e
f2
0d
04
f5
05
fb
e6
f3
10
15
e7
f8
05
00
fe
fd
fd
fa
fd
fb
00
08
0a
f4
0f
01
f6
0c
f6
f8
0d
04
fe
08
12
f0
00
0c
03
fd
f7
0d
0a
05
07
fc
06
fa
f8
fd
fe
01
eb
05
f6
f4
07
02
f6
f2
fb
eb
01
f9
00
0e
fe
09
12
f9
15
12
0c
0a
ee
fd
03
f3
f5
10
e3
f1
fd
ed
0d
fa
e8
07
f7
f3
05
f4
fd
01
07
e8
08
ee
e7
f7
f8
f7
f4
09
ee
f5
02
fa
07
f8
f1
f9
17
07
0b
15
fb
fb
09
ed
fe
04
f9
f8
fe
0b
f1
0c
01
0e
f8
22
e6
01
f8
04
ea
eb
0a
0e
01
0e
e8
f8
05
f9
03
f0
25
fa
0f
14
f1
eb
f5
fb
18
fa
08
fe
03
fd
06
05
e7
08
f4
18
fe
10
02
f4
0f
01
ed
04
fc
ff
1d
06
02
e2
fd
02
04
fe
17
f8
12
00
00
fb
04
12
f3
fb
0c
f5
fa
fe
12
06
ff
ef
05
0e
ff
ef
0f
ef
02
15
ec
fd
03
fe
05
fa
ff
0a
08
07
fc
fe
fe
09
03
f0
f5
1b
f7
ea
0b
05
e7
f7
fb
e8
18
fe
fc
0f
ff
00
f7
ff
09
f4
04
fe
0b
fe
0b
fb
17
0f
ff
17
f4
01
08
03
07
1d
06
10
15
ff
f8
04
ea
10
f2
f4
23
f2
fb
fc
15
04
fb
f6
11
fa
01
08
0f
f8
02
ec
18
04
fc
f8
f3
ef
00
eb
21
ff
04
fa
fa
fb
fe
03
03
f7
05
eb
e8
f3
0b
03
f8
07
06
ff
f9
04
00
02
05
06
0c
ed
f0
03
0d
07
e4
07
0b
02
fd
f5
f2
ff
f2
fc
10
14
0d
0f
fd
fa
00
fb
fd
03
0e
04
10
08
fe
f3
f7
07
fe
1a
f8
f0
fc
fa
fb
04
10
0d
f8
0d
ee
05
04
f7
02
02
ea
f8
04
06
0f
f9
fa
08
02
0b
f9
03
f4
ea
fc
f3
fd
02
ea
ff
02
f3
0a
01
0d
05
06
02
fe
0e
02
ed
f6
00
fd
08
f8
e9
fa
07
f4
07
05
fd
fb
fe
09
f1
f9
f5
f5
02
05
f7
01
ff
fc
03
fe
f4
07
01
00
fb
00
11
00
ff
08
03
f5
00
00
f1
fb
f3
f8
f7
fa
fa
0c
09
e4
f6
ff
f5
fe
10
dd
f1
e6
fc
1c
f1
02
0f
07
fd
04
f3
02
06
f8
05
05
f8
07
0f
e6
fd
f9
f6
0f
f9
f2
ed
06
fb
06
02
11
f3
13
03
fe
fe
10
f9
fd
15
ee
f7
f4
fd
f8
fc
f8
04
f8
00
21
08
f6
fe
f0
17
f1
02
06
0b
ff
fd
09
ff
fb
ff
0e
07
08
fb
fa
ff
0a
09
fe
fe
05
10
01
ff
fa
0d
f6
fd
0c
f5
fd
fd
11
01
0a
05
08
02
08
04
fc
01
0b
16
06
17
06
01
fe
00
02
f7
02
f9
04
ff
04
f8
f8
fb
09
03
01
07
03
01
05
0d
00
ea
e8
f7
08
03
1a
09
11
e0
03
06
01
0f
fb
f5
1c
ef
08
02
1c
fb
15
09
f4
f4
f7
02
08
08
09
03
fe
04
f6
f8
09
09
05
0d
03
01
01
09
fd
15
e5
f4
ec
03
fa
07
f7
f3
f3
0d
17
ed
fb
ff
14
0d
01
0d
fd
03
fa
f8
ff
fc
1a
02
17
f2
fe
04
06
fc
0a
0c
fa
f1
05
f2
1a
f7
f7
16
e9
10
04
12
f0
f0
0b
0c
f0
f4
07
ef
06
00
fd
05
f4
f6
fa
01
f3
10
04
f0
09
e6
0b
09
f8
0c
ef
04
11
eb
fa
02
f4
fb
0b
13
ff
03
00
e6
ff
09
ff
0a
0e
fa
fe
fa
10
0c
f3
03
fa
10
01
0f
fc
00
ef
01
01
e6
0f
fe
fc
08
04
eb
06
18
01
fe
fb
00
1b
15
f9
fa
ff
0e
01
05
04
ff
06
0c
fe
11
e5
07
00
02
f2
fe
f1
02
ef
ff
03
fe
05
fa
f8
02
eb
0e
0b
14
01
05
fe
f9
0b
f4
fb
13
00
0c
16
03
05
f9
ff
ff
0c
08
f2
00
00
ef
f3
f0
0d
02
09
04
fe
fd
09
02
17
08
f4
fe
0b
fc
04
ef
f2
18
f7
06
f7
0e
f0
eb
0b
01
f4
02
09
0f
f6
03
f6
16
ec
e2
fb
f8
fc
fe
f0
f1
f2
fb
0a
f5
f9
f9
ed
05
f8
02
09
0f
f4
0a
f2
f9
f6
04
01
05
0e
15
fb
ef
f9
fe
ff
f1
07
11
ec
0f
01
fc
fc
04
f5
12
fa
00
01
01
fe
12
13
fa
01
fc
08
08
ef
06
04
fa
0c
00
f8
ee
1a
07
f1
0b
07
f2
fd
07
07
08
04
e5
ff
0d
f8
00
00
04
03
03
fc
ee
f7
fc
02
11
fb
08
06
f6
fc
05
fc
04
fc
00
0d
0a
0b
fe
ff
ff
04
06
fa
04
01
f8
04
0a
09
f0
f8
f1
0a
0a
07
fe
f7
fb
ef
fa
03
13
03
ff
ff
07
f7
0b
fb
00
f1
00
12
0f
e9
f1
f9
05
06
ff
05
f3
0b
0d
02
06
ec
e8
01
0a
f6
f0
08
fa
0c
0a
e6
11
fc
0f
f7
00
09
02
0b
f0
05
f7
09
0d
06
02
f3
01
f3
03
fc
0a
0d
10
f9
00
f5
13
ee
0a
11
ec
ee
f7
fe
f4
eb
05
09
08
0d
14
05
f0
05
ff
fd
ed
ff
08
f6
00
07
ff
15
01
f6
ff
fe
f9
09
fc
13
f9
05
f4
00
ed
06
11
06
0d
fd
03
f7
f3
fe
fc
ff
fb
02
09
00
fb
fe
ef
0e
13
07
f8
f4
0e
02
ed
01
f2
12
00
0a
0e
e6
fd
f2
f5
04
05
f9
06
06
fe
09
ff
01
06
04
22
fa
e9
01
f8
f2
12
f8
f3
05
06
10
03
fd
f2
f6
fe
ff
f4
fe
05
04
01
ec
08
f1
0d
0a
fa
0b
f1
ff
0b
14
fa
fa
ef
fb
01
0a
03
0c
02
05
03
ed
f4
04
f8
f1
f5
0d
04
f6
fd
f9
fb
06
15
f6
07
00
02
f6
00
03
07
0a
02
02
ff
03
fd
06
18
ea
f2
02
fa
06
01
0f
fd
15
0b
04
ec
02
0b
03
f6
07
ff
f8
0e
ef
fb
09
05
fe
f9
fd
07
fc
18
ef
fe
07
ea
fe
05
ea
0d
f1
f6
0b
03
07
03
01
f7
04
f3
fe
f8
f1
e7
ff
ea
11
f8
08
06
00
16
f6
f7
f7
fe
0a
fb
15
02
05
f0
f8
ff
fc
f3
07
0e
09
f6
0f
f4
06
03
f7
08
06
f8
04
07
0a
ee
fb
2b
ee
01
02
19
fb
f2
e8
fd
13
ee
fb
ff
0a
f8
f4
17
ee
e4
0d
18
04
0f
f7
38
fb
f9
f6
08
01
06
0e
10
e4
f6
fe
01
1a
ea
07
d8
fb
00
f0
15
f8
e8
12
fe
06
08
17
fd
0c
13
fe
04
f6
f7
fd
ef
07
ff
05
f6
f1
fa
02
01
02
fc
fc
fd
0c
ff
01
fa
f4
f8
0c
16
05
e6
fc
06
00
fd
ec
fb
f2
f8
f6
15
03
f0
f5
21
f4
fc
06
fe
fd
ff
13
ee
04
fd
01
14
13
fb
f6
ea
02
f6
f7
06
f6
01
f8
09
fa
03
ff
f2
04
04
f7
fb
fc
12
d5
f3
01
ee
0f
f6
03
fc
f4
09
ff
fc
0e
fe
e0
e9
04
0e
0c
f0
f5
08
01
eb
fa
0c
0a
f9
fe
06
09
f2
e8
14
e6
ef
09
12
f9
00
ff
ec
03
fb
ff
17
ff
f5
12
0b
fb
04
0d
10
02
04
02
0b
f7
02
12
f8
01
fa
0d
f8
06
0b
07
ff
0a
05
f2
07
06
fb
07
fd
0d
01
eb
f2
ee
fe
19
13
f7
11
0a
03
01
ec
0f
e7
08
04
fc
fd
eb
15
00
f7
0a
02
0a
08
06
03
fe
f6
04
0f
fd
09
22
01
e5
09
03
f2
f0
06
04
01
0f
06
13
14
fd
13
f0
16
19
fa
fe
15
13
03
00
e9
05
0e
f0
1a
ff
f8
11
07
02
16
0a
e8
15
ff
fb
f1
dd
f4
ea
f1
01
ef
02
f4
e3
f6
eb
fc
fe
06
fa
15
08
fa
fd
fb
fd
11
fc
10
0c
11
f8
ef
f9
0f
02
06
fc
f5
f6
08
00
f7
12
01
fc
00
0c
fd
fa
00
fd
fd
14
03
f9
ff
f7
01
07
0f
eb
12
f6
01
01
0f
fd
f2
0a
ff
f8
ef
0d
ff
10
fd
11
f9
f6
03
06
14
f0
03
fa
fd
f6
eb
fa
fd
f0
03
fa
01
fe
00
08
ed
fa
f3
08
11
05
ef
0b
14
17
ee
f6
05
02
02
07
0c
01
ff
15
f8
0a
03
f9
03
fe
03
fa
f0
fb
f5
fa
05
04
01
ef
00
fe
0b
09
06
f9
00
00
f9
0f
f1
0a
07
f7
f7
ff
ea
07
f9
f9
f8
f5
03
ed
f8
02
fa
f9
f7
fe
f5
04
f6
ee
09
fe
f3
f0
f5
0b
08
f8
0f
09
ef
09
ec
16
fd
fd
02
22
e6
03
02
0a
fd
08
fc
f0
eb
fd
10
07
09
f9
02
05
f5
03
f7
f8
07
f7
eb
eb
03
01
1d
0c
0a
fd
09
05
f5
1b
1e
0c
11
11
e5
18
1f
14
f8
f2
f8
01
01
fe
03
09
fa
00
07
08
0c
ea
07
03
07
f8
19
00
02
f9
e9
09
15
e4
fd
f3
ea
fc
ef
00
1f
08
0a
08
fb
08
08
0d
fa
fc
f0
01
fd
02
f1
f2
0d
10
01
01
ec
03
fc
fa
0a
fd
06
01
09
08
05
09
fb
fa
fa
08
1b
f8
01
0c
f9
00
08
f5
ec
e8
ff
f6
f3
16
0a
f5
04
f2
fa
08
0a
f4
f7
fa
0f
fb
0e
f6
00
fb
ff
fc
0c
f3
02
05
eb
ff
f6
ec
00
f4
01
19
00
02
05
f9
fa
ff
fd
03
fe
0c
f8
ef
05
08
fa
0b
01
00
fd
12
01
fd
fe
16
0d
fc
08
00
f4
fe
09
04
0d
02
f3
06
0a
fb
00
02
f9
13
06
0d
fc
f5
f9
00
01
05
f4
f8
ff
f8
f8
fb
0b
ff
f5
05
03
0c
0b
01
fd
06
f6
f9
00
08
fb
05
07
f5
f6
fb
08
07
02
f8
f5
1e
06
fe
07
f9
f8
0f
06
03
05
09
f3
fd
02
0b
f6
06
05
09
04
f9
05
fc
f8
f4
f6
ff
f2
fe
ef
16
fa
08
fa
07
01
f4
02
0c
fc
01
13
0b
08
08
04
10
fd
e9
fa
f8
04
0a
fd
fa
f4
f7
08
ff
0a
00
0c
01
16
fd
06
eb
12
ee
ff
fb
07
05
fa
f6
14
f9
f3
03
f2
08
04
14
10
07
ed
ff
00
f8
07
fc
f2
06
f8
f5
0a
fb
09
03
fd
0d
f4
f8
f1
f4
f6
fc
f6
f1
ff
02
18
20
ff
ef
06
07
00
0c
0c
f1
ea
17
ff
06
01
09
0c
ee
03
e3
13
e9
f5
f7
02
19
ff
ec
10
0e
07
01
f2
fc
02
f8
0f
f7
f9
04
04
0a
01
f8
ea
13
0a
fd
21
e8
0e
0d
17
03
fc
f6
fd
eb
fd
02
fb
04
fb
fe
16
04
00
f8
fe
fc
fa
11
2b
11
02
23
f1
00
12
f3
02
05
f7
07
07
02
fd
fa
fb
ff
0a
0d
ec
01
fd
f3
00
fe
f8
0d
08
f6
fc
0a
ff
00
0e
fb
f7
f9
fb
0d
01
02
f7
0e
00
f4
00
fa
fa
f8
0b
ff
fd
ff
f5
f7
f8
f9
ef
0b
fe
03
f4
fd
01
04
f4
13
11
0c
02
fa
f1
17
f6
06
fe
11
16
fc
09
04
f6
09
ff
ef
00
fe
fe
04
f8
fb
00
0b
07
f8
07
06
0f
fd
ed
fd
05
fc
01
ee
0e
01
03
fa
03
f2
0c
f5
f9
0f
ea
16
1a
fe
0f
ed
f2
0b
fe
05
fd
fd
fa
f3
1a
ff
fb
0e
04
fb
06
07
03
fc
ff
05
eb
fc
ff
0a
0e
f6
ec
03
03
fd
0a
ee
04
fd
01
f8
0a
fb
06
0a
09
01
ef
ee
f2
07
fb
fa
f4
00
f8
f9
fd
00
01
ff
14
06
10
0a
05
fd
fa
f7
e6
fe
f5
0a
f3
02
f4
0c
fe
0e
00
09
fe
08
01
09
03
f7
f0
ff
14
f8
fc
fe
05
fa
f8
00
ed
09
09
f8
fb
0a
fc
ee
01
06
f8
02
13
f8
dd
fe
ff
10
03
f5
fd
ff
05
f9
04
fb
0a
08
0a
06
f4
06
ff
11
02
fa
ed
fd
ff
ed
f4
f7
fa
f8
0a
f6
09
06
13
fb
03
07
0a
0c
fd
f9
0c
14
fe
e7
05
f8
f8
09
f6
fc
17
00
03
fb
16
fc
fd
fb
08
0d
18
11
f2
fc
f0
08
f5
06
f8
01
ff
f4
02
f2
13
0c
fd
01
fa
0a
10
f6
f9
0a
04
ff
04
f4
02
06
0d
f7
fb
f5
fa
f9
03
07
0a
0e
07
f9
05
f3
1a
03
f8
e5
f5
ff
0e
ed
f4
e4
07
02
01
fa
01
08
f7
0b
f5
f1
05
f0
03
06
1d
13
f7
f7
f0
0a
f8
fd
08
02
fd
ff
ec
04
ea
00
01
02
0e
10
07
02
f7
17
ed
f0
07
f9
01
06
f8
07
f2
fe
03
fe
fd
f5
01
f2
fb
f1
12
0a
fc
f2
16
fa
02
0f
fc
e0
0a
eb
ff
15
ec
1d
07
f9
01
fe
ee
0e
00
03
0a
f5
f5
e7
f4
f8
ee
0b
15
07
fb
00
08
f4
05
f3
24
05
f0
01
fb
06
07
02
0f
ed
03
f2
07
ef
f5
05
01
fb
f4
05
07
0b
01
09
fe
f7
09
02
f0
f2
00
ff
03
f8
ee
06
00
f6
0b
fe
03
03
f4
fa
f3
01
00
fa
ff
fc
01
fa
fb
f2
fe
ff
ff
0e
f7
0d
05
06
fc
07
00
fa
eb
f9
00
fa
f1
ec
00
00
f9
0c
f1
fd
03
fb
0b
07
15
05
f1
15
fb
f5
02
14
05
15
ec
0e
07
fb
09
ed
00
f2
10
0d
15
09
03
0c
04
fe
ea
09
02
f9
0b
01
06
06
fd
06
f5
0a
0c
07
05
fe
f9
12
f7
04
05
f9
f8
ff
01
07
fb
01
14
f6
02
0b
ed
f7
11
fc
f3
0f
f6
0c
e8
f8
03
0e
11
08
02
03
ea
f4
07
12
fb
0b
03
0a
f9
09
ed
0d
0b
06
0c
0f
02
1a
05
f0
05
00
01
1d
01
f6
06
06
08
ef
f8
17
05
f4
fe
0d
fa
f4
f6
00
18
f5
11
fe
f7
00
11
01
02
f3
0b
f2
f5
15
04
19
0f
00
01
f7
fa
fa
04
02
e1
0b
ff
0f
0c
f3
f1
fd
02
f3
1e
0d
08
f9
f6
fb
05
fb
04
fc
f4
f7
02
fe
f3
0d
06
ea
05
05
f0
f0
01
09
09
02
f4
09
f1
fe
05
07
f2
03
0f
06
eb
f1
e5
fe
10
f4
07
06
f4
fe
f6
03
f4
f4
11
08
fe
03
ff
11
ee
16
08
fd
05
0a
00
12
ff
09
04
09
0f
09
04
f7
fe
f5
ed
ea
ee
0f
ff
02
07
08
01
0c
f5
0a
f9
ec
10
05
06
01
f5
fd
0e
00
ff
0e
f2
f1
f6
0d
f1
0a
0e
15
01
fc
fc
f0
01
fc
ea
f2
19
17
16
fb
0a
11
e6
1b
03
13
09
ee
05
fd
e2
14
fa
00
fc
0b
05
0c
fe
0e
f0
07
00
0d
f9
0a
0a
16
ff
fa
02
02
eb
e8
f9
f5
f3
0c
f7
f9
09
fc
f7
fb
17
05
fa
01
ef
ff
f3
11
0c
fb
f3
04
0d
fe
09
01
ef
f6
f4
fc
fd
01
02
00
02
08
f8
e7
fc
fb
0a
01
fd
ec
f7
fb
fc
fa
f6
00
fe
ff
02
f6
f5
00
08
f5
fb
f6
05
f8
ed
fc
01
0d
f8
f0
f9
01
fd
0c
e4
17
f1
1c
14
f4
f3
fe
fa
ed
08
03
0b
05
f4
f9
01
00
09
07
0a
ff
03
04
fb
0f
0b
f0
04
03
14
12
fb
f3
fb
f7
0d
fd
fa
06
fe
fe
12
f9
fa
11
19
04
02
04
02
00
03
06
fd
f9
15
fe
0d
fe
09
f6
07
04
0c
f5
00
f1
08
12
06
f6
07
f3
0a
fb
f1
06
03
00
f1
06
06
f9
00
05
fc
00
ff
09
06
f9
f7
fa
0e
05
00
08
0d
03
02
f5
f5
f9
ee
f2
06
f9
01
fd
f2
fc
fa
f2
f9
ff
0c
05
13
09
06
fe
04
f1
f5
02
ff
fc
02
f5
02
08
01
fb
fa
0a
0e
f4
03
0f
10
05
f9
01
fa
01
00
0c
ff
1f
ff
00
04
f7
f9
f9
02
03
07
fc
fe
f9
05
08
fe
09
f5
04
fa
04
f9
04
00
09
fa
01
ff
05
08
0c
0a
fe
12
05
03
03
fa
fc
ee
02
fa
01
05
02
fc
04
f9
00
09
03
08
ed
ff
02
fd
fd
ff
fb
f4
fb
01
0c
09
0a
ee
0a
08
ee
01
09
03
02
0e
fc
0f
0e
fd
04
09
00
fb
f7
0b
02
0b
fe
f3
14
00
fb
01
ff
ff
fc
02
f4
ff
0c
f7
04
f4
f9
f0
12
ff
fd
03
fc
0c
07
05
1b
13
05
fe
f6
06
fc
f3
12
07
fe
ee
08
0f
f9
03
fd
fb
f2
02
f9
07
ff
f6
ff
08
fc
04
f4
ff
07
fc
f3
f4
f9
f4
04
05
fd
ff
06
ed
ea
01
00
fa
fc
01
04
0c
fb
06
fa
fd
fa
01
01
03
fc
f8
fb
03
f5
f0
f5
fd
08
06
f6
0a
03
01
07
f2
00
16
07
fc
ff
08
05
09
f1
fb
10
10
f7
00
0d
ef
f4
10
09
0e
08
ff
07
f1
06
f6
fc
09
fb
05
0a
f9
15
11
fb
00
f5
fb
0f
09
fb
f5
20
04
fd
fb
0d
07
f3
05
f3
fe
fb
0f
05
f8
0a
1b
fe
05
f7
fb
f2
05
f3
ed
e0
f4
14
12
fe
04
fe
e9
0e
ff
21
0a
10
f4
15
f7
02
0f
0d
02
f9
04
f0
f0
f5
fb
0a
15
06
f6
13
05
14
00
e5
04
ff
f3
f6
0b
ed
07
12
05
05
01
06
ee
fe
0d
16
02
f2
ec
07
13
01
f1
f4
04
0c
00
02
0b
fa
fe
f5
0d
06
0c
f2
fd
07
03
fc
f8
09
04
fe
0c
ea
0f
fd
06
01
fa
e8
fd
e7
fe
04
f2
03
fa
f6
0b
fa
04
0a
04
12
fd
07
0d
07
11
11
01
01
0a
06
04
01
05
ff
13
0a
f3
fe
05
07
0e
ed
f1
f6
06
05
fc
db
1e
0f
ea
f2
05
03
03
f7
f2
06
07
e4
09
03
00
17
00
f9
09
f3
06
03
08
f2
fd
f3
01
02
f9
e6
f4
03
f6
ef
0b
04
fc
fc
03
f4
ee
01
fa
0c
09
f1
06
f5
03
0f
0c
f5
f4
fe
ee
0f
05
f8
ff
f5
03
f6
f3
f8
13
14
0f
06
18
ec
12
f8
f3
02
19
f1
fd
11
f3
0c
fd
0f
f9
12
05
eb
04
fd
f6
f2
fe
11
f7
00
02
07
f6
fe
f4
02
fa
ed
f6
12
04
17
08
f3
07
02
05
fe
0e
f7
f5
09
07
04
02
10
01
11
08
02
1a
02
0a
f9
fe
f3
f2
02
00
e9
04
fb
f8
14
11
f4
fa
ed
07
0d
ec
0e
fe
f1
ee
0c
10
1d
fb
f6
02
ea
fe
f3
04
02
fe
fe
f5
05
f2
09
04
05
0d
05
fa
01
f8
0b
fa
04
06
03
fa
06
ff
14
f0
fb
16
f9
f5
f7
06
11
1c
03
f0
fc
f7
fa
13
f1
04
05
fe
13
fd
fb
e9
09
f2
0e
f1
05
e5
1c
ff
f7
f5
ef
02
f4
15
ee
fc
12
f7
01
f9
fd
0b
05
f4
fa
f1
1d
fd
08
fe
11
fe
ee
0d
00
05
f6
16
f9
f3
08
08
ff
04
fb
f8
10
18
f8
0a
07
09
fa
f5
0b
ff
ef
04
05
05
fa
00
f1
ed
ff
fe
0c
01
f9
f3
06
00
01
0c
03
00
04
04
fc
0a
f5
ff
01
ea
0a
e5
e1
06
ff
0a
03
f1
05
02
fb
f0
09
ff
0f
0a
fa
ee
03
e7
11
f6
f9
ff
05
03
0b
09
fd
ec
09
0b
f3
01
f4
ef
06
04
0b
07
0b
f9
fa
0e
f7
0c
ff
0c
08
0c
f7
ef
f5
f4
02
02
02
ee
ff
f9
05
fb
fb
fc
0a
fb
02
fd
11
fd
f7
fe
03
f6
06
fc
ed
f7
f6
13
ff
ed
f8
fd
03
03
06
f7
f4
17
02
fe
f0
fc
f6
f3
f4
f2
fd
0a
f7
f3
ef
fc
05
fe
f5
e2
0a
df
02
0c
e7
0c
f9
ee
02
06
01
0a
02
02
02
f3
07
09
0c
0d
fa
f9
01
fe
f8
fb
fa
04
16
03
f1
fd
f7
22
07
0f
f3
00
0f
03
15
07
04
0a
01
fd
f9
08
f8
0f
03
f1
ff
f4
e8
fd
ff
04
f6
f1
0f
0c
e9
04
f7
03
15
07
fc
f5
f4
fd
f2
0a
f6
e3
eb
13
fa
04
f1
f6
fc
fb
ea
0f
fe
05
02
01
09
02
02
f6
fd
f4
00
03
12
ee
0e
06
08
06
03
01
fe
04
fb
f0
02
f5
f8
e6
ee
02
f8
03
fb
ef
10
f6
11
10
f0
ff
07
03
08
f5
07
ef
0a
11
0d
0a
f3
fc
f3
e7
ed
f1
08
fe
01
00
01
f1
04
02
03
f9
e9
f3
fe
03
00
f2
f5
14
fb
0f
0a
f6
f5
f0
fc
03
f4
0a
e6
ff
0c
03
fd
04
01
ee
fa
fc
04
04
13
f2
0f
09
e9
05
00
f9
0e
07
fc
08
10
00
0e
fd
fb
ff
f5
fd
05
04
fc
df
0a
02
ee
fe
07
03
f0
04
ed
f5
00
f6
0a
02
00
f2
0f
fd
02
f8
f4
0f
0b
fd
09
0c
fd
ff
f1
04
f6
fa
0b
f6
00
fb
15
0c
ed
04
03
f6
03
02
f8
0d
05
f8
0b
0a
fc
08
09
fb
0d
07
fd
fc
f6
fb
11
18
11
fb
ff
fd
ff
fe
08
f9
f5
eb
03
0c
04
02
01
03
07
fe
f6
08
fa
fd
0a
04
f3
f0
f1
01
14
08
fd
07
05
fe
05
dc
ff
01
08
f6
0b
ee
1c
ee
16
f0
f5
fb
ff
fc
07
03
03
01
f7
ef
14
13
e7
f0
16
06
f7
fc
fd
f5
0a
04
0d
10
f9
f7
ef
fe
fb
01
ff
09
12
01
ed
02
05
16
0b
02
fa
09
f7
04
01
f7
00
10
03
f5
fd
f5
01
0f
f3
f8
fd
fe
fa
0a
fb
f9
f4
e8
09
01
25
05
f5
f0
f6
e4
fe
06
f6
f8
14
f8
09
00
01
fe
19
07
f2
f7
05
04
07
09
fa
06
f8
f7
eb
0c
ff
08
fb
f9
fd
01
03
0f
12
ff
05
f9
e1
fe
09
07
ff
00
06
02
02
fb
f7
fe
05
04
f1
f4
07
ff
f7
f8
fe
0a
06
02
fa
0a
fe
05
fe
1c
f8
07
01
05
f8
02
04
05
0b
04
01
ff
f5
ff
fd
09
05
ee
06
0c
20
0c
f8
fe
f7
ee
ff
fa
07
05
f5
fc
f8
0e
fe
ef
ff
f1
ee
f7
05
06
00
07
f9
02
01
0f
04
10
fb
00
fd
f6
04
07
f5
00
ef
12
fb
f8
00
f1
0d
02
e4
04
0d
f5
f1
f0
03
f5
01
06
01
fd
f2
f5
0f
00
0f
02
f0
f4
f5
fa
eb
fd
01
0d
ec
0d
10
f3
fb
13
f9
f1
f1
02
fa
f9
0d
03
06
ef
13
00
03
11
f9
f9
08
f8
ef
f4
08
00
f4
f6
f3
f5
fe
02
04
f1
fc
fa
fa
fa
fc
f6
18
fa
09
e8
f5
0b
ff
18
06
0c
04
13
0b
fd
0a
03
f7
f8
10
02
fa
0a
ee
0a
10
f7
f9
00
f7
0f
01
13
e9
06
08
ff
03
04
04
f8
00
fb
0c
04
0e
e8
05
07
f4
05
03
fa
07
0b
03
02
07
f8
13
fe
05
fa
f8
03
02
0a
03
ef
0a
fb
f7
fa
fd
f7
f6
03
f3
02
0a
09
02
fb
f6
f9
08
03
09
02
ff
08
09
fb
16
0f
05
0b
06
0d
16
f2
fa
ee
ff
f6
12
f1
15
01
fd
10
11
f9
03
fa
1a
f3
f1
f8
01
fc
f9
07
f3
10
00
19
0d
04
06
f5
06
12
f9
f7
f6
00
04
09
e4
fc
07
fe
ff
0c
f8
00
f6
fc
07
02
14
f7
f5
fd
12
10
ee
0b
f8
fc
0d
13
f7
05
07
08
fb
0f
07
f4
05
05
0b
fe
01
07
06
f8
06
f1
ed
f1
f0
00
10
11
fa
0b
06
f8
03
10
04
02
03
0d
0e
10
fd
fd
04
00
f9
fd
f3
0c
08
fe
f8
f2
0e
10
ec
04
00
08
12
0e
01
fb
08
03
0b
fe
fd
fe
12
09
07
07
05
fa
fd
ff
02
0e
0a
f0
f7
fd
03
04
fe
f9
01
0d
02
00
f4
f7
05
fe
03
fa
ee
f1
01
05
f7
0a
02
fb
fe
09
f7
06
16
04
05
f9
04
ff
00
fc
03
02
05
0c
ff
06
10
ec
0b
21
ef
f3
f7
fc
12
0a
f2
f2
f0
03
03
07
f5
f5
12
f1
07
fe
ef
02
f9
04
f5
fc
e4
ff
fb
0b
0c
01
fe
00
06
f2
f1
00
02
06
fb
04
02
04
fe
fc
fd
f7
0e
0c
f5
fe
ff
0e
fd
f6
05
04
03
fd
0e
fb
08
fa
0b
00
08
08
13
0b
f4
fe
02
fd
f9
07
fb
f9
f7
09
10
fd
06
03
f4
09
0a
03
ed
fe
fb
17
0f
ff
fb
fe
0c
0e
0c
00
ff
06
0e
f7
f7
ed
08
11
08
0b
f6
07
ff
13
0d
0f
f5
fb
08
f4
f3
f2
0e
fc
03
fe
f6
00
f5
01
01
08
f7
06
16
0b
f2
0d
e1
15
f5
f8
06
e5
06
fa
fa
0c
fe
05
04
06
fd
f1
09
04
05
f1
fb
f1
f9
fa
f5
f1
0c
fb
0b
11
13
0d
fc
01
fd
fb
fe
0c
05
06
01
ff
e7
01
f8
f6
04
ff
fb
01
10
fc
06
f2
16
0f
12
ff
06
f8
fd
0d
f8
fd
f4
ff
05
fb
f1
05
01
13
f9
0f
0c
f8
f3
f5
03
06
eb
04
0c
fd
0b
16
08
12
f2
01
f4
08
e3
f2
fa
06
eb
00
09
fa
01
01
f2
f7
10
18
05
1b
e8
03
01
15
f6
fe
05
04
0a
11
08
0b
0f
e3
02
0f
09
01
0c
06
08
fd
02
f8
ff
08
06
01
0b
ea
ff
fc
09
0f
f5
0e
08
05
05
06
ff
07
05
ff
f5
ee
00
09
10
04
fa
07
02
00
01
01
00
09
11
03
11
05
05
0a
10
07
ff
f4
04
00
05
f4
f5
fa
f6
08
fd
01
02
01
f5
00
00
fb
0e
ea
00
1d
0c
fb
f7
02
05
08
00
f2
00
ff
05
f2
03
f3
f8
09
ff
11
02
01
05
f4
f4
06
f9
fa
ef
fd
f1
f2
0c
fd
f2
fb
0d
0c
14
f8
f4
00
0d
fc
fa
e5
09
0f
f0
01
06
02
fb
fc
04
f4
ff
05
02
07
04
18
f8
15
eb
f9
0f
eb
ea
f8
f6
18
f5
ed
ff
05
0e
fd
02
0d
f9
ee
04
08
fe
e8
01
f3
ff
f0
fc
0f
0d
ff
f9
f7
01
f9
fc
eb
fe
0d
ea
fc
05
06
ef
f1
07
0a
ff
06
0c
07
02
02
14
09
f8
ed
0b
0d
fa
ff
fd
f9
0f
fe
05
f7
eb
0e
07
03
f9
f9
0b
fb
0c
0a
0c
0a
01
0c
11
f3
0c
05
f9
09
17
ff
08
f8
00
f5
f5
ea
12
14
0b
04
0d
0e
04
0b
15
fc
e8
f1
03
f4
f3
ed
02
0f
f2
07
00
ff
ef
eb
09
eb
07
01
fe
12
07
10
f1
fd
ef
03
fa
f5
04
0f
f8
1d
fa
f9
16
0f
03
f8
f6
fe
10
f1
11
0a
ef
f3
02
f0
ff
04
0d
06
1e
fe
02
fd
fd
fb
fd
fb
00
0a
fd
03
eb
fd
00
0a
0d
11
f7
02
0c
f1
ff
f7
14
07
05
0a
fa
0a
06
f7
01
00
09
fd
0a
0b
f9
06
f9
09
0c
f6
f1
05
ff
05
f8
fb
00
01
03
0a
f5
f6
0a
05
f9
ee
02
01
05
ea
01
08
fa
f9
ed
08
00
fc
0c
00
17
f2
12
02
01
10
fd
f8
f9
f5
fe
ef
00
08
f6
03
12
fb
03
f9
fd
ff
0b
03
f6
04
f5
f0
f0
0d
16
fc
0e
0b
fb
09
f7
00
e5
f6
06
17
10
0c
f0
00
0e
0d
0c
fe
fb
00
08
f6
07
f8
07
13
fb
02
f5
0a
fb
07
0a
07
f3
01
01
f7
ff
f1
03
00
ff
f3
f8
fd
04
fb
03
01
03
03
04
f4
07
15
fd
f7
fe
f5
02
05
ff
0c
03
f3
ee
fa
fe
03
f3
fb
00
f9
e8
0f
07
08
ff
fe
fe
f9
ec
01
fa
fb
06
fb
0a
06
f3
00
11
fe
0a
0e
0c
09
04
0b
03
04
f6
f6
07
00
02
fc
f4
00
f4
00
f6
fa
0b
02
f4
fe
17
e4
03
f3
ff
fe
f1
05
f7
0e
03
fe
e0
02
02
05
07
ed
ff
ec
f7
f5
0b
0a
05
f6
f9
f9
00
01
f9
f5
fe
1b
0a
13
04
f8
f7
0b
f8
1b
f8
ff
0a
fd
00
16
0e
ff
0b
fd
0b
0d
e9
ef
07
1b
e9
f3
f3
07
04
02
f2
f7
08
f5
03
21
17
f4
f0
ff
08
0c
02
02
e8
04
0e
05
ed
e4
fd
f5
13
07
f2
02
03
05
0e
10
ec
f4
e5
00
e5
fe
03
f8
01
fe
fb
f6
08
f6
f4
06
05
05
06
f5
ff
fe
fc
0b
04
01
fc
fe
f3
01
fa
02
03
f6
0c
04
11
0b
eb
13
fc
fd
fd
fe
0e
f1
f3
fa
0c
0d
fb
fa
f1
fe
01
f8
f6
12
fd
fb
01
08
0c
fd
10
ea
0b
20
07
0c
f4
07
f6
06
02
f9
f3
08
ef
fc
1f
04
08
f0
ed
f8
09
01
ff
e5
fb
fe
00
fe
fd
fe
e9
fb
00
fd
00
ff
01
02
f6
f3
02
ff
02
e5
04
fe
ff
0e
06
03
02
fc
fb
14
0d
02
fd
f9
0a
fb
f3
06
0b
fa
fb
02
07
f7
fd
01
f2
f8
08
0a
0a
f5
04
06
04
ef
fd
e7
08
02
0d
fb
02
fc
ee
f4
06
fe
09
fe
16
06
11
00
14
02
f2
00
01
07
11
ed
08
0a
fa
ee
05
06
ff
0c
08
eb
0b
f0
15
1d
ef
f2
f2
fb
f6
f4
ef
f3
18
03
fc
f9
05
04
fa
02
e4
ed
f0
e1
fa
10
f3
0d
e4
fd
f1
fe
03
08
01
0a
f8
fe
1a
f4
0b
fd
f7
05
f9
fa
15
0c
02
fd
0b
0d
f4
fc
fc
03
f4
05
06
0f
f6
00
0c
07
f0
0d
f9
05
ff
02
0a
f7
04
fd
ff
0a
15
00
0d
fc
fd
03
fe
f9
05
fd
07
0c
13
02
fb
fb
08
03
ff
07
f3
fa
fa
16
fe
f0
06
ec
0c
07
f3
f0
0a
06
fd
fa
f4
00
f1
00
13
fb
01
0f
f8
0e
fe
05
ee
f6
f8
1a
20
07
ec
03
10
09
14
01
fb
ff
16
fb
fe
f2
fe
05
f5
00
f7
03
fe
fe
06
05
ee
02
0b
fc
fe
f7
fa
07
01
fe
fa
02
f6
f3
fe
07
02
06
13
07
02
13
ec
04
e8
ed
f8
00
0b
df
05
09
f2
f6
01
0a
f4
0f
ee
fd
01
00
0d
f5
ef
08
ff
ea
f2
02
0c
f6
11
fe
01
f7
fc
09
01
f0
19
0e
f3
e9
f9
fc
f8
f1
10
0b
08
ee
fa
00
fe
0e
04
08
0a
08
06
fa
0d
08
fc
01
e3
05
f2
f9
f6
e5
ee
f9
e5
1f
f7
f9
14
f8
1a
01
ff
09
0a
fe
f2
e8
0a
08
0f
f3
fc
01
f2
1a
07
0f
fd
0e
22
f7
05
12
05
09
04
f8
fa
f7
ee
02
11
02
fe
16
0c
09
17
0c
06
f7
03
f4
0b
1b
0c
11
f8
06
02
01
f4
fd
05
0b
fa
fc
01
fc
f1
04
ee
10
fa
11
ff
f9
f5
ff
19
0b
0a
fc
07
fb
f9
01
02
03
09
16
fa
04
01
f5
0b
f6
03
01
f0
fc
0f
0c
fa
fb
06
09
03
f5
09
f6
fa
fc
02
fc
fd
07
0a
f8
06
04
fb
fd
f9
12
ec
09
f6
ed
00
fa
ee
f4
f8
0c
f7
f8
02
f6
ef
07
f7
fb
fe
01
ec
fb
0e
f4
00
f9
10
00
09
01
fa
fa
0b
00
03
0c
02
1a
f9
13
f2
03
07
f5
ee
03
05
fe
14
f7
04
f2
10
0f
f2
f2
f0
02
13
0a
0f
0b
fe
01
fd
14
fe
fa
08
f0
0f
fa
ee
0e
ea
01
fb
11
ed
f0
f5
f7
1c
e7
fe
f5
00
04
08
08
10
03
fc
fc
fb
03
f9
f8
06
01
f9
0b
04
03
05
04
02
fc
0e
fe
0b
f3
0e
09
f3
07
fe
fe
f7
03
0d
fc
f9
01
06
00
0e
0e
db
fb
ee
fe
ff
f5
f8
f9
f2
08
f2
01
ff
01
f1
e5
fd
ea
17
03
00
fe
0c
08
04
f5
00
02
fd
08
fa
0c
0f
04
0f
fe
1b
e2
0e
f7
08
00
0b
07
07
12
f2
04
07
f4
f9
f3
fc
08
f8
04
0e
e5
f2
06
ec
ef
ee
0c
fc
ff
00
0a
07
f9
f6
fe
09
eb
f9
01
10
08
03
fc
07
e3
12
01
01
07
12
f9
f4
04
f0
f6
f9
e2
f8
ef
21
f7
19
e7
06
f4
03
e6
ee
01
02
12
12
f0
02
10
0d
f5
0a
fd
f7
f4
05
04
f9
f3
1a
22
fb
f1
02
0c
0b
00
0c
0c
0f
e3
0a
ef
03
fb
fd
e9
0c
ec
f6
fb
0e
f1
fd
04
fb
0e
ea
f7
08
19
ee
07
f5
00
fa
0a
05
fa
f7
07
e6
f0
fa
13
09
fb
13
f7
0a
0f
09
ff
09
05
0a
0a
03
12
04
f0
f2
26
1b
f5
ed
02
05
06
00
0b
15
09
fd
f9
11
06
f4
fd
06
f6
0a
e8
f4
e2
0a
00
11
0a
f1
05
fb
fb
08
1c
08
fd
05
fc
f1
0e
11
10
fc
f0
06
d5
f4
ed
06
06
ff
fb
f7
f5
f7
fd
00
f0
10
02
f6
0f
f9
f1
07
ed
19
09
04
fa
01
09
fc
08
f2
fd
ed
04
03
0f
f1
f4
0b
00
0d
f7
e9
dc
04
e0
fb
f0
15
01
04
ed
0b
fc
00
ed
04
0b
fb
01
f9
09
f2
15
02
fa
01
f6
fe
0a
f6
09
0a
07
05
02
11
f8
11
00
02
10
ef
04
f9
12
ff
01
18
0d
fb
f2
fc
11
00
fc
0b
f7
09
fe
06
07
09
15
f6
fe
0e
09
03
08
04
ee
05
fc
fc
f7
e7
f6
0c
02
fb
f4
07
0d
f9
f4
f8
00
11
0a
fa
f8
f1
0c
09
f8
07
f5
0c
f2
f9
f1
0c
fa
f6
09
ef
f9
0c
fc
01
fe
fb
e9
01
eb
f5
f7
f3
0f
15
06
f5
fa
ef
04
0c
0b
eb
fa
f2
0a
ff
0f
ff
f7
13
17
12
fc
f6
fe
f1
01
05
f5
eb
03
f6
f3
fa
07
15
04
1e
ff
eb
fa
0a
15
f3
e7
07
0e
f2
fa
13
00
02
f9
fb
f5
f8
09
02
f0
01
07
09
f3
fd
0a
10
fd
fd
0c
01
fb
fd
02
fc
00
01
01
07
02
f9
00
f4
f9
03
ec
ff
fd
06
05
ef
f7
f9
08
02
06
0b
09
ff
fc
f8
0b
13
0c
00
0e
00
03
05
f2
f7
02
fc
04
fa
f9
f0
ff
04
fe
06
fa
00
ee
16
16
07
03
02
00
0d
10
fb
fd
02
fc
fd
08
01
11
f1
f7
fc
ff
f5
0e
fd
f9
08
fb
f7
04
00
f4
10
00
f4
eb
02
14
f9
11
f2
f0
00
f4
01
fe
07
0b
10
0b
0f
f9
01
05
f8
eb
25
f5
08
0a
fc
f0
15
f0
18
1c
f9
f7
fd
06
ef
fa
f9
f3
fa
fb
f0
11
f4
ed
0e
ef
f7
06
01
fe
f6
09
fe
f6
f2
0b
0c
0e
08
05
f4
03
05
25
ff
07
05
0b
fb
0b
ff
05
fa
04
fb
e5
fd
f3
ff
f4
fb
12
0b
05
07
18
0a
e3
0d
ff
06
ff
18
07
fa
07
07
fd
f0
04
f7
ef
07
04
f5
ff
ed
f0
08
fb
fc
f9
f1
fe
08
fb
0f
12
f7
ef
f2
dc
fd
09
ee
0c
09
0d
f5
f6
00
07
fd
10
05
f3
0c
10
f7
fb
f9
f7
13
1d
09
0a
0e
04
0a
0b
03
00
10
ef
07
0b
09
fa
0c
fe
ff
f2
ee
01
0c
06
05
ea
f5
10
f5
09
d6
f7
15
12
f4
e7
02
fd
16
fb
0c
fe
0a
ff
fd
01
13
01
fd
fe
f4
04
0c
f2
02
fd
f2
03
f6
15
0b
fa
f8
0b
13
fa
0f
f8
05
15
01
09
ec
03
eb
10
14
00
08
04
f6
02
f8
ec
03
f5
ef
15
08
ff
ea
05
01
09
ea
fe
fa
04
ea
0e
08
ee
0e
02
07
03
00
fd
f1
00
e3
f6
fe
07
ee
f2
04
ef
03
f6
fd
09
08
f8
12
15
fa
02
18
12
f8
0d
0b
00
17
17
0c
07
25
ed
f2
03
08
14
07
08
f8
f3
f6
f1
ef
06
fc
0f
f9
1d
ff
00
04
f1
07
16
0f
01
00
f0
0a
f7
ed
15
08
10
fa
0a
f8
fc
ff
19
f2
09
ef
02
08
f8
eb
dd
01
04
f0
fc
fd
15
20
f9
f8
f7
fa
0f
ec
fb
0a
03
00
f8
f3
f6
0d
13
09
0f
fd
00
f9
02
f5
10
0a
00
11
f8
e6
fa
ea
f1
1a
02
fa
f7
f6
f0
13
ed
0f
11
f6
fe
08
12
02
fb
02
11
f7
fb
0d
fb
15
ee
fb
09
0c
ff
0d
e2
fd
ec
19
0e
f2
0e
06
1a
14
fa
ee
fe
ff
f0
10
f8
14
05
0a
fb
f6
14
fb
06
fd
00
f3
02
09
05
ef
fe
f7
00
fb
0c
fc
06
12
fe
0a
f3
f6
fa
f7
fd
06
13
fe
fd
13
01
fb
0f
fb
f8
12
00
04
f5
06
f5
0e
0d
f1
26
06
08
ff
eb
05
e7
fa
0b
06
17
0e
02
04
f9
02
05
0e
f4
00
eb
03
f0
07
00
0a
18
06
0e
f0
ed
00
fa
ef
f8
0e
02
fe
08
03
f0
10
0a
fb
12
f7
00
06
f4
f2
00
03
1a
f5
04
17
09
13
fe
fc
e5
fa
f8
fd
fd
01
06
ed
1c
e9
01
f9
f8
02
f8
fc
02
ff
06
fa
04
04
10
07
00
09
ef
f9
04
0d
ff
04
f9
fe
fd
0b
12
f2
fc
06
10
06
12
f7
0c
02
04
00
fd
00
01
f9
06
06
f1
f9
10
f8
fb
f8
fe
01
18
f0
f2
fe
08
0e
0d
0b
fb
05
10
ed
0f
f6
07
04
12
f5
fb
fa
ec
f1
f5
10
00
f3
e4
f4
0c
ec
0d
f0
09
07
0b
03
f1
fc
0d
17
e9
08
ff
f9
f2
01
08
12
f8
ff
0d
04
02
f8
fd
fb
f5
f6
11
06
f7
ec
f6
09
07
05
0c
fd
fb
03
07
09
ec
08
06
f1
0c
05
10
fc
f4
f1
f9
fd
08
fb
e4
01
0c
15
f6
f9
e6
ef
02
f1
f4
03
ff
09
ee
0b
f1
fd
01
0a
f9
00
fb
fd
0d
05
06
0b
ef
0f
01
e2
f1
0c
06
09
03
08
fe
06
f2
0f
05
10
f5
f6
fb
ee
02
fe
e0
fd
1a
e6
06
08
fa
10
fa
05
04
07
1c
f4
fc
08
0d
03
f6
fc
06
12
f9
fc
07
09
09
00
ff
f9
f5
02
07
05
03
f5
ea
e2
00
12
18
0c
05
fc
04
f4
f7
0b
f5
fe
16
03
f7
f8
01
14
fe
0a
09
05
eb
12
08
02
eb
fe
0a
03
15
12
06
ea
fa
fd
04
f8
f9
fe
12
fc
e4
fb
07
02
05
f4
f7
06
f3
02
f6
f5
ff
e5
f4
f9
02
f0
03
fd
fe
0c
01
03
13
0a
fe
fe
05
07
f7
03
06
f2
fd
fc
fc
00
07
03
07
f1
f4
10
ed
fb
f6
f8
f5
0a
f7
11
ef
07
02
0c
ec
06
11
07
00
04
eb
fe
01
18
f9
fb
fc
f7
e4
02
f3
04
f1
11
03
fc
13
05
f0
fe
fe
ff
16
01
02
fa
03
05
f8
11
f3
fc
00
fb
11
02
12
09
07
fd
06
12
02
0f
f2
fa
ef
04
04
05
f9
f5
08
00
ff
fd
03
e9
00
08
fd
16
fa
05
07
0c
05
f3
0d
fa
f5
eb
f7
06
f4
e9
04
f8
04
10
07
08
0a
e3
01
12
0f
0a
0f
ff
06
0a
fe
18
f6
13
08
ef
f6
f6
f1
09
05
f2
fd
f6
16
fd
01
fd
fe
ff
01
0a
fe
12
01
04
fa
01
07
21
13
00
f0
fd
02
0a
f7
04
15
fe
10
e8
f3
f7
f3
00
f8
fe
16
f7
01
0d
01
08
08
0d
04
0e
f5
f6
08
ef
fe
09
ef
fa
f6
0d
fb
14
f8
f2
ec
00
e9
14
f1
0a
07
ea
02
ec
17
f4
02
05
02
f3
06
10
08
f9
f5
fc
0e
fa
10
fd
fe
0c
13
01
f4
ee
1b
f2
08
f0
03
07
f3
e8
06
01
0c
08
f0
0e
10
02
fc
09
ff
02
df
0a
08
10
14
07
ed
02
0c
f0
12
fd
1b
f7
e8
03
01
ec
07
fb
05
f6
12
05
11
fe
ef
01
12
09
06
fe
f2
0f
0b
fd
fb
01
00
fb
e8
06
ff
02
fd
f7
0e
08
fb
02
04
f7
ef
f5
ff
0b
02
ff
fb
07
07
01
02
fe
fd
07
fd
fc
fa
ff
fc
0b
ef
00
ff
08
04
fd
08
f6
02
11
01
00
07
fc
03
ee
fe
08
f8
0b
f9
f6
01
04
f7
f8
06
04
f4
fe
fd
ea
03
0c
f4
fb
05
02
fa
00
01
07
0b
07
e3
03
fb
f3
03
10
fb
04
07
01
ff
0c
f2
0c
fe
05
f4
f8
fc
02
0f
fe
ee
09
02
f5
05
04
fa
f7
05
f6
02
0a
f5
07
f8
f6
f9
09
06
03
01
02
01
01
fc
12
19
09
04
fb
0b
fa
f7
ef
f2
10
fe
03
14
f0
f7
f0
f7
0e
f4
07
fc
01
09
ff
08
11
f0
0d
13
f8
0b
f6
f6
05
20
02
fd
02
01
f5
01
15
03
1c
f9
d5
01
13
12
f4
05
07
09
16
07
00
f9
1d
ec
06
0c
e9
0a
11
ed
fc
07
ef
f8
f8
ee
0e
08
e9
01
ee
e7
ff
fd
ec
00
f7
f8
03
ef
0e
18
f4
03
fa
fd
0e
0c
f0
09
04
0a
f1
fe
ec
12
02
12
02
07
1a
13
fe
13
ff
fd
f5
ee
fd
f9
e8
02
fd
07
ff
0b
fd
0f
fa
11
0c
06
0e
f0
fc
0f
ff
f2
07
06
fc
01
eb
f7
06
fc
fd
03
08
f3
06
fa
09
21
f2
fe
09
20
00
02
04
04
10
fc
fd
09
f8
01
f0
fe
01
0a
f6
0a
05
ff
ef
06
07
02
05
09
05
11
12
ff
f7
00
f6
07
10
00
0b
f6
fc
0b
f1
fd
08
0d
06
e9
02
09
03
f6
fb
10
23
fa
01
06
05
f8
f9
00
0a
03
11
fa
09
06
05
07
fc
05
02
eb
08
ff
fe
0f
fd
00
f1
0e
07
0a
fb
0e
fa
f3
f2
0e
11
f2
10
fa
05
fa
04
eb
06
03
ef
f8
11
00
02
05
f9
fd
03
02
f6
0a
01
15
f4
1a
f8
02
f9
f1
0d
f7
05
fe
0c
f2
01
f5
15
f6
08
01
16
da
16
fb
f6
05
e9
f2
0c
f7
fd
15
fa
0c
f9
04
12
ff
fe
fa
e2
03
f7
fa
fc
00
ff
13
fe
09
f6
14
01
08
20
0b
04
fe
f9
fa
11
16
0c
07
04
02
00
f6
02
fb
07
13
fa
0d
03
06
04
00
ec
f0
00
00
fe
fb
fb
f8
0c
1f
0a
18
fc
fc
0a
06
f9
eb
0e
0a
00
f1
12
03
04
fb
ed
04
eb
03
09
05
00
00
fd
04
fa
03
0a
f0
ef
0a
16
00
f2
0a
0b
f5
12
f5
ff
f9
15
ff
f7
fc
f6
0e
0f
fe
fb
f9
0b
f5
09
0a
ee
f7
03
0d
0a
11
ec
fd
ff
14
f9
f5
05
fc
f8
e9
fb
f9
ed
0b
fc
fd
f1
fb
09
dd
12
f1
05
11
f4
06
fb
ef
18
fb
f4
fa
fe
04
12
fe
09
07
ef
0e
f1
04
f9
f8
02
01
fd
f6
f1
09
03
fd
f3
00
05
0c
12
ff
fa
fe
06
12
0a
0a
fe
f8
08
04
f9
07
fc
f3
f0
f1
f2
f5
f1
06
e4
ff
fe
f3
f0
06
0d
fc
f0
ff
07
01
fa
f9
00
0c
ec
0f
e4
fc
05
0b
f6
fc
e3
eb
fa
fc
0b
f3
f4
ed
00
12
fc
f4
01
fa
f8
02
01
f9
00
0a
05
fa
0c
01
1c
0a
ef
0d
f7
06
0d
03
f9
ee
01
f1
05
06
0a
10
fa
04
f8
06
02
08
0c
09
08
f5
09
03
fb
f6
09
00
fe
fc
08
01
f5
f5
00
05
0d
ff
fc
01
fb
f8
f1
0b
fb
fd
fe
ea
fc
fc
ec
17
11
ea
10
0d
14
01
09
ed
e5
e7
f9
ee
ff
08
09
0c
fe
02
ff
fb
14
fb
ea
fe
18
0c
00
06
ee
02
14
e9
f6
fd
f8
f8
09
ee
08
04
06
fe
01
11
1b
0d
1a
0e
f9
10
ff
06
0b
ef
09
01
15
0c
fd
fd
ec
04
ff
03
f2
10
fc
fc
ff
04
ff
f9
03
11
0b
fd
fb
f2
06
00
f4
02
fd
ee
f0
14
fc
f5
fb
0e
f2
04
00
09
0d
f3
12
fc
0e
05
06
f7
03
02
f8
e9
01
f3
01
15
fe
ed
05
f4
00
09
11
f4
f3
18
0a
0a
f7
f5
f3
fd
f7
fc
f4
fb
e6
0c
0e
02
eb
02
07
06
0b
fb
03
ed
fd
f5
07
f9
0a
fe
ee
fc
01
02
08
00
08
00
fb
f9
06
f8
fe
01
f6
0c
0b
0b
06
f7
01
f3
07
fb
16
09
06
f6
03
0f
02
0a
03
fe
f9
ea
00
f7
f4
1c
00
0b
0c
f9
07
0c
fc
0a
fc
f6
fa
08
05
ff
0f
02
11
10
06
04
f9
fa
ec
f5
f4
f0
12
00
11
12
ff
0d
0d
de
04
00
dc
f7
0e
fd
06
02
f7
0b
f8
02
03
f8
eb
ed
03
f8
fe
fc
fa
f7
fe
f4
0a
0b
fb
08
08
f0
f1
04
05
f0
fa
fd
05
08
fc
03
0d
0f
06
06
04
ff
f0
04
fa
01
05
f6
fb
fd
f7
ed
0a
18
e7
04
fd
e7
08
fa
05
04
07
e6
08
04
00
07
fc
0f
07
fd
00
f1
00
0a
f3
02
03
04
06
fc
07
fd
0a
f9
00
0a
01
f5
f4
10
fd
f4
04
fd
04
19
01
fc
10
f7
03
f7
fc
ec
08
ee
fe
e8
f7
02
10
fe
fa
ff
0c
0b
fd
fd
fa
00
0c
ff
0c
fb
00
fd
fc
fc
02
f6
00
ff
ef
f4
02
07
f5
06
fd
f9
fa
07
1a
0d
00
01
06
0f
f7
05
17
13
01
01
f5
fe
fc
03
fb
f8
fe
f6
df
ff
f4
f8
0c
15
fa
05
fa
13
01
11
f4
f3
00
0a
fd
fb
f4
fa
03
01
fc
02
fa
0e
02
16
01
00
f1
06
fe
fe
0a
f6
f3
02
13
f4
04
05
03
0d
07
fa
f0
f3
fe
03
06
05
16
09
0b
08
0d
07
f4
fb
03
ed
24
02
04
f0
f8
ee
f9
fe
f8
06
06
0b
fb
fa
17
0c
f8
08
fb
f0
1a
09
0f
f5
0b
19
ec
f7
fd
08
ff
04
0d
03
fa
11
09
0b
0c
0c
f4
04
06
03
ff
07
fc
04
00
ff
f0
06
07
03
e4
ff
05
19
ec
01
f7
0c
06
f7
1a
fb
e8
03
0f
f4
0d
01
10
0b
08
02
f8
07
fe
03
ef
17
f3
f4
13
f6
01
f9
f1
03
15
09
ed
05
fb
18
0f
0c
09
f2
09
ef
ff
14
fb
fe
fd
ea
01
26
01
ff
f1
ee
f7
fe
ef
f1
04
f3
0f
eb
11
1b
fa
fd
f5
f6
e6
10
02
03
13
f4
0c
10
fb
fd
f9
00
fb
02
0b
ef
09
fc
fe
14
fb
0a
08
07
fc
02
f6
f4
fa
ec
f6
00
0f
0a
09
f6
04
04
fc
09
17
fb
fa
14
02
0b
0a
13
fc
08
f6
0d
0a
fd
f4
f7
10
fa
fa
fc
01
06
ff
09
fe
0d
04
fd
02
f8
04
05
f0
03
ee
02
06
1c
07
0a
f1
15
f7
f2
fb
f4
0d
04
0a
f2
03
03
fc
17
00
f6
f1
f8
16
f0
05
f6
fb
14
e9
00
00
03
02
e6
f1
07
07
03
fc
04
fa
14
04
fc
fd
09
fc
0c
f1
02
0c
0e
fd
f8
01
f7
0d
f8
16
0e
02
fa
01
03
12
ed
f6
f0
f2
24
fc
e8
10
fc
fa
f1
03
0e
03
06
fb
06
10
00
fb
ff
fd
04
fd
ff
f0
f0
f9
20
fc
09
00
f4
da
02
0f
13
08
11
01
20
12
21
fd
0f
06
11
0c
fe
f2
07
02
01
09
0e
05
fa
08
f3
0f
14
f8
12
00
14
e6
fa
1a
f4
0a
10
08
fa
e3
fe
fc
fd
fc
ee
02
ea
04
0b
ed
f6
ff
13
f2
fc
13
04
00
09
ec
ec
fc
14
02
0d
15
fc
0e
e9
0b
fd
fc
0d
fb
0f
f0
13
f6
f9
09
f5
00
ee
1e
11
fd
03
1a
eb
02
0c
fe
0f
04
01
02
f5
f7
ea
f9
00
f8
fc
07
0a
00
ff
f1
f9
f1
f5
0c
0b
06
f8
f7
25
f7
00
f5
f2
f7
ed
00
f0
04
07
04
04
07
fb
10
f8
f1
fe
0c
0e
fa
05
06
fa
07
f1
fd
0e
01
08
05
09
02
0c
08
0f
05
02
02
fd
fc
f4
04
01
f9
fd
f8
09
f6
f7
fb
0d
11
fd
09
05
07
fe
fd
02
00
eb
05
03
ff
fb
fd
fc
fd
02
f1
f9
fc
02
0a
fe
04
fc
fb
00
0b
05
fc
09
f9
f6
01
f6
05
04
0b
02
18
f1
08
00
0a
ed
fa
f7
04
00
05
fb
ed
fb
fb
f2
fc
1a
04
01
1d
f1
07
f1
1c
ff
f0
e0
f5
0d
04
04
04
f6
04
03
f6
01
f8
f1
06
1b
fe
fd
f6
e8
ff
05
09
02
fb
04
0f
fe
f3
16
fc
f8
f1
f3
00
08
ff
fc
fe
ef
e2
f8
11
fd
12
07
f6
f3
f4
ff
ef
0a
fd
fd
12
08
07
06
0d
f2
0b
ea
0a
f5
f0
05
eb
02
ec
ee
f8
fd
f6
fa
07
e7
09
02
fe
ff
07
0d
f7
f8
f8
f3
f7
f9
07
fe
06
26
03
06
e0
00
12
0d
fb
fe
e6
02
0f
01
f6
e9
fb
10
06
14
04
ee
f0
02
00
03
fb
de
f3
03
f8
0b
f9
f9
06
fe
fc
06
fc
00
f6
0a
00
06
f7
f4
fc
06
0b
0a
fd
f6
fe
03
02
ec
f2
00
fa
07
04
ee
09
f8
fd
05
03
f9
15
ff
f8
04
fc
07
ef
f5
0e
e7
f8
ff
0d
01
01
05
f6
0a
f8
f8
16
07
f5
ed
f6
10
01
eb
06
04
05
fd
e2
fb
f3
09
0c
fb
0b
fa
f8
16
f0
f9
08
fe
fd
0c
f9
fd
f9
f0
08
11
f2
f5
ff
01
02
00
02
ef
f9
05
12
00
0f
0c
05
09
f1
ff
ee
fa
0e
15
16
05
f5
ff
0d
0c
03
01
03
08
10
eb
06
ef
03
07
04
05
02
0d
fc
06
f1
07
fb
f7
01
ee
01
fb
06
02
fb
06
f6
01
00
04
fa
0a
fa
0d
03
02
06
ff
0b
f6
06
f3
f1
03
1c
0f
0b
04
0f
07
f5
03
f2
f6
16
0d
09
0c
f6
f7
05
0d
f7
01
06
f8
f5
0a
fe
0f
02
06
08
05
10
15
ed
f9
ff
06
02
09
fc
02
f7
fa
f4
04
f4
ef
00
06
ed
0d
fa
01
0b
03
fa
fc
00
e7
f1
09
09
f8
ef
01
11
fe
ea
f9
fe
0a
eb
f0
05
15
e1
fd
f4
0a
10
01
0a
01
01
09
03
eb
f0
04
fc
0c
f0
f4
ff
f7
08
08
f1
06
0f
f4
f2
fa
06
f0
0b
ff
0f
0b
f0
f9
0b
0a
09
05
ff
ff
15
0f
06
fa
01
f4
0f
ee
f2
06
0d
06
f5
04
ff
f7
08
f4
00
0d
f8
f8
ff
0a
0c
f8
0e
02
0b
fb
fa
f9
01
e8
f5
11
ed
f9
fc
1b
14
fa
f9
f8
12
ff
11
ff
01
f8
00
0d
03
ef
02
0b
00
f0
fd
f8
f5
fb
f4
01
0e
04
0c
06
02
f0
ef
07
f8
1d
ff
e6
04
ff
fd
fe
05
fa
14
0c
fb
fd
ff
02
e8
f7
13
ec
fa
03
f0
ef
f1
f8
06
f7
f8
ea
f1
fa
0e
00
04
0a
fe
fc
f1
ef
ee
0e
0e
07
00
00
fc
f8
ff
f9
f4
04
f9
14
f4
0a
f8
07
08
e7
05
f5
00
f3
f6
04
0f
09
f0
f5
03
fb
f7
02
0a
0d
f9
e8
fe
f7
fe
04
00
f8
03
03
08
e9
f5
f7
fb
fb
ee
f5
fc
13
ff
0e
ef
f7
f9
00
07
ec
f9
03
0e
03
00
f8
06
fe
fe
ff
fa
fe
e7
08
ea
04
05
0f
fa
0c
f7
f7
db
09
04
fd
fd
02
01
07
f1
00
f5
f0
16
00
0d
11
0f
02
09
f6
f6
fb
04
0b
fd
02
ef
f3
f6
06
0f
06
f3
0c
0e
0b
14
ea
d8
fa
fa
08
f4
0d
0e
24
17
07
f3
f9
10
fa
fb
04
00
00
10
f1
09
f4
12
fb
ff
fb
0f
0f
04
02
14
f1
ed
fe
ef
f0
04
03
09
ff
14
0c
f8
f3
06
02
0a
06
f1
03
05
05
0a
12
02
e4
f9
03
ef
07
fe
03
fc
05
fb
f0
fe
fa
fc
20
f8
ff
03
fd
fc
f6
0f
fd
fd
04
0c
f6
f7
fb
f6
06
11
17
08
fd
01
f6
00
eb
05
05
fb
f4
03
0c
04
fa
08
f9
02
11
0e
f7
0b
ef
15
fc
fe
04
06
11
00
15
fa
fb
fa
08
01
0b
1b
0d
05
0a
ea
f2
f0
13
08
0b
e3
05
11
ff
fb
fc
14
14
f2
0b
e8
fd
0a
f2
01
ff
0c
05
f4
15
f6
00
06
04
da
0a
fe
f4
fd
0d
f8
16
fd
ea
ff
f7
de
f3
10
12
09
19
ee
14
04
eb
f9
1c
ff
03
f1
fd
f8
09
09
fd
f5
f6
fa
09
07
09
ff
0f
f7
01
0c
f6
15
fe
fd
fd
f3
0b
20
16
f2
ed
f3
f5
15
00
fe
f1
00
15
e2
00
03
04
e5
fa
02
01
e8
ee
08
07
1b
04
04
eb
07
0a
0a
01
07
08
f6
ff
14
f7
fc
f6
04
02
f4
04
16
08
05
f9
08
f3
f6
f3
09
fe
f0
09
15
0a
19
02
19
f0
f5
f7
e9
07
f1
05
00
03
f7
fd
0b
13
05
07
fb
10
fa
03
03
03
12
fe
fd
fc
fe
fc
fe
f6
15
06
fc
fe
fd
03
fc
f3
09
f3
f0
f7
01
fc
02
03
17
00
ee
fd
f4
fe
09
04
f5
06
f6
1a
10
fa
0b
f2
0c
0c
fc
f8
0a
f3
0e
07
f9
f4
01
0f
04
fa
fb
fd
e3
05
f2
f1
f6
0c
10
00
01
09
f0
ff
de
f7
14
04
03
07
21
fa
12
08
11
0d
f6
1a
fd
13
06
11
f0
0d
f5
fc
04
f2
ff
f6
ff
e9
fd
ea
ef
ff
04
0a
15
07
05
10
0f
fa
14
09
fa
f9
10
fb
14
13
05
fb
17
13
0c
03
05
ec
fa
0c
06
05
06
00
fc
05
0d
09
f2
fe
f9
0a
0f
16
f5
fd
f2
02
f2
ec
0e
fc
04
13
00
e7
f3
12
f3
ed
01
10
0a
10
f9
f4
fc
f9
01
f6
07
f7
13
07
ff
0d
ef
0e
ff
08
f5
01
f3
04
f7
f3
08
04
f7
e7
ff
00
f6
07
f8
0f
08
03
05
f7
e8
0a
04
fc
fc
f8
f9
f7
e1
f7
13
05
f6
12
f9
f7
f0
ec
0f
05
13
07
04
01
02
00
00
fd
fd
06
fa
f4
06
04
12
f4
f7
09
f7
10
08
0d
fc
00
f3
f0
f8
ff
f5
01
05
fa
0b
fc
05
0c
14
fe
0d
00
08
04
09
0c
f9
01
02
f9
ff
0c
01
06
fa
07
fd
0d
fd
f7
06
fa
f8
02
07
f4
0c
01
ff
fd
02
f8
f5
04
03
0e
03
00
05
01
f6
fe
04
fe
fb
f3
f6
fe
ff
03
09
0f
15
08
fe
fa
08
06
fc
00
fb
ed
09
0e
fb
06
07
fd
fb
f7
10
06
fe
02
08
13
fa
08
fd
0b
fc
06
fc
f9
fc
06
f6
07
0e
f1
09
0a
03
01
0c
fe
0d
0d
fb
09
06
01
02
01
ff
f6
06
02
f9
fc
ee
00
f4
16
f2
07
fb
fc
0c
ee
fa
00
ff
f6
01
11
19
00
01
f6
fc
fc
f2
ff
15
05
09
ea
f5
0a
f8
07
f8
09
10
f1
07
e8
06
07
09
f4
f3
03
07
0b
fc
0d
f4
de
f5
f4
05
05
fe
0a
04
0d
09
fb
f5
04
f5
fe
0f
ef
ec
0c
04
09
fb
02
01
fb
09
09
0a
f8
fb
0d
0d
07
f0
02
0e
08
f3
0d
0a
09
f2
f3
fd
04
f3
fb
05
fd
f2
f7
03
f4
f5
f4
fa
ff
08
f5
0b
04
01
04
f6
f4
01
0d
01
0f
ed
03
09
fd
00
03
08
fb
f7
00
f7
02
eb
0a
f6
fe
02
07
f2
07
f9
f4
05
f3
06
f0
f1
fe
07
0c
df
0b
18
10
fb
f9
01
0f
f2
fb
09
fe
08
fc
03
0d
ff
e6
f9
f8
e8
ee
03
01
f1
ed
08
06
05
03
de
07
10
00
07
0f
03
08
03
15
f1
03
17
ea
0b
02
f9
0f
0f
fe
07
07
fd
0b
f4
fc
ec
0f
ff
0e
ff
12
0e
f4
ee
07
08
02
fb
fd
fd
f1
df
06
ff
fe
15
02
f2
17
0f
f4
11
1d
04
ed
f9
f6
07
fc
0e
0b
01
00
01
fa
05
0b
f0
07
14
fb
09
08
07
fd
fc
f4
e7
fa
0b
05
f9
f6
fe
15
15
fc
f7
07
fa
01
06
06
0b
ff
03
06
1a
10
ee
f7
f1
fb
2a
01
fa
f2
fc
02
08
fe
e6
09
fb
fa
0f
1c
ee
fb
13
11
f3
04
0a
0c
0c
fe
ff
f1
06
01
02
0b
f6
04
0a
04
0b
02
ff
0a
f6
fe
03
fa
03
1b
11
0c
0f
f2
0c
0d
ff
06
07
0b
0d
fb
eb
0d
04
fb
ee
02
0c
07
06
e3
09
00
13
07
f4
f4
00
fc
ed
02
f5
08
07
fc
f7
f9
fd
0a
ff
13
f7
f5
ea
00
0b
f7
05
03
0c
fa
f3
f3
f7
fa
f6
ea
0a
05
e6
08
f5
06
0b
01
e9
fa
0b
04
fb
ff
fd
00
04
f8
f1
07
09
05
f6
03
0f
09
01
f5
0d
1c
ff
00
02
fa
08
0e
fd
f3
09
e7
05
0f
f3
12
fe
09
f7
01
04
00
f3
fe
0d
07
05
10
f4
f4
fe
f8
f5
fe
ff
fb
03
09
00
f5
ee
08
10
fe
04
0b
fc
0a
fa
08
08
fa
f5
01
1f
fc
03
0f
fa
10
f5
f6
f2
fb
e9
fd
0f
06
00
12
ff
16
fa
ed
f7
03
03
f1
fd
ee
0a
fd
fc
f8
01
ff
f9
f7
f2
0d
ee
fd
ee
eb
f3
fb
06
fb
0f
fb
07
fd
0f
fc
f9
fa
fc
f9
00
fe
04
f6
03
16
07
fe
06
00
f8
fd
fc
00
e4
fc
0c
05
01
09
0d
ee
18
fc
f8
03
f4
03
f2
e3
07
03
08
fa
06
fd
ff
f9
03
00
0f
ff
0a
ec
f7
ed
f8
10
fa
00
fa
07
06
fa
1c
eb
01
09
fc
f2
fc
05
00
f9
07
f5
02
05
08
f2
03
12
09
f8
02
0d
fe
fd
f4
f9
08
0c
11
fd
04
09
fb
0a
04
fc
0b
f3
ee
f1
0c
fa
fb
06
fa
f9
f5
0f
f6
10
fc
fb
fe
ea
0c
0a
0b
ff
01
fb
fa
f7
14
07
f6
ee
0f
f4
fa
fb
fc
fc
0b
f2
05
f0
f9
00
11
04
02
fe
11
fd
ff
ff
00
f3
f5
07
0a
1a
04
fa
14
fa
0b
11
01
0a
03
f8
06
fb
02
fa
fc
fb
fa
fa
f7
06
f0
01
02
f4
06
fe
fe
f9
18
fd
00
04
05
fc
0d
fa
04
05
f9
0a
e3
01
fd
f9
06
f3
05
0e
f9
03
f2
f3
f9
f9
f9
ff
1f
f0
ff
01
02
ff
ea
fb
03
04
04
01
08
f2
07
04
10
13
f3
00
ed
fc
fc
05
fe
10
de
f1
0f
ff
0f
f5
e2
f0
04
f7
fb
07
19
0b
13
11
0a
f4
fd
fe
f5
12
ec
08
0b
0f
14
02
fe
fd
03
f6
0a
00
06
0a
02
0a
f2
09
07
f9
f2
f4
fa
0f
0f
fc
1a
08
fa
03
02
17
11
fb
f9
f2
0d
ef
f9
0b
ff
0e
fa
01
f7
ff
02
02
ff
00
09
00
fd
fe
06
04
03
f7
0e
05
fe
f2
f6
fa
f9
0c
03
f9
00
0e
04
f1
f6
f8
0c
ff
f9
01
10
03
f2
ff
0a
ff
fc
10
ff
0d
ff
04
0b
0d
02
05
02
0c
fa
fd
03
00
02
fe
f9
02
06
ff
04
09
fc
03
fb
01
01
f6
06
14
08
03
04
05
0a
fa
fc
fb
09
00
03
01
f0
02
fc
f9
0b
f6
08
11
04
fc
ea
ff
10
fc
f8
f0
04
06
f8
ff
05
10
03
0f
0a
0b
e9
0c
03
ff
08
fd
f4
f9
0a
f9
03
fd
f9
09
11
15
fb
fc
01
f5
ff
05
08
08
11
01
f2
fe
f5
f8
e1
f8
01
f4
07
e8
18
f0
12
09
09
e8
09
fe
0e
f0
16
f9
19
e4
02
ed
06
06
ff
0d
1d
fb
fb
ed
02
f3
10
03
ff
00
fd
10
e7
03
ff
fe
fd
ff
0c
1c
09
ff
0d
11
fb
fd
ed
08
0d
02
f2
06
f5
03
eb
ff
f8
fb
fc
f0
00
13
f7
1a
06
03
fb
fc
0d
f9
01
13
f8
f4
06
00
0b
fe
04
0b
01
f1
fa
05
f8
f9
02
fc
0b
0e
fb
f3
05
0a
f7
05
fb
02
02
fd
f9
03
f7
f1
01
ff
fe
f6
f4
fd
fd
0c
f0
f7
08
f1
f8
09
00
f3
03
f7
03
f7
f5
ff
fd
fe
08
fa
fa
04
f8
f9
05
fe
09
fb
0d
04
09
fe
04
05
03
ff
00
03
fb
f2
ff
0b
08
0b
10
f9
07
03
00
00
f2
e5
0c
03
f1
f5
fe
07
12
fa
f7
06
02
fa
ff
f9
fa
00
0f
fe
01
f3
03
f5
0a
ff
ef
eb
fc
f9
ed
ff
fd
00
f5
0e
06
f9
fc
f9
16
11
11
12
f7
08
f2
02
06
e9
0c
fa
06
03
ef
0d
f4
fd
02
0b
05
fb
fa
f9
13
fe
03
f4
fe
04
fc
0d
08
02
f8
1b
f6
0d
04
f6
06
01
04
fb
02
0f
00
07
0c
08
06
f7
13
f3
09
fc
fc
f8
fd
07
07
10
13
e8
ec
0c
13
0d
ff
f6
09
02
fe
fd
0f
fd
01
04
0b
fe
03
04
08
ef
0e
f8
04
f9
fb
04
f8
07
13
f8
f7
05
f4
f2
f8
07
07
06
0b
01
f3
f5
02
13
12
02
fb
f4
1e
19
fe
e3
02
f7
02
f2
09
f5
f6
fe
01
00
09
01
09
06
08
04
07
08
fd
09
03
fe
fe
01
0c
f4
fe
fe
08
0c
f4
06
08
08
05
01
fb
f6
07
04
01
03
f2
f0
02
fe
fb
f7
00
fb
02
fa
ff
fe
0d
fa
0c
0f
f1
09
0a
ff
fb
f2
12
0e
ed
02
fe
ee
0b
16
f6
f6
00
03
fd
1a
10
ef
04
11
05
fb
e7
02
0a
00
f6
f8
13
0b
00
fc
08
12
ff
01
06
f5
13
e4
06
fc
06
11
16
e2
f8
11
0a
11
ed
05
0c
f4
08
13
e2
ff
04
fc
01
ff
fb
0f
12
04
f9
04
f6
f0
0e
0b
f8
04
fc
f8
0f
fb
0d
13
02
00
07
16
01
05
09
fd
02
06
ff
0a
fa
ef
0c
f7
1b
0f
f4
f7
ef
fc
f7
0e
f4
06
ec
fe
11
13
fd
eb
0c
fa
f1
fd
0c
0e
06
05
01
f3
0d
0f
0a
ff
05
f3
ef
fb
01
04
09
ee
00
fd
0c
09
f5
14
f4
00
0f
fd
13
fa
10
fb
f7
22
ff
02
01
fb
fc
00
f2
01
ec
02
f8
fe
f6
f5
ea
08
05
00
fa
05
f4
eb
f8
ff
08
e6
f8
03
f8
fe
fe
fa
ff
f4
f2
ef
f6
03
0e
09
fe
f2
fd
fc
fb
fa
14
08
f6
f9
0f
08
02
f7
fb
ff
07
fe
f9
07
f8
12
f8
ff
01
f3
19
00
f3
1a
f5
0e
ff
07
fa
10
f0
fb
fe
01
06
07
e9
f6
12
f4
f9
f3
f5
0a
0f
05
f8
08
f8
fe
e8
fb
0c
01
f8
12
fd
16
f0
02
01
0b
fc
02
05
08
0a
fc
14
fc
06
01
10
10
f6
02
17
10
08
09
02
f5
08
06
ff
02
00
01
0d
06
ff
0f
ec
0c
0b
11
f5
f1
02
fd
f8
05
f2
04
fd
f4
01
fe
03
ff
0f
fe
06
f8
f8
ff
14
fe
14
fb
f5
fe
00
05
f4
ec
07
01
ee
ee
0b
fa
13
04
00
01
05
08
fa
e3
00
00
12
f6
f4
12
11
f5
f9
10
03
ef
01
10
02
0e
02
11
03
fd
fa
0c
0c
04
ff
f3
09
0a
04
f8
03
fd
08
fc
f4
0e
04
06
f8
fa
0a
f9
f7
0c
f6
f8
00
01
fe
f9
0d
00
fb
0f
02
04
f0
00
02
fb
f7
ff
05
06
fd
f0
f8
f9
f1
04
f1
fd
f2
f3
f1
0f
07
03
e3
fb
02
09
f3
08
08
f0
0c
06
e4
0b
fb
08
0c
13
e8
f8
fc
0c
02
fe
fa
01
04
f5
e0
fd
0b
20
ff
e9
fb
06
07
01
11
ee
f9
ec
0a
0f
fe
0d
ea
02
09
17
0b
0f
eb
03
14
13
f4
09
fd
0d
f4
fa
01
fd
f3
08
f7
10
0d
06
eb
f5
f4
fb
04
01
03
f9
11
11
ef
10
15
0f
1d
11
f4
04
0a
fd
fb
f6
0c
f7
f8
fd
09
07
ff
02
0e
06
0b
fa
02
f7
f4
15
0b
e8
f7
fc
05
0a
0c
08
05
0e
08
e9
03
fc
02
06
00
0a
05
00
f4
04
05
0c
eb
02
01
fe
0e
08
fc
08
ff
fe
05
f8
f5
fe
05
08
10
fa
f8
01
f4
fc
fd
04
08
07
15
0e
fe
0f
05
12
00
f7
fa
0c
ff
fe
f6
f0
05
11
06
f9
fa
04
07
f7
ff
03
0a
f8
01
03
fe
fd
f5
01
10
f6
f9
06
fa
0c
f7
08
05
0e
ff
08
f7
18
0a
fe
0e
02
f4
ff
f0
fc
08
08
02
02
ff
fb
fb
02
0b
0a
08
08
fa
0c
02
02
06
f6
01
02
00
fc
f9
02
fe
04
f6
ff
01
07
f8
f3
0e
f6
03
ff
15
0b
05
fe
07
0b
04
f0
f0
06
f7
0e
fa
f3
05
00
1a
07
f0
f2
fe
01
0a
e5
fd
01
02
f2
01
f4
0a
01
01
05
fd
fe
09
fb
0e
ef
04
04
fc
0a
fa
03
ff
f8
fa
f8
13
0b
03
02
06
f0
03
fc
fa
fe
02
10
07
02
07
fb
f5
fa
e6
09
f1
f3
fb
07
05
02
03
fc
f6
0c
f0
13
f2
03
00
0f
fe
fa
f2
fd
0a
0e
11
f9
f8
f3
f6
ff
fc
fd
f9
06
02
02
f7
05
02
fd
02
eb
08
03
fc
e7
0b
07
fb
05
e9
fd
fe
f5
07
fd
f5
06
23
03
00
01
0d
18
f8
ff
00
f0
fb
0b
ea
03
09
ec
01
03
f6
10
03
f0
00
ff
11
01
fd
05
f9
09
07
f2
fb
0d
f5
12
f4
f5
f1
eb
fa
05
05
14
00
05
04
f6
fb
ff
03
f9
02
08
f3
e9
fe
f5
0c
ee
f4
01
05
00
09
0f
e9
09
05
fa
03
0a
09
f8
ef
07
18
0b
fd
08
01
0a
e7
00
04
00
01
00
fa
16
f1
f6
fb
02
f9
fe
13
08
f9
13
ee
f6
fd
f7
f5
11
fd
f6
0a
0d
f2
fe
05
06
05
11
01
f5
05
0e
f1
ef
f0
0b
ef
01
f6
0e
f4
01
01
fb
00
0c
f2
00
f9
0d
00
18
05
10
08
ee
0c
07
0f
09
f9
06
fb
fe
09
09
fd
ff
0b
00
05
00
06
ee
fc
fd
fa
f8
0e
1a
fc
17
fd
01
fe
06
fc
ed
fe
fd
fb
f3
fc
f1
fa
03
02
fe
f1
01
f9
ec
1a
0a
0c
f3
f2
f4
f4
21
04
00
f6
fb
06
05
08
fb
08
f6
fe
fa
06
fb
09
09
ff
09
1d
ee
18
fc
fd
fc
fd
0d
0a
13
f0
fb
f8
0f
0b
f9
16
fc
ef
02
03
09
02
f2
0d
0a
e9
09
07
f8
08
09
0e
f8
fe
12
05
09
03
14
10
fe
f4
e5
04
ee
06
f2
fb
03
f6
14
f2
fa
1e
f0
fa
eb
fb
e4
09
fc
fd
0d
1e
ee
06
12
ff
02
f3
1b
12
f2
08
01
12
f9
fc
02
06
0d
fc
fc
f2
f3
fc
0c
f7
08
03
15
29
03
f7
f4
08
14
12
07
00
01
fe
f5
f9
01
0b
fe
01
14
07
07
e4
14
05
0c
f7
e4
05
06
ec
f6
0a
f1
0f
f8
0a
00
fd
14
e7
fd
fa
f8
fd
03
e1
f9
07
fe
f2
01
02
15
08
f1
fc
01
07
ee
12
05
ff
0e
f3
e8
13
0e
04
0d
0d
0b
0a
08
10
f7
05
fe
0e
05
ef
09
03
f2
ed
ff
08
f3
f7
12
04
f7
f4
09
ff
fb
03
fd
06
fa
0a
fa
fa
e3
1b
fe
0b
f8
f9
11
f8
f2
06
fb
05
03
05
f8
f0
06
ec
0d
04
f7
12
0e
ec
01
01
f7
14
24
0b
f7
00
07
fe
fd
0a
07
f3
f8
05
f9
f9
ed
0b
03
f3
02
f9
00
f0
07
ff
fb
05
03
ea
02
f8
f4
11
00
09
01
fc
f4
fc
17
08
0a
0e
0d
f7
03
f6
fe
13
ff
f6
fc
ff
0d
ff
10
ef
fe
f0
0e
04
f4
01
f9
04
16
10
f6
f5
fa
0f
fe
00
ec
03
f9
06
f9
f8
fa
f2
1d
07
ff
fd
02
fe
ff
f5
05
03
f5
fb
03
f8
f1
f4
f1
1a
09
e0
fd
fe
ec
ff
fd
11
d3
14
13
0a
fb
06
fe
f9
fa
12
fa
03
ee
f8
f4
04
fb
05
1b
fb
f5
14
ff
ea
08
07
fd
07
fe
0b
0e
0e
03
fe
13
05
f7
f3
1a
07
f4
f7
08
0f
0c
fb
04
1b
0f
1a
0d
02
ee
15
f6
f4
23
0f
fa
18
15
01
0a
03
15
f3
02
f6
f4
00
0a
de
e0
03
fc
04
11
ee
1a
01
00
f9
0d
00
12
0b
fe
e9
0a
06
ff
10
f3
01
0c
fd
ff
f4
03
e9
15
0a
f3
07
04
02
0d
02
ff
08
06
11
03
f3
ef
0f
0c
04
f3
01
f7
fe
eb
f1
04
0a
f3
03
01
fa
fd
ef
04
06
fd
0b
fd
e6
fc
ed
f7
02
04
01
0d
00
ef
01
f8
f1
fd
f9
fb
ea
13
f6
01
e8
f1
05
fb
fb
f8
fc
04
01
01
1c
09
0a
fb
00
02
03
06
02
f5
08
03
fb
05
f9
ee
12
11
f5
10
09
08
f6
f4
0e
f5
00
05
02
01
ee
03
05
0c
10
fa
0e
10
f7
06
f1
f6
02
11
16
09
07
01
ff
02
09
e8
fe
02
06
fb
04
02
f5
03
f7
06
f6
01
08
f6
08
ff
04
ec
17
04
18
fc
e8
f6
07
ff
02
12
f3
fb
08
f3
15
08
08
01
19
01
ff
03
fe
02
fd
ea
01
ff
f3
05
f9
01
fd
f8
07
02
0b
f7
01
f6
f5
0f
21
03
06
05
fc
17
f4
f4
fe
f9
13
0a
f6
04
0b
03
f6
09
f7
f2
fe
ff
fb
18
00
02
09
17
f2
09
09
05
0b
f5
04
06
fe
01
03
0f
0e
ee
f6
0e
03
03
f8
f5
03
eb
fa
04
00
f8
05
f8
05
fc
f3
06
fa
fc
09
fe
01
fb
f5
ef
02
ff
fd
05
03
f2
09
f4
0e
03
f3
ff
f7
11
f6
1e
fd
eb
0e
fb
fd
f9
07
0c
01
fd
00
ff
01
0e
fc
06
06
fc
fd
ee
f3
fe
fe
f6
00
0c
13
0c
03
0f
ec
02
ff
f7
07
05
ef
f3
f9
14
08
fa
eb
fb
ef
01
ff
f6
07
fa
fe
fd
02
0d
03
03
fb
ff
02
0b
e9
f8
06
05
f2
fd
fe
15
09
eb
05
f6
09
0e
f8
f9
04
09
04
07
f5
0f
02
00
01
05
08
0c
e7
13
f6
04
02
ec
10
f7
09
13
0f
06
00
fa
07
fc
f8
e5
11
03
e2
0b
ea
fb
0d
f7
f6
15
02
ed
fd
fa
fe
01
02
e6
18
ff
00
09
f8
10
f9
fd
08
ff
e8
00
02
0f
0a
fe
ff
ff
11
0b
06
0b
09
03
f5
0e
ee
01
02
09
0e
07
f6
fc
15
0e
f4
04
07
00
09
13
03
fc
0d
fa
fa
f3
14
fe
ed
0d
03
0c
ff
fc
f9
fd
13
fa
ee
0b
12
fb
02
f6
f9
f4
0b
0c
f8
0b
09
0e
f2
ec
02
f8
02
0c
fc
01
00
f9
17
f9
fb
e6
f4
12
09
04
09
02
0a
f4
0a
09
04
f4
00
01
0d
0b
05
05
ed
04
fe
fa
00
f2
ff
00
f9
ee
03
ea
ff
27
06
fc
07
fb
05
f9
f7
03
0e
14
f5
08
ed
fa
ef
eb
1e
fe
e8
f2
00
fc
09
08
f8
fc
07
17
02
13
11
00
ee
05
f7
05
ef
02
04
fd
05
07
00
ff
fc
fb
08
04
22
13
fd
14
fe
f6
15
fb
02
f3
0e
f8
ff
02
0c
09
fd
f6
fc
0e
f4
0c
01
0f
0d
f1
f0
02
fa
0b
0c
0b
03
f7
08
07
fd
fe
f0
ef
05
04
14
10
fb
ee
eb
0a
e9
07
0e
06
f6
ee
f6
03
f5
fe
00
0e
09
11
00
0d
ec
dd
fe
13
00
1e
f0
fa
05
f7
fd
ec
f0
05
fd
06
f9
ec
04
0a
ff
09
10
f6
fe
ff
f1
fd
ff
08
fb
07
16
03
f4
06
f4
f7
ff
04
fb
ff
04
fd
0d
fd
09
09
02
09
f2
eb
03
ff
02
f9
06
ff
f4
04
f3
00
08
f5
e5
fd
0a
f5
0b
f0
08
f4
09
04
f8
ed
fe
07
01
03
fd
0c
06
f8
fa
f3
f7
0f
0a
fd
10
04
f3
0f
09
03
e9
fb
fa
01
fe
09
f9
fa
fe
04
fc
f7
f2
fd
07
02
13
f7
f9
08
fa
06
fa
f9
0e
0b
13
0a
f2
06
02
fd
00
fe
fc
fb
ed
00
f9
f3
00
12
03
f5
03
ff
fd
f7
fe
07
0c
e5
0c
e6
07
0d
0b
ef
fd
0a
12
02
10
fb
f9
fd
08
04
0e
03
01
fe
07
04
fb
0d
f0
f6
10
00
ff
17
f2
0c
f4
09
f9
03
13
12
0e
f7
f2
02
ed
f3
0b
fe
0c
15
eb
0c
05
fb
09
f9
04
02
09
0e
04
1a
0d
ec
ff
02
ff
14
03
ef
f8
02
f1
03
fd
f2
06
f6
fd
03
f1
08
05
09
0e
00
f1
fb
10
f5
e8
03
fa
03
f8
07
f0
ef
0f
05
00
f6
f8
0c
fd
fb
f0
ee
ff
03
f5
02
07
fd
f8
f5
08
fb
19
18
f9
fc
fc
01
03
02
01
ef
f2
11
f6
05
04
fa
0e
09
fc
f7
f3
04
02
00
02
1a
fc
ff
12
f3
f7
eb
01
00
fe
fa
04
fe
01
f1
0f
fb
00
fd
0c
f4
11
fa
0b
05
f2
f9
fb
08
f6
02
f3
fc
05
f3
0f
f6
00
fb
f1
0e
f9
03
f1
e9
05
fe
03
00
1c
f7
f9
fe
f2
f8
fa
ef
0c
03
12
fd
fa
09
02
ff
f0
ea
fd
0f
fe
0a
f7
04
f8
f2
16
ee
f9
e4
f1
13
00
00
0b
06
fe
f7
1c
09
01
fb
fd
fb
0e
06
04
01
f6
03
10
f2
fc
fe
fa
f2
fa
f3
0c
f6
fb
ef
00
15
01
e9
01
f9
ec
fe
03
0b
01
fa
fa
01
02
06
0b
fd
0b
15
1f
02
f5
0b
20
fa
ea
0d
f8
03
f2
ec
02
11
fa
09
07
f9
0d
f6
f8
10
fd
ff
03
15
fd
15
00
0e
f9
0e
f4
fd
08
08
f7
04
07
e1
ff
0b
eb
fb
0c
f7
14
f7
f4
ed
10
02
03
fc
05
f6
fb
0e
03
0f
10
fa
00
eb
04
f8
01
fb
0e
f7
02
1b
05
f6
04
01
0c
03
00
fe
09
01
04
03
0a
10
16
0a
04
f4
e7
0c
f6
f9
0a
02
f1
0e
06
f9
fa
03
e8
fc
f2
0b
fd
fb
01
e9
f8
f7
01
f7
01
11
08
fd
fb
f1
12
06
f4
12
f8
f1
fd
04
17
f6
ec
ff
07
07
07
0f
fc
f6
14
f1
f6
09
fd
1b
ff
03
0a
1a
f7
03
07
08
f5
f3
10
f8
fd
ff
01
f6
ef
0a
01
0a
f8
fc
fb
02
f0
08
0f
fe
fb
13
ea
02
0b
f0
24
06
f1
15
02
e6
1b
0d
0c
f5
fe
f8
00
13
03
1b
f8
fd
f6
17
f2
f2
fd
1d
0a
09
fa
02
09
20
f6
02
ff
fc
f4
fd
fb
06
f6
09
0c
0c
f7
01
ed
13
f6
f4
0c
01
05
09
fa
1f
e9
1b
0d
fc
fb
02
0c
0e
eb
0d
08
f2
eb
f2
fd
07
00
00
09
0e
06
f4
f9
ed
02
f2
1b
ef
fd
ea
02
f2
07
f6
f6
08
15
f9
ef
05
02
15
ed
12
f9
07
f2
f0
f0
fb
02
f7
fe
17
03
0c
0e
0d
08
fd
03
16
fd
0c
08
05
fe
f3
09
f8
01
ef
03
0f
f4
05
f1
02
05
fa
06
f3
f8
12
06
f7
fa
fa
06
00
f6
f8
05
f0
f9
fe
00
ff
fd
fd
f3
ff
03
07
fe
02
08
f2
01
02
11
06
02
eb
05
05
fd
f7
06
00
fe
06
f3
04
f9
03
f7
f4
02
07
10
f5
ff
fc
06
05
e6
f8
04
12
f2
fe
21
01
ee
ff
ec
0b
f9
fa
f7
fe
19
e2
1a
08
04
02
06
09
fa
0a
07
0c
2a
10
e6
e6
ff
02
f5
09
fb
ff
f9
f5
fc
f3
f5
03
02
07
f7
f8
0e
03
f9
1b
0e
fb
f3
05
0a
0f
0d
ec
f7
00
06
0b
f9
fd
03
fe
11
ef
06
15
f0
f9
0c
f1
f2
02
fa
d6
12
ef
ec
07
01
16
06
fe
0b
06
08
ec
1a
f8
ff
ef
0e
02
20
03
ee
ed
17
f4
14
05
e2
ea
f8
ff
f8
10
0b
07
0b
16
05
10
06
0c
fc
0f
f5
fb
0e
07
12
f0
eb
f3
fa
01
02
02
f1
f4
08
fd
0a
0e
f5
03
fe
f4
e0
06
fa
01
f9
fe
f6
00
fc
e5
fc
f4
0d
fc
0f
09
f2
fa
09
ea
fb
f5
f3
0f
03
07
fa
0a
f0
f0
fb
01
00
02
ff
fe
fc
fb
01
f6
fe
fd
ec
f3
05
04
fd
01
f9
f3
01
f8
02
0a
0b
e5
0b
10
f0
02
12
fd
02
15
fe
07
11
fc
12
02
09
01
f4
f9
08
fe
00
f6
02
fd
f9
08
03
00
f9
07
f0
f3
01
ef
05
f7
fc
01
10
00
06
04
03
0c
05
f6
13
1f
fa
06
0a
0b
f7
ee
f6
04
f5
02
f6
04
eb
e6
ff
04
f4
fd
fa
f5
10
04
f3
f6
ff
ff
fd
02
03
f6
e7
f6
0d
0d
01
f9
fb
00
f5
fe
f7
f5
ff
fd
00
05
f9
0f
ec
fe
10
06
fd
f2
fd
06
15
ff
11
f0
f9
00
03
07
f7
00
0f
00
07
fe
0a
f6
11
05
05
15
f7
0a
0d
01
e3
fc
f9
ff
f9
fc
03
09
09
02
f1
06
0b
ff
03
e9
e5
01
f9
fd
00
f7
fe
05
f9
0d
04
09
03
08
09
fe
08
fd
ee
0a
01
06
07
00
f7
07
09
f7
fa
0a
05
ee
f9
03
1e
0f
fe
f5
08
13
f2
fd
fb
03
10
fd
f5
02
00
00
10
f1
05
0e
04
11
03
f1
fa
f8
e1
12
06
0e
fb
f1
fa
07
0c
14
07
0d
fc
06
fe
0c
ed
fa
fd
f2
e4
03
e5
fe
04
05
03
01
ff
02
f5
ff
03
08
0b
eb
f6
0f
16
ff
03
00
2c
11
f3
0f
06
04
fa
fc
f5
f1
f6
16
f8
fa
18
0e
ef
f7
f4
01
08
02
ec
03
10
04
fe
11
05
f1
fa
f3
ea
1d
04
ff
08
eb
ff
f3
f0
12
04
11
03
fe
f6
10
14
07
06
0d
01
fe
12
f5
0a
f2
00
f7
fc
fb
13
18
01
f2
0c
04
07
14
0b
ff
f7
00
e9
07
0c
05
ed
ea
02
f8
0a
02
fe
03
14
f8
ff
ec
de
fb
ea
07
0f
f8
06
03
fd
ff
0b
f5
06
f3
02
07
fb
13
04
f5
fc
01
01
07
02
ef
f7
f4
f6
0e
0f
0c
fc
00
07
fe
04
0b
01
0d
ed
f9
fa
ef
f9
fa
f3
04
f3
00
05
09
06
0c
00
fc
17
ef
06
f2
01
e8
01
fb
07
f5
08
11
0b
0e
f3
f4
02
05
f4
f7
06
02
ee
fd
01
f8
fa
f3
fc
05
09
fe
12
05
08
fb
0d
19
f7
f4
01
f6
0f
0e
fb
fc
0c
04
ef
03
f9
0b
07
ef
f7
00
fb
f7
ea
fe
03
fc
01
0d
01
e8
04
1c
03
07
f4
e2
00
f6
f9
07
0f
18
fb
02
00
ee
fc
f9
e2
03
f5
06
09
0d
04
ff
02
0c
fd
09
09
03
00
0d
12
f8
05
01
19
07
f0
00
0a
04
06
f1
f8
fd
f4
0d
09
0c
0b
f3
05
fa
06
f8
0b
00
f8
1b
08
f1
f7
03
11
f9
fd
12
e6
fa
f8
03
01
f7
fa
0b
05
14
f3
fc
fa
05
07
08
ef
0b
f4
08
08
0a
ff
0d
fb
04
0d
0a
e8
f3
12
f3
f3
fc
f3
fe
fe
09
0c
e9
f8
0f
02
ff
08
f7
fe
ed
0e
05
fb
fc
07
f2
03
f8
fa
02
00
ea
e7
ff
04
fe
12
07
09
ff
04
07
0f
16
fb
03
00
05
fd
03
0b
fb
f3
14
08
ff
0c
fb
fd
1a
fb
06
f0
ea
fc
ff
00
02
ea
06
00
ff
fe
fa
03
ff
fc
04
02
03
01
fc
e5
f4
01
01
0c
0b
ec
f9
03
14
06
fa
f6
f5
fa
0f
f2
0b
f6
0d
fa
f3
f5
10
ff
05
f4
09
ef
fe
05
fe
09
04
fa
fe
fe
0e
eb
f4
fd
fa
f3
fc
09
fd
f0
01
03
fe
fd
fb
04
22
03
0b
0a
19
0b
f9
f6
fe
06
ea
06
0e
f2
06
f8
0a
08
08
eb
fc
03
fc
fd
0d
01
fb
09
fa
fb
0f
0c
24
08
ff
f2
05
f0
fc
05
08
1e
f6
f9
02
ff
0c
19
fe
f4
00
0e
fc
10
e6
0c
02
fe
08
fc
ff
0e
fd
0a
fc
14
f8
11
ee
0e
fc
f3
12
f0
0f
00
ec
03
08
f1
0a
fc
14
0f
06
18
ee
01
eb
fd
04
f6
12
ef
f7
06
e6
10
fb
fc
02
ff
00
ea
f9
04
00
fd
08
f4
fb
fe
0b
f7
f8
07
ff
f0
05
11
f6
00
10
06
01
f3
06
00
06
10
0b
fe
f1
08
02
09
f9
e5
07
ff
f2
f5
03
00
10
07
fe
0d
fd
04
16
fd
03
f0
fd
f9
e4
fd
fd
f4
0a
fe
eb
0a
0f
08
04
03
02
0a
00
03
f6
f2
e7
0b
05
08
fc
05
fd
fc
f5
fe
f9
0e
f5
fa
06
ed
17
14
12
f3
07
00
07
f6
0f
25
e8
0d
fd
ff
ef
0f
0a
fd
02
14
0b
f6
f6
04
07
18
fe
09
04
11
f8
0e
10
1a
fd
fc
09
fb
0a
f1
f1
07
01
0d
0b
fb
fc
10
03
fd
ed
0d
02
f6
09
06
f4
fb
11
01
00
fb
08
f2
fc
07
f6
03
ff
f7
f7
f8
fa
e4
f1
07
f8
fc
f6
f1
ff
06
fd
f2
10
dd
0b
f6
f3
0a
02
e2
f9
fb
ef
fa
02
fb
f9
0d
07
02
07
0b
09
f9
f7
16
02
03
0e
f2
08
03
f4
ed
ff
fe
03
15
fa
0a
fb
05
01
07
0f
fb
07
01
09
ff
09
f9
fd
f3
f4
ff
04
09
fd
00
1b
02
02
e9
f7
00
0b
f8
0d
1f
fa
f8
05
fb
0b
fd
ff
fa
0f
f1
06
fb
05
ff
f9
f6
fb
07
fa
f4
df
00
f2
f0
05
f8
0b
1d
10
f5
ff
0b
00
07
0b
0c
f8
1c
fe
fc
0e
fc
eb
fd
08
fd
00
02
0b
0c
f9
f3
ff
ff
f0
02
05
fd
0b
fe
fb
0a
04
10
fe
fb
e2
0a
f9
06
fd
10
00
fa
ef
02
ff
01
14
08
0d
f7
f8
0d
02
0c
f8
08
fa
fa
fb
10
f6
f4
00
f8
ff
02
01
fa
f7
0f
f9
01
01
02
00
04
f4
ff
11
e6
02
10
ff
f5
fe
05
01
f8
f9
1d
05
16
00
ff
07
03
f9
00
09
fb
f5
fd
fd
0a
09
09
fc
19
03
f1
0a
0b
ff
06
ec
08
f1
ec
0d
09
1b
09
10
03
0f
fe
00
0a
f5
fc
04
ff
0b
fa
02
06
e7
08
01
fa
03
ee
01
07
ff
fe
07
00
f2
0a
f2
f2
fe
06
07
0e
0b
e7
f2
f9
ed
0a
f7
01
fa
f6
ee
fc
f0
0a
fa
0e
ed
ff
0c
16
0a
18
f3
fe
07
f8
f9
06
09
f4
fc
0f
08
fa
ff
09
fe
06
f1
09
0f
ee
15
eb
fb
26
0f
0a
04
eb
fc
06
fb
f7
02
01
fb
f7
0d
f4
fb
0a
00
22
08
00
f4
05
f9
ef
fb
01
1e
0d
17
ed
0e
f7
0b
06
18
f7
0d
1b
f9
06
0a
04
fb
01
fc
1d
02
ef
02
03
f0
03
03
07
0f
ff
21
f3
fb
14
e9
08
fa
09
08
f7
0a
12
f8
ed
fc
0a
f6
06
03
17
eb
02
0f
1a
14
0b
02
15
01
0a
00
0c
f4
1c
10
f9
0a
f6
fd
fd
05
22
f4
f2
07
ea
f5
f1
fe
05
15
03
02
0f
dc
0c
0b
00
f0
f4
09
17
fe
02
f6
02
f6
fb
fa
fa
00
ff
01
07
0e
05
ef
05
06
f8
02
08
fd
f9
ea
f2
f3
01
12
f3
ef
07
0e
f5
fb
fc
04
09
fd
f1
fa
fa
fa
08
0d
09
16
fb
fa
f6
05
fa
f9
04
06
08
fd
ef
fe
02
ee
02
ff
0a
04
f6
fe
03
ed
00
14
09
ee
fd
0c
05
04
fc
00
f7
08
f9
fc
01
04
14
f0
ec
17
02
06
15
fe
09
08
fb
0f
05
ef
09
fa
17
fb
14
fa
0e
f9
08
fa
fc
fc
02
06
14
01
14
f3
f6
f1
01
01
ed
e9
10
ed
17
04
f9
02
ff
fe
07
fd
f9
f5
16
03
15
01
ec
fb
f3
f0
e9
fe
fd
f7
e9
f4
fa
f6
01
f8
fd
fd
f0
f5
f2
04
fd
0a
09
e7
01
05
f5
f2
f8
f4
f3
f7
03
04
0f
1a
f4
01
01
0b
11
15
f5
e1
11
ee
0b
f8
ec
08
04
0a
f4
0d
e1
0e
0b
06
f7
08
fa
05
eb
00
0c
f2
04
04
ff
0b
e8
f2
fc
fe
1d
ec
20
11
f0
00
03
fb
ef
07
ff
03
fc
eb
09
fd
02
ec
ff
f5
fc
f6
f2
f3
07
13
0a
00
13
03
fe
fa
14
fb
ff
f2
f5
02
ef
08
f8
e9
fb
f8
07
0e
f6
fe
fd
00
06
f5
09
f5
0f
fe
18
12
f9
12
f5
fd
10
08
0a
f1
fb
0e
e7
f7
0b
0a
0e
08
f5
02
f6
fd
fd
f5
f8
fa
05
fe
09
fa
04
f2
15
ef
ff
f3
0f
f8
22
ec
13
06
e5
fc
05
09
ff
07
0d
08
18
f9
17
f1
f9
fc
ef
0e
f2
fd
fd
06
0f
fc
01
09
ff
00
eb
fe
15
ff
ec
eb
01
fc
fa
0e
fd
ec
19
0b
ff
f4
10
f6
1b
08
e8
0f
f7
0e
ff
1b
07
ef
02
fb
f0
20
06
00
fc
05
02
e4
10
fd
0a
16
fa
03
fe
05
02
03
0b
09
02
f7
00
fa
01
03
01
f0
00
01
03
17
00
01
fc
0d
05
fc
14
04
01
fa
01
04
0a
0f
f7
fe
00
12
01
fb
fe
f6
0d
00
fa
fe
ee
ed
02
f3
fa
f7
07
f9
fa
09
f2
fd
07
16
00
06
fe
fc
fb
ff
01
fa
08
fb
f1
01
0d
fd
09
05
01
f8
fd
fc
eb
04
00
0e
ff
0e
fc
11
0b
09
f1
13
02
fb
fe
04
f0
21
0d
0b
03
0b
07
08
fb
dd
03
0c
f7
05
04
1a
f2
0a
f3
fa
04
0c
fa
04
fd
fe
05
ff
08
ef
f9
fb
0b
07
f9
00
09
f9
f9
0a
02
fa
fe
09
10
0a
fb
0d
ff
f1
05
fc
fe
fe
f5
02
fb
05
f3
f2
19
13
ed
02
f6
ff
07
0b
05
f2
0a
08
f8
16
fb
f5
f7
ff
0d
06
fd
f5
06
2c
11
01
fe
08
00
0d
0e
06
0d
ec
fb
0b
04
0e
03
ff
0b
08
0a
fd
00
04
0c
03
11
f5
0b
fa
02
05
f5
f8
f8
02
01
fe
01
f4
0d
0c
02
fa
0c
07
f3
fe
15
f8
f4
f3
09
0a
0b
00
ff
02
01
f3
06
16
0e
07
0a
0a
01
01
f7
00
04
05
ff
06
ea
0c
07
00
f5
ff
fb
06
fc
07
14
f4
04
12
09
fa
0b
11
08
f9
08
05
01
01
02
0e
f6
f9
ed
03
1d
f8
f6
fe
fa
05
09
0f
05
16
f2
19
ff
08
fe
09
de
02
0e
f1
f9
11
00
02
1f
ff
f5
00
0c
f7
f9
f5
03
05
f3
e5
f8
04
f4
f9
f7
fc
04
f3
ff
f9
fd
06
18
03
fd
e4
e8
0a
fd
09
04
f3
07
ea
eb
07
fb
fb
09
fc
f2
11
f7
06
fc
06
f8
1c
fc
03
fd
07
08
0a
fd
02
ee
02
08
17
00
ee
f7
14
02
f0
fb
04
fb
09
fd
f2
fb
0e
f5
11
fa
ee
f2
06
20
f6
0c
fe
0a
fb
f5
0c
03
ee
fb
f9
ef
ff
fa
06
0d
ef
f8
eb
f4
03
03
fc
f2
ff
04
f9
02
22
03
02
10
0d
ff
f8
02
07
14
05
f9
f6
ed
18
fe
00
f8
f6
0d
02
0f
03
fa
ea
fc
ff
0e
f9
ff
10
f0
12
10
fa
f7
0c
18
f9
f4
f3
f1
f0
08
f7
fb
11
10
19
00
02
fe
fe
19
f8
13
16
0c
01
fa
03
0c
03
12
f1
18
fc
f2
0e
10
ef
11
f7
f6
05
f9
08
f6
1d
f5
13
f0
ef
f2
fd
19
07
00
ff
f9
f9
f9
fe
04
0d
01
0f
10
02
06
05
22
ed
fb
fc
f4
0c
0f
f4
f1
0d
0d
14
fb
ed
e9
fe
07
1c
02
f2
05
00
fc
e4
01
f6
f7
05
17
f9
f2
0e
f2
0c
14
fe
00
16
0c
04
f5
05
05
ff
07
01
f0
f2
fd
0b
0d
0f
f1
ff
ef
05
02
0f
0c
03
fa
04
10
08
17
f3
ff
f5
01
0b
00
0d
f9
f7
04
1a
fa
08
03
ff
09
03
f0
03
13
f2
f9
01
03
09
f5
0e
f1
10
e0
fd
05
00
0e
04
ed
01
ef
e8
f0
15
fa
01
f4
00
ff
0d
05
04
ff
01
e9
06
f9
05
f6
0f
f9
03
03
04
03
ec
10
06
fb
fc
08
f9
f2
f4
01
fe
f9
f7
f8
03
ee
0d
16
0d
05
fc
f4
ea
f7
fd
03
1c
fd
fc
16
fe
08
02
fe
ff
0d
ff
f6
08
f3
0a
f7
0b
0f
ff
12
f4
f3
05
10
eb
11
01
f5
fe
04
04
ee
18
f8
eb
ec
fb
0d
09
10
f5
10
f6
f5
0c
ec
fe
fa
f2
11
f6
fd
00
f1
0a
f2
f7
1e
f4
f6
ff
01
04
ed
05
08
0b
fa
03
10
f7
18
fa
0b
02
ee
f6
02
13
0a
f8
00
fb
ff
fd
ef
01
04
02
01
ef
f9
f0
eb
e4
05
17
09
08
05
ff
00
fd
0c
ee
13
fe
03
fe
e4
07
0a
f3
fc
01
00
f7
12
ee
0a
10
07
f7
0f
05
06
fc
fe
fa
0b
17
18
f9
0a
07
f8
18
09
0e
06
ff
f0
ff
13
03
09
ff
04
08
e6
03
f5
01
01
06
f6
0d
0d
02
ff
fd
0b
00
ff
08
05
0f
00
0d
f7
fd
ed
06
00
03
fe
0a
10
0d
f5
fb
16
06
fd
05
04
0d
fd
01
fd
fe
fc
0f
fc
09
19
02
f4
f2
fb
fb
14
f6
09
09
04
f6
fc
08
fc
00
0b
fb
f5
06
fa
03
fc
fb
fd
e4
f8
fc
12
1f
02
00
02
15
fc
01
08
f7
06
0a
05
f5
f2
03
14
f1
08
f6
fe
0a
0a
08
e4
10
14
e7
f3
08
f8
07
f8
fc
03
07
14
06
03
f2
0c
f6
09
fa
f0
e8
f8
fb
0d
05
09
0f
05
0b
fe
04
05
07
00
fe
06
02
fa
ff
f6
fb
f5
f9
fb
0e
06
0b
18
02
08
0d
0a
fb
03
04
07
f7
0a
00
0b
0b
00
02
fc
02
fd
ff
01
f6
02
ef
ff
07
09
09
f8
01
0f
08
0b
08
01
f4
01
f6
f7
f0
f3
fd
14
08
fe
03
fb
15
e9
fb
ff
02
0a
01
0f
f3
fa
06
07
01
f6
f5
07
fb
fe
f4
04
f2
ef
00
08
00
09
fe
01
0b
04
00
09
f8
08
02
f2
09
0b
fe
10
fd
07
ff
ff
0c
f6
e1
0f
0b
03
fd
f3
f5
f9
01
fc
f2
02
fc
fa
0b
f8
0b
0e
0b
09
00
05
fd
ed
fa
ec
f5
f5
03
00
02
fe
fe
fd
03
f6
01
f8
0b
ed
fd
06
06
f5
11
fd
f8
f8
fa
07
f6
ef
05
07
00
03
fb
e6
f5
03
08
f7
0c
f5
f0
19
fd
0e
fb
fe
02
f9
17
fd
02
f7
f7
f8
f3
f4
ef
0c
ee
fd
0a
f2
f5
f9
00
05
f5
f6
f4
01
fc
f6
ec
10
02
fc
ee
0a
f7
0c
06
0d
09
f2
01
05
09
0c
0e
f6
07
fd
f4
08
01
f4
fe
f1
fd
07
01
fc
08
18
02
fd
f7
e1
03
01
08
e5
fb
08
00
f5
19
01
ec
1b
00
00
fc
04
fb
09
fe
02
09
f6
fa
11
10
04
f4
e9
ff
10
f8
06
ec
fa
0a
09
13
f7
ee
ea
03
18
08
08
0d
06
0e
f6
f1
07
f9
fa
f7
ff
f7
09
f7
15
0f
27
06
f9
f3
05
f2
fc
fe
f5
f7
f5
f6
f8
fb
10
f4
0f
02
fd
ee
18
00
0a
ee
05
01
fc
ed
fd
f8
03
f6
e5
f9
0d
fb
fb
f7
04
0e
15
16
f8
f8
f7
ec
0b
0d
f9
09
0c
fb
0a
fe
0e
fb
f8
02
f9
fd
0f
03
05
f3
24
fb
ef
eb
f3
f9
04
f8
f5
09
0f
fa
0f
1d
fb
f7
11
17
08
ff
0d
14
12
09
da
fb
ef
09
ee
08
03
0d
0f
0d
ff
09
f9
10
ec
01
fa
09
ed
ec
fd
0b
fd
02
12
0c
0f
06
fe
fa
0b
06
fe
03
01
f1
f6
f7
fe
07
05
fd
0b
06
01
02
fa
fb
fe
fb
f9
fe
00
03
f4
f7
f5
07
05
f2
f4
f9
01
f0
01
11
08
f0
f9
fa
02
06
ff
ed
12
04
f8
fc
0e
ea
08
0a
0d
fc
fd
0f
14
06
02
fb
f4
12
00
0a
09
07
ed
eb
13
12
fc
04
10
ff
10
f4
f4
e4
07
06
fb
f0
f9
e8
fa
f6
f3
f8
ff
fa
fc
f4
fd
02
0a
00
ff
f1
fa
fb
eb
e5
f3
07
07
06
fd
f6
06
03
09
f4
05
fb
f7
15
ec
0d
f2
fe
03
f0
0a
0e
14
f3
ea
fc
16
04
e8
05
fb
fa
fe
05
fb
06
08
f6
06
f5
f7
0f
fd
05
f9
01
fb
ff
07
06
f9
04
fc
ec
f6
16
13
0f
03
13
fc
04
00
0c
f3
f1
f9
fa
02
ef
0f
fe
02
0f
ef
f8
f1
ef
fa
f0
fa
0a
fc
f8
f6
08
0e
ff
f6
11
06
15
f1
02
fc
01
04
09
f9
0b
06
04
04
f9
ed
00
15
06
05
0d
f9
03
fe
03
13
07
10
08
f3
fa
00
f8
ff
ff
02
fa
f2
ed
f0
08
0b
f7
06
02
09
00
0e
f3
f9
0d
f3
f4
f0
00
09
02
fc
fa
0e
ef
fb
fe
fb
0c
0b
f8
e8
fa
02
fb
f4
01
e5
08
17
03
f9
07
f9
06
f9
fc
08
0a
fd
05
fc
03
01
fc
f0
0d
0a
0a
0d
0c
03
f9
0f
00
ec
f3
f7
0b
09
0e
01
0e
01
f6
0d
03
f4
f1
0e
12
15
fe
05
02
ed
f8
f8
f3
f2
ea
f8
06
08
10
fd
0c
f9
09
13
fc
f2
19
0e
ff
07
05
00
f2
00
02
f3
02
02
0e
f3
0c
f0
03
f9
fe
0a
09
f8
f9
fb
fc
03
16
19
0a
f6
fe
01
07
fc
ed
12
09
f5
fc
1e
06
f8
ee
fa
02
0f
0f
f7
07
f2
06
09
00
00
0b
01
07
ec
05
f2
0c
00
0c
ef
02
fd
0b
ff
06
eb
09
1c
0a
fc
06
f6
fd
fb
01
00
fc
05
12
f0
f6
0c
00
08
f5
eb
03
fc
05
0a
0c
02
f9
fc
09
fe
04
11
f2
f2
05
0c
f8
e7
fc
07
09
0a
08
09
02
f4
08
f6
fa
03
f8
05
04
f3
fe
f2
f2
07
16
0f
1a
06
fb
06
fc
06
f1
00
ea
02
03
06
07
07
fa
04
01
f6
f6
13
fd
16
f6
14
fe
00
f9
01
0b
01
0a
0b
05
08
f9
0d
f4
01
fd
fd
0e
fc
fd
fa
f0
04
fb
06
ef
07
fc
ff
f1
f9
f9
10
08
04
0c
fe
f0
fb
03
fc
f3
16
12
fb
11
f2
09
18
06
0f
0d
f5
fb
02
ee
ef
06
05
05
fc
07
1b
06
fe
fe
f1
f9
fa
f7
ff
ff
ff
fa
fc
15
ed
ff
fb
07
01
f9
f9
07
04
05
17
04
ef
06
03
fc
fb
1b
f7
08
f0
f1
04
20
f1
02
e0
ee
0d
fe
e6
ec
00
01
fb
0b
fb
f1
05
ed
fa
0c
e9
fd
13
06
ee
06
f3
f7
04
06
0d
f7
0a
fc
01
01
fd
00
fc
f9
fa
07
ec
08
fe
0d
0f
fc
17
f1
ff
fb
1d
f9
f4
06
15
fd
0a
0d
f2
00
19
07
f1
04
f3
fd
ea
e7
1a
f8
fd
fa
03
fd
0c
0c
e4
15
e8
f3
06
13
f3
f4
f7
09
eb
01
09
ed
1c
eb
f8
07
07
13
fa
ea
02
ee
fc
0b
05
06
ff
02
0f
02
f3
0f
01
f1
16
0d
f1
fd
06
f4
ec
13
ec
f5
f3
08
16
05
ea
09
07
f1
eb
fa
17
e6
e8
fe
fc
0e
fe
e8
04
fc
03
f9
0c
f7
fd
f2
11
04
f4
e8
06
03
09
fa
eb
f7
fa
11
eb
f6
fc
f1
ff
02
fd
09
0f
f7
03
f3
0f
05
e9
fa
fc
15
f7
02
17
0a
04
fe
18
f3
01
1b
06
0b
fa
fc
00
08
f7
0f
fc
fb
03
04
0b
1f
04
0b
ef
23
fb
ec
05
f4
fe
02
fe
f8
f0
0a
fe
fc
eb
fd
fa
12
f9
ed
fa
f0
04
fe
0b
fd
11
05
f6
08
f0
fd
02
05
08
03
00
0d
01
f4
11
09
11
ff
06
0a
05
03
fd
01
fa
f7
f8
ff
04
14
f6
fb
02
0c
0a
03
f5
f8
0c
fc
01
f1
11
f1
09
fc
fe
f9
ff
0a
08
00
00
f7
0d
fd
fc
05
fd
f7
fa
04
fe
f9
f8
ff
01
0a
05
f6
02
02
0a
f0
01
f8
15
01
05
f8
10
f6
08
07
03
07
f6
04
02
f6
e9
fb
07
07
04
ed
08
ff
fd
05
f7
03
02
02
f8
fd
01
fd
0c
ef
f3
05
ef
ff
fe
07
fe
ef
17
ec
0f
fc
0b
ef
fd
07
0a
03
0c
03
fa
f9
f5
fd
eb
ee
07
f4
f6
0c
f7
03
f9
0c
0f
ee
e1
0a
13
f7
fb
f8
f9
f3
e8
fd
ff
07
11
f8
ff
f3
1b
05
f8
fe
13
01
ff
03
e6
06
f5
01
04
f6
0b
07
fd
02
08
0a
fb
07
1f
f8
ed
01
ff
ff
fb
ff
18
1e
f9
fc
0e
f6
f3
df
eb
fe
f9
18
0a
02
f0
0b
f0
14
00
00
10
0a
0a
ee
ef
03
f8
08
0c
18
ec
ea
05
f9
00
05
f7
0e
ff
fa
f8
01
f4
fc
ff
0c
0f
11
19
e1
ef
f6
fd
00
f5
f8
f9
0e
03
f9
04
f9
ed
e3
f8
0c
0b
fd
04
01
f4
02
06
e7
fb
08
f7
f8
08
08
11
f4
05
03
05
f9
ec
fe
03
f9
17
f6
01
09
07
fe
01
03
06
07
09
01
07
fe
f1
f8
fc
01
0e
fe
f1
f7
f1
02
fd
07
fe
f1
08
00
fe
00
07
fa
ef
fc
f7
fa
09
fc
f0
f8
01
03
f6
12
f3
fb
02
fa
0c
02
fb
00
0f
0e
f0
13
02
e2
f9
f2
00
05
f0
18
fc
00
08
f1
f9
e4
01
ed
06
ee
f5
ef
01
fe
f8
f8
0a
04
fb
07
00
15
00
fd
00
fb
08
09
f9
12
f5
0c
07
03
05
17
07
fe
0a
01
05
fb
ee
0a
fd
04
13
03
ef
fc
16
f4
16
f5
f6
02
18
fd
12
11
fd
ed
fd
08
11
fe
19
ed
07
f6
ea
ff
fe
04
ff
06
f6
02
f4
09
fa
15
0e
fe
08
fb
f6
04
01
fc
01
f1
f0
0b
00
ff
02
0c
fa
04
f9
08
08
fa
ef
07
ff
ff
ff
06
ef
11
f6
ef
fe
05
fb
02
02
03
03
fc
02
13
03
0d
fe
fa
02
08
00
06
07
0f
07
06
f7
05
00
0a
fc
eb
f9
fa
f3
08
08
00
07
01
01
0c
fd
02
18
01
13
f8
f6
02
ed
06
f3
01
04
09
fc
f2
13
f2
fd
0e
02
ec
10
fe
f8
fc
f2
f6
07
00
03
03
1c
f9
ff
ee
e7
14
03
ff
f1
e7
05
00
ef
ed
fd
02
fb
0d
07
09
f1
f4
1a
16
fa
f2
07
ed
e5
0b
02
02
10
02
e0
07
ed
05
07
f9
01
09
09
02
0d
03
01
f4
f2
17
ef
0f
db
05
f6
f2
18
08
09
08
e0
0c
07
00
02
04
12
eb
fd
01
f5
02
ea
f1
01
00
f7
0e
00
ed
0d
00
0b
00
f8
14
f6
e8
fe
f9
0b
03
05
0f
07
f3
18
06
f9
ec
06
00
00
f6
f6
ee
13
00
10
07
05
f0
fc
06
f3
fe
08
0c
01
01
f1
05
0a
ef
0b
fa
ff
f0
09
06
fd
0a
0b
fa
04
ff
08
02
0a
f9
04
0a
00
f1
05
11
fe
fc
ff
ec
fe
02
0a
0b
14
f5
08
fc
ee
04
f6
f8
fc
f3
03
0b
03
05
fc
0b
f1
f8
01
03
f3
ef
fe
05
03
ff
04
f8
09
05
f5
fc
04
fb
00
f3
fe
0b
16
08
01
f8
fc
fe
00
f5
0d
08
03
0b
11
0a
0c
ff
06
f9
0e
fb
08
f3
fd
15
01
ec
f6
f9
05
ff
0b
1b
00
f9
ff
fa
0f
01
fc
f0
01
fb
fd
f1
05
fc
03
08
fd
ef
05
ee
08
07
fe
01
fc
fe
0b
06
0f
f2
06
fc
05
fc
10
03
13
09
0e
03
f6
03
0c
f6
05
00
ef
12
01
fd
10
05
f7
06
10
fa
fe
f6
03
f9
f4
05
f7
0a
06
03
f8
ff
ff
11
05
05
08
06
05
00
00
08
fd
03
fb
fb
00
06
03
11
0a
10
00
f2
fc
02
08
02
0e
f4
03
04
f2
0f
f7
06
fe
04
fb
13
04
06
16
14
f6
00
f2
02
01
f6
07
00
01
01
05
ff
fe
09
fa
03
00
0a
fd
f6
09
03
00
08
0c
06
f3
02
0c
f7
06
fa
f0
fe
03
ff
01
05
fc
f5
fe
ff
00
00
f5
f0
ef
02
ec
12
ff
f6
fb
01
f5
17
f8
fb
eb
10
16
09
02
f5
15
ea
f2
fb
fa
e7
fa
e8
ff
0a
04
ff
04
04
05
04
fb
f4
02
f9
14
fa
04
f9
f2
f4
0c
0d
1a
08
0c
fd
01
f3
0d
15
f9
f7
fd
04
03
f5
0c
13
f8
f7
f1
09
02
0a
06
06
e9
02
fb
03
03
08
f2
06
f6
15
04
04
02
f2
07
f2
f7
09
05
08
fa
00
fb
fa
f9
03
f3
ef
0b
fb
04
05
07
fe
fd
04
fa
0c
00
03
f0
eb
05
f5
05
f4
fe
03
0a
09
f3
f4
f5
f1
02
07
01
f6
f7
0c
02
05
ef
14
11
02
fc
0b
0d
0a
02
f2
06
05
de
05
00
f6
05
f3
09
fb
0b
10
01
e7
fa
fd
04
03
ec
06
ee
02
fd
00
f6
09
04
0b
f0
f4
0b
fa
0e
f7
08
03
05
fd
04
0a
13
fc
fe
02
07
e6
02
10
03
fb
fb
ec
00
07
fd
f9
05
f6
02
ed
02
05
ff
17
fc
fb
04
17
f5
09
00
f8
f9
03
fc
f6
f5
fb
10
fe
0e
f3
01
f9
fd
00
f0
fc
f7
0d
01
fc
e5
0c
03
f6
fc
f7
0b
ff
f7
f9
04
ef
ef
fe
f6
f6
fb
01
09
0c
14
ff
fc
fd
fa
f3
f1
0a
01
f9
03
11
ff
ff
fc
f7
ff
16
fb
f9
0e
fc
19
f8
04
ed
0c
1a
e9
fe
04
06
fb
0c
ee
f7
07
06
01
f2
04
db
fa
ee
fe
f2
12
09
22
0a
f2
02
ea
fd
04
03
fb
13
06
04
0f
09
fa
f9
0a
08
02
fa
08
13
fe
0e
f5
06
fd
05
f8
f7
09
08
fa
fa
03
f8
ec
08
f5
f3
fe
fd
06
fa
00
f4
fe
0b
02
13
ed
07
01
11
0a
01
06
0f
18
ff
fd
f3
0c
05
05
f3
05
f9
f8
03
ff
03
03
0e
17
f4
03
fe
02
fa
03
fd
e8
fd
e3
14
ff
ff
01
fc
12
0a
fb
f4
08
05
1a
02
09
f9
11
fb
0e
01
ec
fe
11
01
04
00
11
ff
19
02
04
f2
ff
05
0b
f6
00
02
f0
06
fb
05
05
1a
13
f8
0a
00
15
f2
04
f7
0b
00
f2
10
03
00
14
fd
03
fb
07
04
ea
02
08
01
08
ea
04
04
f8
09
fe
09
04
fb
e7
f7
fc
f1
ff
fc
12
f4
fe
05
f9
f7
00
02
03
03
fc
fe
03
ff
fd
f0
07
fe
f0
fe
f4
ff
08
f4
13
fc
10
f0
15
f1
f8
f3
13
0c
0e
03
0c
f8
0d
ec
01
09
10
03
00
0a
08
02
f3
fa
18
04
f9
05
fd
0c
f3
e7
fe
f6
fa
fe
fe
f9
fc
f3
fe
ed
f3
06
f5
06
f5
f9
10
0b
01
13
f6
f0
f3
f1
02
e2
02
f9
ff
02
fc
eb
05
04
00
fb
06
fc
fc
0b
f9
0c
04
0e
ff
f3
03
09
13
fc
07
0b
f1
fe
fb
0a
16
04
f3
ff
01
01
02
f8
0a
07
15
00
05
fb
f1
fe
fe
f0
0e
fb
13
ee
f5
f7
f7
ff
04
07
0f
00
05
00
12
05
05
f6
fe
ee
01
fd
02
03
fc
ff
01
03
e9
f8
02
16
01
13
09
0b
fb
fd
fc
06
f9
fa
1a
06
ff
0e
09
f9
fb
10
fa
fa
13
09
f9
fc
f8
f9
0b
02
02
06
f8
f2
02
10
10
01
16
05
f7
fd
fe
f7
fe
fd
f8
e9
ef
07
02
05
ff
fe
e9
00
0a
04
00
01
01
0e
16
e8
f3
f4
02
fa
01
03
fa
f5
f8
0c
08
fc
f6
ea
13
f8
fd
02
f6
fe
ea
01
ee
06
f2
ff
06
f6
fc
09
fa
01
04
04
fe
01
09
ea
0e
ff
02
09
02
05
02
ff
f5
13
f3
09
fb
ee
ff
ec
fc
04
07
01
0d
ff
0d
0c
0a
fd
fe
0b
05
02
0c
f7
f9
f9
f3
f7
ea
0c
ef
f4
f4
ef
f7
10
f2
0b
ef
f7
0e
00
f6
f1
11
fc
fc
14
0b
fa
05
fe
f3
f6
f7
03
f8
21
03
fc
fa
05
f8
0d
fc
fb
00
15
fc
00
07
ff
f6
02
03
07
11
0d
ff
13
08
ee
0c
f6
12
07
f0
fe
06
03
0d
00
0f
fe
0e
f8
18
03
03
fe
12
03
00
fd
0c
f0
04
04
02
05
f1
0b
10
15
ed
08
06
f4
fc
fe
f3
f6
04
07
f7
03
09
01
e8
f8
e9
05
ff
0b
0b
09
fc
06
f7
14
e6
07
02
06
fe
0d
02
fe
06
07
f0
00
0d
fb
08
f1
09
08
fd
fb
03
0d
0a
0b
f8
0c
00
05
00
0a
03
f2
f5
f3
fa
ef
18
1f
02
0a
0c
fe
07
13
10
f9
07
0d
fc
02
f9
14
0e
f6
12
ef
f8
10
ff
05
f3
fd
06
12
f6
f8
18
02
ed
16
04
fa
0c
0c
13
fe
f7
ec
ec
0a
eb
01
00
0c
ff
ee
ec
f3
fe
fc
fc
fb
08
05
19
f5
17
eb
05
f7
ee
0d
f9
1a
f4
f2
fc
e8
01
f1
09
02
17
f8
10
ee
ef
0c
ec
01
f5
eb
03
ff
fb
ee
fa
0b
0e
fe
fd
05
03
f3
ed
05
f8
ea
f4
ef
f3
fd
1e
07
07
0a
0f
fc
f6
0b
f8
ef
01
ff
fc
19
09
ff
fd
11
f5
09
06
02
06
f1
0c
05
f9
f9
00
18
16
ef
f0
08
05
02
02
eb
01
e6
f1
0c
f7
fb
f9
f8
f8
01
02
0e
01
08
05
05
f1
f8
f0
f3
00
05
fb
f8
08
0d
01
f4
ff
15
1c
f6
f8
11
fd
f1
02
fd
06
03
fd
0c
f7
08
fb
06
02
fa
0f
07
09
03
07
fc
0a
f5
ff
0f
05
06
f5
0a
08
ff
1b
fe
07
10
09
ed
fd
ff
04
fd
20
fd
f9
f8
0f
1b
f7
fa
09
fd
fb
fa
fd
07
0c
0a
fd
ee
f5
f9
15
05
07
fb
fe
04
fe
01
f7
17
ff
03
0f
04
06
06
f4
03
05
02
f9
fb
0a
f0
f8
fa
fb
0b
12
01
f7
01
15
06
00
f9
0d
05
02
f6
0d
fe
f2
fe
07
0c
f9
13
03
f7
11
09
f6
09
f7
f0
fb
09
fa
f7
01
ef
f1
f5
1a
03
01
0b
08
fa
00
02
f9
0e
ee
f9
0c
06
f6
fe
11
05
0b
0a
fe
fa
f8
04
05
04
fe
f9
06
fd
08
0a
f5
fb
fd
f9
0b
10
f6
fb
03
12
fe
02
f9
0c
fd
fe
00
04
01
f0
f4
10
0a
0a
fe
ff
08
ef
0b
ed
fb
f6
10
21
ea
f5
04
fb
05
07
0a
08
ff
eb
09
f4
f5
fb
10
02
06
fd
ed
11
00
17
09
fe
ff
0b
f5
0f
f5
fa
f5
e8
fd
09
23
10
f3
ee
fc
01
09
fa
11
0e
fb
00
fe
f2
14
07
fe
08
f1
14
0a
f2
fb
ff
fa
0d
f8
0d
03
ef
f6
f6
f8
f9
f2
f3
fc
0e
09
fc
00
eb
fa
f1
01
f4
02
ec
fd
01
00
ff
f0
ec
fc
fb
e8
02
14
f5
16
fe
ff
fb
e8
f5
fa
10
07
08
02
01
03
00
02
14
fe
0a
f8
fe
f0
fd
00
04
03
03
1c
18
f1
0c
08
fe
04
ef
ed
f5
eb
0f
fe
15
fd
07
00
f2
0e
e7
fc
fd
09
fc
f2
04
ed
f2
f7
f2
11
12
0b
f7
0e
19
1a
f1
01
f1
06
fd
f5
06
e7
04
e5
ef
f4
fd
08
02
0a
e5
0a
15
16
f8
00
0e
03
07
23
0d
00
ff
05
fb
0c
12
06
1f
f6
ff
07
07
de
f7
03
05
04
0c
01
f7
02
f9
0e
05
e9
0c
06
05
e0
09
f9
fb
03
ff
e5
07
00
05
0a
fe
04
f7
f5
f1
07
06
ee
03
19
0a
1d
f9
fb
13
ff
03
04
0f
0c
e1
f5
ef
1b
f7
01
fe
f0
09
ef
d9
f1
05
1d
f3
e3
0b
09
fc
f6
04
fd
ff
01
0a
01
f7
f6
04
03
09
08
0b
07
0f
03
f7
fa
07
f6
02
e1
04
09
0e
ea
de
fa
f3
f7
02
05
ec
07
00
0d
10
02
12
eb
0a
29
07
00
ea
f2
18
ee
f6
0f
01
ff
ed
f0
f9
f3
fb
0a
01
02
f6
1c
00
e2
19
0a
fc
fc
0b
12
09
10
e3
fe
0b
fe
14
00
04
00
0a
0b
f1
ff
0d
07
03
ed
ed
09
08
06
f5
0e
ef
ec
03
fb
fa
fa
01
07
f3
07
f9
07
01
08
03
0e
08
08
08
09
07
fe
09
f8
f9
05
09
08
00
08
f0
03
fd
f1
05
03
19
fe
f4
f2
f6
13
0e
f3
14
03
01
f6
0b
09
f9
1a
fe
f9
08
09
ff
05
f3
08
e7
f0
0f
02
0e
f1
f7
f7
fc
02
f2
01
03
fd
fb
09
03
fb
07
08
ea
07
07
07
0b
f9
fa
e9
02
14
f3
09
05
09
09
f9
fc
f6
f1
27
05
f4
fb
0a
f7
f5
05
00
fe
f5
05
fc
f9
02
f6
fb
0b
02
f7
0e
0b
0b
f4
05
00
f9
fa
0a
12
fa
12
0b
12
ef
0f
06
fe
fa
00
fc
fb
f8
08
fd
f4
f5
00
1e
0e
04
13
fd
08
fe
0c
06
fa
ee
1b
09
04
f7
ee
0b
0b
f1
11
03
fa
fa
e8
f4
f9
fc
f7
10
01
f1
ff
df
0d
f7
02
ee
f2
18
e1
da
0e
fa
f8
ef
10
fb
11
0f
09
02
f7
08
f3
0d
18
01
ef
fd
fc
13
10
06
05
0e
fc
fb
f3
0f
0d
0c
fc
01
03
f8
02
f2
ff
07
0a
0a
f4
09
0d
12
06
df
f0
06
fc
f7
f4
f0
fa
fc
ff
0a
03
0b
21
16
00
f7
02
01
08
ff
00
fd
db
f5
01
0f
ef
00
0b
0e
03
f8
ff
ec
e7
0a
01
ed
f8
05
0c
fd
00
f0
0f
11
0f
f8
16
f8
f9
ec
18
0c
fa
fe
00
08
fc
f9
e4
f0
fb
06
f0
0b
0c
0d
0e
ff
05
f8
e6
09
ff
df
10
0d
fd
09
06
ef
03
05
02
13
11
fd
14
0f
f6
f6
fc
00
f5
02
0d
06
03
14
0a
f8
15
07
0f
fd
f2
e5
e4
e0
05
fd
fa
e1
eb
02
1a
0f
f2
f6
fb
fb
fa
ff
d7
0c
12
1c
08
fe
00
02
00
f4
22
01
10
fb
04
01
07
0a
e5
0c
ef
f5
fa
fd
f5
f9
02
04
1b
12
ee
01
12
f7
ee
fd
18
fa
08
f0
05
0c
03
f6
fc
1c
08
18
f4
fe
f9
f2
00
00
ee
fe
04
12
01
0a
08
fd
f3
fd
01
10
0d
02
ff
0f
f9
18
0d
e8
f6
f9
07
f2
15
fc
03
11
0f
f7
fc
07
00
fb
f1
fa
e3
07
09
f7
f5
f3
00
ed
03
0b
0d
02
04
08
f4
11
04
ea
f7
0e
02
0d
f3
06
04
02
f4
ff
0e
f6
10
f1
fe
f1
08
00
03
f3
11
00
fb
f1
f4
fb
17
07
fc
05
0f
f8
05
fa
f6
0d
09
fd
07
02
08
09
04
0e
fe
ef
fb
f5
16
fc
ff
0e
02
fc
0a
02
f1
ff
09
05
f1
04
12
0d
03
02
fd
ec
0e
09
f6
fb
fe
f5
ea
ec
f8
fb
06
f5
fe
fc
ef
f4
02
ff
f4
fa
f1
01
fc
fa
f7
02
06
07
fe
04
09
fb
05
0b
f3
12
f1
07
f9
f9
00
e6
ff
f5
f3
07
fc
01
f5
00
ed
0b
f1
08
0f
f6
fb
fb
fa
1a
0e
04
f8
09
09
fa
03
ec
fb
11
f6
06
fd
f7
05
f2
fd
00
f3
fd
07
08
fa
fd
00
f5
02
02
fc
05
06
fa
06
f5
1d
0a
0c
0f
fa
0a
fc
e4
fe
ec
fa
00
02
f4
fa
07
09
fe
f7
fe
05
04
19
06
00
0e
02
04
0f
01
06
01
10
fd
f6
04
fe
fa
fa
03
00
00
05
f4
f7
0c
06
f3
f6
ff
01
02
13
00
06
fc
06
ea
f8
f4
0c
f7
fd
f3
03
fd
fe
fa
12
f3
06
0f
0f
03
f5
f8
f9
06
fc
ff
f7
05
06
fd
fb
fc
f2
01
01
0d
03
05
0a
ec
fb
05
0b
0a
e4
fc
fd
0d
0e
0f
fb
ee
0f
14
fc
08
09
f2
05
0d
f9
01
01
03
fe
ff
f9
fc
10
01
04
16
e8
00
ff
05
15
01
0d
07
04
04
07
08
00
00
f8
06
f9
14
05
03
0e
fc
06
00
03
09
e8
fb
04
f2
18
0a
00
0e
f2
fe
eb
05
fe
ed
0c
fb
12
f3
04
fb
f3
00
02
01
f4
04
0a
f7
15
06
e7
0a
0e
fd
06
f8
f4
f9
05
ea
fb
02
0a
04
04
0b
0b
00
0c
ee
e9
ff
f7
fe
03
fb
ef
04
17
f3
f5
fa
0d
e8
f2
f8
f9
08
ff
0e
e6
f1
04
16
01
fd
fb
10
04
e8
02
08
00
06
fc
fe
0c
f5
f0
05
f4
09
03
01
fd
f8
01
01
f1
f4
01
0f
fe
f3
f4
f9
1e
ff
18
f6
f7
03
ec
06
03
08
08
e7
f3
03
ff
0c
08
f8
fc
08
05
f9
f8
ef
14
05
12
03
03
fd
f0
fc
ec
11
03
ff
ff
fc
ec
01
fd
fd
fc
01
08
07
f6
0c
0d
0f
0b
e7
fb
02
07
0c
f4
fb
f6
07
ed
fe
0a
03
f7
06
0b
0b
f5
04
02
07
f6
06
eb
14
02
f9
ff
10
09
ed
06
08
fa
08
15
fb
f0
f1
07
00
04
01
0e
08
fe
fe
0b
1a
0f
0a
06
12
01
04
03
fa
fd
fa
01
0a
fa
f6
0c
ff
f4
fb
04
f8
f1
fa
f1
ea
02
f6
ef
fb
19
07
0e
04
0a
fc
0e
08
fd
f5
fc
f3
f4
0a
f9
05
